{"<s>":0,"<pad>":1,"</s>":2,"<unk>":3,"<mask>":4,"!":5,"\"":6,"#":7,"$":8,"%":9,"&":10,"'":11,"(":12,")":13,"*":14,"+":15,",":16,"-":17,".":18,"/":19,"0":20,"1":21,"2":22,"3":23,"4":24,"5":25,"6":26,"7":27,"8":28,"9":29,":":30,";":31,"<":32,"=":33,">":34,"?":35,"@":36,"A":37,"B":38,"C":39,"D":40,"E":41,"F":42,"G":43,"H":44,"I":45,"J":46,"K":47,"L":48,"M":49,"N":50,"O":51,"P":52,"Q":53,"R":54,"S":55,"T":56,"U":57,"V":58,"W":59,"X":60,"Y":61,"Z":62,"[":63,"\\":64,"]":65,"^":66,"_":67,"`":68,"a":69,"b":70,"c":71,"d":72,"e":73,"f":74,"g":75,"h":76,"i":77,"j":78,"k":79,"l":80,"m":81,"n":82,"o":83,"p":84,"q":85,"r":86,"s":87,"t":88,"u":89,"v":90,"w":91,"x":92,"y":93,"z":94,"{":95,"|":96,"}":97,"~":98,"¡":99,"¢":100,"£":101,"¤":102,"¥":103,"¦":104,"§":105,"¨":106,"©":107,"ª":108,"«":109,"¬":110,"®":111,"¯":112,"°":113,"±":114,"²":115,"³":116,"´":117,"µ":118,"¶":119,"·":120,"¸":121,"¹":122,"º":123,"»":124,"¼":125,"½":126,"¾":127,"¿":128,"Â":129,"Ã":130,"Ä":131,"Å":132,"Æ":133,"Ç":134,"È":135,"É":136,"Ê":137,"Ë":138,"Ì":139,"Í":140,"Î":141,"Ï":142,"Ð":143,"Ñ":144,"Ò":145,"Ó":146,"Ô":147,"Õ":148,"Ö":149,"×":150,"Ø":151,"Ù":152,"Ú":153,"Û":154,"Ü":155,"Ý":156,"Þ":157,"ß":158,"à":159,"á":160,"â":161,"ã":162,"ä":163,"å":164,"æ":165,"ç":166,"è":167,"é":168,"ê":169,"ë":170,"ì":171,"í":172,"î":173,"ï":174,"ð":175,"ó":176,"ô":177,"Ġ":178,"ġ":179,"Ģ":180,"ģ":181,"Ĥ":182,"ĥ":183,"Ħ":184,"ħ":185,"Ĩ":186,"ĩ":187,"Ī":188,"ī":189,"Ĭ":190,"ĭ":191,"Į":192,"į":193,"İ":194,"ı":195,"Ĳ":196,"ĳ":197,"Ĵ":198,"ĵ":199,"Ķ":200,"ķ":201,"ĸ":202,"Ĺ":203,"ĺ":204,"Ļ":205,"ļ":206,"Ľ":207,"ľ":208,"Ŀ":209,"ŀ":210,"Ł":211,"ł":212,"Ń":213,"ãĥ":214,"ãĤ":215,"ãģ":216,"==":217,"Ġ==":218,"''":219,"ãĥ¼":220,"å¹":221,"Ġå":222,"æľ":223,"Ġ1":224,"ãĢ":225,"Ġ*":226,"å¹´":227,"ãĥ³":228,"20":229,"Ġæ":230,"Ġãĥ":231,"Ĺ¥":232,"ĠãĤ":233,"ä¸":234,"æľĪ":235,"æĹ¥":236,"ãĥ»":237,"Ġ===":238,"'''":239,"ãģ®":240,"Ġç":241,"ãĥ«":242,"ãĤ¹":243,"Ġ20":244,"äº":245,"çĶ":246,"ãĥ¼ãĥ":247,"Ġ(":248,"Ġé":249,"ãĤ¤":250,"Ġ19":251,"ãĥª":252,"Ġ**":253,"Ġè":254,"åŃ":255,"ãĥ©":256,"ãĥĪ":257,"å¤":258,"ãĤ¯":259,"ãĥĥ":260,"ä½":261,"åı":262,"éĥ":263,"åħ":264,"ãĤ¢":265,"Ġ2":266,"Ġ'''":267,"19":268,"ãĢģ":269,"å®":270,"ãĥ¼ãĤ":271,"ãĥ¬":272,"er":273,"ãĥ³ãĥ":274,"Ġãģ":275,"Ġ201":276,"åĽ":277,"ĠS":278,"éĢ":279,"ãĥ³ãĤ":280,"æĿ":281,"ä»":282,"Ġ200":283,"å·":284,"å±":285,"Ġ3":286,"an":287,"in":288,"å¸":289,"ãĢĤ":290,"on":291,"ãĤ£":292,"åĲ":293,"åŃ¦":294,"æĪ":295,"Ġ:":296,"æĸ":297,"éģ":298,"æľ¬":299,"00":300,"ãĥŃ":301,"ãĤ·":302,"éĩ":303,"çĶ°":304,"¬¬":305,"æĽ":306,"åĪ":307,"Ġå¤":308,"Ġä¸":309,"ĠC":310,"å¤§":311,"ä¼":312,"ĠM":313,"Ġ4":314,"ĠT":315,"äºº":316,"ãĤ¿":317,"ãĥķ":318,"åº":319,"æŃ":320,"ĠãĢ":321,"æĺ":322,"éĸ":323,"éĥ¨":324,"ar":325,"çĽ":326,"ãĥĨ":327,"åŃĲ":328,"åľ":329,"ç·":330,"è¡":331,"Ġ''":332,"en":333,"ĠA":334,"çľ":335,"or":336,"ãĥī":337,"ĠB":338,"ãģĦ":339,"ãĥŀ":340,"10":341,"ãĤ«":342,"ãĥ£":343,"å¸Ĥ":344,"æī":345,"ãĤĭ":346,"æ³":347,"ãĤ¸":348,"ä½ľ":349,"å°":350,"ãģ¨":351,"æł":352,"Ġ5":353,"ĠP":354,"åĮ":355,"åĭ":356,"he":357,"Ġ====":358,"at":359,"Ġ199":360,"åį":361,"ä¸Ģ":362,"ĠL":363,"Ġ#":364,"es":365,"ãĢı":366,"ãĢį":367,"ãĥĵ":368,"Ġç¬¬":369,"çī":370,"åł":371,"al":372,"å±±":373,"ãĥ¥":374,"ãĤ¦":375,"æķ":376,"ãĤ³":377,"ãĥĲ":378,"ĠD":379,"ãģĹ":380,"ĠF":381,"ç«":382,"12":383,"è¦":384,"ãĥĭ":385,"ãĤª":386,"ĠR":387,"ãĥł":388,"ãģª":389,"ä¹":390,"ç§":391,"éĽ":392,"ãģ«":393,"å·Ŀ":394,"ĩº":395,"è¨":396,"Ġ6":397,"11":398,"ãĥĸ":399,"ãĤĬ":400,"ãģŁ":401,"æµ":402,"è©":403,"èª":404,"ĠI":405,"ãĥĬ":406,"æ²":407,"ãĥĩ":408,"çľĮ":409,"ĠãĤ¢":410,"ä¿":411,"ä¼ļ":412,"ĠæĿ":413,"ãĤ§":414,"ĠG":415,"ç¾":416,"èĢ":417,"å½":418,"«ĺ":419,"ãĥĹ":420,"it":421,"ic":422,"æ°":423,"çµ":424,"å¼":425,"ãģĭ":426,"éģĵ":427,"å¥":428,"éĩİ":429,"ä¸Ń":430,"ãĥ¼ãĥ«":431,"æĶ":432,"200":433,"å¹³":434,"ĠN":435,"åĽŀ":436,"is":437,"ç¤":438,"ãĤµ":439,"æ¥":440,"Ġ;":441,"ãĤŃ":442,"ãĤ¨":443,"ãĥ¡":444,"çĽ®":445,"Ġt":446,"Ġ7":447,"ĠH":448,"éĻ":449,"é§":450,"Ġ10":451,"æĻ":452,"ãĤĵ":453,"âĢ":454,"åĵ":455,"ãĥĥãĤ¯":456,"ä½į":457,"ãģ¯":458,"æĪĲ":459,"å³":460,"Ġåħ":461,"å¯":462,"ĴĮ":463,"ķ·":464,"le":465,"æł¡":466,"Ł³":467,"ãĥģ":468,"åĬ":469,"ãĥ§":470,"ãĥŁ":471,"æĽ²":472,"åĽ½":473,"çķ":474,"æĿĳ":475,"å£":476,"ĠW":477,"ç¤¾":478,"ç´":479,"é§ħ":480,"è³":481,"Ġå¤§":482,"Ġ9":483,"éł":484,"ç¥":485,"åĨ":486,"è»":487,"æĸĩ":488,"18":489,"Ġ8":490,"åĴĮ":491,"å³¶":492,"åł´":493,"å¾":494,"ãĥ³ãĤ¯":495,"çĻ":496,"Ġ198":497,"İŁ":498,"ĠE":499,"ãĤī":500,"ãĢĮ":501,"çĶº":502,"ĠJ":503,"15":504,"ãģį":505,"ãĤ¹ãĥĪ":506,"ãĢİ":507,"ãĤ¡":508,"ou":509,"of":510,"ĠãĢİ":511,"ä»£":512,"æľ¨":513,"åĩº":514,"ç·ļ":515,"ãģĨ":516,"re":517,"ol":518,"¼Ķ":519,"åī":520,"Ġ12":521,"åĲį":522,"ãĤĴ":523,"Ħļ":524,"äº¬":525,"éĢ£":526,"16":527,"ãĥ³ãĤ°":528,"ãģ¾":529,"13":530,"ĠO":531,"å²":532,"st":533,"ãģķ":534,"ãģĮ":535,"et":536,"Ġ18":537,"ç«ĭ":538,"14":539,"Ġãĥķ":540,"Ġ0":541,"æ´":542,"Ĺ¤":543,"æ©":544,"Ġof":545,"åŁ":546,"ãĥĥãĥĪ":547,"åľ°":548,"é«ĺ":549,"æĪ¦":550,"30":551,"æīĭ":552,"éķ·":553,"17":554,"Ġ:*":555,"ãģ¿":556,"éļ":557,"ãĤ°":558,"åİŁ":559,"ion":560,"Ġéĸ":561,"æĿ±":562,"ãģ¦":563,"Ġåı":564,"çĶŁ":565,"åı·":566,"Ġ.":567,"el":568,"æ¸":569,"ãģ§":570,"ç¬¬":571,"äºķ":572,"ä¸Ĭ":573,"ĠãĤ¹":574,"ãĥ¬ãĥĵ":575,"om":576,"ãĥªãĥ³ãĤ¯":577,"åŃ¦æł¡":578,"æ³¨":579,"¥¿":580,"çĲ":581,"ãĥĳ":582,"ĸéĥ¨":583,"ãĤĮ":584,"Ġå°":585,"ãĥ¼ãĤº":586,"éĸĵ":587,"ĸéĥ¨ãĥªãĥ³ãĤ¯":588,"ãĥĢ":589,"ĠæĹ¥":590,"ing":591,"and":592,"ç¾İ":593,"ãĥı":594,"ãĥ¼ãĥī":595,"ĠèĦļ":596,"Ġå®":597,"å¿":598,"è¡Į":599,"ĠK":600,"25":601,"ãģ¡":602,"ĠãĢĮ":603,"éĿ":604,"il":605,"æ¼Ķ":606,"ãģĻ":607,"æīĢ":608,"ĠV":609,"Ġ197":610,"Ġæĸ":611,"éĥİ":612,"am":613,"ç©":614,"Ġ11":615,"å°ı":616,"ãĤ»":617,"è©±":618,"ch":619,"æĻĤ":620,"ãĥ¼ãĥĪ":621,"ĠæĿ±":622,"åĪĨ":623,"ãĥ¢":624,"ãĥİ":625,"çĶ»":626,"ĠåĲ":627,"ãģı":628,"as":629,"Ġå¤ĸéĥ¨ãĥªãĥ³ãĤ¯":630,"ãĥ¼ãĤ¹":631,"æ¥Ń":632,"199":633,"èĹ¤":634,"éĢģ":635,"åĲĪ":636,"ãĥ³ãĥī":637,"åĭĿ":638,"ĠèĦļæ³¨":639,"çİ":640,"ãģĤ":641,"åı£":642,"èĪ":643,"ãĤ¬":644,"ĠçĶ":645,"äºĭ":646,"Ħª":647,"æ¨":648,"Ġ::":649,"Ġéĸ¢":650,"ãĥ¼ãĥł":651,"èĢħ":652,"çī©":653,"ãĤº":654,"è£":655,"¾éĢģ":656,"ãĥ¯":657,"ä¸ī":658,"ãģĬ":659,"ãĤ¤ãĥĪ":660,"ãĥ³ãĥĪ":661,"Ġä¸Ń":662,"äºĮ":663,"ed":664,"Ġthe":665,"24":666,"ãĤ½":667,"ãĥĻ":668,"ãĥį":669,"å¥³":670,"Ġd":671,"Ġãĥŀ":672,"ãģĵ":673,"åĮº":674,"èī":675,"æ±":676,"æĸ°":677,"å´":678,"æĺİ":679,"é¤":680,"æĹ":681,"Ġf":682,"å¤§åŃ¦":683,"us":684,"22":685,"åħ¬":686,"æŀ":687,"æµ·":688,"Ġ15":689,"å¼ı":690,"ãĥªãĥ¼":691,"éģ¸":692,"åĨħ":693,"Ġå°ı":694,"ãĥ©ãĤ¤":695,"èŃ":696,"å¹³æĪĲ":697,"è³ŀ":698,"ra":699,"ĠU":700,"23":701,"å²¡":702,"Ġ196":703,"ro":704,"Ġ14":705,"ĠãĤ¸":706,"Ġ13":707,"ãĥĨãĤ£":708,"å®¶":709,"Ġåį":710,"ER":711,"ĠãĤ·":712,"ãĥ´":713,"ç·¨":714,"26":715,"IN":716,"°·":717,"ãģ¤":718,"å´İ":719,"ãĤĪ":720,"ãĥĦ":721,"åīį":722,"æķ°":723,"28":724,"è»Ĭ":725,"Ġ16":726,"27":727,"ãĤĤ":728,"Ġ-":729,"ĠæŃ":730,"âĢĵ":731,"¦ı":732,"Ġ***":733,"æĽ¸":734,"Ġ17":735,"21":736,"éłħ":737,"é¦":738,"é¤¨":739,"éĺ":740,"è·":741,"ãĤ¹ãĤ¿":742,"ç¥ŀ":743,"èĢĥ":744,"ĠæĹ¥æľ¬":745,"29":746,"ä½Ĳ":747,"Ġéĸ¢éĢ£":748,"æĹ¥æľ¬":749,"ãĤ±":750,"Ġå±":751,"æ²»":752,"th":753,"Ġæľ":754,"Ġæĺ":755,"çķª":756,"çĿ":757,"ãĥľ":758,"ĠãĤª":759,"Ġåĩº":760,"éłħçĽ®":761,"çīĪ":762,"èĬ":763,"AR":764,"çŃ":765,"ig":766,"èªŀ":767,"å®ļ":768,"æĢ":769,"éĢļ":770,"ãĤ©":771,"ãģ£":772,"åı²":773,"ĠãĤ¨":774,"ãĥĨãĥ¬ãĥĵ":775,"å¤ª":776,"åĦª":777,"åĵģ":778,"è°·":779,"æŃ£":780,"ent":781,"ĠåĽ":782,"åľĴ":783,"ãĥĿ":784,"ä¸ĭ":785,"çĻº":786,"Ġm":787,"çĲĨ":788,"è¥¿":789,"ç§ĳ":790,"è²":791,"ãĥ¼ãĤ¸":792,"ä¸ĸ":793,"æĽľ":794,"æ°´":795,"198":796,"èĳ":797,"ãĥ§ãĥ³":798,"Ġä½ľ":799,"åĳ":800,"ac":801,"Ġå±±":802,"éĥ½":803,"ãĥ³ãĤ¿":804,"ĠãĥĨ":805,"åĭķ":806,"ãĥļ":807,"æ®":808,"æ©ĭ":809,"è¦ģ":810,"iv":811,"Ġb":812,"éĮ":813,"id":814,"Ġéĩ":815,"un":816,"Ġæĸ°":817,"ĠãĤµ":818,"Ġéĸ¢éĢ£éłħçĽ®":819,"Ġs":820,"ON":821,"èĩ":822,"ãĥĶ":823,"æĺŃ":824,"çŁ":825,"50":826,"ãĥĩãĤ£":827,"ad":828,"ãĢľ":829,"ĠåĪ":830,"ä¾":831,"Ġp":832,"ç¨":833,"éĸĭ":834,"åĮĹ":835,"ãĤ¶":836,"æŃ´":837,"SB":838,"ĠãĤ¤":839,"īĦ":840,"ãĥĽ":841,"ay":842,"Ġin":843,"Ġé«ĺ":844,"===":845,"ĠåĮ":846,"ĠãĤ«":847,"æĶ¾éĢģ":848,"åº¦":849,"éĸ¢":850,"um":851,"åħ¸":852,"ur":853,"éĮ²":854,"ãģĪ":855,"ĠçĻ":856,"çĶ¨":857,"§ĭ":858,"é¡":859,"åĵ¡":860,"AN":861,"Ġand":862,"Ġ*ãĢİ":863,"ãĥªãĤ¢":864,"æķĻ":865,"Ġéģ":866,"Ġãĥ©":867,"ĦĽ":868,"ag":869,"çĤ":870,"æĸ¹":871,"ĬĢ":872,"ĠY":873,"SBN":874,"Ġåľ":875,"èĭ":876,"èĤ":877,"è¨ĺ":878,"å±ĭ":879,"åĢ":880,"¦Ĥ":881,"ãĤ¤ãĥ«":882,"æģ":883,"éĻ¢":884,"ĠãĤ¯":885,"ĠSt":886,"000":887,"ãģĳ":888,"ä¿¡":889,"æľŁ":890,"im":891,"Ġc":892,"åģ":893,"ãĥ¼ãĤ¯":894,"ä¸»":895,"ir":896,"æĿ¾":897,"40":898,"æĮ":899,"ãĤ®":900,"æ¥½":901,"åĮĸ":902,"è¾":903,"æ³ķ":904,"ä½ĵ":905,"åºĹ":906,"å·ŀ":907,"ãĤĦ":908,"31":909,"£®":910,"è¨Ń":911,"å£²":912,"è·¯":913,"éĥ¡":914,"è¦§":915,"ä¹ħ":916,"ĠãĥĲ":917,"åħĥ":918,"æ©Ł":919,"ot":920,"ãĤ´":921,"æİ":922,"ĠãĤŃ":923,"Ġãĥĩ":924,"éīĦ":925,"ers":926,"æ¬":927,"ĤĻ":928,"çł":929,"ãĤı":930,"197":931,"ãĥ¤":932,"ãĥ³ãĤ¹":933,"å£«":934,"ĠãĤ³":935,"æĥ":936,"Ġæ°":937,"ãĥĥãĥĹ":938,"åĸ":939,"å±Ģ":940,"èģ":941,"å·¥":942,"åŁİ":943,"Ŀãģ®":944,"Ġv":945,"æĺŃåĴĮ":946,"ation":947,"ST":948,"æ²¢":949,"ĠISBN":950,"Ġå¾":951,"Ġå²":952,"ĠãĥŃ":953,"æŃĮ":954,"Ġä»":955,"çµĦ":956,"ec":957,"ow":958,"çľŁ":959,"åı°":960,"çĶ·":961,"Ġä¸ī":962,"Ġ195":963,"çİĭ":964,"ãģĺ":965,"Ġãĥª":966,"The":967,"Ġ2010":968,"éĽĨ":969,"å®®":970,"Ġ2015":971,"ç©º":972,"åħī":973,"Ġ2014":974,"Ġ\"":975,"ĠåĮĹ":976,"em":977,"Ġ2012":978,"åįĹ":979,"¦Ĥè¦ģ":980,"çĿ£":981,"ĠãĤ¿":982,"ä¸Ģè¦§":983,"¢¨":984,"Ġ2013":985,"ä¿Ŀ":986,"å¡":987,"Ġçµ":988,"çĤ¹":989,"ç³":990,"Ġw":991,"ãĥ¼ãĤ¿":992,"è«":993,"æĺł":994,"çŃī":995,"ãĥ¼ãĤ·":996,"ãĤģ":997,"çĮ":998,"48":999,"Ġãĥı":1000,"ãĤ¿ãĥ¼":1001,"ĠåĽ½":1002,"ç¶":1003,"Ġ2011":1004,"éĩĳ":1005,"£çĿ£":1006,"Ġ2016":1007,"ĠThe":1008,"è¡¨":1009,"éŁ³":1010,"os":1011,"ĠãĥĹ":1012,"ĠãĥĪ":1013,"px":1014,"æĪ¸":1015,"Ġãĥī":1016,"åħ¥":1017,"äº¤":1018,"åĪ¥":1019,"éģ¸æīĭ":1020,"ãĥķãĤ£":1021,"ãĥĥãĥī":1022,"åĽ£":1023,"èĤ²":1024,"Ġ2009":1025,"å¤«":1026,"ãģł":1027,"HE":1028,"IC":1029,"Ġçī":1030,"Ġãĥģ":1031,"æ°ĳ":1032,"..":1033,"ãĥķãĤ¡":1034,"Ġæ²":1035,"ä¹ĭ":1036,"Ġ2000":1037,"45":1038,"Ġç·":1039,"ĠæĶ":1040,"å»":1041,"ãĤį":1042,"Ġ2017":1043,"è©ŀ":1044,"od":1045,"Ġk":1046,"ut":1047,"Ġãĥ¬":1048,"35":1049,"ov":1050,"è¡ĵ":1051,"Ġæµ":1052,"éĽĦ":1053,"ĠãĥķãĤ¡":1054,"æº":1055,"Ġ2008":1056,"Ġåħ¨":1057,"ĠæĿ±äº¬":1058,"éĸĢ":1059,"éĿ¢":1060,"ap":1061,"ı¾":1062,"åĿ":1063,"ç¾©":1064,"ãĥ³ãĥĢ":1065,"ãģĻãĤĭ":1066,"ç³»":1067,"ĠçĽ":1068,"ç§Ĵ":1069,"Ġè¥¿":1070,"èı":1071,"éĺª":1072,"Ġ2018":1073,"åº«":1074,"çŁ¥":1075,"Ġ2007":1076,"ĠéĢ":1077,"å¯º":1078,"ter":1079,"å¤©":1080,"æ¬¡":1081,"ç¯":1082,"ie":1083,"ĠãĥŁ":1084,"ĠåıĤ":1085,"33":1086,"èī¯":1087,"78":1088,"ul":1089,"èĩª":1090,"nd":1091,"Ġ#:":1092,"OR":1093,"è¼":1094,"ä¼Ĭ":1095,"Ġä¸»":1096,"çĶ±":1097,"Ġ25":1098,"èĭ±":1099,"ãĤ¤ãĥ³":1100,"éĽ»":1101,"ä¸ģ":1102,"ak":1103,"æ¯":1104,"AL":1105,"ç½":1106,"æ´¥":1107,"å½¢":1108,"ãĥ¼ãĥŀ":1109,"åŀ":1110,"åĬĽ":1111,"ĠæĿ¾":1112,"æĶ¿":1113,"çŁ³":1114,"ãĤ·ãĥ£":1115,"ãĤ²":1116,"ĠéĿ":1117,"é¦¬":1118,"60":1119,"Ġæ¦Ĥè¦ģ":1120,"ia":1121,"Ġå·":1122,"åĥ":1123,"ãģ°":1124,"'''(":1125,"AT":1126,"Ġå¥":1127,"Ġ2006":1128,"æŁ":1129,"oc":1130,"å½¹":1131,"ĠãĤ¦":1132,"VE":1133,"ç±":1134,"Ġãĥĳ":1135,"ĠãĥĨãĥ¬ãĥĵ":1136,"ãĥ¼ãĥ³":1137,"ãĥĹãĥŃ":1138,"ç¸":1139,"åķ":1140,"ãģ©":1141,"Ġãĥĸ":1142,"è¦ĭ":1143,"ãĥĴ":1144,"Ġå¯":1145,"åħ¨":1146,"åŁŁ":1147,"éļĬ":1148,"âĢ»":1149,"ä»ĸ":1150,"Ġ:;":1151,"å¾Į":1152,"Ġç¦ı":1153,"36":1154,"ãĥ¼ãĥĹ":1155,"Ġ2005":1156,"Ġ2019":1157,"ãĥ«ãĥĪ":1158,"å·»":1159,"éĩĮ":1160,"åı¸":1161,"åĲī":1162,"çĮ®":1163,"å¸Ĥç«ĭ":1164,"ãĥªãĥ¼ãĤº":1165,"å¥Ī":1166,"ç·ı":1167,"åı¤":1168,"ä¸ģçĽ®":1169,"Ġ23":1170,"çķĮ":1171,"ãĥ¼ãĥª":1172,"ãĥ©ãĥŀ":1173,"Ġ21":1174,"47":1175,"ãĥĥãĤ¯ãĤ¹":1176,"åħļ":1177,"äºĶ":1178,"æĭ":1179,"Ġâ":1180,"Ġãĥ¡":1181,"Ġæ¸":1182,"é£":1183,"196":1184,"Ġ2001":1185,"Ġ*:":1186,"åĬł":1187,"ãĤ·ãĥ¥":1188,"ãĤ¢ãĥ«":1189,"Ġl":1190,"op":1191,"éĩį":1192,"Ġ24":1193,"ce":1194,"å±ŀ":1195,"ĠãĥĢ":1196,"æĸĩçĮ®":1197,"æ£®":1198,"ãĥ³ãĤ¸":1199,"Ġäºº":1200,"ãĥ¼ãĥ©":1201,"55":1202,"38":1203,"Ġç¥":1204,"ist":1205,"æĦĽ":1206,"37":1207,"Ġéķ·":1208,"è±":1209,"èĳī":1210,"ill":1211,"æŃ¦":1212,"Ġä½Ĳ":1213,"åºĥ":1214,"01":1215,"ãģ²":1216,"åł±":1217,"--":1218,"ĠCh":1219,"æŀĹ":1220,"ç®":1221,"ãĤ¸ãĥ£":1222,"Ġ1999":1223,"çĲĥ":1224,"è»į":1225,"çļ":1226,"49":1227,"ĠåĬ":1228,"ãĥªãĤ«":1229,"Ġä¸Ĭ":1230,"å§":1231,"II":1232,"39":1233,"æ±Ł":1234,"ĠåĨ":1235,"è¶":1236,"èŃ°":1237,"Ġ2004":1238,"08":1239,"Ġ22":1240,"è¿":1241,"ĠIn":1242,"æ¡":1243,"46":1244,"Ŀãģ®ä»ĸ":1245,"åĪ¶":1246,"åľ¨":1247,"igh":1248,"å¹¸":1249,"Ġæ±":1250,"åĭĻ":1251,"ĥ½":1252,"èĬ±":1253,"èĢĥæĸĩçĮ®":1254,"ãĥ¼ãĤ°":1255,"æĺŁ":1256,"å¹´åº¦":1257,"Ġ26":1258,"å®Ł":1259,"èª¬":1260,"Ġ2002":1261,"'s":1262,"ĠãģĤ":1263,"IS":1264,"ãĥģãĥ£":1265,"ãĥ¼ãĥĬ":1266,"ĠãĥĻ":1267,"çłĶ":1268,"ãĤĨ":1269,"ãĥ³ãĥĩ":1270,"ĠãĤ»":1271,"ãģĭãĤī":1272,"ãĤ¹ãĥĨ":1273,"ãĤ¯ãĥ©":1274,"US":1275,"09":1276,"çµĮ":1277,"ess":1278,"Ġãģ®":1279,"ç´Ģ":1280,"05":1281,"æ½":1282,"Ġç¾":1283,"ãĥ¬ãĤ¤":1284,"çī¹":1285,"ĠãĤ°":1286,"åŀĭ":1287,"est":1288,"èµ":1289,"æĢ§":1290,"ĠèĬ":1291,"Ġ2003":1292,"BS":1293,"art":1294,"æ·":1295,"34":1296,"å°ıåŃ¦æł¡":1297,"06":1298,"Ġæ³":1299,"og":1300,"æ¸¯":1301,"ĠãģĬ":1302,"İéĮ²":1303,"ri":1304,"åįĥ":1305,"ard":1306,"Ġåĩºåħ¸":1307,"æ¨¹":1308,"ile":1309,"è¨Ī":1310,"EN":1311,"ãģĹãģ¦":1312,"åħ±":1313,"07":1314,"ab":1315,"ãĥªãĤ¹":1316,"ĠéĽ":1317,"å¤ĸ":1318,"åĬĩ":1319,"ä¼Ŀ":1320,"Ġéĩĳ":1321,"æµľ":1322,"å½¦":1323,"ĤĻèĢĥ":1324,"å£°":1325,"åįļ":1326,"ĠåĲį":1327,"av":1328,"º«":1329,"åĲĮ":1330,"Ġåľ°":1331,"ä»ĭ":1332,"ãģ¸":1333,"ç¦ı":1334,"Ģ¬":1335,"æŃ³":1336,"ä¹Ł":1337,"æĺ¥":1338,"éĢł":1339,"ãĤĥ":1340,"Ġåº":1341,"å¸¯":1342,"ãĥĲãĤ¹":1343,"Ġåī":1344,"Ġ27":1345,"ä½ľåĵģ":1346,"ãģ³":1347,"åįģ":1348,"å¿Ĺ":1349,"æ´ĭ":1350,"Ġç«":1351,"çĦ":1352,"æĿ±äº¬":1353,"ĠæĶ¾éĢģ":1354,"Ġå¸":1355,"44":1356,"éĤ":1357,"ãģĤãĤĭ":1358,"çĶ£":1359,"Ġ30":1360,"Ġæł":1361,"ĠçŁ³":1362,"ĠæŃ´":1363,"Ġç¥ŀ":1364,"æ°Ĺ":1365,"ĠåĤĻèĢĥ":1366,"AM":1367,"éŃ":1368,"ãĤ°ãĥ©":1369,"Ġåħ¬":1370,"ãĥ³ãĥĨ":1371,"æħ":1372,"éħ":1373,"ç©¶":1374,"ãģĽ":1375,"çĽ£çĿ£":1376,"OU":1377,"å¤®":1378,"»Ĵ":1379,"Ġæī":1380,"ĠåıĤèĢĥæĸĩçĮ®":1381,"Ġ28":1382,"åħ«":1383,"ĠTHE":1384,"è³Ģ":1385,"æľĿ":1386,"ct":1387,"ç«ł":1388,"æĬĢ":1389,"å¯¾":1390,"ãģļ":1391,"å¦":1392,"æ¨©":1393,"æĻĤéĸĵ":1394,"our":1395,"Ġ1998":1396,"æĬ":1397,"å°¾":1398,"if":1399,"ĠçĶ°":1400,"ç§Ģ":1401,"Ġå½":1402,"ãĢħ":1403,"ok":1404,"åĽĽ":1405,"RE":1406,"32":1407,"å®¤":1408,"å®ī":1409,"ĠãĢľ":1410,"ãĥ¦":1411,"åįĶ":1412,"é¡Į":1413,"ĠæĪ":1414,"Ġ#'''":1415,"åºľ":1416,"é¦Ļ":1417,"æĴ":1418,"å¤ªéĥİ":1419,"ãĤ·ãĥªãĥ¼ãĤº":1420,"éīĦéģĵ":1421,"è¾º":1422,"all":1423,"åĪ©":1424,"åĩºæ¼Ķ":1425,"OL":1426,"ãĥ³ãĤ¿ãĥ¼":1427,"'',":1428,"ãĥ³ãĥĲ":1429,"ĠãĥķãĤ¡ãĤ¤ãĥ«":1430,"ãĤŃãĥ£":1431,"ãĥ¼ãĤ«":1432,"æĥħ":1433,"ĠãģĿãģ®ä»ĸ":1434,"çģ":1435,"Ġç´":1436,"ç´ļ":1437,"ãĥķãĤ©":1438,"ine":1439,"04":1440,"ell":1441,"åģ¥":1442,"Ġãĥĭ":1443,"Ġæ°´":1444,"Ġè¡":1445,"Ġ+":1446,"ãĥ³ãĤº":1447,"å¸«":1448,"ãĤ¸ãĤª":1449,"åĢī":1450,"ãĤ¤ãĥĪãĥ«":1451,"Ġkm":1452,"ãĥ©ãĥ¼":1453,"58":1454,"æı":1455,"åıĤ":1456,"ãĤ¤ãĥī":1457,"ew":1458,"Ġn":1459,"ãĤµãĤ¤ãĥĪ":1460,"è§":1461,"æ®µ":1462,"Ġde":1463,"ight":1464,"æ²³":1465,"é¢¨":1466,"03":1467,"ĠæĹ":1468,"Ġãĥ¢":1469,"ä¼ļç¤¾":1470,"ä¹Ŀ":1471,"âĨ":1472,"è¡Ľ":1473,"æĹı":1474,"ĠåŃ":1475,"èĮ":1476,"Ġ#*":1477,"æ¶":1478,"Ġæ¨":1479,"Ġæľ¬":1480,"éĻ½":1481,"57":1482,"ĠãĥĿ":1483,"LE":1484,"Ġ29":1485,"ub":1486,"çĢ¬":1487,"æĸĩåº«":1488,"Ġè©":1489,"59":1490,"ĠâĢ»":1491,"æĿ¥":1492,"åĽ³":1493,"æ¹":1494,"æĺłçĶ»":1495,"ive":1496,"çı¾":1497,"ĠåįĹ":1498,"çłĶç©¶":1499,"AC":1500,"ä¸ĩ":1501,"èº«":1502,"èį":1503,"çĹ":1504,"åłĤ":1505,"ä¿®":1506,"åľŁ":1507,"æĶ¯":1508,"é«ĺçŃī":1509,"ep":1510,"æ³¢":1511,"ä½ľæĽ²":1512,"ä»¥":1513,"Ġå®®":1514,"ç¿":1515,"éģĭ":1516,"INE":1517,"ĠãĥĽ":1518,"56":1519,"ãģķãĤĮ":1520,"ith":1521,"ãĥ´ãĤ£":1522,"ä¸į":1523,"å¤ľ":1524,"æĶ¹":1525,"ue":1526,"ãĥ¨":1527,"åĤ":1528,"è¬":1529,"éļĽ":1530,"åĥı":1531,"ãĥĭãĥ¡":1532,"ãĥ´ãĤ¡":1533,"ãĥĥãĥģ":1534,"æľī":1535,"å¢":1536,"å¤ļ":1537,"Ġä¸Ģ":1538,"æ±º":1539,"IT":1540,"èĳĹ":1541,"åĿĤ":1542,"ãĥ¡ãĥªãĤ«":1543,"å¡ļ":1544,"Ī´":1545,"Ġçķ":1546,"æµ¦":1547,"02":1548,"HK":1549,"Ġéł":1550,"æ³ī":1551,"ĠæľĢ":1552,"å®ĺ":1553,"Ġä½ľæĽ²":1554,"æĤ":1555,"åĽŀæĪ¦":1556,"Ġto":1557,"ge":1558,"ãĥĬãĥ«":1559,"Ġçľ":1560,"çĪ":1561,"åº§":1562,"ãĥĭãĥ¼":1563,"éº":1564,"OM":1565,"rom":1566,"AS":1567,"åĪĿ":1568,"ä¸ŃåŃ¦æł¡":1569,"ĠãĥĬ":1570,"Ġéĺ":1571,"ãģ¶":1572,"âĺ":1573,"ity":1574,"çĽ´":1575,"Ġç·¨":1576,"ev":1577,"Ġèĩ":1578,"ãģªãģĦ":1579,"ĠãĤ²":1580,"èĶ":1581,"åĪĹ":1582,"ant":1583,"æ´»":1584,"ĠæŃ´åı²":1585,"ĠãĤ¢ãĥ«":1586,"æ¸ħ":1587,"äººçī©":1588,"éĢĢ":1589,"Ġ1997":1590,"ĠèĹ¤":1591,"å½ĵ":1592,"ĠãĤŃãĥ£":1593,"ãģĹãģŁ":1594,"æķĹ":1595,"æĻĤä»£":1596,"43":1597,"ãĥĲãĥł":1598,"ãĥŀãĥ³":1599,"å¼ĺ":1600,"ex":1601,"ãĤĩ":1602,"çĬ":1603,"ĠåĲī":1604,"Ġæķ":1605,"æł¼":1606,"äº¬éĥ½":1607,"äºĪ":1608,"41":1609,"æľĢ":1610,"è£½":1611,"ĠéĿĴ":1612,"åħµ":1613,"42":1614,"ãĥĭãĤ¢":1615,"Ġãĥľ":1616,"å°ĳ":1617,"ãĤ¦ãĤ§":1618,"Ġè¨":1619,"ob":1620,"ç¨®":1621,"ãĥ³ãĥĹ":1622,"åĸ¶":1623,"ãĢį(":1624,"ãĥ³ãĤ°ãĥ«":1625,"ãĥķãĤ§":1626,"µãĥ¼":1627,"ĠZ":1628,"ĠæĦĽ":1629,"Ġä¼Ĭ":1630,"Ġå¤©":1631,"ç¸¾":1632,"Ġå¹³":1633,"Ġfor":1634,"³¥":1635,"æģµ":1636,"Ġæľ¨":1637,"åŃĹ":1638,"çĻºå£²":1639,"ud":1640,"Ġãģ¨":1641,"»åł´":1642,"ãĥ¼ãĥģ":1643,"CD":1644,"hi":1645,"ĠèĪ":1646,"ãĥĺ":1647,"ãĤ¥":1648,"ĠRet":1649,"Ġ2020":1650,"ĠåĦª":1651,"Ġå·Ŀ":1652,"ast":1653,"Ġ1995":1654,"Ġ*#":1655,"ãĤ¹ãĤ¿ãĥ¼":1656,"ä½¿":1657,"ç·¨æĽ²":1658,"ç½®":1659,"ãĤ¨ãĥ«":1660,"Ġåĭ":1661,"äº¤éĢļ":1662,"ãĤ¤ãĤ¹":1663,"Ġ1996":1664,"ãĥ¼ãĥĦ":1665,"æŃ¢":1666,"ord":1667,"ĠçĻº":1668,"èĶµ":1669,"ian":1670,"ãĥīãĥ©ãĥŀ":1671,"ãĤĢ":1672,"èĸ":1673,"çĿĢ":1674,"æĮĩ":1675,"'')":1676,"æł¹":1677,"Ġä¸ĸ":1678,"OW":1679,"¹¿":1680,"ÃĹ":1681,"ĠAl":1682,"eb":1683,"çµĤ":1684,"ä½ı":1685,"Ġè£":1686,"æŀľ":1687,"ãĤ½ãĥ³":1688,"¥æŃ´":1689,"ãĥĥãĤ«":1690,"é«ĺçŃīåŃ¦æł¡":1691,"Ġå²¡":1692,"eat":1693,"ãĥĸãĥ«":1694,"çĻ½":1695,"ĠãĤ¹ãĤ¿":1696,"ãĤ·ãĥ§ãĥ³":1697,"å¤§ä¼ļ":1698,"èĥ½":1699,"Ġ100":1700,"Ġæĺł":1701,"åķĨ":1702,"Ġãģª":1703,"99":1704,"ä¾¿":1705,"ĠAn":1706,"çĭ":1707,"Ġãĥĵ":1708,"54":1709,"ran":1710,"åıĸ":1711,"ĠåİŁ":1712,"ãĥ³ãĥģ":1713,"Ġå¥³":1714,"çµĲ":1715,"ãĥ¼ãĥĨ":1716,"Ġãĥ«":1717,"éĢ²":1718,"éĿĴ":1719,"2010":1720,"¦åĲĪ":1721,"è£ķ":1722,"2013":1723,"å°Ĩ":1724,"ç±³":1725,"Ã©":1726,"Ġçī¹":1727,"2012":1728,"ey":1729,"åıĭ":1730,"æµ·éģĵ":1731,"ãĥ³ãĤ·":1732,"ãĥĸãĥ©":1733,"Ġg":1734,"ort":1735,"RA":1736,"ĠçĶŁ":1737,"èī²":1738,"åĦªåĭĿ":1739,"2015":1740,"æ®º":1741,"ãĥªãĤª":1742,"2011":1743,"Ġæ¡":1744,"æ¾":1745,"åĨĨ":1746,"æľª":1747,"2014":1748,"æŁ»":1749,"æĪ¿":1750,"Ġä½ľè©ŀ":1751,"åº·":1752,"Ġåįĥ":1753,"Ġæº":1754,"ãĤ¸ãĤ§":1755,"ãĥ¼ãĥĳ":1756,"Ġãĥ´":1757,"éļĨ":1758,"Ġå¤§éĺª":1759,"ç¶ļ":1760,"æļ":1761,"éĩĪ":1762,"æµģ":1763,"ãģķãĤĵ":1764,"æ§ĭ":1765,"ĨĬ":1766,"ãĥ¼ãĥĩ":1767,"ãĥ¼ãĤ·ãĥ§ãĥ³":1768,"æĻº":1769,"çİī":1770,"ãĥ¼ãĥ¬":1771,"æ°¸":1772,"ĠLINE":1773,"Ġåºĥ":1774,"æĸ½":1775,"åĮ»":1776,"åİ":1777,"VD":1778,"è£ħ":1779,"å¿ĥ":1780,"æĸĻ":1781,"age":1782,"2008":1783,"2009":1784,"Ġå²©":1785,"ĠãĥĹãĥŃ":1786,"ãĥ¼ãĥ«ãĥī":1787,"Ġh":1788,"ĠéŁ³":1789,"ĠFile":1790,"ãĤ»ãĥ³ãĤ¿ãĥ¼":1791,"åĤĻ":1792,"ik":1793,"OK":1794,"ãģĦãĤĭ":1795,"ĠéĻ":1796,"ãĥ¼ãĥĭ":1797,"ãĥĩãĥ¥":1798,"ry":1799,"2007":1800,"Ġèĩª":1801,"ä¿Ĭ":1802,"EC":1803,"ĠåĪĿ":1804,"Ġ38":1805,"Ġ36":1806,"2016":1807,"ãģĶ":1808,"ä»»":1809,"ĠãĤ¸ãĥ£":1810,"ãĤ¤ãĤ¢":1811,"Ġãģĭ":1812,"åĬ©":1813,"Ġ1994":1814,"ç¥Ń":1815,"ãĥ¬ãĤ¹":1816,"ãĥ©ãĤ¯":1817,"IVE":1818,"å¤ī":1819,"æĸĩåĮĸ":1820,"ãĤ¼":1821,"ç¹":1822,"ãģİ":1823,"Ġåĩºæ¼Ķ":1824,"æ¤":1825,"éľ":1826,"ain":1827,"åĻ":1828,"ial":1829,"éĿ©":1830,"Ġè¿":1831,"Ġon":1832,"ĠPr":1833,"èŃ¦":1834,"ack":1835,"Ġ*'''":1836,"Ġå¿":1837,"æ¢":1838,"Ġ1993":1839,"çļĦ":1840,"ĠSp":1841,"ä½ľè©ŀ":1842,"è«ĸ":1843,"Ġç¾İ":1844,"éĬĢ":1845,"ĠAr":1846,"ĠST":1847,"Ĩä½į":1848,"åŁº":1849,"ç¬":1850,"éĢŁ":1851,"å¾³":1852,"Ġé¦":1853,"Ġèĭ":1854,"2006":1855,"Ġé§":1856,"åħĲ":1857,"),":1858,"ass":1859,"98":1860,"ĠãĤ½":1861,"çµ±":1862,"éĻ¸":1863,"èĦļ":1864,"Ġãģ¯":1865,"ĠãĥĩãĤ£":1866,"ãĥ¼ãĥŃ":1867,"51":1868,"ĠLINEAR":1869,"ĠçĻ½":1870,"ãģµ":1871,"åĬĩåł´":1872,"RO":1873,"Ġby":1874,"æ¼":1875,"ĠåĦªåĭĿ":1876,"76":1877,"ate":1878,"èĬ¸":1879,"åĳ¨":1880,"Ġåīį":1881,"èª¿":1882,"ç§°":1883,"çĽ¸":1884,"ªå¼ı":1885,"Ġ978":1886,"Ġéĩİ":1887,"ãģ¡ãĤĥ":1888,"Ī´æľ¨":1889,"æµ©":1890,"Ġæ¨ª":1891,"ãĥ¼ãĥĲ":1892,"é¨":1893,"Ġå¼":1894,"ãĢı(":1895,"éŁ":1896,"ãĤ·ãĥ§":1897,"æĿ¡":1898,"å§ĭ":1899,"è²´":1900,"ãģŃ":1901,"Ġ31":1902,"ong":1903,"FC":1904,"åħ¬åľĴ":1905,"ĠåŁ":1906,"ove":1907,"ãĥ¼ãĥĸ":1908,"¾į":1909,"ä»ĺ":1910,"çħ":1911,"ET":1912,"Ġ32":1913,"æĥħåł±":1914,"Ġ1990":1915,"ä¸Ģéĥİ":1916,"53":1917,"ãĥ©ãĤ¹":1918,"ãĥ©ãĥ³ãĥī":1919,"æ»":1920,"Ġå®ī":1921,"ãģĲ":1922,"end":1923,"æ§":1924,"æĹħ":1925,"Ġ1992":1926,"ãĤ·ãĤ¢":1927,"AK":1928,"52":1929,"ĠãĤ¬":1930,"ä¹Ĺ":1931,"Ġ*ãĢĮ":1932,"ING":1933,"Ġæĸĩ":1934,")-":1935,"å°Ĥ":1936,"ĠæīĢ":1937,"ä¸¸":1938,"çĹħ":1939,"åħŃ":1940,"2000":1941,"ION":1942,"ãĥªãĥ¼ãĤ°":1943,"Ġèª":1944,"AD":1945,"ãĥ³ãĥĩãĤ£":1946,"ĠãĥĶ":1947,"2017":1948,"ãĥ¼ãĥķ":1949,"ary":1950,"ä»£è¡¨":1951,"éģĶ":1952,"IG":1953,"å¿µ":1954,"88":1955,"âĹ":1956,"åĳ½":1957,"ĠçµĮ":1958,"Ġæ³¨":1959,"Ġãģ¾":1960,"Ġä¸ĭ":1961,"ãĥ¼ãĤºãĥ³":1962,"æ±ł":1963,"Ġãĥ¯":1964,"åĩºçīĪ":1965,"ç§ĭ":1966,"ãĥªãĥ³":1967,"å½±":1968,"ªå¼ıä¼ļç¤¾":1969,"Ġ34":1970,"Ġ(''":1971,"io":1972,"ãĤ¯ãĥĪ":1973,"ff":1974,"ĠCD":1975,"ĠSh":1976,"AP":1977,"Ġ---":1978,"Ġæĺİ":1979,"UN":1980,"å¯Į":1981,"77":1982,"Ġèµ":1983,"2005":1984,"éĻĲ":1985,"ĠçĽ£çĿ£":1986,"66":1987,"Ġæ£®":1988,"Ġãģĵ":1989,"Ġ1991":1990,"éŃĶ":1991,"ä¼ģ":1992,"ond":1993,"ber":1994,"ãĤ¦ãĤ£":1995,"åĩ":1996,"ä¸ĸçķĮ":1997,"è»¢":1998,"åĻ¨":1999,"éģ¸æīĭæ¨©":2000,"Ġçı¾":2001,"èī¦":2002,"ãģ£ãģŁ":2003,"âĺĨ":2004,"åı¤å±ĭ":2005,"çį":2006,"å¤ı":2007,"ãģĿ":2008,"ld":2009,"ĠTh":2010,"St":2011,"ç®¡":2012,"æķĻèĤ²":2013,"ies":2014,"ä¸ĸå¸¯":2015,"Ġãĥ¦":2016,"ãĤ¹ãĥļ":2017,"Ġæ©":2018,"ĠãĤ¸ãĤ§":2019,"ç¥ŀç¤¾":2020,"ĠåľŁ":2021,"æģĭ":2022,"ĠUn":2023,"çķªçµĦ":2024,"Ġèĳ":2025,"100":2026,"ory":2027,"ID":2028,"ãĥ³ãĤ¬":2029,"èĲ":2030,"ang":2031,"å¯Ł":2032,"ãģ»":2033,"OC":2034,"è±Ĭ":2035,"ix":2036,"Ġ37":2037,"Ġ33":2038,"ãĥ¼ãĤ¿ãĥ¼":2039,"éĽħ":2040,"éĺ²":2041,"ide":2042,"ich":2043,"Ġãģķ":2044,"æĦ":2045,"çİĩ":2046,"è¶Ĭ":2047,"Ġat":2048,"ãĤ¢ãĥĭãĥ¡":2049,"Ġæ³¨éĩĪ":2050,"èĪ¹":2051,"ĠBl":2052,"ãģ£ãģ¦":2053,"ãĤªãĥ³":2054,"æ¸Ī":2055,"90":2056,"ĠX":2057,"Ġéĸĭ":2058,"ãĤ§ãĥ«":2059,"ly":2060,"up":2061,"é¡ŀ":2062,"ä»¶":2063,"ip":2064,"ĠãĤ¿ãĤ¤ãĥĪãĥ«":2065,"ãĤ¹ãĤ³":2066,"ĠåĨħ":2067,"ä¸Ńå¤®":2068,"æľĿæĹ¥":2069,"Ġå¯Į":2070,"ãĤ¯ãĥŃ":2071,"Ġ48":2072,"ãĥ¼ãĥĵ":2073,"Ġä¸»ãģª":2074,"å¼ıãĤµãĤ¤ãĥĪ":2075,"Ġåħ«":2076,"çĦ¡":2077,"ä¸ĥ":2078,"å²©":2079,"Ġ40":2080,"ç±į":2081,"ĠãĤ¸ãĥ§":2082,"ĠåıİéĮ²":2083,"96":2084,"OS":2085,"ãĤ¦ãĤ¹":2086,"ES":2087,"2004":2088,"2018":2089,"åĤ¬":2090,"èª²":2091,"Ġ=====":2092,"ãĥĥãĥķ":2093,"ĠæĺłçĶ»":2094,"ãĤ¸ãĤ¢":2095,"ãĥ¥ãĥ¼":2096,"ĠQ":2097,"ç«¶":2098,"Ġfrom":2099,"æĢ¥":2100,"Ġæµ·":2101,"ãĥĻãĥ«":2102,"æ£":2103,"ĠæĻ":2104,"åĽ½éļĽ":2105,"èŃ·":2106,"eg":2107,"ãģªãĤĭ":2108,"ãĤĩãģĨ":2109,"ĠæŃ¦":2110,"å®Ŀ":2111,"èĪª":2112,"km":2113,"ear":2114,"åĵ²":2115,"ç¥¨":2116,"ãĤ¸ãĥ§":2117,"åŃĿ":2118,"å®ı":2119,"Ġéĥ":2120,"ãĤ·ãĥ£ãĥ«":2121,"...":2122,"ĠãĤ±":2123,"Ġ1989":2124,"ne":2125,"æĽľæĹ¥":2126,"Ġéģ¸":2127,"ãĥķãĥĪ":2128,"ãĤ«ãĥ«":2129,"é»Ĵ":2130,"µä¾¿":2131,"æ¾¤":2132,"ĠåĢ":2133,"æĴĥ":2134,"Ġ35":2135,"æĪĲç¸¾":2136,"ect":2137,"è¨³":2138,"æ½Ł":2139,"å¤§éĺª":2140,"é³¥":2141,"ite":2142,"ĠCom":2143,"Ġç·¨æĽ²":2144,"Ġç§":2145,"ind":2146,"ãĤ¢ãĥ«ãĥĲãĥł":2147,"ĠéĢļ":2148,"97":2149,"Ġé£":2150,"ont":2151,"aw":2152,"Ġå¸Ĥ":2153,"Ġ50":2154,"ä¸¡":2155,"å³¶çľĮ":2156,"2003":2157,"å©":2158,"Ġå¹´":2159,"ãĥĹãĥª":2160,"EL":2161,"ãĥ³ãĥĳ":2162,"Ġå£":2163,"ãģ«ãĤĪ":2164,"ĠæĽ":2165,"ĠçĶ·":2166,"se":2167,"ĠåĬł":2168,"ãģŁãģ¡":2169,"åıİéĮ²":2170,"æºĸ":2171,"éĩİçĲĥ":2172,"ãĥĥãĥĦ":2173,"AY":2174,"ãĥ©ãĥ³":2175,"åĶ":2176,"oy":2177,"Ġãģ¿":2178,"Ġ1988":2179,"ĠãĤ´":2180,"ãĤ¿ãĤ¤":2181,"ãĥĲãĥ¼":2182,"åħĪ":2183,"è¦³":2184,"ĠãĤ®":2185,"è¿ĳ":2186,"oh":2187,"ä»ģ":2188,"ph":2189,"68":2190,"Ġãģ«":2191,"ĠçĻºå£²":2192,"ĠåŃ¦":2193,"ãĢĳ":2194,"ĠçŁ":2195,"è«ĩ":2196,"åºģ":2197,"è¨Ģ":2198,"Ĺè³ŀ":2199,"Ġäº¬éĥ½":2200,"¿éĿ©":2201,"Ġå»":2202,"çĽ¤":2203,"ç«¹":2204,"Ġè¦":2205,"EST":2206,"ĠVol":2207,"Ġ()":2208,"au":2209,"å¸¸":2210,"æĹ§":2211,"éĥ·":2212,"æľĪåı·":2213,"èĦ":2214,"Ġç§ĭ":2215,"ĠNo":2216,"çģ«":2217,"å¾Ĺ":2218,"Ġ1987":2219,"2019":2220,"OT":2221,"åĪĬ":2222,"usic":2223,"ãĥ¼ãĤµãĥ¼":2224,"ĠPro":2225,"çħ§":2226,"Ġæºĸ":2227,"éłŃ":2228,"ĠæľĪ":2229,"ãĥ¼ãĥĨãĤ£":2230,"æĺİæ²»":2231,"Ġwith":2232,")ãĢģ":2233,"Ġ*''":2234,"mer":2235,"åĲĳ":2236,"Ġ39":2237,"ãģĴ":2238,"ãĥ¶":2239,"ure":2240,"Ġ46":2241,"Ġè¶":2242,"ivers":2243,"ĠéłĨä½į":2244,"éĸ¢éĢ£":2245,"ĠãĥĴ":2246,"éĹ":2247,"è³ĩ":2248,"ĠâĹ":2249,"å»º":2250,"iz":2251,"ãĥ¥ãĥ¼ãĤ¸":2252,"70":2253,"Ġä¸į":2254,"ãĤŃãĥ¼":2255,")'''":2256,"Ġè¿ĳ":2257,"ĠãģĦ":2258,"ãĥ³ãĥĶ":2259,"ãģ¹":2260,"TV":2261,"ãĥĪãĥ©":2262,"man":2263,"å®¿":2264,"ãĥ¬ãĤ¯":2265,"Ġ----":2266,"ark":2267,"çµµ":2268,"èµ°":2269,"ĠãĢģ":2270,"ust":2271,"äºľ":2272,"åĭķè»Ĭ":2273,"Ġãĥķãĥ©":2274,"Ġåł":2275,"å¥³åŃĲ":2276,"uc":2277,"åŃ¦éĥ¨":2278,"ĠYou":2279,"ãĤ¤ãĤ¯":2280,"éº»":2281,"é¾į":2282,"è§£":2283,"Ġãĥ¤":2284,"æį":2285,"HI":2286,"ĠãĤ¶":2287,"Ġèı":2288,"æĨ":2289,"Ġè»":2290,"AG":2291,"æ¯į":2292,"éĩı":2293,"åŃ¦åľĴ":2294,"Ġãĥİ":2295,"ãģ¡ãĤĥãĤĵ":2296,"ãĤ¢ãĥ³":2297,"BC":2298,"ç§»":2299,"nt":2300,"è¡Ĺ":2301,"80":2302,"ä½³":2303,"ç·ıåĲĪ":2304,"UM":2305,"ish":2306,"Ġ1986":2307,"2001":2308,"ãĥīãĥ«":2309,"ĠçľŁ":2310,"ĠäºĮ":2311,"èı¯":2312,"å·®":2313,"2002":2314,"ãĥĽãĥ¼ãĥ«":2315,"ä¿Ĥ":2316,"qu":2317,"ĠåĪ¶":2318,"è¨ĺå¿µ":2319,"æķĹéĢĢ":2320,"Ġãĥį":2321,"çī©èªŀ":2322,"èģĸ":2323,"éģĵè·¯":2324,"å®Ī":2325,"å®Ĺ":2326,"ãģ®ãģ¿":2327,"SP":2328,"éħį":2329,"Ġst":2330,"èĪİ":2331,"ĠãĤ¢ãĥ¡ãĥªãĤ«":2332,"Ġãĥģãĥ¼ãĥł":2333,"ãĤ¤ãĤº":2334,"ãĥ³ãĥķ":2335,"IR":2336,"Ġ60":2337,"Ķåĵ¡":2338,"ĠåĭĿ":2339,"):":2340,"èĪŀ":2341,"''''":2342,"Ġéļ":2343,"ĠåĲĮ":2344,"ç´°":2345,"ãĤ¹ãĤ¯":2346,"Ġ1985":2347,"ãĤ¸ãĥ¥":2348,"ãĥĥãĤ·ãĥ¥":2349,"çĬ¶":2350,"éŁ³æ¥½":2351,"è·¡":2352,"ãĤħ":2353,"Ġãĥĺ":2354,"Ġè§":2355,"çĻ¾":2356,"ĠPl":2357,"æºĢ":2358,"ãĥ¼ãĤ¬":2359,"ãĥĸãĥŃ":2360,"èģ·":2361,"Ġæ±Ł":2362,"å·ĿçľĮ":2363,"Ĵ°":2364,"ãĥ¼ãĥĢ":2365,"ĠSP":2366,"æŃ©":2367,"ãĥªãĤ¹ãĥĪ":2368,"Ġåĳ":2369,"Ġæ¥":2370,"æ¨ª":2371,"65":2372,").":2373,"çľģ":2374,"ĠçĦ":2375,"èģŀ":2376,"Ġãĥģãĥ£":2377,"ä»¤":2378,"çĹħéĻ¢":2379,"Ġé»Ĵ":2380,"æłĦ":2381,"ED":2382,"äºĭæ¥Ń":2383,"ãĤ·ãĥ³ãĤ°ãĥ«":2384,"Ġ1980":2385,"Ġæ´":2386,"75":2387,"IL":2388,"ĠæŃĮ":2389,"ãĤ¤ãĥĦ":2390,"åİ»":2391,"ãĥ³ãĤ½":2392,"Ġæ²³":2393,"ĠOF":2394,"ice":2395,"æĽ¸æĪ¿":2396,"Ġèį":2397,"æİĪ":2398,"è©¦åĲĪ":2399,"å±ħ":2400,"âĨĴ":2401,"ãĥĥãĤ«ãĥ¼":2402,"éĸĭå§ĭ":2403,"éĥµä¾¿":2404,"Ġ1984":2405,"ĠéŁ³æ¥½":2406,"å»ĥ":2407,"Ġçİ":2408,"ood":2409,"79":2410,"Ġæ¯":2411,"ç²":2412,"Ġäºķ":2413,"äºĨ":2414,"ãĥĪãĥ«":2415,"èĻ":2416,"ç¹Ķ":2417,"Ġä½ĲèĹ¤":2418,"Ġåı¤":2419,"te":2420,"åĸľ":2421,"Ġç¨":2422,"ç´Ħ":2423,"ĠãĤªãĥª":2424,"äºĭä»¶":2425,"ãĤ¸ãĥĨãĥ¬ãĥĵ":2426,"Ġæģ":2427,"Ġ:::":2428,"å®¢":2429,"æ§ĺ":2430,"ĠNew":2431,"Ġ56":2432,"ãĥ³ãĥĲãĥ¼":2433,"å®ĩ":2434,"UT":2435,"ĠæŁ":2436,"az":2437,"ĠåĮĹæµ·éģĵ":2438,"86":2439,"Ġé§ħ":2440,"ĠæĺŃ":2441,"Ġæ²¿éĿ©":2442,"ĳäºĭ":2443,"Ġæ¼Ķ":2444,"ore":2445,"IM":2446,"ç¥Ĳ":2447,"ãĤĪãĤĬ":2448,"ãĤ¯ãĥ©ãĥĸ":2449,"ĠCl":2450,"ĠãģĹ":2451,"èĮĤ":2452,"Ġç·ı":2453,"èªł":2454,"ĠéĪ´æľ¨":2455,"ib":2456,"å§Ķåĵ¡":2457,"å®¹":2458,"ĠãģŁ":2459,"ãĥ«ãĤ¹":2460,"Ġè²":2461,"Ġre":2462,"ert":2463,"orld":2464,"çĻĤ":2465,"ĠåĴĮ":2466,"¶´":2467,"ãĥĩãĥ«":2468,"89":2469,"ãĥ¼ãĤ¹ãĥĪ":2470,"ãĥ³ãĤ³":2471,"ãĤ¾":2472,"ah":2473,"Ġ1982":2474,"SS":2475,"ç¾½":2476,"ens":2477,"Ġ1983":2478,"à¸":2479,"und":2480,"ãĥ³ãĤŃ":2481,"Ġ57":2482,"é«ĺæł¡":2483,"ãĥĹãĥ¬":2484,"çľĮéģĵ":2485,"ãģĦãģŁ":2486,"ãĥ³ãĥĦ":2487,"Ġ1981":2488,"ç¾İè¡ĵ":2489,"Ġä½ľåĵģ":2490,"å¤¢":2491,"Ġæ¸ħ":2492,")ãĢĤ":2493,"åľ°åŁŁ":2494,"æ¢¨":2495,"Ġ45":2496,"ä¹Ŀå·ŀ":2497,"Ġ:#":2498,"å¾¡":2499,"IV":2500,"ç«ľ":2501,"ãĥģãĥ¼ãĥł":2502,"èĹ":2503,"Ġå½¹":2504,"Ġæ·":2505,"Ġ42":2506,"iss":2507,"çķªåı·":2508,"è£ľ":2509,"ãĤ½ãĥ¼ãĥī":2510,"Ġãģ§":2511,"éŁ¿":2512,"Ļå²¡":2513,"Ġè±":2514,"Ġå®ĩ":2515,"ĠçĦ¡":2516,"Ġå¾Ĺ":2517,"ãģķãĤĮãģŁ":2518,"Ġä¸ĸçķĮ":2519,"ãĥ«ãĥ¼ãĥĹ":2520,"èįī":2521,"Ġ47":2522,"Ġ55":2523,"ĠæĺŃåĴĮ":2524,"ç©ºæ¸¯":2525,"ãĥķãĥ©":2526,"éĤ¦":2527,"ãĥĪãĥª":2528,"ç½²":2529,"âĨĲ":2530,"Ġèµ¤":2531,"Ġç©":2532,"è¼ī":2533,"äººåı£":2534,"Ġãģ²":2535,"ĠæĿĳ":2536,"Ĵ²":2537,"ĠNHK":2538,"ãĥĩãĥ¥ãĥ¼ãĤµãĥ¼":2539,"ng":2540,"Ġç¦ıå²¡":2541,"ãĤ¦ãĤ©":2542,"Ġvs":2543,"å¥½":2544,"1999":2545,"æĮĻ":2546,"ãĥ³ãĥį":2547,"Ġ49":2548,"Ġåħĥ":2549,"çĻ»åł´":2550,"èĩªåĭķè»Ĭ":2551,"ãģ«ãĤĪãĤĭ":2552,"ħå½ĵ":2553,"Ġä»Ĭ":2554,"ock":2555,"æ¸¡":2556,"ãĥĭãĥ¥":2557,"å¿ł":2558,"å¶":2559,"æĥ³":2560,"Ġãĥ©ãĤ¤":2561,"ĠãĥķãĤ£":2562,"å¼µ":2563,"ãĤ·ãĥ¼":2564,"æĺĮ":2565,"ãĥ©ãĥł":2566,"¬¼":2567,"87":2568,"ach":2569,"æ±ºåĭĿ":2570,"åĪ¶ä½ľ":2571,"å¿ľ":2572,"TBS":2573,"æķı":2574,"ãĥĮ":2575,"one":2576,"åħ¬æ¼Ķ":2577,"éĹĺ":2578,"èĪĪ":2579,"ãĥ¼ãĥªãĥ¼":2580,"å¥ı":2581,"ãģĸ":2582,"ãĥ¼ãĤŃ":2583,"ãĥ³ãĥŀ":2584,"ãĤĤãģ®":2585,"ire":2586,"ç®Ĺ":2587,"ãĥ©ãĥĸ":2588,"Ġ44":2589,"å¹¼":2590,"res":2591,"ç´Ķ":2592,"ãĥĿãĥ¼ãĥĦ":2593,"ãģªãģĹ":2594,"æ´¾":2595,"ãĤ¤ãĥ¤":2596,"ãĥĶãĤ½ãĥ¼ãĥī":2597,"ãĥ©ãĤ¤ãĥĸ":2598,"Ġæ¸¡":2599,"ĠèĬĿ":2600,"Ġãĥļ":2601,"ãģ¨ãģĹãģ¦":2602,"64":2603,"ĠçĨĬ":2604,"æĸ½è¨Ń":2605,"ĠåĿ":2606,"ä¿³":2607,"Ġ41":2608,"ĠLIVE":2609,"å¨":2610,"ĠèĬ±":2611,"ãģ¼":2612,"æŃ»":2613,"ĠåĽĽ":2614,"æ²¼":2615,"ĠçĻºå£²æĹ¥":2616,"61":2617,"ä¸»åħļ":2618,"æĸ¹éĿ¢":2619,"Ġé¹¿":2620,"ment":2621,"ãĥĬãĥ¼":2622,"ver":2623,"ric":2624,"ime":2625,"æºĲ":2626,"æĹ¥çĻºå£²":2627,"é£Ł":2628,"çļĩ":2629,"å¸Į":2630,"Ġè£½":2631,"Ġ****":2632,"éłĨ":2633,"kg":2634,"ĠèĳĹ":2635,"ĠæķĻ":2636,"ãĥ¢ãĥ³":2637,"ç¯Ģ":2638,"èĩ£":2639,"Ġ43":2640,"Ġå£°":2641,"ĠãĤ¹ãĤ¿ãĥĥãĥķ":2642,"Ġ1979":2643,"Ġå¤ª":2644,"Ġä¹ħ":2645,"ãģ§ãģĤãĤĭ":2646,"ãĥŁãĥ¼":2647,"NHK":2648,"Ġè¡Į":2649,"ä¼ģçĶ»":2650,"Ġå¹´åº¦":2651,"ĠMar":2652,"Ġéģ¸æīĭ":2653,"ãĥ«ãĤ¯":2654,"è¡Ĩ":2655,"éĥ½å¸Ĥ":2656,"Ġäººåı£":2657,"ound":2658,"500":2659,"Ġå³":2660,"éļİ":2661,"Ġè·":2662,"è§Ĵ":2663,"ãĥ¼ãĥĻ":2664,"ext":2665,"åĽŀçĽ®":2666,"è¦ª":2667,"å±ķ":2668,"åĲ¹":2669,"ç£":2670,"çľĮç«ĭ":2671,"ä¹ĥ":2672,"å·¥æ¥Ń":2673,"ss":2674,"æĽ¸åºĹ":2675,"1998":2676,"ç³»åĪĹ":2677,"ãģ¾ãģ§":2678,"ee":2679,"éĥµä¾¿å±Ģ":2680,"Ġæİ":2681,"ook":2682,"OD":2683,"ãĤ«ãĥĥãĥĹ":2684,"ãģĦãģ¦":2685,"ĠæĢ":2686,"Ġå¾³":2687,"OP":2688,"ork":2689,"Ġy":2690,"ern":2691,"å¦»":2692,"ãĥ¼ãĤ½":2693,"Ġ1978":2694,"69":2695,"å¯Ĩ":2696,"èªĮ":2697,"ĠæĿ¥æŃ´":2698,"ãĤ¿ãĥ«":2699,"æīĢå±ŀ":2700,"ãģ¸ãģ®":2701,"ĠåĲįåı¤å±ĭ":2702,"äºĪéģ¸":2703,"åŃ¦ç§ĳ":2704,"ãĤ¢ãĥ¡ãĥªãĤ«":2705,"ãĥĥãĤ°":2706,"åŃ¦éĻ¢":2707,"æĽ¿":2708,"ãĤ²ãĥ¼ãĥł":2709,"Ġæŀ":2710,"ç¾¤":2711,"æ·±":2712,"ãĥªãĤ¨":2713,"ãĥ³ãĥľ":2714,"çĴ°":2715,"ãĥĲãĤ¤":2716,"å¹Į":2717,"éĻį":2718,"åĨį":2719,"ĠæľĿ":2720,"æłªå¼ıä¼ļç¤¾":2721,"ĠçĶ°ä¸Ń":2722,"ĠåıİéĮ²æĽ²":2723,"ĠãĤĨ":2724,"ĠåĽ½éģĵ":2725,"ĠèĦļæľ¬":2726,"OUR":2727,"åįĶä¼ļ":2728,"æ°ı":2729,"ãĥ³ãĥĸ":2730,"Ġéģĵ":2731,"è¼Ķ":2732,"æĻ¯":2733,"çķĻ":2734,"ãĥ¬ãĥ¼":2735,"æ¸©":2736,"èµ¤":2737,"ãĤĮãģŁ":2738,"Ġå¾Į":2739,"ãĤĬãģ®":2740,"ç¯ī":2741,"OVE":2742,"åĦ":2743,"å®Į":2744,"ãĥĢãĥ¼":2745,"ĠçĻ»åł´":2746,"å¹ķ":2747,"ä¸ĺ":2748,"ãģ¨ãģ®":2749,"ãĥīãĥª":2750,"ĠãĤ¦ãĤ£":2751,"ãĥ³ãĤ«":2752,"èŃ¦å¯Ł":2753,"ãĥ¼ãĥ´":2754,"ĠRe":2755,"æīĵ":2756,"ãĤ¦ãĥ³":2757,"ãĥģãĤ§":2758,"çŁ¢":2759,"Ġ54":2760,"å§«":2761,"Ġäººçī©":2762,")(":2763,"Ġfeat":2764,"Ġ1977":2765,"ĠLove":2766,"ĠèŃ":2767,"Ġ1976":2768,"ĠSc":2769,"ĠæĹ¥æľ¬ãģ®":2770,"éłĺ":2771,"Ġéħ":2772,"67":2773,"ug":2774,"ãĤ¹ãĤ«":2775,"è¬Ľ":2776,"ĠâĢ":2777,"æ¯Ķ":2778,"Ġãĥ¨":2779,"Ġæľī":2780,"å½©":2781,"ä¼¸":2782,"ãĥĵãĥ¼":2783,"æľĹ":2784,"1997":2785,"åĩºèº«":2786,"ĠDVD":2787,"uk":2788,"åĭ¢":2789,"ical":2790,"lect":2791,"éĽ²":2792,"YO":2793,"ãĥ«ãĥī":2794,"ĠIN":2795,"å¢ĥ":2796,"Ġ::*":2797,"æŃ´åı²":2798,"====":2799,"èĲ½":2800,"ĠçµĮæŃ´":2801,"ãĥĨãĥ«":2802,"ĭäºº":2803,"ãĥĥãĥĳ":2804,"Ġé«ĺæ©ĭ":2805,"æ³°":2806,"éĢ±":2807,"æķĻæİĪ":2808,"ãģĵãģ¨":2809,"ãĥ¼ãĥľ":2810,"cm":2811,"åķı":2812,"å¤ĸéĥ¨ãĥªãĥ³ãĤ¯":2813,"Ġ58":2814,"Ġåįĥèĳī":2815,"èĸ¬":2816,"çª":2817,"ĠæĿ±äº¬éĥ½":2818,"éĬ":2819,"åĸĦ":2820,"åĪ¤":2821,"ãĤ¯ãĤ»":2822,"62":2823,"ĠãĤ²ãĥ¼ãĥł":2824,"Ġ1970":2825,"Ġ1975":2826,"ãĥĪãĥŃ":2827,"Ġäº¤éĢļ":2828,"èıľ":2829,"old":2830,"é£Ľ":2831,"åľ°æĸ¹":2832,"ĠMe":2833,"ĠéŃ":2834,"åĲ¾":2835,"63":2836,"ãĤ¢ãĤ¤":2837,"çī¹åĪ¥":2838,"ä¿³åĦª":2839,"ĠæĬ":2840,"ç¨ĭ":2841,"ä½ĵèĤ²":2842,"ĥĮ":2843,"ä¾ĭ":2844,"Ġæĸ°æ½Ł":2845,"è¡£":2846,"Ch":2847,"æĭħå½ĵ":2848,"é¹¿":2849,"éłĪ":2850,"çĪ¶":2851,"Ġæ±ł":2852,"åľ°åĮº":2853,"æ¿":2854,"()":2855,"1996":2856,"ace":2857,"éĬĢè¡Į":2858,"ost":2859,"ãĥĹãĥ©":2860,"ãĥ³ãĥĬ":2861,"è²¡":2862,"ãĥ³ãĤ»":2863,"äºĭåĭĻ":2864,"ãĤŃãĥ¥":2865,"Ġéĺ¿":2866,"ai":2867,"äººãģ®":2868,"®å½±":2869,"ãĥ³ãĥįãĥ«":2870,"ãĥįãĥĥãĥĪ":2871,"¼çİī":2872,"ãĤ¿ãĤ¤ãĥĪãĥ«":2873,"å²¸":2874,"ç´ł":2875,"å¼¾":2876,"ĠãĤ·ãĥ£":2877,"ä¼ĳ":2878,"Ġbar":2879,"ç©Ĥ":2880,"å®Ļ":2881,"æħĭ":2882,"ational":2883,"è¼ª":2884,"ãĥ©ãĤ¸ãĤª":2885,"ãĥĩãĤ£ãĤ¢":2886,"ãĤ¹ãĥĳ":2887,"ĠæīĢå±ŀ":2888,"Ġè±Ĭ":2889,"ĠåĬĩ":2890,"ä»Ĭ":2891,"mm":2892,"Ġæĺİæ²»":2893,"ĠBe":2894,"FA":2895,"EX":2896,"ãĥ¼ãĥį":2897,"ĠSH":2898,"Ġãĥĸãĥ©":2899,"åı¯":2900,"äºī":2901,"son":2902,"åģľ":2903,"æľ«":2904,"æ©Łéĸ¢":2905,"ãĥĲãĥ«":2906,"ĠèĮ":2907,"ç¤¾ä¼ļ":2908,"ĠåĿĤ":2909,"ĠHe":2910,"âĶ":2911,"ĠäºĶ":2912,"æİ¢":2913,"Ġçķª":2914,"THE":2915,"åīĩ":2916,"æĳ":2917,"ãĤĮãĤĭ":2918,"Ġçģ":2919,"Ġ1973":2920,"Ġ1972":2921,"æĶ»":2922,"çĶ²":2923,"ĠBr":2924,"Ġå±±åı£":2925,"ãĤ¦ãĥ³ãĥī":2926,"éĸ¢ä¿Ĥ":2927,"ĠãģĮ":2928,"tern":2929,"æ¡ľ":2930,"ĠæĪ¦":2931,"Ġå®Ł":2932,"Ġ53":2933,"ĠMan":2934,"ãĥ¼ãĥİ":2935,"ĠãĥķãĤ©":2936,"æ¶Ī":2937,"1995":2938,"ç§ĳåŃ¦":2939,"ãĤĪãģĨ":2940,"Ġ1974":2941,"ãĤ±ãĥĥãĥĪ":2942,"æĸ°èģŀ":2943,"Ġ52":2944,"çĻ»":2945,"ĠMy":2946,"ãģ§ãģ®":2947,"ä¾Ľ":2948,"ãĤĦãģ¾":2949,"Ġå³¶":2950,"ĠéĽ»":2951,"ĠAN":2952,"ĠCol":2953,"Ġ80":2954,"æ¬¡éĥİ":2955,"ĠãĤĴ":2956,"éĽ¢":2957,"Ġä¸ŃæĿĳ":2958,"ãĥĢãĥł":2959,"ç¢":2960,"Ġéģĭ":2961,"æĿ¯":2962,"Ġç«¹":2963,"è¾²":2964,"ãĥ¼ãĥŁ":2965,"å»ĥæŃ¢":2966,"æ³ģ":2967,"®éĿ¢":2968,"çı":2969,"åĲĽ":2970,"Ġéĥ½":2971,"ĠãĥķãĤ§":2972,"Ġåľ°çĲĨ":2973,"ĠæĹ§":2974,"è¼Ŀ":2975,"Ġ1971":2976,"ç©į":2977,"ĠMusic":2978,"ãĥŃãĥ³":2979,"èĪªç©º":2980,"ãĥªãĥ¼ãĤ¹":2981,"åĭĩ":2982,"»Ħ":2983,"åĽ³æĽ¸":2984,"å»¶":2985,"è¦ı":2986,"ĠæĪĲ":2987,"åĸ¶æ¥Ń":2988,"èĭ¥":2989,"èĦļæ³¨":2990,"ERS":2991,"ãĥģãĥ¥":2992,"ence":2993,"Ĩ±":2994,"Ġå°ıæŀĹ":2995,"éģł":2996,"CH":2997,"95":2998,"ãģĹãģĦ":2999,"é¨ĵ":3000,"ãĥĵãĥ«":3001,"isc":3002,"éĻĲå®ļ":3003,"å¸Ŀ":3004,"ãĥ³ãĤµ":3005,"ĠWorld":3006,"çŁŃ":3007,"ãĥ³ãĥĨãĤ£":3008,"85":3009,"ç¯ĩ":3010,"Ġè·¯":3011,"per":3012,"ition":3013,"éĽª":3014,"³ç´°":3015,"çĽ£":3016,"Ġ51":3017,"ll":3018,"Ġ##":3019,"ick":3020,"ãĥªãĥ³ãĤ°":3021,"æĬķ":3022,"å¼ķ":3023,"92":3024,"ents":3025,"å¹¹":3026,"å¯¿":3027,"ãģıãĤī":3028,"é§ħåīį":3029,"æĦı":3030,"ãĤ¶ãĤ¤ãĥ³":3031,"Ńå¹Į":3032,"æ§ĭæĪĲ":3033,"Ã¼":3034,"å¥³åĦª":3035,"DVD":3036,"are":3037,"ĠçĲ":3038,"èŃ°åĵ¡":3039,"åĵī":3040,"ĠSch":3041,"ãĤ¹ãĥĨãĤ£":3042,"ãĥ«ãĥķ":3043,"pe":3044,"Ġè¾":3045,"åı·ç·ļ":3046,"ãĥŃãĥ¼":3047,"jp":3048,"æĻ´":3049,"ĠçµĲ":3050,"å¹´ãģ®":3051,"orm":3052,"ĠSU":3053,"å°İ":3054,"åĪĳäºĭ":3055,"å±±çľĮ":3056,"æľĽ":3057,"ä½¿çĶ¨":3058,"æĮĩå®ļ":3059,"åįĺ":3060,"éģİ":3061,"èĪ¬":3062,"93":3063,"CT":3064,"apan":3065,"Ġ1969":3066,"ĠEd":3067,"ãģªãģ©":3068,"è±¡":3069,"land":3070,"é½":3071,"rd":3072,"ohn":3073,"ĠÐ":3074,"åıİ":3075,"Ġæ°¸":3076,"åįĬ":3077,"ĠãĤ¿ãĤ¤":3078,"1994":3079,"Ġç©º":3080,"ann":3081,"73":3082,"ĠéīĦ":3083,"åŃ¦èĢħ":3084,"æĽ´":3085,"71":3086,"åĿĩ":3087,"æĢª":3088,"Ġæľª":3089,"72":3090,"«çĶ»":3091,")''":3092,"Ġé¦Ļ":3093,"ãĥĥãĤ»":3094,"ĠãĢİ'''":3095,"ãĥŁãĤ¢":3096,"âĢĿ":3097,"ãĤ³ãĥ³":3098,"åīµ":3099,"å¼¥":3100,"å°ĳå¥³":3101,"irl":3102,"Ġr":3103,"Ġ1968":3104,"Ġ'":3105,"Ġä¸ŃåĽ½":3106,"ãĤªãĥª":3107,"Ġåħ±":3108,"Ġè¬":3109,"94":3110,"çĨĬ":3111,"Ġè·¯ç·ļ":3112,"æ¤ľ":3113,".,":3114,"ç¸Ħ":3115,"Ġvol":3116,"æĿī":3117,"ãĥĩãĤª":3118,"ina":3119,"æ°ĳä¸»åħļ":3120,"ĠçĽ¸":3121,"Ġ70":3122,"ĠéĻ¸":3123,"ä¸īéĥİ":3124,"Ġè¨ĺ":3125,"Ġèĭ±":3126,"ĠGu":3127,"ãĥŀãĥ«":3128,"å¾©":3129,"Ġ~":3130,"Ġæ¨ªæµľ":3131,"ç«¶æĬĢ":3132,"è©ķ":3133,"ĠUnivers":3134,"æĨ²":3135,"ome":3136,"ãĥĩãĥ¼ãĤ¿":3137,"çŁ¥çľĮ":3138,"ton":3139,"ãĥ¼ãĥĬãĥ¼":3140,"ĠãĤ·ãĥ¼ãĤºãĥ³":3141,"è¨ĺéĮ²":3142,"ĠæŃ£":3143,"åĺ":3144,"AB":3145,"è¶³":3146,"ĠæĶ¾éĢģæĹ¥":3147,"Ļåı°":3148,"Ġå¥³åŃĲ":3149,"å®ħ":3150,"ĠãĢĲ":3151,"ãĤ¢ãĥĬ":3152,"Ġãĥ©ãĤ¸ãĤª":3153,"è·¯ç·ļ":3154,"ĠæĮ":3155,"ãĥŃãĤ¹":3156,"ĠãĤ¹ãĥļ":3157,"ier":3158,"ĠåĲĪ":3159,"Ġæ©Ł":3160,"ount":3161,"ãĥĸãĥª":3162,"Ġ''''''":3163,"çµĤäºĨ":3164,"ãĥ£ãĥ¼":3165,"ãĤ·ãĤ§":3166,"Ġ1967":3167,"HT":3168,"ç¦":3169,"ãģĳãĤĭ":3170,"84":3171,"å§Ķåĵ¡ä¼ļ":3172,"ĠTV":3173,"OKYO":3174,"åĨĻ":3175,"Ġåħ¬å¼ıãĤµãĤ¤ãĥĪ":3176,"91":3177,"éĻº":3178,"æ´»åĭķ":3179,"å¸ĥ":3180,"åīĽ":3181,"LU":3182,"æİ¥":3183,"ĠèĪŀ":3184,"own":3185,"Ġè£½ä½ľ":3186,"æŀĿ":3187,"83":3188,"ãĥ¼ãĥŀãĥ³":3189,"1993":3190,"ãĥīãĥ©":3191,"Ġæĺ¥":3192,"itt":3193,"ĠII":3194,"æ¦Ĥè¦ģ":3195,"æ·³":3196,"ãĥŀãĤ¤":3197,"ãĥĽãĥ¼ãĥł":3198,"her":3199,"å®¶æĹı":3200,"74":3201,"Ġe":3202,"jpg":3203,"è«ĩç¤¾":3204,"åŃ£":3205,"ĠTe":3206,"ake":3207,"æŁ³":3208,"åĳ³":3209,"ãĥ´ãĤ§":3210,"ĠBS":3211,"1991":3212,"Ġèģ":3213,"ç¤º":3214,"ãĤ®ãĥ¥":3215,"rum":3216,"81":3217,"ãĥ¼ãĥ«ãĤº":3218,"ãĤ¹ãĥļãĤ·ãĥ£ãĥ«":3219,"ance":3220,"ãĤ°ãĥ©ãĥķãĤ£":3221,"82":3222,".)":3223,"Ġ1966":3224,"Ġåħ¥":3225,"Ġå±±æľ¬":3226,"æİ¨":3227,"1992":3228,"æ²Ļ":3229,"æ¹ĸ":3230,"Ġçł":3231,"ĠCon":3232,"æĲ":3233,"Ġéĺª":3234,"ĠæĺŁ":3235,"2020":3236,"ĠãĤ¢ãĥĭãĥ¡":3237,"Ġåħī":3238,"éİ":3239,"ãĥĵãĤ¢":3240,"çµĮæ¸Ī":3241,"1990":3242,"ram":3243,"ãĥĳãĥ³":3244,"ãĥ©ãĤ¯ãĤ¿ãĥ¼":3245,"çĳ":3246,"è¦ĸ":3247,"ä¾¡":3248,"ĠæĹ©":3249,"å¨ĺ":3250,"ĠPh":3251,"ous":3252,"Ġåħµ":3253,"ãĥ¬ãĥĥ":3254,"ãĤ¢ãĥ¼":3255,"ãĤįãģĨ":3256,"ãĥĨãĥ¼ãĥŀ":3257,"ãĤ¹ãĥĨãĥł":3258,"Ġå¤ĸ":3259,"out":3260,"è©©":3261,"æĹ©":3262,"Ġåįģ":3263,"æħ¶":3264,"ĠçŁ¢":3265,"int":3266,"OV":3267,"Ġæ¹":3268,"ãĢħæľ¨":3269,"åĪĩ":3270,"ç§ĺ":3271,"Ġçĭ":3272,"ç¿Ĵ":3273,"ãĥĻãĥ³ãĥĪ":3274,"ĠéĿĻå²¡":3275,"ĠLe":3276,"éģĬ":3277,"Ġèĭ¥":3278,"æįľ":3279,"Ġ1965":3280,"ãģ²ãĤį":3281,"åľı":3282,"Ġç«ĭ":3283,"DS":3284,"å®³":3285,"Ġçķ¥æŃ´":3286,"ãģ¨ãģĨ":3287,"Ġéĩį":3288,"æĶ¯åºĹ":3289,"Ġä¼ĬèĹ¤":3290,"ĠåĲīçĶ°":3291,"ãĥ³ãĤµãĥ¼":3292,"ãĤ¤ãĥ³ãĥĪ":3293,"ãĤ·ãĥ¼ãĤºãĥ³":3294,"å½°":3295,"é¬¼":3296,"ç¨ļ":3297,"ĠEx":3298,"ç¶Ļ":3299,"ä»¥ä¸Ĭ":3300,"Ġç¬":3301,"Ġ59":3302,"ãĥļãĥ¼ãĤ¸":3303,"å¶ĭ":3304,"è³¢":3305,"EM":3306,"Ġç±":3307,"äºĢ":3308,"çĽŁ":3309,"ĠSe":3310,"Ġç¤":3311,"Ġå¹³æĪĲ":3312,"ãģĤãĤĬ":3313,"æĺĩ":3314,"ĠçĶ·åŃĲ":3315,"ĠãĤ¸ãĥ§ãĥ³":3316,"äº®":3317,"Ġå¯¾":3318,"çŃĸ":3319,"åŃĺ":3320,"ä¸įæĺİ":3321,"Ġãĥĭãĥ¥":3322,"arl":3323,"ĠåıĹè³ŀ":3324,"ãĥ¬ãĥ³":3325,"ĠãĤ¹ãĥĪ":3326,"ãĥ¼ãĥĩãĤ£":3327,"åĳĬ":3328,"å·¦":3329,"é½¢":3330,"æĶ¹æŃ£":3331,"ĠDe":3332,"æĳ©":3333,"ĠJR":3334,"Ġè©¦åĲĪ":3335,"ĠNE":3336,"Ġæ¢":3337,"ç¨²":3338,"Ġå±±çĶ°":3339,"CE":3340,"æ¹¾":3341,"ool":3342,"åºŃ":3343,"æ¼Ķåĩº":3344,"å¹¡":3345,"åľ¨åľ°":3346,"ãĥ¬ãĥ¼ãĤ·ãĥ§ãĥ³":3347,"ĠæĿī":3348,"Ġä¸»æ¼Ķ":3349,"USS":3350,"å±±å¸Ĥ":3351,"ãĥ¬ãĥ³ãĤ¸":3352,"Ġåºĥå³¶":3353,"åī£":3354,"ãĥĭãĥĥãĤ¯":3355,"orn":3356,"RI":3357,"ife":3358,"ART":3359,"åħ¬å¼ıãĤµãĤ¤ãĥĪ":3360,"In":3361,"ãĥ¡ãĥ³ãĥĪ":3362,"çį£":3363,"å¯Ľ":3364,"æ¨Ļ":3365,"ãģ¥":3366,"åı³":3367,"ĠIs":3368,"Ġäº¬":3369,"é¶´":3370,"ãĢī":3371,"ĸç¸Ħ":3372,"éĺľ":3373,"çĦ¶":3374,"Ġæ»":3375,"åĴ²":3376,"éĤ£":3377,"åħ¼":3378,"ĠãĤ¹ãĥ¼ãĥĳ":3379,"ãĥ³ãĥĵ":3380,"èĦļæľ¬":3381,"è«¸":3382,"ĠãĥŀãĤ¤":3383,"ĠãĥĻãĤ¹ãĥĪ":3384,"å¼·":3385,"ãĥ¼ãĤ«ãĥ«":3386,"OCK":3387,"åįĶåĬĽ":3388,"è¡Ģ":3389,"Ġè¦ı":3390,"èĭ±èªŀ":3391,"ãģ®ä¸Ģ":3392,"âĹĭ":3393,"äº¤å·®":3394,"Ġa":3395,"ãĥľãĥ¼ãĥ«":3396,"éĸ£":3397,"Ġç±³":3398,"åĩºåħ¸":3399,"è£½ä½ľ":3400,"Ġãĥŀãĥ«":3401,"ãĥ¼ãĤµ":3402,"Ġ1964":3403,"Ĳéĺľ":3404,"æ½®":3405,"Ġæ¡ľ":3406,"ä¼ļé¤¨":3407,"ĠåĪ¶ä½ľ":3408,"åģµ":3409,"åĩºåł´":3410,"é¡ĮæŃĮ":3411,"olog":3412,"ĠæĻĤ":3413,"ink":3414,"åıĤåĬł":3415,"å¹´ä»£":3416,"SU":3417,"ĠFor":3418,"å¹¼ç¨ļ":3419,"åĽ½ãģ®":3420,"Ġèī":3421,"¤ĩ":3422,"Ġéķ·éĩİ":3423,"ox":3424,"ild":3425,"ata":3426,"Ġæ±º":3427,"åŁİçľĮ":3428,"æ¸©æ³ī":3429,"éĢ£ç¶ļ":3430,"Ġ64":3431,"SA":3432,"ax":3433,"èŃ°éĻ¢":3434,"ĠWh":3435,"Ġåĸ":3436,"ĠIm":3437,"Ġãģį":3438,"ream":3439,"ĠGr":3440,"ãĤ¯ãĥª":3441,"ĠPress":3442,"ica":3443,"''.":3444,"å¹¼ç¨ļåľĴ":3445,"ãģ®å¥³":3446,"Hz":3447,"Ġçģ«":3448,"III":3449,"®éĿ¢ãĥ©ãĤ¤":3450,"ãĥĥãĤŃ":3451,"åħĭ":3452,"Ġ1960":3453,"ail":3454,"SC":3455,"ãĥŁãĥ¥":3456,"å¸Ń":3457,"åįĴ":3458,"ĠãģĿãģ®ä»ĸãģ®":3459,"1989":3460,"ĠLive":3461,"Ġtext":3462,"Ġ75":3463,"ç¬ĳ":3464,"ç¾İåŃĲ":3465,"Ġ:**":3466,"ĠéĢ£":3467,"èĬ³":3468,"èĢģ":3469,"Ġæ¤":3470,"Ġæµħ":3471,"èªŃ":3472,"é«ĺéĢŁ":3473,"å°ļ":3474,"è¢":3475,"ãĥķãĤ¸ãĥĨãĥ¬ãĥĵ":3476,"ĠâĹĭ":3477,"ĠãĤĤ":3478,"ĠãĤĦ":3479,"ãĤ¸ãĥ§ãĥ³":3480,"ĠçĶº":3481,"Ġ65":3482,"ĠCM":3483,"Ġãĥ´ãĤ¡":3484,"ĠBO":3485,"Ġãģµ":3486,"ä»£çĽ®":3487,"ign":3488,"ãĥıãĤ¤":3489,"ĠRec":3490,"ĠåĲĦ":3491,"STER":3492,"ky":3493,"ĠFl":3494,"ĠAL":3495,"ä¼Ŀèª¬":3496,"ãĤ¦ãĥ«":3497,"çµĲæŀľ":3498,"æ®¿":3499,"ĠåĬłèĹ¤":3500,"oo":3501,"ĠãĤ¸ãĥ¥":3502,"ĠUniversity":3503,"Ġæ¸¡è¾º":3504,"æı´":3505,"amp":3506,"éłĥ":3507,"Ġå¾ĹçĤ¹":3508,"çĶ°å¸Ĥ":3509,"ale":3510,"Ġå¡":3511,"ĠTOUR":3512,"ç´Ļ":3513,"ãģĵãģĨ":3514,"ĠéĤ":3515,"ck":3516,"ãģĹãģ®":3517,"ics":3518,"Ġ)":3519,"ãĤ¨ãĥĶãĤ½ãĥ¼ãĥī":3520,"Ġæµľ":3521,"âĨĲâĨĲ":3522,"ase":3523,"USIC":3524,"Ġãģ»":3525,"ĠOn":3526,"Ġå§":3527,"ĠON":3528,"ung":3529,"ONE":3530,"åķĵ":3531,"åłĢ":3532,"ãĤ±ãĥ«":3533,"ĠåĽ½éļĽ":3534,"ãĥįãĤ¹":3535,"Ġä»ĸ":3536,"éĸĭçĻº":3537,"Ġåįĺ":3538,"ans":3539,"att":3540,"å¾Įãģ®":3541,"çłĶç©¶æīĢ":3542,"ame":3543,"åŃĲãģ®":3544,"''')":3545,"oll":3546,"Ġal":3547,"ķçĶŁ":3548,"ãĥĪãĥ³":3549,"éģ¸æĮĻ":3550,"Ġæ¼":3551,"Ġç¤¾":3552,"æķ´":3553,"ãĥ³ãĥĢãĥł":3554,"ãģŀ":3555,"è¨¼":3556,"Ġå®¶":3557,"è¶ħ":3558,"éĺ¿":3559,"ãĤ³ãĥ¼ãĥī":3560,"che":3561,"IX":3562,"éĥ¨éĸĢ":3563,"é¤Ĭ":3564,"Ġä¸Ńå¤®":3565,"å²³":3566,"Ġè¦ıæł¼":3567,"èĺ":3568,"éĩİçĲĥéģ¸æīĭ":3569,"Ġ63":3570,"æĬĢè¡ĵ":3571,"Ġéģİ":3572,"(*":3573,"ĠãģĨ":3574,"IGHT":3575,"ĠæķĻèĤ²":3576,"ãĤ³ãĥ¼ãĤ¹":3577,"Ġãĥīãĥ©ãĥŀ":3578,"å°ıèª¬":3579,"ãĥ³ãģ®":3580,"âĶģ":3581,"ult":3582,"ise":3583,"ãĥ¼ãĤ¼":3584,"Ġ61":3585,"Ġé³¥":3586,"ĠçŃ":3587,"Ġãģ¤":3588,"ç¬¬ä¸Ģ":3589,"ãĤĨãģį":3590,"ACK":3591,"ict":3592,"ãĥĭãĥ³ãĤ°":3593,"Ġ62":3594,"Ġçī¡":3595,"ĭè°·":3596,"ĠçĨĬæľ¬":3597,"æĮ¯":3598,"Ġæ°ĳ":3599,"APAN":3600,"ĠEn":3601,"æĮģ":3602,"ãĥ¼ãĤ¶":3603,"ree":3604,"ãĥ³ãĥĢãĥ¼":3605,"Ġãĥ´ãĤ£":3606,"éħĴ":3607,"æĭĵ":3608,"å¾Ĵ":3609,"éĢļãĤĬ":3610,"Ĵå·Ŀ":3611,"Ġ1963":3612,"app":3613,"æĢĿ":3614,"ĠæĿ¾æľ¬":3615,"ãĥĨãĥ³":3616,"ç®¡çĲĨ":3617,"Ret":3618,"Ġãĥĸãĥ«":3619,"ä¹±":3620,"åľŃ":3621,"éľĬ":3622,"Ġè§£":3623,"ãĥĭãĤ¹":3624,"åĮºéĸĵ":3625,"ãģŁãģĭ":3626,"ç²¾":3627,"1988":3628,"ãģ¤ãģ®":3629,"enn":3630,"!(":3631,"IO":3632,"Ġè»Ĭ":3633,"ĠæŀĹ":3634,"row":3635,"IA":3636,"ĠãĥĦ":3637,"Ġè©³ç´°":3638,"å°ĳå¹´":3639,"Ġå¢":3640,"ãĥ¼ãĤ«ãĥ¼":3641,"åħ¬å¼ı":3642,"å¦¹":3643,"ĠãĤĪ":3644,"Ġåħ¬å¼ı":3645,"ĠåŁ¼çİī":3646,"ãĤ¸ãĥ¼":3647,"ĠComp":3648,"çķĳ":3649,"Ġå°ĳ":3650,"1987":3651,"ĠéĸĭåĤ¬":3652,"ãĤīãģĻ":3653,"TA":3654,"Ġåģ":3655,"ãĥ³ãĤ´":3656,"ãĤ¸ãĥĬãĥ«":3657,"ãĤ®ãĥªãĤ¹":3658,"Ġè°·":3659,"æľ¬ç·ļ":3660,"æ¡Ī":3661,"AND":3662,"Ġth":3663,"pt":3664,"åĽ³æĽ¸é¤¨":3665,"ĠåĪ©":3666,"ĠéŃĶ":3667,"MA":3668,"å©¦":3669,"ays":3670,"ows":3671,"ISBN":3672,"æĹ¥æľ¬ãģ®":3673,"ĠãĤ¢ãĥ«ãĥĲãĥł":3674,"ĠSy":3675,"èħ":3676,"Ġé£¯":3677,"çł²":3678,"ĠãĤ²ãĤ¹ãĥĪ":3679,"ãĤµãĥĥãĤ«ãĥ¼":3680,"ãģ®é§ħ":3681,"Ġ66":3682,"æ³ķäºº":3683,"ãĥŁãĥ¥ãĥ¼ãĤ¸":3684,"åıĹè³ŀ":3685,"çī§":3686,"å¢Ĺ":3687,"Ġç¾İè¡ĵ":3688,"å¤§æŃ£":3689,"çĭ¬":3690,"ç¿Ķ":3691,"Ġãĥł":3692,"ĠGo":3693,"ãĥ¼ãĥĻãĥ«":3694,"pr":3695,"ãĥĬãĤ¤":3696,"å¹ħ":3697,"ALL":3698,"Ġè³":3699,"ãĥĪãĤ¥":3700,"Ġè¬Ľ":3701,"ĠAd":3702,"ĠãĥĨãĤ£":3703,"âĺħ":3704,"Ġet":3705,"ĠåłĢ":3706,"ĠèĥĮ":3707,"ç«¥":3708,"âĢĻ":3709,"Ġé¢¨":3710,"æĶ¾":3711,"èĩªçĶ±":3712,"ĠèĲ":3713,"ãģķãĤĮãĤĭ":3714,"éĥ¨éķ·":3715,"ĠJapan":3716,"ä½µ":3717,"Ġä¼ļ":3718,"Ġçı¾åľ¨":3719,"Ġ1962":3720,"1986":3721,"Ġç«¶":3722,"ĠæĽ¸":3723,"Ġç¶":3724,"Ġæłªå¼ıä¼ļç¤¾":3725,"èªį":3726,"PS":3727,"ãĤ¤ãĥīãĥ«":3728,"ãĥ¼ãĥĵãĤ¹":3729,"IE":3730,"æĿ¿":3731,"éģº":3732,"Ġéģł":3733,"ĠåĬĩåł´":3734,"ãĤ¯ãĤ·ãĥ§ãĥ³":3735,"åŀ£":3736,"ãĥ¯ãĥ¼":3737,"OUN":3738,"ãĥ¬ãĥĥãĥĪ":3739,"ãģĪãĤĭ":3740,"çĶºç«ĭ":3741,"ower":3742,"è³ª":3743,"è¿½":3744,"å°ĤéĸĢ":3745,"Ġå¤ļ":3746,"ings":3747,"ubl":3748,"ĠWar":3749,"ä»ķ":3750,"ash":3751,"EA":3752,"åª":3753,"çĬ¶æ³ģ":3754,"ĠOr":3755,"JR":3756,"Ġsh":3757,"æŀļ":3758,"ions":3759,"ä¼¯":3760,"Ġæ¬":3761,"ĠFC":3762,"åĦĦ":3763,"Ġæ¼Ķåĩº":3764,"SH":3765,"ĠãĤ·ãĥ³ãĤ°ãĥ«":3766,"Ġåı°":3767,"ĠCH":3768,"ru":3769,"ãģ¦ãģĦãĤĭ":3770,"åıĤçħ§":3771,"ĠLOVE":3772,"Ġ1961":3773,"ãĥ³ãĥĪãĥ³":3774,"ç·¨éĽĨ":3775,"ĠSer":3776,"Ġéģİåİ»":3777,"ãģªãģĭ":3778,"Ġé¹¿åħĲ":3779,"å°Ħ":3780,"ĠID":3781,"ãĥ¼ãĥ©ãĥ³ãĥī":3782,"ley":3783,"ãĥ¼ãĤ¤":3784,"ãģŁãĤģ":3785,"ãĤħãģĨ":3786,"æ»ħ":3787,"ãĤªãĥĸ":3788,"Ġéļ£":3789,"Bl":3790,"ãģĦãģ®":3791,"port":3792,"é§ħéĸĵ":3793,"ĠãĤ¢ãĤ¤":3794,"ĠDN":3795,"ãĤ°ãĥ«ãĥ¼ãĥĹ":3796,"ãĤ·ãĥĨãĤ£":3797,"ank":3798,"Ġç¥ŀå¥Ī":3799,"Ġæ¸ħæ°´":3800,"æĻĥ":3801,"èĮ¶":3802,"Ġæ©ĭ":3803,"ãģ£ãģ":3804,"æķ·":3805,"Ġæ¶":3806,"ĠãĥĹãĥ¬":3807,"ãģĦãģ¡":3808,"ãĥ¡ãĥ³ãĥĲãĥ¼":3809,"Ġç§ĭçĶ°":3810,"ĠOff":3811,"ãĥªãĥĥãĤ¯":3812,"ä¸Ģä¸ģçĽ®":3813,"åł´æīĢ":3814,"ron":3815,"Ġis":3816,"Ġä¸ĸå¸¯":3817,"400":3818,"BO":3819,"1985":3820,"Ġäºķä¸Ĭ":3821,"Ġéķ·å´İ":3822,"Ð°":3823,"ãĥĵãĥĩãĤª":3824,"ĠæĴ":3825,"ãĤ·ãĤ¹ãĥĨãĥł":3826,"ĠãĥĨãĥ¬ãĥĵãĥīãĥ©ãĥŀ":3827,"ĠèĪŀåı°":3828,"èĹ©":3829,"åĸ¶æ¥ŃæīĢ":3830,"åħ¥åı£":3831,"ve":3832,"ä¹ħä¿Ŀ":3833,"ãģ¬":3834,"ãĤ¿ãĥªãĤ¢":3835,"ãģĭãĤĬ":3836,"pl":3837,"we":3838,"æ¥µ":3839,"ther":3840,"è³ĩæĸĻ":3841,"ãĥĨãĥ¬":3842,"åŃ¦ä¼ļ":3843,"Ġ68":3844,"Ġå¤ı":3845,"æĪ¦äºī":3846,"300":3847,"ĠãģªãģĹ":3848,"Ġéĥ¡":3849,"Ġdes":3850,"å©ļ":3851,"ĠVer":3852,"éħįä¿¡":3853,"Ġla":3854,"åĲįç¾©":3855,"éĸĭåĤ¬":3856,"Ġåĳ¨":3857,"sh":3858,"CM":3859,"çµĦåĲĪ":3860,"åĮĹæµ·éģĵ":3861,"Ġ67":3862,"åĬŁ":3863,"1984":3864,"å¾¹":3865,"FM":3866,"ĠTra":3867,"æľĪæĹ¥":3868,"ĠPar":3869,"æĤª":3870,"ãĥ©ãĥ«":3871,"ĠFM":3872,"åĬ¹":3873,"ãĥĲãĥ¼ãĥĪ":3874,"Ġæĸ½":3875,"ãģ«ãģĬ":3876,"ĠArt":3877,"reat":3878,"ãģĹãģ¾":3879,"af":3880,"Ġæ´¥":3881,"ãĤ³ãĥŃ":3882,"ãĤµãĤ¤":3883,"ĠIt":3884,"ãĢĲ":3885,"ãĤ¤ãĥĬ":3886,"gh":3887,"åĢ¤":3888,"ãĤĵãģª":3889,"act":3890,"ĠãĤŃãĥ£ãĤ¹ãĥĪ":3891,"Ð¾":3892,"UR":3893,"ç¾İè¡ĵé¤¨":3894,"Ġå¥¥":3895,"ĠèŃ¦":3896,"ãĥĹãĥŃãĥĩãĥ¥ãĥ¼ãĤµãĥ¼":3897,"ĠJohn":3898,"æķ¬":3899,"ĠâĨ":3900,"èµ·":3901,"ç¾ħ":3902,"1983":3903,"Ġ69":3904,"ĠåĲįåīį":3905,"ĠåĢĭäºº":3906,"ãģĿãģ®ä»ĸ":3907,"Ġch":3908,"ãĥĻãĤ¹ãĥĪ":3909,"ĠæĶ¿":3910,"ocal":3911,"PER":3912,"åįĵ":3913,"ãĥķãĥ¬":3914,"Ġãĥ»":3915,"åĽŀæĪ¦æķĹéĢĢ":3916,"äºĭåĭĻæīĢ":3917,"LD":3918,"Ġj":3919,"ãĥ©ãĤ¤ãĥ³":3920,"ãĥŃãĥĥãĤ¯":3921,"éĸ¢éĢ£éłħçĽ®":3922,"ãĥįãĥ«":3923,"Ġé¦¬":3924,"Ġä¸ĥ":3925,"Ġund":3926,"itar":3927,"Ġ/":3928,"Ġä¹Ĺ":3929,"å¥¥":3930,"ãĥ³ãĥĹãĥª":3931,"Ġä¿Ŀ":3932,"ãĤĪãģ³":3933,"Ġéº":3934,"ray":3935,"è¨ĪçĶ»":3936,"©å£²":3937,"ç¦ıå²¡":3938,"ĠPart":3939,"ĠAll":3940,"é®":3941,"åĨ¬":3942,"ãĤ½ãĥ³ãĤ°":3943,"Ġder":3944,"Ġæĥ":3945,"µĲ":3946,"ç§ģ":3947,"âĻ":3948,"Ġå°¾":3949,"ãĤ¢ãĥª":3950,"''(":3951,"èĵ":3952,"ĠTBS":3953,"åĦªç§Ģ":3954,"å·¥åł´":3955,"ĠäºĪéģ¸":3956,"é³":3957,"EE":3958,"æĪ¦å£«":3959,"åĺī":3960,"åĶ±":3961,"æ¤į":3962,"ĵåĽ½":3963,"1982":3964,"çĨ±":3965,"ĠæºĸåĦªåĭĿ":3966,"éĳ":3967,"cl":3968,"çĩ":3969,"åģ´":3970,"ä»¥ä¸ĭ":3971,"ĠèĩªçĶ±":3972,"ĠJAPAN":3973,"raph":3974,"äºĮä¸ģçĽ®":3975,"åī¯":3976,"ĠæŃ´ä»£":3977,"ãģ²ãģ¨":3978,"ĠãĤ¯ãĥªãĤ¹":3979,"1980":3980,"éĽ¨":3981,"ĠéĬĢ":3982,"icial":3983,"Ġor":3984,"å¹»":3985,"com":3986,"çī©é¤¨":3987,"Ġç§ģ":3988,"ãģ®ä¸Ģè¦§":3989,"(+":3990,"Ġæ³ķ":3991,"æįľæŁ»":3992,"åĽ£åľ°":3993,"ĠæĤ":3994,"Sh":3995,"ç¬¬äºĮ":3996,"ãģ®åŃĲ":3997,"Ġå¤§ä¼ļ":3998,"ĠãĤ°ãĥ©":3999,"ãĤĤãģ¨":4000,"ĠçĻ»åł´äººçī©":4001,"Ġæ·±":4002,"ãģ®ãģĬ":4003,"æĵ":4004,"Ġ1959":4005,"ç¬ł":4006,"ĪĴ":4007,"ĠæĬķ":4008,"å¼ģ":4009,"Ġ90":4010,"ãģ§ãģ¯":4011,"ãĥ¼ãĥ¡":4012,"yo":4013,"å½¹æīĢ":4014,"ward":4015,"Ġç¿":4016,"ors":4017,"åĲįåı¤å±ĭ":4018,"1981":4019,"ords":4020,"ãģ£ãģ¨":4021,"Ġå¾¡":4022,"å¾´":4023,"åıĬ":4024,"å¹³åĿĩ":4025,"Ġä¸Ńå±±":4026,"å·±":4027,"çķ¥":4028,"Ġ72":4029,"ãĥĶãĤ¢":4030,"Ġãģ®ãģ¡":4031,"Ġè¶ħ":4032,"iel":4033,"åħ·":4034,"ĠãĤ¦ãĤ§":4035,"æıĲ":4036,"å¤§èĩ£":4037,"ĠçľĮ":4038,"é¨İ":4039,"ara":4040,"æĸĩåŃ¦":4041,"ãģ¤ãģĦãģ¦":4042,"å¥ĩ":4043,"ãĤīãģĻãģĺ":4044,"ãĤ¹ãĥ¼ãĥĳ":4045,"Ġ1958":4046,"Ġãģ¡":4047,"éĪ´æľ¨":4048,"ãĥ¬ãĥ¼ãĤ·":4049,"ãĥŀãĤ¹":4050,"ĠAnd":4051,"è¨Ńç½®":4052,"TS":4053,"ãĢĪ":4054,"Ġå»º":4055,"Ġå¦":4056,"ĠJIS":4057,"æ¢ħ":4058,"ott":4059,"ĠãĥĲãĤ¹":4060,"ĠæŁ³":4061,"æĦŁ":4062,"Ġä¸¸":4063,"ä¸»æ¼Ķ":4064,"é¦ĸ":4065,"ason":4066,"Ġå¥Ī":4067,"æĥĳ":4068,"ĠéĩĳæĽľ":4069,"æİ¢åģµ":4070,"åĳ¼":4071,"ãģĭãĤı":4072,"ãĥ¼ãĤ¯ãĤ¹":4073,"ãĥĸãĥ¬":4074,"æĬľ":4075,"MC":4076,"Ġæģĭ":4077,"Ġ01":4078,"ĠMUSIC":4079,"å¡ģ":4080,"ãģĹãģ¦ãģĦãĤĭ":4081,"Ġ73":4082,"åĮ»çĻĤ":4083,"ä¸ŃåĽ½":4084,"ä¹Ļ":4085,"æĹ¥æľ¬ãĥĨãĥ¬ãĥĵ":4086,"çĶ£æ¥Ń":4087,"æľ¬éĥ¨":4088,"Ġä»£è¡¨":4089,"Ġè¨ĺéĮ²":4090,"ãĥ¼ãĤ¨":4091,"æľį":4092,"ãĥĥãĤŃãĥ¼":4093,"å¼Ł":4094,"æ§ĭéĢł":4095,"ĠAm":4096,"çı¾åľ¨":4097,"ĠåľŁæĽľ":4098,"ĠCar":4099,"ĠåħŃ":4100,"ãĤ¶ãĥ¼":4101,"Ġ1955":4102,"é£¯":4103,"ãĤªãĥ¼ãĥĹ":4104,"ãĤĪãģĹ":4105,"ãĢįãĢĮ":4106,"ae":4107,"ãĥĵãĥ¥ãĥ¼":4108,"ĠEX":4109,"ãĤ¹ãĥĨãĥ¼ãĤ¸":4110,"ãĤ¹ãĥĿãĥ¼ãĥĦ":4111,"ãĥķãĥ«":4112,"åĥį":4113,"Ġç¯":4114,"åĬ´":4115,"ãĥģãĥ§":4116,"ãĤ¯ãĤ¹":4117,"Ġæĭ":4118,"ath":4119,"ãĥĥãĤ¸":4120,"ĥæľ¨":4121,"Ġç¾½":4122,"ç¥¥":4123,"ãĥĢãĥ«":4124,"let":4125,"Ġ00":4126,"èĥ":4127,"æłª":4128,"ĠæĸĩåĮĸ":4129,"ãĥ´ãĤ©":4130,"ersion":4131,"åºĥå³¶":4132,"Ġç¥ŀæĪ¸":4133,"ç³»çµ±":4134,"åħ¬éĸĭ":4135,"ä¸ĸç´Ģ":4136,"rist":4137,"ãģıãĤĵ":4138,"Ġæ±ºåĭĿ":4139,"æ¹¯":4140,"ãģĿãģ®":4141,"Al":4142,"åĳ¨å¹´":4143,"ãĤŃãĥ³ãĤ°":4144,"åĽ½éģĵ":4145,"ĠãĤµãĥĸ":4146,"å¤īæĽ´":4147,"Ġè«":4148,"ãĥĥãĤµ":4149,"èŃ°ä¼ļ":4150,"ãĥªãĤ¢ãĥł":4151,"ãĥ¼ãĤ³":4152,"é·":4153,"ĠãģĻ":4154,"oon":4155,"ä½ĲèĹ¤":4156,"Ġä¸įæĺİ":4157,"Ġå¤±":4158,"Ġç¨²":4159,"å¾ĭ":4160,"ãĤ«ãĥ©":4161,"Ġ71":4162,"ãĤ¹ãĤ³ãĤ°ãĥ©ãĥķãĤ£":4163,"ãĥĨãĥ¬ãĥĵæľĿæĹ¥":4164,"èª¿æŁ»":4165,"åħĥå¹´":4166,"ãĥĿãĥ¼ãĥĪ":4167,"è©¦":4168,"éĳĳ":4169,"åªĽ":4170,"ĠæŃ»":4171,"Ġç³":4172,"iet":4173,"ãĤ¬ãĥ¼":4174,"ĠIS":4175,"ever":4176,"ĠROCK":4177,"ãĥĹãĥŃéĩİçĲĥéģ¸æīĭ":4178,"ĠãĥĹãĥ©":4179,"è£ģ":4180,"ãĤ¯ãĥ¬":4181,"è¤ĩ":4182,"BA":4183,"çµ¦":4184,"ĠWeb":4185,"Ġæ¥½":4186,"Ġåħµåº«":4187,"ĠGirl":4188,"éŃļ":4189,"ĠGT":4190,"Ġå®®å´İ":4191,"ç·ĳ":4192,"BR":4193,"Ġãĥīãĥ©":4194,"éĿĻ":4195,"ĠHist":4196,"ĠåİŁä½ľ":4197,"é»Ħ":4198,"ãĥ«ãĥł":4199,"æĸĹ":4200,"éģ¸æīĭä¸Ģè¦§":4201,"ãĥ«ãĤ»":4202,"ĠNight":4203,"ãĥªãĥ¥":4204,"ĠãĥĨãĥ¬ãĥĵãĤ¢ãĥĭãĥ¡":4205,"ĠæľŃå¹Į":4206,"'''''":4207,"Ġ1956":4208,"anc":4209,"Ġä¸»è¦ģ":4210,"æ¯Ľ":4211,"ç¤¼":4212,"Ġéħį":4213,"ãĤŃãĤ·":4214,"åĳ¨è¾º":4215,"Ã¤":4216,"Ġå¤§éĺªåºľ":4217,"åħµè¡Ľ":4218,"ett":4219,"ĠéĿĴæ£®":4220,"ãģŁãģĦ":4221,"ãĥ«ãĤ¿":4222,"æµħ":4223,"ç¶¾":4224,"ĠæĪ¸":4225,"ä¼ģæ¥Ń":4226,"ä¸»ãģª":4227,"ãģ¾ãģ¤":4228,"iam":4229,"Ġå¯º":4230,"ft":4231,"ĠAR":4232,"ĠéīĦéģĵ":4233,"çĻºè¡Į":4234,"åıį":4235,"Ġ78":4236,"ode":4237,"ĠãģĿãģ®":4238,"ys":4239,"ĠâĢľ":4240,"ãĥ¼ãĤ²":4241,"ãĥ¢ãĥĩãĥ«":4242,"ãģ®å¤§":4243,"Ġ76":4244,"Ġ**ãĢĮ":4245,"ner":4246,"Ġæļ":4247,"Ġyou":4248,"å³°":4249,"ATION":4250,"TER":4251,"å®ĮæĪĲ":4252,"ii":4253,"ãĤ½ãĥķãĥĪ":4254,"ãĥ¼ãĥĲãĥ¼":4255,"Ġ'''''":4256,"çĶŁæ´»":4257,"Ġå¤§åĪĨ":4258,"amb":4259,"Ġtill":4260,"Ġçİĭ":4261,"ãĤ¹ãĥĪãĥ³":4262,"ĠâĹı":4263,"åĢĻ":4264,"åįĴæ¥Ń":4265,"ave":4266,"LA":4267,"Ġæł¡":4268,"ĠCo":4269,"ere":4270,"Ġ1957":4271,"me":4272,"äººåĵ¡":4273,"ãģ®ä¸Ń":4274,"ãĤ¯ãĤ»ãĤ¹":4275,"Th":4276,"å±±çĶ°":4277,"ĠAnn":4278,"ĠæĶ¾éĢģå±Ģ":4279,"ç«¯":4280,"ãĥĩãĤ¶ãĤ¤ãĥ³":4281,"Ġ77":4282,"way":4283,"æĸŃ":4284,"åįļçī©é¤¨":4285,"ãģ¨ãĤĤ":4286,"ĠåĪĨ":4287,"No":4288,"Ġç®":4289,"ç±³ãĥīãĥ«":4290,"éĢļä¿¡":4291,"Ġåĩ":4292,"Ġéĺ²":4293,"Ġä»®éĿ¢ãĥ©ãĤ¤":4294,"IDE":4295,"1979":4296,"æľŁéĸĵ":4297,"Ġçī¹åĪ¥":4298,"Ġãģı":4299,"ject":4300,"èĩªæ²»":4301,"Â°":4302,"ĠãĥĻãĥ«":4303,"ade":4304,"ä¿ĿèĤ²":4305,"OG":4306,"ĠCent":4307,"åį°":4308,"ited":4309,"UK":4310,"ĠGe":4311,"Sp":4312,"ĠFran":4313,"ãĥ¬ãĥĥãĥī":4314,"ãģªãĤī":4315,"ations":4316,"æħİ":4317,"MS":4318,"Ġéĸ¢æĿ±":4319,"èĬĿ":4320,"Ġå±±å½¢":4321,"ãĥ©ãĤ¤ãĥĪ":4322,"åºĥåŁŁ":4323,"ĠåıĤåĬł":4324,"ãĤ¬ãĥ³ãĥĢãĥł":4325,"Ã¡":4326,"Ġå¯Įå£«":4327,"ãĥ¬ãĥ³ãĥĪ":4328,"ium":4329,"è¦³åħī":4330,"çĽĽ":4331,"ãĥ³ãĤ½ãĥ³":4332,"ret":4333,"ins":4334,"Ġåĩºåł´":4335,"®éĢļ":4336,"Ġçīĩ":4337,"Ġç¨®":4338,"cc":4339,"èı±":4340,"Ġç¬¬äºĮ":4341,"La":4342,"Ġ74":4343,"Ã¶":4344,"ĠãĥķãĤ¸ãĥĨãĥ¬ãĥĵ":4345,"ãģ«ãģ¯":4346,"ĠRo":4347,"TH":4348,"æļ¦":4349,"ĠãĤ·ãĥ¥":4350,"åĲĦ":4351,"ãĥ³ãĥĻ":4352,"ĠãģĤãĤīãģĻãģĺ":4353,"çĪĨ":4354,"Ġçİī":4355,"ãĥĭãĥ¥ãĥ¼ãĤ¹":4356,"èŃ¦å¯Łç½²":4357,"åį±":4358,"ãģ®äººçī©":4359,"ĠãĤ¢ãĥ³ãĥī":4360,"iew":4361,"ãĤ¤ãĥŃ":4362,"æ´ŀ":4363,"Ġå½ĵ":4364,"åħĪçĶŁ":4365,"ĠçµĲæŀľ":4366,"æ¶Īéĺ²":4367,"ĠéĢļç®Ĺ":4368,"Re":4369,"çłĤ":4370,"æ¨¡":4371,"ĠAmer":4372,"Ġç¬¬ä¸Ģ":4373,"1978":4374,"ĠæĿ±æµ·":4375,"âĹı":4376,"æ»Ŀ":4377,"æĿĲ":4378,"ãĥķãĤ©ãĥ¼ãĥī":4379,"PG":4380,"ats":4381,"å±±åı£":4382,"Ġéģĵè·¯":4383,"èĬ¸è¡ĵ":4384,"ãģ«ãģ¤ãģĦãģ¦":4385,"Ġpres":4386,"çĶ°æĿĳ":4387,")ãĢį":4388,"Ġä¸ĢèĪ¬":4389,"æ¨ªæµľ":4390,"les":4391,"Ġi":4392,"ĠãĤ¯ãĥ©":4393,"ãĤ®ãĥ¥ãĥ©ãĥ¼":4394,"ĠãģĿ":4395,"çĶ°ä¸Ń":4396,"ãĥĲãĥ©":4397,"ĠéŁ":4398,"ä¹³":4399,"Ġ1954":4400,"WA":4401,"Ġæĸ½è¨Ń":4402,"åĨĻçľŁ":4403,"ĿéĽ¢":4404,"ãĥķãĤ¡ãĤ¤":4405,"ä½įç½®":4406,"que":4407,"ĠTOKYO":4408,"Ġä½ı":4409,".''":4410,"ãĥīãĤ¥":4411,"æ¯İ":4412,"IF":4413,"äº¤å·®çĤ¹":4414,"1977":4415,"Ġèģĸ":4416,"ãĤ¸ãĤ¿ãĥ«":4417,"ction":4418,"ãĤ¤ãĥ³ãĤ¿":4419,"ãģªãģ¿":4420,"Ġ1950":4421,"air":4422,"ãĥªãĥĨãĤ£":4423,"åķıé¡Į":4424,"ãĤ¦ãĥĪ":4425,"CA":4426,"ç¿¼":4427,"Ġæ¯İ":4428,"ĠIntern":4429,"Ġä½ĲãĢħæľ¨":4430,"Ġãĥķãĥ©ãĥ³ãĤ¹":4431,"ãĥĥãĤ¿":4432,"å®£":4433,"ãĥ¯ãĥ¼ãĥ«ãĥī":4434,"æĺłåĥı":4435,"Ġè¬Ľè«ĩç¤¾":4436,"Ġç·ıåĲĪ":4437,"ĠæĹ¥æľ¬èªŀ":4438,"ãĤ¬ãĥ³":4439,"åĵģçķª":4440,"Ġç¦ıäºķ":4441,"åħ±åĴĮ":4442,"ãģ®æĹ¥":4443,"ĠæĴ®å½±":4444,"Ġåīµ":4445,"ãĤ«ãĥ¼":4446,"æĤł":4447,"Ġ85":4448,"ĠãĤĬ":4449,"åºĦ":4450,"ãĥĭãĤ³":4451,"ĠèıĬ":4452,"Ġ02":4453,"AGE":4454,"ãĥªãĥ¼ãĥ³":4455,"ĠMA":4456,"æ®ºäºº":4457,"å¿į":4458,"ç¤¾éķ·":4459,"è²ŀ":4460,"æ±ºå®ļ":4461,"Ġ1945":4462,"ĠçĶ»":4463,"Ġå¿Ĺ":4464,"ĠåŁİ":4465,"éĸĭæ¥Ń":4466,"An":4467,"over":4468,"atch":4469,"ãĤ¢ãĤ¹":4470,"ama":4471,"ute":4472,"Ġ88":4473,"ãĥģãĥ£ãĥ³ãĥįãĥ«":4474,"de":4475,"ä¸İ":4476,"ãĤ³ãĥ³ãĥĨ":4477,"Ġkg":4478,"'t":4479,"Ġåķ":4480,"ĠãĤ¯ãĥŃ":4481,"Ġçļ":4482,"EB":4483,"ı¡":4484,"æŃ³ä»¥ä¸Ĭ":4485,"ãĥ³ãĤ²":4486,"ä¹ĭåĬ©":4487,"ater":4488,"(-":4489,"ãĥĬãĤ¤ãĥĪ":4490,"çģ¯":4491,"è°·å·Ŀ":4492,"ãĥ¼ãĥŃãĥĥãĥĳ":4493,"æĶ¿æ²»":4494,"Ġåħ¨åĽ½":4495,"å¯Įå£«":4496,"éĽ»æ°Ĺ":4497,"ãģ¨ãģªãĤĭ":4498,"ĠæĿ±åĮĹ":4499,"çµ¶":4500,"ãĥĪãĥ¬":4501,"ĠãĥīãĤ¤ãĥĦ":4502,"å¤±":4503,"ãĥ¼ãĤ±":4504,"ç·Ĵ":4505,"ãģ¾ãĤĬ":4506,"||":4507,"ãģ¨ãģį":4508,"çİĭåŃĲ":4509,"ãĥĥãĥĶ":4510,"Ġ120":4511,"ĠTR":4512,"ĠãĤ¹ãĥĨ":4513,"ä»ı":4514,"èģ¡":4515,"ĠPer":4516,"ĠèĪª":4517,"ãĥ³ãĥı":4518,"âĸ":4519,"Ġèº«":4520,"åı¸ä»¤":4521,"Ġè¡ĮæĶ¿":4522,"inal":4523,"Ĵäºķ":4524,"Ġå®Ŀ":4525,"ãĤ¦ãĥł":4526,"IK":4527,"Ġæľ¨æĿĳ":4528,"ãĥĸãĥŃãĤ°":4529,"Ġåĵ":4530,"Ġ79":4531,"1976":4532,"SW":4533,"ĠPC":4534,"Ð¸":4535,"ä¸¹":4536,"its":4537,"Ġè¦ıæł¼åĵģçķª":4538,"ĠãĥĩãĤ£ãĤ¹ãĤ³ãĤ°ãĥ©ãĥķãĤ£":4539,"Ġle":4540,"ä½ľæĪ¦":4541,"ĠæīĢåľ¨åľ°":4542,"åįĥèĳī":4543,"Ġè§£èª¬":4544,"è¡ĽéļĬ":4545,"ãĤµãĥ³":4546,"Ġä¸ĸå¸¯æķ°":4547,"ĠOp":4548,"åıĹ":4549,"ĠAir":4550,"è²¨":4551,"ĠèĪ¹":4552,"ĠãĥģãĤ§":4553,"1973":4554,"ãģ«ãģ¦":4555,"æ¡ĥ":4556,"rans":4557,"Ġ1948":4558,"é§Ĳ":4559,"ãĤ¤ãĤ¨":4560,"è»Ĭä¸¡":4561,"1970":4562,"ĠIDOL":4563,"çł´":4564,"çĶ·åŃĲ":4565,"1971":4566,"Ġæµ¦":4567,"Ġä¹Ŀå·ŀ":4568,"ĠçŁ³å·Ŀ":4569,"å®ĩå®Ļ":4570,"ony":4571,"Ġèĸ":4572,"çĬ¬":4573,"Ġå®ļ":4574,"ãĤµãĥ¼ãĥĵãĤ¹":4575,"ĠæľĪæĽľ":4576,"Ðµ":4577,"use":4578,"Ġä»Ļåı°":4579,"çķ°":4580,"è¦ļ":4581,"ames":4582,"åĨħå®¹":4583,"äºĶéĥİ":4584,"ĠçĪ":4585,"ãģĤãģį":4586,"Ġ1952":4587,"éºĹ":4588,"ãģ¶ãĤĬ":4589,"ĠæľĢçµĤ":4590,"ple":4591,"ãĤĢãĤī":4592,"Ġ1953":4593,"Ġä¿¡":4594,"ãĤĨãģĨ":4595,"ĠãĥŁãĥ¥ãĥ¼ãĤ¸":4596,"Ġed":4597,"aj":4598,"TR":4599,"bo":4600,"å·¡":4601,"Ġæ²ĸç¸Ħ":4602,"ãģĭãĤīãģ®":4603,"çķ¿":4604,"ĠãĤ¯ãĥ©ãĥĸ":4605,"ãĥ©ãĤ¯ãĤ¿":4606,"ĠSou":4607,"!?":4608,"è¨Ńç«ĭ":4609,"ons":4610,"âĶģâĶģ":4611,"ãĥ¼ãĥ¨":4612,"1975":4613,"ĠãĥĹãĥª":4614,"ĠçĮ":4615,"Ġéĺªç¥ŀ":4616,"1974":4617,"Ġan":4618,"Ġpro":4619,"ãģªãģŁ":4620,"Ġ81":4621,"ãĤ®ãĥ£":4622,"ual":4623,"ĠæĿ±æĺł":4624,"ãĤ®ãĥ¼":4625,"ç¥ŀæĪ¸":4626,"ura":4627,"ki":4628,"Ġè¨Ń":4629,"ĠãĤ°ãĥ«ãĥ¼ãĥĹ":4630,"ãĥķãĤ£ãĥ¼ãĥ«":4631,"ãĥ³ãĤ¸ãĥ³":4632,"ican":4633,"red":4634,"ouse":4635,"éĢ£çĽŁ":4636,"è¼¸":4637,"æĸİ":4638,"ĠçĶ²":4639,"ike":4640,"Ġåħ¨åŁŁ":4641,"æĴ®å½±":4642,"ãĥ¬ãĤ¯ãĤ·ãĥ§ãĥ³":4643,"åŃ¦çĶŁ":4644,"Ġ*(":4645,"BE":4646,"Ġå²Ĳéĺľ":4647,"ä¸ŃæĿĳ":4648,"ĠEng":4649,"Ġå°ıéĩİ":4650,"ãĤ´ãĥ³":4651,"ris":4652,"éģĭåĭķ":4653,"ãĢı)":4654,"ĳèªĮ":4655,"1972":4656,"ãģŁãĤĬ":4657,"åµĲ":4658,"Ġ::;":4659,"ĠBEST":4660,"ãĤ¹ãĥĶ":4661,"ãĥ¨ãĤ¿":4662,"ĠãĤ·ãĥ§":4663,"ä½ľå®¶":4664,"OH":4665,"yn":4666,"ãĤ«ãĤ¤":4667,"éĭ":4668,"è¡ĽéĸĢ":4669,"ĠãĤı":4670,"ãĥīãĤ¤ãĥĦ":4671,"çīĩ":4672,"ĠãĥĹãĥŃãĥĩãĥ¥ãĥ¼ãĤµãĥ¼":4673,"Ġå¸¸":4674,"çįĦ":4675,"ãĥ¬ãĥ¼ãĤ¹":4676,"LS":4677,"ãĥ©ãĤ¹ãĥĪ":4678,"ãģ®ãģĨ":4679,"Ġèıħ":4680,"ãĥĳãĥ¼ãĤ¯":4681,"æ·±å¤ľ":4682,"ps":4683,"åĿĬ":4684,"Ġå·¥":4685,"Ġæħ":4686,"eng":4687,"to":4688,"Ġ82":4689,"ari":4690,"TT":4691,"UD":4692,"ĭèŃ·":4693,"Ġ150":4694,"Ġbe":4695,"ĠåĪ©çĶ¨":4696,"ãĥķãĥŃ":4697,"ograph":4698,"çģ½":4699,"Ġç¦ıå³¶":4700,"ĠOf":4701,"Ġå¥Īèī¯":4702,"ç¥ī":4703,"uss":4704,"æ£ĭ":4705,"ĠImage":4706,"åĩ¦":4707,"æ¼«çĶ»":4708,"æĪĳ":4709,"Ġä¸»é¡ĮæŃĮ":4710,"å¤ķ":4711,"ãĥĳãĤ¹":4712,"æµ·è»į":4713,"''',":4714,"éģ·":4715,"Ġè¡¨":4716,"éĿĸ":4717,"å¸°":4718,"ä¸īä¸ģçĽ®":4719,"å¸Ĥæ°ĳ":4720,"å¾ĹçĤ¹":4721,"ift":4722,"ose":4723,"ãģ®åľ°":4724,"ull":4725,"ble":4726,"æľĢé«ĺ":4727,"EP":4728,"ĠæĹ¥æľ¬ãĥĨãĥ¬ãĥĵ":4729,"ãĥ¼ãĥ¢":4730,"åıĮ":4731,"ĠBar":4732,"ĠLife":4733,"æ´²":4734,"ĠåĪ¥":4735,"ãĥ³ãĥĶãĥĥãĤ¯":4736,"ãĤŃãĥ£ãĥ©ãĤ¯ãĤ¿ãĥ¼":4737,"ãĥĩãĥ³":4738,"æĿ±äº¬éĥ½":4739,"ĠWind":4740,"ãĥ¼ãĥĢãĥ¼":4741,"250":4742,"ãĢķ":4743,"æ²¹":4744,"ĠWOR":4745,"ãĤ«ãĥ¼ãĥī":4746,"èĺŃ":4747,"Ġæĺłåĥı":4748,"ãĥ«ãĤº":4749,"ãĥ¼ãĥı":4750,"çı¾ä»£":4751,"Ġç¥ŀå¥Īå·ĿçľĮ":4752,"Ġå®Ī":4753,"Wh":4754,"Ġ''(":4755,"ãģ©ãģĨ":4756,"ãĥŀãĥª":4757,"å¡©":4758,"ĠãĥĪãĥ©":4759,"èªī":4760,"ãĥĻãĥ¼ãĤ¹":4761,"IP":4762,"Ġ1951":4763,"ãĤīãģĦ":4764,"Ġéģ¸æīĭåĲį":4765,"è¸":4766,"åħĦ":4767,"600":4768,"Ġå²©æīĭ":4769,"èŃ°éĻ¢èŃ°åĵ¡":4770,"çĸ":4771,"GE":4772,"ya":4773,"èĦĩ":4774,"ĠçĽ´":4775,"ĠBest":4776,"å¤§è¼Ķ":4777,"urn":4778,"800":4779,"ãģĬãĤĪãģ³":4780,"ãĤ³ãĥŁ":4781,"Ġ1949":4782,"å§ī":4783,"ç°":4784,"Ġãĥ©ãĤ¤ãĥĸ":4785,"Ġéľ":4786,"ĠåĮ»":4787,"ĠæĦĽçŁ¥çľĮ":4788,"æĹĹ":4789,"ãĤ¬ãĤ¹":4790,"æĽ¿ãģĪ":4791,"Ġ84":4792,"å¤©çļĩ":4793,"du":4794,"ç´ħ":4795,"èıĬ":4796,"è²©å£²":4797,"ĠãĤ¯ãĥª":4798,"alk":4799,"ĠçĢ¬":4800,"ĠHar":4801,"Ġå±±å´İ":4802,"Ġç´Ģ":4803,"ĠAs":4804,"ĠåĪ¶å®ļ":4805,"æĤŁ":4806,"ren":4807,"org":4808,"ç¯Ħ":4809,"ĠCount":4810,"å²Ĳ":4811,"Le":4812,"FL":4813,"å¯Ħ":4814,"ĠSm":4815,"ĠYork":4816,"ecial":4817,"ana":4818,"ĠãĤ¼":4819,"uro":4820,"Ġæ®":4821,"Ġpresents":4822,"ãĥªãĤ¢ãĥ³":4823,"Ġme":4824,"çĬ¯":4825,"ĠåŁº":4826,"Ġå¢Ĺ":4827,"é®®":4828,"ãģĬãĤĬ":4829,"ĠTour":4830,"ãĤ¯ãĥ«":4831,"ino":4832,"çĻºè¡¨":4833,"okyo":4834,"Ġçµ¶":4835,"ãĤĵãģł":4836,"æ¶²":4837,"ŀį":4838,"Ġ1947":4839,"æµª":4840,"ĠãĥıãĤ¤":4841,"ãĤ°ãĥŃ":4842,"æĸ°æ½Ł":4843,"æķ¦":4844,"åĽ½ç«ĭ":4845,"UL":4846,"Ġãĥ¬ãĤ¤":4847,"ĠStud":4848,"Ġ86":4849,"Ġå¤¢":4850,"ãĥĥãĥĨ":4851,"éľĩ":4852,"æ¸ħæ°´":4853,"Ġ110":4854,"ĠWill":4855,"ĠåĢī":4856,"ĠãĤ·ãĥªãĥ¼ãĤº":4857,"ãĥŁãĤ¹":4858,"NE":4859,"GP":4860,"æıĽ":4861,"æĹħå®¢":4862,"ĠPlay":4863,"ãĤ¢ãĤ¤ãĥīãĥ«":4864,"ãĥĹãĥ¬ãĥŁãĤ¢":4865,"ãĥ¡ãĤ¤":4866,"1969":4867,"éĿŀ":4868,"ãģ®ãģŁãĤģ":4869,"ĠãĤ¨ãĥ«":4870,"Ġéĸ¢è¥¿":4871,"ĠLa":4872,"é«ĺæ©ĭ":4873,"æĶ¹ç§°":4874,"ç½ª":4875,"rid":4876,"Ġå¹´åº¦åĪ¥":4877,"Ġver":4878,"ç´Ĺ":4879,"ãĥ³ãĥļ":4880,"ĠTo":4881,"Ġ99":4882,"Ġè¦³":4883,"å¡Ķ":4884,"ĠOne":4885,"çĪµ":4886,"ãĤ¤ãĤª":4887,"ien":4888,"Ar":4889,"æķ£":4890,"ãĤ¤ãĥĻãĥ³ãĥĪ":4891,"Ġé¶´":4892,"ĠUp":4893,"å°ĤæĶ»":4894,"bum":4895,"ãĥķãĥ©ãĥ³ãĤ¹":4896,"æĹ¥æľ¬èªŀ":4897,"Ġ83":4898,"ĠåĲĪè¨Ī":4899,"ãĤ¤ãĥĸ":4900,"ãĥŁãĥĭ":4901,"ãĥ¼ãĤ»":4902,"able":4903,"ãģ¾ãĤĭ":4904,"äºĮéĥİ":4905,"ãĥ«ãĥĦ":4906,"ĠTw":4907,"éłĨä½į":4908,"æ¶¼":4909,"Ġ87":4910,"ãģĭãģª":4911,"Ġcom":4912,"åĪĢ":4913,"ĠInd":4914,"ĠCity":4915,"ãĤĬãģ°":4916,"ãģĭãģĦ":4917,"ãģ®äººçī©ä¸Ģè¦§":4918,"çĦ¼":4919,"ä½ĵèĤ²é¤¨":4920,"IAL":4921,"ãĤ¯ãĤ¿ãĥ¼":4922,"ãĤ¢ãĤ«":4923,"ĠæĢ§":4924,"éĻ¤":4925,"æĹ¥æĶ¾éĢģ":4926,"ĠHer":4927,"ĠQu":4928,"ãģ®éģ¸æīĭä¸Ģè¦§":4929,"ĠTime":4930,"å±±æľ¬":4931,"ãĥ¼ãĤ½ãĥ³":4932,"Ġ**ãĢİ":4933,"ĠGO":4934,"ĠèĮ¨":4935,"ster":4936,"ke":4937,"åıĬãģ³":4938,"éĻ¸ä¸Ĭ":4939,"ĠTO":4940,"Ġæ¢ħ":4941,"form":4942,"ãĥ³ãĥŃ":4943,"äºŃ":4944,"Ġå·Ŀå´İ":4945,"ãģĵãģ®":4946,"ãĥ¼ãĤ¦":4947,"å¤§è³ŀ":4948,"Ġç·¨éĽĨ":4949,"oft":4950,"Ġåľ¨":4951,"Ġæ±łçĶ°":4952,"æ®Ĭ":4953,"æ¼¢":4954,"Ġz":4955,"ĠEl":4956,"Ġæĥħ":4957,"ãĤ¸ãĥ³":4958,"ãĥ¯ãĥ¼ãĥī":4959,"å»¶éķ·":4960,"VER":4961,"ĠãĤ«ãĥ«":4962,"å°±":4963,"ology":4964,"æķĳ":4965,"Ġ95":4966,"ä»²":4967,"Ġå»ĥ":4968,"Ġçĭ¬":4969,"ĠãĤ¤ãĤ®ãĥªãĤ¹":4970,"ĠãĥĭãĤ³":4971,"ãģ«ãģĬãģĳãĤĭ":4972,"Ġ1944":4973,"ĠRem":4974,"éĬĥ":4975,"çĹĩ":4976,"Ġmm":4977,"inc":4978,"ãĥ³ãĥĩãĤ£ãĥ³ãĤ°":4979,"Ġcol":4980,"ĠéĮ":4981,"æĵį":4982,"orth":4983,"RC":4984,"Ġ89":4985,"ãĤ¹ãĤ¿ãĥĥãĥķ":4986,"Ġé£Ľ":4987,"KA":4988,"æŃĮæīĭ":4989,"è»Ĭåł´":4990,"ĠãĢį":4991,"éį":4992,"èİ":4993,"KB":4994,"ĠãĤªãĥªãĤ¸ãĥĬãĥ«":4995,"ãĤ²ãĤ¹ãĥĪ":4996,"æĸĩåĮĸè²¡":4997,"éħ¸":4998,"stem":4999,"ittle":5000,"åĭ²":5001,"1968":5002,"ĠSong":5003,"!ãĢį":5004,"äººéĸĵ":5005,"EFA":5006,"ãĤºãĥł":5007,"ĠçµĤ":5008,"ets":5009,"īèĹ¤":5010,"ãĥķãĥªãĤ«":5011,"å·Ŀå¸Ĥ":5012,"ãģ¤ãģį":5013,"ĠãĤ¢ãĤ¸ãĤ¢":5014,"ENT":5015,"ãĤĵãģĺ":5016,"æĸĩç¤¾":5017,"çŀ":5018,"ĠAb":5019,"ãĥ¼ãĤª":5020,"Ġæ¸ĭè°·":5021,"ãĤ¯ãĤ·":5022,"åĮºåŁŁ":5023,"ler":5024,"ãĥĩãĤ¤":5025,"ãģĤãģĦ":5026,"èįĺ":5027,"ĠãĤ®ãĥ£":5028,"éī":5029,"ĠAt":5030,"ãĤ¢ãĤ¸ãĤ¢":5031,"ĠFEST":5032,"ĠãĤµãĥĸãĤ¿ãĤ¤ãĥĪãĥ«":5033,"ĠGl":5034,"ĠéĻ¸ä¸Ĭ":5035,"ĠRes":5036,"çŃĨ":5037,"ĠæłĹ":5038,"åĲīçĶ°":5039,"ĠWe":5040,"è¢ĭ":5041,"ini":5042,"ĠAp":5043,"Ġæ§ĭ":5044,"ãĥĥãĥĿ":5045,"ĠèĤ":5046,"æ³³":5047,"ä¸ĩåĨĨ":5048,"ãģķãģ¨":5049,"ãĤ¦ãĤ§ãĤ¤":5050,"ka":5051,"ç¥ĸ":5052,"æĪ¦éļĬ":5053,"ãĤ¸ãĥ£ãĥ¼":5054,"ä»¥éĻį":5055,"ĠãĤ¨ãĥĶãĤ½ãĥ¼ãĥī":5056,"ãĥ¼ãĤ·ãĥ£":5057,"Ġæīĭ":5058,"ç¦ıç¥ī":5059,"ĠDay":5060,"ĠãĤ¹ãĤ³":5061,"ĠSE":5062,"Ġä¹Ŀ":5063,"è¥":5064,"Ġæ°ı":5065,"ĠéĢ²":5066,"ane":5067,"ãģķãģį":5068,"lo":5069,"ãĥ¬ãĥ¼ãĤ·ãĥ³ãĤ°":5070,"éĢ£åĲĪ":5071,"è¬Ļ":5072,"ĠãĥĿãĤ¤ãĥ³ãĥĪ":5073,"ĠãĤ¹ãĥĪãĥ¼ãĥªãĥ¼":5074,"ãĤ¨ãĤ¹ãĥĪ":5075,"ĠçµĮæ¸Ī":5076,"ãĥĥãĤ±":5077,"ros":5078,"ãĥ¦ãĥĭ":5079,"ãĥ¬ãĥ¼ãĥĪ":5080,"ãĥĻãĥ«ãĥĪ":5081,"é¦¬åł´":5082,"ĠAg":5083,"å¯¾å¿ľ":5084,"ĠèĳĹæĽ¸":5085,"Ġéģİåİ»ãģ®":5086,"Ġæ±ŁæĪ¸":5087,"èĻ«":5088,"åĲĪè¡Ĩ":5089,"GO":5090,"ãĥ©ãĥªãĥ¼":5091,"ĠãĤµãĤ¤":5092,"éļľ":5093,"ä¼ļèŃ°":5094,"å½¼":5095,"ĠSC":5096,"ĠRob":5097,"ĠçĬ":5098,"ÑĢ":5099,"ä»Ļ":5100,"Ġå¹´è¡¨":5101,"ĠâĨĲ":5102,"LUB":5103,"ĠéłĪ":5104,"ãģ®å¤ī":5105,"Ð½":5106,"æīį":5107,"cy":5108,"æģŃ":5109,"ãĤ³ãĤ¹":5110,"ç´į":5111,"ãĤ¦ãĥ³ãĤµãĥ¼":5112,"çĶºæĿĳ":5113,"ãĥ¼ãĤ´":5114,"Ġä¸īéĩį":5115,"ãĥĩãĤ¹":5116,"æı®":5117,"ãĥĪãĥ©ãĥĥãĤ¯":5118,"ĠSoc":5119,"ĠåĨį":5120,"LIVE":5121,"å¹´æľĪæĹ¥":5122,"å¯©":5123,"éĲ":5124,"è±Ĩ":5125,"uper":5126,"éĸī":5127,"co":5128,"åİļ":5129,"åĪĹè»Ĭ":5130,"Ġ1943":5131,"ãĤıãĤĬ":5132,"ãĥĥãĤ·":5133,"æĶ¯æı´":5134,"èĩªåĭķè»Ĭéģĵ":5135,"Ġæ¼«çĶ»":5136,"ĠMc":5137,"ãĥ¤ãĥŀ":5138,"Ġç¦ıå²¡çľĮ":5139,"éĻĦ":5140,"ese":5141,"æķħ":5142,"åĪ»":5143,"GA":5144,"åİŁçĶ»":5145,"aul":5146,"åıĤèĢĥæĸĩçĮ®":5147,"éŃĤ":5148,"ãģĬãģĬ":5149,"èĳĹä½ľ":5150,"è¾ŀ":5151,"Ġ\\":5152,"ãĤ¹ãĤ¿ãĥ¼ãĤº":5153,"ĠStar":5154,"å°ıæŀĹ":5155,"Ġ96":5156,"éĽ·":5157,"åĽŀå¤§ä¼ļ":5158,"SE":5159,"ãģ®å·»":5160,"ãĤ¬ãĥ«":5161,"ãĥŀãĥ¼":5162,"ãĥģãĥĬ":5163,"ĠBE":5164,"ĠåĲ¹":5165,"))":5166,"ĠMF":5167,"VA":5168,"ĠPol":5169,"ãĤ³ãĥ¼ãĥĬãĥ¼":5170,"ideo":5171,"å°»":5172,"æłĹ":5173,"Ġè¡Ģ":5174,"ä¸»ç¾©":5175,"ĴéĻº":5176,"è¾°":5177,"ĠãĤ¤ãĥ³ãĤ¿":5178,"çĴ°å¢ĥ":5179,"é¼":5180,"ãĥĵãĥ³":5181,"ãĤªãĥ¼ãĥĹãĥ³":5182,"ä¼ļéķ·":5183,"å¸ĿåĽ½":5184,"ãĥ¢ãĥ³ãĥī":5185,"ç´¹":5186,"Ġéº»":5187,"ener":5188,"æŀł":5189,"ç·´":5190,"é«":5191,"ãģĮãģĤãĤĭ":5192,"ãĥ³ãĤ¼":5193,"ONG":5194,"è²ł":5195,"ĠCOM":5196,"ãĢģãĢĮ":5197,"ĠComm":5198,"ãĥıãĤ¦ãĤ¹":5199,"´çĶ°":5200,"Ġ92":5201,"Ġé¾į":5202,"éĽ»è»Ĭ":5203,"ç£¨":5204,"éĢĶ":5205,"1967":5206,"ãĥĴãĥŃ":5207,"-'''":5208,"ãĥŀãĥ©":5209,"ç·ł":5210,"MP":5211,"Ġ93":5212,"ãģķãģĦ":5213,"oto":5214,"Ġå®Į":5215,"ãģľ":5216,"my":5217,"éģĭè¡Į":5218,"ĠèªķçĶŁ":5219,"ĠçķªçµĦ":5220,"Ġæ©ĭæľ¬":5221,"è»½":5222,"ĠåĪĿåĽŀ":5223,"ĠèįĴ":5224,"Cl":5225,"ĠæĿİ":5226,"ãģįãĤĭ":5227,"ãĤĤãĤĵ":5228,"ĠçĽ®":5229,"ä½ĳ":5230,"Ġâĸ":5231,"ãĤ¿ãĤ¤ãĥł":5232,"ãĥ¡ãĥ©":5233,"åĳĤ":5234,"Ġåĩºèº«":5235,"ãĥ¼ãĥĵãĥ¼":5236,"å¹´éĢ£ç¶ļ":5237,"éķ·å´İ":5238,"ital":5239,"ĠMon":5240,"ãĤ°ãĥª":5241,"æĿŁ":5242,"é¡Ķ":5243,"ĠãĥķãĥŃ":5244,"ãģıãĤĬ":5245,"æĸĩåŃĹ":5246,"ĠYour":5247,"éĸĭè¨Ń":5248,"LO":5249,"èīĩ":5250,"éı¡":5251,"Ġç¾¤":5252,"å·¨":5253,"ĠRecords":5254,"è±ª":5255,"**":5256,"ãĤ¿ãĥ³":5257,"æ½¤":5258,"è³ĢçľĮ":5259,"ãĤ»ãĥĥãĥĪ":5260,"iversary":5261,"Ġ1946":5262,"ĠåŃ¦æł¡":5263,"Ġ400":5264,"Ġèĭ±èªŀ":5265,"ral":5266,"Ġ1941":5267,"ç¶±":5268,"ĠãĤ¯ãĥ¬":5269,"æ¿ĥ":5270,"ãĤ·ãĥ³":5271,"ĠãĤ¦ãĤ©":5272,"ĠæľĢé«ĺ":5273,"Ġä¼ģçĶ»":5274,"ize":5275,"Ġì":5276,"é£¾":5277,"è¨ª":5278,"èģ´":5279,"Ġ1940":5280,"èĪĹ":5281,"åħ¥ãĤĬ":5282,"ĠDream":5283,"Ġè£ľ":5284,"æ¾Ħ":5285,"ç¨İ":5286,"éķ·éĩİ":5287,"æ¶¯":5288,"åĽ½æ°ĳ":5289,"eth":5290,"ze":5291,"Ġæ¿":5292,"ĠåĮº":5293,"æ¥½éĥ¨":5294,"ãĥ¼ãĥĮ":5295,"ãĥĦãĤ¢ãĥ¼":5296,"ãĥ¯ãĥ³":5297,"ement":5298,"åĽ£ä½ĵ":5299,"ãģ¿ãģ®":5300,"åľĭ":5301,"Ġ98":5302,"æľªæºĢ":5303,"Ġä½ĵ":5304,"åħ±åĴĮåĽ½":5305,"Ġãĥ¦ãĥĭ":5306,"rag":5307,"Ġå¡©":5308,"ãĥ«ãĤ«":5309,"ĠèĹ¤åİŁ":5310,"ita":5311,"ĠåŃĲ":5312,"ald":5313,"ĠInternational":5314,"Ġ97":5315,"1960":5316,"ãĥ¯ãĤ¤":5317,"ãĥ«ãĤ³":5318,"æĿ¾æľ¬":5319,"Ġæ¶Ī":5320,"æĿ±æĺł":5321,"çĤİ":5322,"è·ĿéĽ¢":5323,"ĠæĦĽåªĽ":5324,"ĠCan":5325,"ãĤ¯ãĥ©ãĤ¹":5326,"Ġ91":5327,"Ġ1942":5328,"ĠèĥĮçķªåı·":5329,"ãĤ·ãĥ£ãĥ³":5330,"éĿĻå²¡":5331,"ĠåĽ½ç«ĭ":5332,"åĪ¸":5333,"Ġãĥ¤ãĥŀ":5334,"Ġèī¦":5335,"çĶ°çĶº":5336,"oss":5337,"Ġå¼ķ":5338,"æĲº":5339,"ãĥĲãĥ³":5340,"MI":5341,"åĽĽéĥİ":5342,"ãĥŃãĤ¦":5343,"uck":5344,"Ġmy":5345,"110":5346,"ĠStation":5347,"Ġãģ»ãģĭ":5348,"è¡ĮæĶ¿":5349,"ĠãĤŃãĥ£ãĥ©ãĤ¯ãĤ¿":5350,"ĠãĤ¹ãĥĨãĤ£":5351,"ãĤ«ãĥª":5352,"èĢķ":5353,"ĠInst":5354,"å¸³":5355,"ãĥ¼ãĥĸãĥ«":5356,"....":5357,"ãĤģãģĲ":5358,"ĠMag":5359,":'''":5360,"ãĥĥãĤ³":5361,"éĽ»åĬĽ":5362,"lin":5363,"ĠåķĨ":5364,"èĻİ":5365,"FF":5366,"ãĥ¼ãĥ¨ãĥ¼ãĤ¯":5367,"æĻ¶":5368,"ãĥªãĥªãĥ¼ãĤ¹":5369,"by":5370,"è»Į":5371,"ãĥĥãĤ¿ãĥ¼":5372,"ĠYOU":5373,"ç¹ģ":5374,"ãĥķãĥª":5375,"IVAL":5376,"»è¨³":5377,"ãĥĨãĤ¤":5378,"ental":5379,"ARD":5380,"ĠæĬķæīĭ":5381,"æ±ŁæĪ¸":5382,"ĠUEFA":5383,"ummer":5384,"ãģ«ãģĤãĤĭ":5385,"æĸ°èģŀç¤¾":5386,"fer":5387,"ãģ®èĬ±":5388,"åįļå£«":5389,"Ġå¤ľ":5390,"ãģįãģŁ":5391,"æľªæĿ¥":5392,"ãĥ³ãĥĳãĤ¹":5393,"æ£Ĵ":5394,"ãģķãģ¾":5395,"ãĤģãģ¦":5396,"å¦Ļ":5397,"Ġæłĥæľ¨":5398,"èĴ":5399,"ãģĹãĤĵ":5400,"å°ĤéĸĢåŃ¦æł¡":5401,"Ġas":5402,"ãĤ¹ãĤŃ":5403,"ãĤ¹ãĥĪãĥ©":5404,"Ġç¤¾ä¼ļ":5405,"ĠRev":5406,"åºĬ":5407,"è¨±":5408,"AZ":5409,"Ġéİ":5410,"Ġ94":5411,"éĢĨ":5412,"My":5413,"1966":5414,"1961":5415,"Ġæľ¨æĽľ":5416,"ĠæĮĩ":5417,"ãģ«ãģª":5418,"çĶ°é§ħ":5419,"è¾¼":5420,"Ġãĥ¡ãĤ¤":5421,"ĠåĬĩåł´çīĪ":5422,"ĠãĤ¹ãĥĿãĥ¼ãĥĦ":5423,"Ġpp":5424,"Ġå®ĩå®Ļ":5425,"å¡¾":5426,"ãĥĬãĥĢ":5427,"1965":5428,"ãĥ³ãĥĭ":5429,"ãģ®æĪ¦":5430,"aut":5431,"Ġ03":5432,"å·³":5433,"irst":5434,"å¹´ãģ¶ãĤĬ":5435,"ĠDr":5436,"ãĥĳãĥ©":5437,"åĩºçīĪç¤¾":5438,"Ġéĥ¨":5439,"å»ºç¯ī":5440,"ãģ¯ãĤĭ":5441,"ãĥĸãĥ³":5442,"Ġãģ§ãģĤãĤĭ":5443,"ĠçĶ»åĥı":5444,"ãĤªãĥ«":5445,"ãĥĢãĤ¤":5446,"ĠãĤ¿ãĤ¤ãĥł":5447,"ĠåĲĽ":5448,"ĠHistory":5449,"å¤§æĪ¦":5450,"ãĥĽãĥĨãĥ«":5451,"iano":5452,"åĲįãģ®":5453,"Ġåľ°åŁŁ":5454,"Ġæīĵ":5455,"ãĥĨãĥ¬ãĥĵæĿ±äº¬":5456,"ĠãĤĨãģĨ":5457,"Ġèįī":5458,"ĠEP":5459,"æĹħå®¢éīĦéģĵ":5460,"ĠçĲĨ":5461,"uch":5462,"çĨĬæľ¬":5463,"ãĤ¸ãĥ§ãĥ¼":5464,"ĠEN":5465,"å¼ĵ":5466,"ĠOP":5467,"ĠChrist":5468,"ĠAc":5469,"å®Łæĸ½":5470,"çĶ»çĽ£çĿ£":5471,"Ġé»Ħ":5472,"åħħ":5473,"å³ł":5474,"ĠåīįçĶ°":5475,"ĠéĢĢ":5476,"ä½ıå®ħ":5477,"ãĤ»ãĥ«":5478,"ãĤ¸ãĤ¢ãĥł":5479,"Ã¨":5480,"Ġãģĵãģ®":5481,"æĭ³":5482,"çªģ":5483,"ĠOfficial":5484,"LB":5485,"éģĭè»¢":5486,"Ġå¤ī":5487,"å¯¾è±¡":5488,"ãĥıãĥł":5489,"èĵ®":5490,"ãĥĥãĤ·ãĥ§ãĥ³":5491,"çİ²":5492,"Ġçµµ":5493,"æ¸¡è¾º":5494,"ĠMix":5495,"ori":5496,"-)":5497,"ĠBer":5498,"ma":5499,"èĸ«":5500,"é¡ĺ":5501,"ĠçĦ¡æīĢå±ŀ":5502,"ĠãĤ¸ãĥ§ãĥ¼ãĤ¸":5503,"åºĥåŁŁåľı":5504,"åıİåħ¥":5505,"ãĥ¼ãĥĩãĥ³":5506,"ates":5507,"Ġå²¡å±±":5508,"ãĥ³ãĥ¡":5509,"å¢³":5510,"çĶ±æĿ¥":5511,"Ġç¦ıå³¶çľĮ":5512,"Ġun":5513,"ãĢħæ±ºåĭĿ":5514,"ãĥŃãĥ¼ãĥī":5515,"ution":5516,"æĿ±æµ·":5517,"çĽĬ":5518,"ãĥ©ãĤ¤ãĥĲãĥ¼":5519,"ãĤ¹ãĥ©":5520,"ĠèĩªçĶ±æ°ĳä¸»åħļ":5521,"ĠãĥĨãĥ¬ãĥĵæľĿæĹ¥":5522,"Ġdu":5523,"ÃŃ":5524,"Ġæ°Ĺ":5525,"na":5526,"Ġ300":5527,"ç¤İ":5528,"å¾ħ":5529,"ĠNEW":5530,"ĠMON":5531,"lection":5532,"Ġç³»":5533,"Ġç´Ħ":5534,"èĩ¨":5535,"YA":5536,"Ġé¹¿åħĲå³¶":5537,"åī²":5538,"çĮ«":5539,"Ġç´°":5540,"ãģ¾ãģŁ":5541,"æĹŃ":5542,"ille":5543,"åİŁå¸Ĥ":5544,"ĠAward":5545,"è¨ĵ":5546,"éł¼":5547,"æģµåŃĲ":5548,"ĠDE":5549,"ĠçĻ¾":5550,"Ġ1939":5551,"iver":5552,"ãģ®æ¯į":5553,"Ġãģĳ":5554,"rad":5555,"ĠFI":5556,"ãĥŀãĤ¹ãĤ¿ãĥ¼":5557,"Ġåºĥå³¶çľĮ":5558,"Ġæ¹¯":5559,"Ġå½¹åĲį":5560,"æļ®":5561,"ĠPubl":5562,"ãĥªãĤªãĥ³":5563,"å¥ıæĽ²":5564,"ĠãĤ¢ãĥĬ":5565,"åľ°ä¸ĭ":5566,"æĿ±æĹ¥æľ¬":5567,"æ£Ł":5568,"ĠSec":5569,"Ñģ":5570,"ãĤ´ãĥ¼ãĥ«":5571,"åĽ½éļĽç©ºæ¸¯":5572,"ãĤ¹ãĤ±":5573,"åĶĦ":5574,"Ġæĥħåł±":5575,"ĠéĿĻå²¡çľĮ":5576,"æģĴ":5577,"ano":5578,"ç´¹ä»ĭ":5579,"ãģĹãģį":5580,"ãĥ¯ãĤ¤ãĥĪ":5581,"æ¸¬":5582,"ĠæĬĢ":5583,"ĠâĨĲâĨĲâĨĲ":5584,"ãĥĥãĤº":5585,"ãĥĻãĤ¤":5586,"çĲĨåŃ¦":5587,"çµĮæŃ´":5588,"Ġhe":5589,"ãĢģãĢİ":5590,"Ġãĥıãĥ¼ãĥī":5591,"ĠME":5592,"ãĥ¼ãĥĪãĥ«":5593,"ĠâĨĲâĨĲâĨĲâĨĲ":5594,"æĩ":5595,"Ġvon":5596,"ãĥ³ãĥīãĥ³":5597,"å¹´çĶŁ":5598,"Ã³":5599,"Ġ(#":5600,"éĪ´":5601,"ãĥ¬ãĥ«":5602,"ãĥªãĤ³":5603,"1964":5604,"åįĥä»£":5605,"å£°åĦª":5606,"ĠãģĪ":5607,"UE":5608,"ãĥ©ãĥ¼ãĥª":5609,"èĩªæ²»ä½ĵ":5610,"ĠDav":5611,"åĲ«":5612,"å¯Ĩåº¦":5613,"ĠèªŃ":5614,"ĠãĢı":5615,"ĠåĬ©":5616,"ãĥ¬ãĥĥãĤ¯ãĤ¹":5617,"å«":5618,"ĠAT":5619,"ä¾Ŀ":5620,"£å·¥":5621,"ough":5622,"èĤī":5623,"Ġç£":5624,"ĠæĹ¥æĽľ":5625,"ä¿ĿèĤ²åľĴ":5626,"ĠèĬ¸":5627,"Ġ1930":5628,"\",":5629,"é§Ĵ":5630,"Ġæ£":5631,"ãģĬãģĭ":5632,"ĠæĦĽçŁ¥":5633,"ä»Ļåı°":5634,"ãĤ¬ãĥ¼ãĥ«":5635,"Ġè§Ĵå·Ŀ":5636,"site":5637,"ãģ¡ãĤĩãģĨ":5638,"åħ±åĲĮ":5639,"ĠSS":5640,"oph":5641,"åħ±èĳĹ":5642,"å¥³æĢ§":5643,"ãģĻãģ¿":5644,"ĠåŁ¼çİīçľĮ":5645,"Ġæ°ıåĲį":5646,"Ġç²":5647,"Ġé¦ĸ":5648,"è»Ĭäººåĵ¡":5649,"ãĤ¢ãĥĥãĥĹ":5650,"hip":5651,"çĽ®ãģ®":5652,"ĠÎ":5653,"äº¡":5654,"ĠãĥĽãĥ³ãĥĢ":5655,"ç·¨æĪĲ":5656,"æķĻå¸«":5657,"Ġ$":5658,"ãĥ³ãĤ±":5659,"ãĤ°ãĥ¬":5660,"ãĤ®ãĤ¿ãĥ¼":5661,"è£ģåĪ¤":5662,"çµĮçĶ±":5663,"Ġæºĸæ±ºåĭĿ":5664,"ä¼ĬèĹ¤":5665,"Ġéķ·éĩİçľĮ":5666,"æķĻä¼ļ":5667,"ĠBR":5668,"æľŃå¹Į":5669,"ype":5670,"ĠãĤ¦ãĥ«ãĥĪ":5671,"ux":5672,"Ġæ»Ŀ":5673,"ĠæĽ²":5674,"DER":5675,"ĠâĪĴ":5676,"åĥļ":5677,"ãģŁãģ¡ãģ®":5678,"ãĥĥãĥĨãĤ£":5679,"Ġä½":5680,"éĻ°":5681,"ãģĦãģĨ":5682,"ãĤ¤ãĥł":5683,"ji":5684,"å´ĩ":5685,"ĠMed":5686,"å»ºè¨Ń":5687,"ĠéĬ":5688,"Ġå±±ä¸ĭ":5689,"ĠBook":5690,"Ġé¬¼":5691,"ãĥĹãĥ¬ãĤ¤":5692,"è²«":5693,"ĠSw":5694,"ãĤ¹ãĤ¿ãĤ¸ãĤª":5695,"èĽ":5696,"Ġ101":5697,"æĸ°å®¿":5698,"å¹´ãģ«":5699,"å°ī":5700,"Ġéĥ½å¸Ĥ":5701,"ĠæŁı":5702,"OUND":5703,"ĠUS":5704,"Ġåħ¬éĸĭ":5705,"ĠRock":5706,"éĻĲå®ļçĽ¤":5707,"Ġä¸ŃåŃ¦æł¡":5708,"ãĤ¹ãĥĪãĥŃ":5709,"ene":5710,"AI":5711,"ember":5712,"éķ·èª¿":5713,"ãĥ³ãĤ¶":5714,"Ġ140":5715,"Ġ('''":5716,"rit":5717,"ãĤ°ãĥ©ãĥ³ãĥĹãĥª":5718,"eter":5719,"åĨĴéĻº":5720,"ãģĮãĤı":5721,"é£Ľè¡Į":5722,"ha":5723,"aka":5724,"è¥²":5725,"Ġpl":5726,"Ġpr":5727,"ãĥįãĥŀ":5728,"Ġãĥ¡ãĥ³ãĥĲãĥ¼":5729,"Ġå°ıåŃ¦æł¡":5730,"Ġå¤§åŃ¦":5731,"1963":5732,"ãĤ³ãĥ¼ãĥģ":5733,"Ġå²¸":5734,"thãĤ·ãĥ³ãĤ°ãĥ«":5735,"Ġçģ«æĽľ":5736,"Ġcl":5737,"ĠIII":5738,"ãģ¯ãĤī":5739,"Ġå°ıèª¬":5740,"ĠãĥįãĥĥãĥĪ":5741,"ãĥĬãĥł":5742,"ated":5743,"ERO":5744,"ç´«":5745,"ĠèĹ¤çĶ°":5746,"æĮĩå°İ":5747,"åĮºç«ĭ":5748,"OWN":5749,"ãĤ¤ãĥ¬":5750,"ourn":5751,"Ġåĩºæ¼ĶèĢħ":5752,"Ġãĥīãĥ©ãĥł":5753,"ãģ§ãģĻ":5754,"éĽ»éīĦ":5755,"ĠAnniversary":5756,"è§£èª¬":5757,"ĠWORLD":5758,"ĠTr":5759,"ãĥĲãĥ³ãĤ¯":5760,"ãĤ¢ãĥ©":5761,"Ġãĥªãĥ¼ãĤ°":5762,"ãģ®äºº":5763,"ĠAss":5764,"Ġ500":5765,"ãĤ°ãĥ©ãĥł":5766,"PC":5767,"ãĤĨãģ¿":5768,"å¿«":5769,"ãģ®æŃĮ":5770,"ãĥ¼ãĥłãĤº":5771,"Ġæ°´æĽľ":5772,"Ġse":5773,"now":5774,"Ġsp":5775,"ãģ«åıİéĮ²":5776,"ĠDJ":5777,"æĹ¥å¹³åĿĩ":5778,"ĠGIR":5779,"æŁĵ":5780,"å¥½ãģį":5781,"Un":5782,"Ġx":5783,"åĭ¤":5784,"BL":5785,"ĠPe":5786,"reet":5787,"åĬ´åĥį":5788,"åĬłèĹ¤":5789,"çīĽ":5790,"Ġå±±æ¢¨":5791,"ĠHigh":5792,"ãĥķãĤ£ãĤ·ãĥ£ãĥ«":5793,"ĠçĿ":5794,"è¾²æ¥Ń":5795,"Ġç¾¤é¦¬":5796,"ãĤµãĥ³ãĥī":5797,"ãĤ¨ãĥĨãĤ£":5798,"ĠçŃĳ":5799,"Ġä¿³åĦª":5800,"Ġå¿ĥ":5801,"ondon":5802,"Ġå¹¸":5803,"INAL":5804,"æĽ½":5805,"ãĥŀãĤ¯":5806,"ãĥ³ãĥĿ":5807,"inn":5808,"ãģ«éĸ¢":5809,"ãĥŁãĥį":5810,"çĲ´":5811,"ci":5812,"Ġ1936":5813,"ĠUN":5814,"²å¾Ĺ":5815,"ĠBro":5816,"æ¼ģ":5817,"ĠåĪĳäºĭ":5818,"120":5819,"ger":5820,"éĸ¢è¥¿":5821,"Ġä¸Ńå³¶":5822,"å¤§æ©ĭ":5823,"ĠPre":5824,"Ġ130":5825,"CK":5826,"ãģ®æ£®":5827,"éĽ£":5828,"Ġæµģ":5829,"ĠãĥĨãĥ¬ãĥĵæĺłçĶ»":5830,"ĠDisc":5831,"æĹ¥ãģ®":5832,"ãĥĩãĥ¥ãĥ¼ãĤ¹":5833,"oot":5834,"Ġæĸ°å®¿":5835,"ole":5836,"Ġè¾²":5837,"ĠãĥŀãĤ¤ãĤ±ãĥ«":5838,"Ġdi":5839,"åĴĮçĶ°":5840,"ãĥŁãĤ¹ãĥĨ":5841,"ãĥ¬ãĤ¯ãĤ¿ãĥ¼":5842,"IME":5843,"Ġèµ·":5844,"Ġç¯ł":5845,"ird":5846,"åķĨæ¥Ń":5847,"éĿ¢ç©į":5848,"ĠåĪ©çĶ¨çĬ¶æ³ģ":5849,"ford":5850,"ĠãĥĪãĥ¨ãĤ¿":5851,"ãģ§ãĤĤ":5852,"ãĥİãĥ¼":5853,"æľĿæĹ¥æĶ¾éĢģ":5854,"Ġå°Ĥ":5855,"Ġen":5856,"ãĤ¢ãĥĬãĤ¦ãĥ³ãĤµãĥ¼":5857,"åħ«å¹¡":5858,"ĠåĴĮæŃĮ":5859,"line":5860,"1959":5861,"èĭ±ç¤¾":5862,"ãĤ¨ãĤ¢":5863,"ISO":5864,"ãĥķãĤ¡ãĥ³":5865,"ĠäºĢ":5866,"Ġåħµåº«çľĮ":5867,"ĠæĽ¸ç±į":5868,"Ġåı¸":5869,"ãĤ¢ãĥ³ãĥī":5870,"ãģĵãĤį":5871,"ãĤ¸ãĥ¥ãĥĭãĤ¢":5872,"æįķ":5873,"Ġèº«éķ·":5874,"ãĤ¹ãĤŃãĥ¼":5875,"Ġå½¢":5876,"Ġ1937":5877,"èĩªè¡ĽéļĬ":5878,"ĠåĨĻ":5879,"æ¡Ĥ":5880,"ħæ®º":5881,"è£ħç½®":5882,"101":5883,"Ġåįļ":5884,"ĠDF":5885,"ãĤĮãģ¦":5886,"å·¥äºĭ":5887,"èĢħãģ®":5888,"ãģĶãģ¨":5889,"ä¸Ńç¶Ļ":5890,"ĠãĤ®ãĤ¿ãĥ¼":5891,"ãĥģãĥ£ãĥ³":5892,"ç¢º":5893,"ĠCR":5894,"åı¯èĥ½":5895,"ãģįæĽ¿ãģĪ":5896,"Ġé³":5897,"åĬ¹æŀľ":5898,"ĠçŁ¥":5899,"è£ı":5900,"ĠçµĦ":5901,"sp":5902,"è¦ĩ":5903,"Ġä¸Ńéĩİ":5904,"1962":5905,"åĢĭ":5906,"âĢľ":5907,"Ġå®¶æĹı":5908,"ãĥĲãĥĪãĥ«":5909,"Ġæĸ°æ½ŁçľĮ":5910,"ãĥīãĥŃ":5911,"DR":5912,"ãĥ¢ãĥª":5913,"Ġè¿ĳçķ¿":5914,"ãĤ¿ãĤ¦ãĥ³":5915,"ism":5916,"åĭĿåĪ©":5917,"NA":5918,"Ġä¸īèı±":5919,"ç§ĳå¤§åŃ¦":5920,"ĠRE":5921,"çİĭåº§":5922,"ĠGre":5923,"âĢł":5924,"ãĤ¯ãĥ©ãĤ¤":5925,"ĠãģĭãĤī":5926,"Ġæ¤į":5927,"Ġå°±":5928,"ACE":5929,"ç«ĭãģ¡":5930,"ãĥİãĥ³":5931,"awa":5932,"ĠçĻ»":5933,"ĠIDOLM":5934,"WE":5935,"ĠãĥĿãĥ¼ãĥ«":5936,"ãģ©ãĤĬ":5937,"¿åħ¥":5938,"ĠFESTIVAL":5939,"chen":5940,"ĠSchool":5941,"åĭķçī©":5942,"ãĥ¼ãĥĭãĥ³ãĤ°":5943,"çĳŀ":5944,"çļĦãģª":5945,"èĢħæķ°":5946,"åĨħéĸ£":5947,"TE":5948,"ãĥľãĥĥãĥĪ":5949,"ĠãĤªãĥ¼ãĥĹ":5950,"ãĥĲãĥ¬":5951,"ĠèĪªç©º":5952,"ĠCS":5953,"any":5954,"be":5955,"ãĥĿãĥ¼ãĥ«":5956,"Ġå¹´é½¢":5957,"ª¨":5958,"è©¦é¨ĵ":5959,"ãģķãĤĮãģ¦ãģĦãĤĭ":5960,"å·ĿçĶº":5961,"Ġãģ©":5962,"æĥĳæĺŁ":5963,"Ġ1932":5964,"DJ":5965,"aby":5966,"ç¦ģ":5967,"ä¼ļåł´":5968,"ãģĹãĤĥ":5969,"ĠBlu":5970,"åľŁæĽľ":5971,"å¹´é½¢":5972,"ç·¨åħ¥":5973,"ĠæĹŃ":5974,"ĠMC":5975,"èĦ±":5976,"ãĥ§ãĤ¦":5977,"Ġåĭķ":5978,"ĠDo":5979,"ĠEv":5980,"åºģèĪİ":5981,"ãĥıãĥ¼ãĥĪ":5982,"ĠéĽª":5983,"åĽŀæķ°":5984,"ãĤ¸ãĥĥãĥĪ":5985,"Ġæ¡ĥ":5986,"ĠæķĹ":5987,"å´İå¸Ĥ":5988,"ãĥ¬ãĤ³ãĥ¼ãĥī":5989,"åħ«æ®µ":5990,"epp":5991,"åŃ¦é¤¨":5992,"ãĥ³ãĤ®":5993,"ĠãĥĽãĥ¼ãĥł":5994,"ĠçłĶ":5995,"ĠHeart":5996,"Ġä»¥":5997,"ãģĻãģĳ":5998,"ãģ½":5999,"ISC":6000,"Ġ1935":6001,"ĠGuitar":6002,"åħŃæ®µ":6003,"éĻ£":6004,"ĠæľĢåĦªç§Ģ":6005,"Ġä¹ħä¿Ŀ":6006,"èĥĮ":6007,"éĻµ":6008,"ãĥĹãĥ¬ãĥŁãĤ¢ãĥł":6009,"ĠãĤªãĥĸ":6010,"æģ¯":6011,"ĠFOR":6012,"Ġéĺ¿éĥ¨":6013,"ĠAS":6014,"Ð¾Ð":6015,"ãĥ¡ãĥ¼ãĤ¸":6016,"ĠãĥĻãĥ¼ãĤ¹":6017,"åİŁé¡Į":6018,"Ġçħ":6019,"Ġ1934":6020,"æŃ³æľªæºĢ":6021,"äºĭæ¥ŃæīĢ":6022,"ĠåĽ½ç±į":6023,"æĿ±å®Ŀ":6024,"ãĥ³ãĥŀãĥ³":6025,"Ġ1931":6026,"ĠTokyo":6027,"ĠéŁĵåĽ½":6028,"ĠéĿĴæľ¨":6029,"ĠåįĥèĳīçľĮ":6030,"æ¥½æĽ²":6031,"uz":6032,"ĠMY":6033,"Ġè¦ª":6034,"ãĥ¼ãĥŁãĥĬãĥ«":6035,"ãģ®åĩºæ¼Ķ":6036,"çĶŁçĶ£":6037,"ãĥ¼ãĤ¸ãĥ§ãĥ³":6038,"Ġä»ģ":6039,"ç¨²çĶ°":6040,"ä¸Ī":6041,"TOKYO":6042,"ĠçĨ±":6043,"æĻºåŃĲ":6044,"Ġå®®åŁİçľĮ":6045,"Ġå¤§éĩİ":6046,"ĠæĤª":6047,"ĠçĤ":6048,"æĹ¥è¨ĺ":6049,"æĺĵ":6050,"ãĤ¸ãĥ£ãĥĳãĥ³":6051,"Ph":6052,"Ġ1933":6053,"å·Ŀé§ħ":6054,"Ġé¡":6055,"è©³":6056,"å¤©ä½¿":6057,"ring":6058,"ãģ·":6059,"ĠNational":6060,"ĠDon":6061,"çıł":6062,"ãģłãģĦ":6063,"è£½éĢł":6064,"èª²ç¨ĭ":6065,"ãĥĨãĤ£ãĥĸ":6066,"ĠGP":6067,"æĮĩæı®":6068,"ãĥ¼ãĤ·ãĥ§":6069,"ãģĺãĤĥ":6070,"aster":6071,"Ġ1920":6072,"ĠRep":6073,"Ġæ²¢":6074,"ãĥ³ãĥ¢":6075,"chn":6076,"Ġè©±":6077,"æĹ¥æĽľ":6078,"Ġå·¨":6079,"ĠéĿŀ":6080,"ĠãĤ¨ãĥ¬":6081,"ĠçŁŃ":6082,"ãģĭãĤĵ":6083,"ãģ®æŃ´åı²":6084,"ç¥ŀå¥Ī":6085,"åĢĭäºº":6086,"éĭ¼":6087,"700":6088,"Ġex":6089,"els":6090,"ĠéĽĨ":6091,"ãģ¾ãģĻ":6092,"æĻĤãģ®":6093,"REAM":6094,"ĠèĢ":6095,"ody":6096,"ĠLA":6097,"oe":6098,"QU":6099,"éīĦéģĵé§ħ":6100,"ĠSing":6101,"è®":6102,"ĠSpecial":6103,"ãĥ³ãĥĮ":6104,"the":6105,"ĠUP":6106,"BM":6107,"ãĥ«ãĥĢ":6108,"Ġ1929":6109,"Ġæħ¶":6110,"Ġè¿ĳèĹ¤":6111,"èĪŀåı°":6112,"ãĤ¹ãĤ¿ãĤ¸ãĤ¢ãĥł":6113,"ces":6114,"å¸¸çĽ¤":6115,"Ġ1938":6116,"Ġçį":6117,"å¾ģ":6118,"ĠÂ":6119,"ãĥªãĥ¼ãĥĪ":6120,"çĶ°çľŁ":6121,"èĨ":6122,"Ġar":6123,"å±±é§ħ":6124,"Ġweb":6125,"Ġé§ħæ§ĭéĢł":6126,"150":6127,"½é¤¨":6128,"Ġãĥķãĥ¬":6129,"è¬Ľè«ĩç¤¾":6130,"ĠCOL":6131,"ãĥ«ãĥ¼":6132,"ĠMi":6133,"con":6134,"èŃĺ":6135,"é³´":6136,"Ġæ³ī":6137,"ĠãĤ°ãĥ¬":6138,"ä¸ĥæ®µ":6139,"å¾Ħ":6140,"å¤ªéĻ½":6141,"ãĤ¸ãĤ§ãĤ¯ãĥĪ":6142,"ãĥ«ãĥĪãĥ³":6143,"ĠCont":6144,"ãĤ¢ãĤŃ":6145,"ãĥ¼ãĥĨãĤ£ãĤ¹ãĥĪ":6146,"Live":6147,"ãģ¨ãģª":6148,"Ġé³¥åıĸ":6149,"ÑĤ":6150,"ãģķãģıãĤī":6151,"åĦªè³ŀ":6152,"ĠRad":6153,"ãĥĽãĥ¼ãĥłãĥļãĥ¼ãĤ¸":6154,"ãĥ¯ãĥ¼ãĤ¯":6155,"ĠåĨĻçľŁ":6156,"ãĥ¼ãĥįãĥĥãĥĪ":6157,"ĠèĦ":6158,"OWER":6159,"Ġä¸īæµ¦":6160,"åĲ¹æĽ¿":6161,"ĠãĤªãĥ¼ãĤ¹ãĥĪ":6162,"Ġ112":6163,"DE":6164,"åĹ":6165,"èŃľ":6166,"åĳ¨å¹´è¨ĺå¿µ":6167,"ube":6168,"éĩİæīĭ":6169,"æ°´æºĸ":6170,"ãģ®å¤īéģ·":6171,"æ¡ĳ":6172,"ĠNO":6173,"èİī":6174,"Pl":6175,"ãĤ¢ãĥł":6176,"ä¸Ńãģ®":6177,"ĠèĻ":6178,"ĠPark":6179,"ãĥŃãĥ¼ãĤº":6180,"æľ¬ç¤¾":6181,"Ġé§ħåĳ¨è¾º":6182,"Ġå¾Ĺç¥¨":6183,"éĨ":6184,"TD":6185,"ĠãĥŁãĥĭ":6186,"Ġ1928":6187,"å®¶ãģ®":6188,"Ġ111":6189,"ãĤ»ãĤ¤":6190,"Ġæł¹":6191,"ĠVersion":6192,"è¡¨è¨ĺ":6193,"ĠOut":6194,"æľĭ":6195,"çµĲå©ļ":6196,"ny":6197,"AV":6198,"ãĥŃãĤ°":6199,"%)":6200,"ãģ®ä¸Ģéĥ¨":6201,"ä¸Ĭãģ®":6202,"ĠåĽŀ":6203,"Ġå°ıå·Ŀ":6204,"ĠChe":6205,"ãĥĳãĥ¼ãĥĪ":6206,"éŃĶæ³ķ":6207,"æ¦":6208,"åĢ¶":6209,"ãĥĸãĤµãĤ¤ãĥĪ":6210,"åħį":6211,"Ġéļ£ãģ®é§ħ":6212,"Ġç¹":6213,"å·¥åŃ¦":6214,"ãĥ¼ãĤ¸ãĥ£":6215,"èī²ãģ®":6216,"å¥³ãģ®":6217,"other":6218,"ĠåıĤèĢĥ":6219,"Ġäº¤":6220,"AMA":6221,"çĭ©":6222,"ury":6223,"æķĻå®¤":6224,"åľ§":6225,"ãĥĭãĤ¨ãĥ«":6226,"ĠåĲįç§°":6227,"ãĤ¯ãĥŃãĤ¹":6228,"çĽĹ":6229,"ãĥŀãĥį":6230,"ush":6231,"èį·":6232,"æĿ±åĮĹ":6233,"KY":6234,"ãĥ©ãĥªãĤ¢":6235,"Ġâĺ":6236,"oup":6237,"ãĥ¼ãĥģãĤ§":6238,"ãĥ³ãĤ°ãĤ¹":6239,"ĠAmerican":6240,"ãĤ¨ãĥł":6241,"ä¼ı":6242,"ç§ĺå¯Ĩ":6243,"åķĨåºĹ":6244,"ãĥ©ãĥ³ãĥĢ":6245,"Ġãģ¾ãģŁ":6246,"ãģłãģĳ":6247,"ĠDes":6248,"è¨Ńè¨Ī":6249,"weet":6250,"Ġåħ¨éķ·":6251,"ĠçŁ³äºķ":6252,"lex":6253,"ç·¨èĳĹ":6254,"æ¡Ĳ":6255,"''':":6256,"Ġim":6257,"çľŀ":6258,"ãĥ³ãĤ¸ãĥ£":6259,"ĠæĶ¾éĢģæĻĤéĸĵ":6260,"ãĥŁãĥ³":6261,"æ¢°":6262,"Ġ105":6263,"Ġè¶³":6264,"Ġè¶Ĭ":6265,"Mar":6266,"ures":6267,"æĹ¥å¸Ĥ":6268,"ĠBlack":6269,"NS":6270,"è»Ĵ":6271,"Ġ''''":6272,"æľ¨æĿĳ":6273,"ĠCounty":6274,"Ġä¸Ńäº¬":6275,"åĥķ":6276,"ĠCL":6277,"çĭ¼":6278,"ĠPS":6279,"ĠãĤ¢ãĥª":6280,"Ġæ¥½æĽ²":6281,"Ġå¾ĮèĹ¤":6282,"ĠNe":6283,"åĲĪè¡ĨåĽ½":6284,"ãĥĢãĥ³ãĤ¹":6285,"äºķä¸Ĭ":6286,"ĠEm":6287,"ĠHol":6288,"ä¸Ģéĥ¨":6289,"çĽ£ä¿®":6290,"ius":6291,"Ġ04":6292,"ĠAM":6293,"ume":6294,"æľĢçµĤ":6295,"å¾ĵ":6296,"é´":6297,"éĢ£éļĬ":6298,"ãĥ¼ãĥ¬ãĥ³":6299,"ĠéĤ¦":6300,"ãĥªãĥĥãĥĹ":6301,"ãģ£ãģ¡":6302,"æī¿":6303,"æŃ¯":6304,"TC":6305,"Ġ115":6306,"ãĥķãĤ¡ãĥ¼":6307,"æĸ¹æ³ķ":6308,"1000":6309,"aki":6310,"åĽĽä¸ģçĽ®":6311,"åŃ¦éĻ¢å¤§åŃ¦":6312,"ãĤ¨ãĤ¤":6313,"Ġæĸ¹":6314,"ĠãĥĩãĤ¸ãĤ¿ãĥ«":6315,"New":6316,"èŀį":6317,"åħ¨éĽĨ":6318,"Ġãĥ¨ãĥ¼ãĥŃãĥĥãĥĳ":6319,"ħãĤĮ":6320,"éĽĢ":6321,"erry":6322,"ific":6323,"Ġæĸİ":6324,"æ´¥å¸Ĥ":6325,"ĠéŁ³éŁ¿":6326,"ãĥ¬ãĤ®ãĥ¥ãĥ©ãĥ¼":6327,"ä¿º":6328,"ãĥ¯ãĤ¤ãĥī":6329,"Ġau":6330,"ãģŁãģĳ":6331,"ãĤĴåıĤçħ§":6332,"åħ¨åĽ½":6333,"å°ĤçĶ¨":6334,"Ġè©ķ":6335,"ãĥĥãĥı":6336,"ãĤ¿ãĥ¬ãĥ³ãĥĪ":6337,"ĠAng":6338,"å¦Ĥ":6339,"Ġå°ıçĶ°":6340,"HP":6341,"ĠåĶ":6342,"ç¨Ķ":6343,"ãĥ³ãĤŃãĥ³ãĤ°":6344,"Ġãģĺ":6345,"Ġå®¤":6346,"Ġå®Ĺ":6347,"ãĤ¯ãĤ¤":6348,"ä¼´":6349,"âĢķ":6350,"rop":6351,"ĠFW":6352,"ĠOR":6353,"Ġå²¡çĶ°":6354,"Love":6355,"Ġæ½":6356,"åŃ«":6357,"åĨĬ":6358,"ĠSun":6359,"æĽ¸ç±į":6360,"ĠPART":6361,"ĠæĻ®éĢļ":6362,"åĭķæĪ¦å£«":6363,"ĠAV":6364,"è¡ĨèŃ°éĻ¢èŃ°åĵ¡":6365,"ãĥĲãĥ³ãĥī":6366,"ĠBlue":6367,"ä¸¦":6368,"OME":6369,"æ½®ç¤¾":6370,"ĠÃ":6371,"1958":6372,"ãģ¾ãģ¡":6373,"Ġ**:":6374,"èįĴ":6375,"ä»®":6376,"ady":6377,"ĠCor":6378,"ĠæĶ¹":6379,"ãģļãģ¿":6380,"ĠæĿĳä¸Ĭ":6381,"Ġè¼":6382,"æľĪæĽľ":6383,"ãģ¾ãģķ":6384,"Ġè¥¿æĿĳ":6385,"Ġæ¨ªå±±":6386,"åĲĮä¸Ĭ":6387,"ãĥĨãĥĥãĥī":6388,"æ¢Ŀ":6389,"Ġ102":6390,"çĵ":6391,"ĠREC":6392,"ãĤ¹ãĥŀ":6393,"ĠRemix":6394,"ãģĿãģĨ":6395,"çķªåľ°":6396,"¿åħ¥æŃĮ":6397,"ĠãĤµãĥ³":6398,"ãĤ¸ãĥ«":6399,"Ġåħ¨æĹ¥æľ¬":6400,"ĠãĤ¤ãĥĻãĥ³ãĥĪ":6401,"çİĭåĽ½":6402,"ĠåĿĤæľ¬":6403,"KE":6404,"De":6405,"åħĥãĥĹãĥŃéĩİçĲĥéģ¸æīĭ":6406,"Ġéħįä¿¡":6407,"èĩªçĦ¶":6408,"å°Ĩè»į":6409,"ĠNot":6410,"ael":6411,"éĸ¢ä¿ĤèĢħ":6412,"Ġãĥīãĥ©ãĥŀCD":6413,"Ġãģ®ãĤĬãģ°":6414,"ena":6415,"å³¶å¸Ĥ":6416,"ears":6417,"Ġä½¿çĶ¨":6418,"ãģĭãĤĭ":6419,"ĠéģłèĹ¤":6420,"ãĤīãģĹ":6421,"ield":6422,"ç·łå½¹":6423,"Ġåİ":6424,"eph":6425,"é«ĺéĢŁéģĵè·¯":6426,"GM":6427,"æī±":6428,"ãĥ³ãĥģãĤ§":6429,"mi":6430,"ello":6431,"Ġ113":6432,"èªķçĶŁ":6433,"è¨ĺäºĭ":6434,"Ġçī§":6435,"Ġ103":6436,"1600":6437,"ĠæºĸãĢħæ±ºåĭĿ":6438,"é·¹":6439,"åħĥåīį":6440,")ãĢı":6441,"Ġãģªãģ©":6442,"CTION":6443,"çī¹åħ¸":6444,"fl":6445,"éľ²":6446,"Ġ114":6447,"ãĤ°ãĥ«":6448,"ĠãĤ¹ãĥĳ":6449,"æ»ħåį±":6450,"Ġft":6451,"æĸ°è¨Ń":6452,"ãĥ«ãĥĨãĤ£":6453,"ãģ¿ãģ¤":6454,"æľŁå¤§åŃ¦":6455,"æ³ķå¾ĭ":6456,"å¢ĵ":6457,"éĸ¢éĢ£æĽ²":6458,"ĠWindows":6459,"å®ļæľŁ":6460,"Station":6461,"åŁºåľ°":6462,"KO":6463,"Be":6464,"æĥ§":6465,"ãĥ¢ãĤ¹":6466,"ANCE":6467,"ĠãĤ¦ãĤ£ãĥªãĤ¢ãĥł":6468,"åŁ¼çİī":6469,"åģ¥ä¸Ģ":6470,"ç¥ŃãĤĬ":6471,"çĶ±ç¾İ":6472,"Ġ09":6473,"çİĦ":6474,"çŃĭ":6475,"Ġåĳ¨è¾º":6476,"ãĥĬãĥ³":6477,"Ġå¾ĵ":6478,"ãĥ³ãĥķãĤ©":6479,"æ»ħåį±æĥ§":6480,"PA":6481,"ĠSUPER":6482,"ãĢĶ":6483,"ãĤĤãĤĬ":6484,"Ġ250":6485,"éĩĳæĽľ":6486,"ival":6487,"åĭķçĶ»":6488,"ĠTH":6489,"ãĥ«ãĥĲ":6490,"ãģ¿ãĤĦ":6491,"board":6492,"æĸ°æĽ¸":6493,"éīĦéģĵé§ħä¸Ģè¦§":6494,"LOVE":6495,"æ±ºå®ļæĪ¦":6496,"ãĤ¦ãĥĥãĥī":6497,"ĠãĥŃãĤ·ãĤ¢":6498,"hel":6499,"ATE":6500,"ĠProject":6501,"off":6502,"ĠæĿ¿":6503,"ãĥ³ãĥĪãĥªãĥ¼":6504,"åĲįãģª":6505,"ĠLondon":6506,"Ġä»»":6507,"çµĦç¹Ķ":6508,"ãģ»ãģĭ":6509,"CO":6510,"çĥ":6511,"ĠãĤ³ãĥŃ":6512,"äºĶæ®µ":6513,"Ġ116":6514,"åŁ·":6515,"èŃ·å£«":6516,"ima":6517,"ĠæľĿæĹ¥":6518,"MB":6519,"Ġ1927":6520,"ĠãĤ¸ãĥ£ãĥĥãĤ¯":6521,"Ġé«ĺçĶ°":6522,"ãĥ©ãĤ¤ãĤº":6523,"ĠMod":6524,"ĠåŃĹ":6525,"è¸Ĭ":6526,"å®®å´İ":6527,"åĽ£æ³ķäºº":6528,"Ġè¾»":6529,"ĠRed":6530,"ãĤ³ãĥ¬ãĤ¯ãĤ·ãĥ§ãĥ³":6531,"ãĥ¨ãĥ³":6532,"ãģ«éĸ¢ãģĻãĤĭ":6533,"ãģ¤ãģĭ":6534,"ĠçĿĢ":6535,"ilm":6536,"ãģ«ãĤĤ":6537,"ision":6538,"ĠéĤ£":6539,"éļ»":6540,"ãģĪãģŁ":6541,"Ġshift":6542,"åĢ¶æ¥½éĥ¨":6543,"åĨħãģ®":6544,"ORY":6545,"ada":6546,"ĠãĥĨãĥ¬ãĥĵæĿ±äº¬":6547,"æ²ĸç¸Ħ":6548,"æ¯ħ":6549,"ãĥľãĥ¼ãĤ«ãĥ«":6550,"Ġãĥ¬ãĥ¼ãĥĻãĥ«":6551,"ĠéĸĢ":6552,"Ġåıĭ":6553,"ãĥ¦ãĥ¼ãĤ¹":6554,"ãģªãģĮ":6555,"ĠInt":6556,"He":6557,"ãĥ©ãĤ¤ãĤ¢ãĥ³":6558,"urg":6559,"ãĥ¼ãĥªãĥ³ãĤ°":6560,"æµ®":6561,"Ġ1925":6562,"ä¸»é¡ĮæŃĮ":6563,"Ġ...":6564,"900":6565,"Ġ07":6566,"ling":6567,"éĸ¢æĿ±":6568,"è²Ŀ":6569,"ĠçĶ£":6570,"Ġ125":6571,"You":6572,"Ġæİ¥":6573,"ãĤ¢ãĥī":6574,"éĩİæĿĳ":6575,"ĠãĤ¢ãĥ¬ãĤ¯":6576,"ĠOS":6577,"ĠSci":6578,"ĠSystem":6579,"ãĤ¨ãĥ¬":6580,"ãĤ¢ãĤ¯ãĤ»ãĤ¹":6581,"ISS":6582,"ĠInc":6583,"ãĤ¯ãĤµ":6584,"æ®ĭ":6585,"æĸĻçĲĨ":6586,"Ġæ¡Ĳ":6587,"åİŁä½ľ":6588,"éİ®":6589,"Ġé£Ł":6590,"ãĥ¼ãĥŀãĤ¹":6591,"Ġéĩĳæ²¢":6592,"æİ¨ç§»":6593,"itch":6594,"ãĢĭ":6595,"ãĥ»ãĥ»":6596,"ĠæľĢå¤§":6597,"YS":6598,"Ġå²¡å±±çľĮ":6599,"å²¡å¸Ĥ":6600,"å¹³æ´ĭ":6601,"è½":6602,"1957":6603,"Ġ|":6604,"ãĥ¼ãĥģãĥ£":6605,"ãĤ¢ãĥ¼ãĥĪ":6606,"æĻĭ":6607,"Ġãĥ¯ãĥ¼ãĥ«ãĥī":6608,"æĬķæīĭ":6609,"ãĥľãĥ¼":6610,"ĠåħĪ":6611,"ä¾į":6612,"Ġç®¡":6613,"!ãĢı":6614,"ĠSl":6615,"æĸĲ":6616,"Ġcon":6617,"ĠçĶŁå¹´":6618,"ãĤĦãģĭ":6619,"CS":6620,"æł¡èĪİ":6621,"Ġ08":6622,"ãĤ¹ãĥĿ":6623,"ato":6624,"ĠãĤ¸ãĥ£ãĥ³":6625,"æŁı":6626,"1956":6627,"ãĤ¯ãĥªãĤ¹":6628,"ĠUSA":6629,"èĿ":6630,"ĠBack":6631,"ĠVocal":6632,"ãĤ¹ãĥŃ":6633,"Ġ06":6634,"ãĤĨãĤĬ":6635,"ãĤ·ãĤª":6636,"une":6637,"ãĥ«ãĥ³":6638,"ãĥŁãĥ¥ãĥĭ":6639,"ĠFL":6640,"éĿĴæĺ¥":6641,"(''":6642,"ĠãĤªãĥı":6643,"æĮ¯èĪĪ":6644,"ĠPL":6645,"IZ":6646,"å²Ĳéĺľ":6647,"Ġè¨Ī":6648,"ator":6649,"ĠçŁ³å·ĿçľĮ":6650,"ãģĽãĤĵ":6651,"ãģ®ãĤ«":6652,"éĥ¨å±ĭ":6653,"ĠBOX":6654,"åºĥåł´":6655,"Ġ117":6656,"ĳæĪ¦":6657,"åŃ¦åĮº":6658,"Ġé¨":6659,"ĠæĶ¿æ²»":6660,"ä¸ĢèĪ¬":6661,"ãģĪãģ¦":6662,"ero":6663,"åĵ²ä¹Ł":6664,"éłĪè³Ģ":6665,"ural":6666,"ĠVideo":6667,"Ġèª¿":6668,"ãĥľãĥ³":6669,"ĠæłĦ":6670,"ãģįãģ®":6671,"('''":6672,"ĠHD":6673,"åıĪ":6674,"è¡Ĺéģĵ":6675,"Ġè©±æķ°":6676,"ãģĦãģĦ":6677,"åĮĸåŃ¦":6678,"èıħ":6679,"æĹ¬":6680,"Ġæ¦":6681,"ãĥ¬ãĥ¼ãĤ¿ãĥ¼":6682,"ĠSM":6683,"Ġä¼ļåł´":6684,"å·ĿæĿĳ":6685,"ICE":6686,"Ġä¸ģ":6687,"ĠED":6688,"ĠéĿĴå±±":6689,"âĹİ":6690,"ĠãĤģ":6691,"URE":6692,"ĠHE":6693,"ĠãĤ·ãĤ§":6694,"åįĶåĲĮ":6695,"éĥ¨éļĬ":6696,"MHz":6697,"ĠæĸīèĹ¤":6698,"Ġé«ĺæĿ¾":6699,"æĿı":6700,"ãĥ¼ãĤ¸ãĥ¥":6701,"ĠMX":6702,"èľ":6703,"è«¸å³¶":6704,"cle":6705,"ãĤģãĤĭ":6706,"ãĥ³ãĤ¦":6707,"çŁ³å·Ŀ":6708,"å¸ĸ":6709,"çµĮåĸ¶":6710,"æ©Łèĥ½":6711,"Ġé·":6712,"å¹´éłĥ":6713,"gram":6714,"ĠãĥĶãĤ¢":6715,"ãĥĸãĥĥãĤ¯":6716,"ãĤ¢ãĥĹãĥª":6717,"ãĥ´ãĤ¡ãĥ³":6718,"CL":6719,"ĠçŁ³çĶ°":6720,"ty":6721,"Ġåĥ":6722,"ãĥ³ãĥªãĥ¼":6723,"AF":6724,"ãģ±":6725,"ĠBoy":6726,"riend":6727,"ãģ®åĲį":6728,"ãģ«ãģªãĤĭ":6729,"Ġãĥķãĥ©ãĥ³ãĤ¯":6730,"ĠçĶ°æĿĳ":6731,"éª¨":6732,"ĠBL":6733,"ãĥķãĤ£ãĤ¢":6734,"1955":6735,"ĠAf":6736,"æ½ľ":6737,"ĠKing":6738,"çĽ´æ¨¹":6739,"Ġ05":6740,"ĠãĥĲãĥ©":6741,"ola":6742,"ä¹ĭä»ĭ":6743,"ĠTeam":6744,"ãĤ¹ãĥ«":6745,"Ġ1926":6746,"ãģ®çĪ¶":6747,"ãĥ¼ãĥĿ":6748,"çªĵ":6749,"ãĥ¶ä¸ĺ":6750,"Ġãģ®ãģ¡æĸĩåº«":6751,"Ġé¹¿åħĲå³¶çľĮ":6752,"å¸Ĥå½¹æīĢ":6753,"åĪ©çĶ¨":6754,"èĭ±éĽĦ":6755,"Ġå»ĥæŃ¢":6756,"ãĤĬãĤĵ":6757,"çĶŁåĳ½":6758,"åĴĮæŃĮ":6759,"ĠãĥĪãĥł":6760,"ç¯¤":6761,"erson":6762,"ç®±":6763,"Ġ1924":6764,"AKA":6765,"Ġä»®éĿ¢ãĥ©ãĤ¤ãĥĢ":6766,"²è¼ī":6767,"æļģ":6768,"å¥³åĦªè³ŀ":6769,"ĠBo":6770,"ĠMOV":6771,"ĠãĤ¨ãĥī":6772,"Ġå¤§å¡ļ":6773,"125":6774,"ĠãĤ¤ãĤ¿ãĥªãĤ¢":6775,"ĠGood":6776,"KI":6777,"Ġäº¬éĥ½åºľ":6778,"ãĤ¨ãĥ³ãĤ¿":6779,"ãĤ¢ãĥ¡ãĥªãĤ«ãĥ³":6780,"åĩºèº«ãģ®äººçī©ä¸Ģè¦§":6781,"æķµ":6782,"è¥¿æĹ¥æľ¬":6783,"ãģıãĤĭ":6784,"ĠæĹħ":6785,"Ġå¯Įå±±":6786,"Ġç¬ł":6787,"sch":6788,"hes":6789,"Ġå¤ªçĶ°":6790,"Ġæ¬¡":6791,"ĠãĥŃãĥĲãĥ¼ãĥĪ":6792,"ĠãĥĲãĤ¤":6793,"è¡Įæľ¬":6794,"ç§»è»¢":6795,"ĠèĲ½":6796,"æ°·":6797,"è¦ĸåºģ":6798,"ĠJe":6799,"Ġ118":6800,"Ġ--":6801,"æľĪãģ®":6802,"Ġãĥĭãĥ¥ãĥ¼ãĥ¨ãĥ¼ãĤ¯":6803,"æķ´åĤĻ":6804,"ãĥģãĥ£ãĥ¼ãĥī":6805,"CC":6806,"day":6807,"Ġéļ£æİ¥":6808,"MO":6809,"çĶ·åĦªè³ŀ":6810,"Ġå¥³æĢ§":6811,"lag":6812,"ãĥĬãĥ«ãĥī":6813,"çľ¼":6814,"ãĤ³ãĥł":6815,"uring":6816,"amil":6817,"å¥Īèī¯":6818,"ãĥ¼ãĥĳãĥ¼":6819,"ANG":6820,"ãĥªãĤ¢ãĥ«":6821,"Ġam":6822,"ĠStreet":6823,"å¦ĸ":6824,"ĠTrans":6825,"ĠInter":6826,"ĠãĤ¨ãĤ¤":6827,"åĢį":6828,"ãĤ¨ãĥ¼ãĥ«":6829,"ç¬¬ä¸ī":6830,"Ġå®īèĹ¤":6831,"Ġé«ĺçŁ¥":6832,"ĠArch":6833,"Ġæ»ĭ":6834,"å£ģ":6835,"Ġç«ľ":6836,"å¤§åĪĨ":6837,"ãĥĩãĥŁãĥ¼":6838,"éĥ½å®®":6839,"æ¢ģ":6840,"ĠãģĽ":6841,"ĠDev":6842,"ãĥ¼ãĥĪãĥ³":6843,"ãĤŃãĥ³":6844,"çĶ°æŃ£":6845,"Ġè©³ç´°æĥħåł±":6846,"Ġãĥ¡ãĥĩãĤ£ãĤ¢":6847,"ãĤ¤ãĥ«ãĥī":6848,"ãĥ¡ãĥ«":6849,"ITE":6850,"Ðº":6851,"ery":6852,"äºĭæķħ":6853,"ãĤ¹ãĤ¿ãĥ³ãĥĪ":6854,"LUE":6855,"ãĤ¨ãĥķ":6856,"è¨Ńå®ļ":6857,"æ©Łæ§ĭ":6858,"ãģĹãģı":6859,"earch":6860,"oman":6861,"ĠãĥĪãĥª":6862,"ĠèŃ°":6863,"ãģ¨ãĤĬ":6864,"Ġéķ·è°·å·Ŀ":6865,"useum":6866,"æľ¬çĶº":6867,"ãĥ¼ãĥ©ãĥ¼":6868,"ĠãĤŃãĥ³ãĤ°":6869,"ĠçłĶç©¶":6870,"ç¶²":6871,"MER":6872,"éŁĵåĽ½":6873,"ãĤ·ãĥ§ãĥ¼":6874,"çıŃ":6875,"ãĥŀãĤ¸":6876,"ĠClub":6877,"ãĤ¬ãĥ¼ãĥ«ãĤº":6878,"ãĥ¡ãĥĢãĥ«":6879,"äººæķ°":6880,"ĠRECOR":6881,"ãĥ¼ãĥķãĤ§":6882,"SM":6883,"åĽ²":6884,"ãĤŃãĤµ":6885,"ãĢľ(":6886,"éĢ²åĩº":6887,"å¼¦":6888,"çĶ£åħļ":6889,"ĠMin":6890,"Ġ180":6891,"çľĭèŃ·":6892,"ILL":6893,"ko":6894,"ĠISO":6895,"Ġè»į":6896,"ãĤ¤ãĤ¿ãĥªãĤ¢":6897,"reak":6898,"Ġ104":6899,"ta":6900,"ãĥ³ãĤ¬ãĥ¼":6901,"ãĥ´ãĤ£ãĥĥãĥī":6902,"æĹ¥å¹³åĿĩä¹Ĺ":6903,"ä½ķ":6904,"ĠMay":6905,"çŃĳ":6906,"Ġä»£":6907,"è¿Ķ":6908,"ãĥ¬ãĤª":6909,"Ġéĥµä¾¿":6910,"ĠLittle":6911,"å±±å½¢":6912,"Pro":6913,"Ġãģ¦":6914,"gr":6915,"ĠVOL":6916,"ĠWilliam":6917,"æ»ĭ":6918,"Ġãĥŀãĥ¼ãĤ¯":6919,"ĠãĤ½ãĥķãĥĪ":6920,"berg":6921,"ĠåĨĨ":6922,"ãĥ¼ãĥķãĤ¡":6923,"Ġæ¯į":6924,"åĭķæĪ¦å£«ãĤ¬ãĥ³ãĥĢãĥł":6925,"Ġ108":6926,"åĹ£":6927,"Ġç¬¬ä¸ī":6928,"Ġno":6929,"§å·ŀ":6930,"rums":6931,"çĩĥ":6932,"ãĤĵãģ°":6933,"çŁŃæľŁå¤§åŃ¦":6934,"ora":6935,"å¤§ä»ĭ":6936,"ĠãĤ¸ãĤ§ãĤ¤":6937,"ĠãĤ»ãĥ³ãĥĪ":6938,"ãģ®çĶ·":6939,"Ġåĸľ":6940,"ãģĭãģĳ":6941,"ĠæĶ¾":6942,"èª²éķ·":6943,"Ġ106":6944,"ĠçĹ":6945,"Ġæ¡ĳ":6946,"ãĥĸãĥ¬ãĤ¤":6947,"æ¸ĭè°·":6948,"Ġvan":6949,"Ġå®ĪåĤĻ":6950,"åķĨåĵģ":6951,"Ġ109":6952,"éĩİå¸Ĥ":6953,"ç³¸":6954,"ãĤ»ãĥ©":6955,"Ġä¸Ńå·Ŀ":6956,"æĢĸ":6957,"ãĤ¦ãĤ§ãĤ¢":6958,"ĠPres":6959,"æ¶Ļ":6960,"ç¡":6961,"NO":6962,"ãĥ¼ãĤ¢":6963,"åĲįèªī":6964,"ĠSTAR":6965,"ç£Ĳ":6966,"ĠãĤ»ãĥ«":6967,"ãģ®æģĭ":6968,"çłĶç©¶ç§ĳ":6969,"ãĥ¡ãĥ³":6970,"å¹¹ç·ļ":6971,"ãĥ¼ãĥŀãĥ¼":6972,"ç§ĭçĶ°":6973,"Ġåĵģ":6974,"é¹¿åħĲ":6975,"USE":6976,"ãĥĲãĤ¤ãĥĳãĤ¹":6977,"ãĥ¼ãĥľãĥ¼ãĥ«":6978,"VEN":6979,"ĠMac":6980,"AX":6981,"erv":6982,"èŃ²":6983,"ãģ¾ãĤĮ":6984,"Ġ107":6985,"éģĵéĥ¨":6986,"åĩºå¼µ":6987,"ico":6988,"ãĤŃãĥŃ":6989,"åŃĺåľ¨":6990,"DF":6991,"çī¹å¾´":6992,"ä½İ":6993,"Ġä¸ĩ":6994,"åł´åĲĪ":6995,"ãĥĬãĥªãĥĨãĤ£":6996,"ĠGR":6997,"ãĥļãĥ©":6998,"ĠGra":6999,"Ġå²©æīĭçľĮ":7000,"Ġå¼ĺ":7001,"ĠéİĮ":7002,"Ġæ°ĳä¸»åħļ":7003,"ĠæĿ¾çĶ°":7004,"ãĢľ'''":7005,"ãĥ¼ãĤ«ãĤ¹":7006,"æıĲä¾Ľ":7007,"ĠæĸİèĹ¤":7008,"ĠãĥŀãĤ¤ãĤ¯":7009,"èĹĿ":7010,"orge":7011,"ative":7012,"Ã¼r":7013,"ãĤ¨ãĥªãĤ¢":7014,"Ġä¸¹":7015,"ĠBi":7016,"ĠPRO":7017,"ĠAP":7018,"ãĤ¯ãĥ¼ãĥ«":7019,"ç·¯":7020,"ãģ®ä¸ĸçķĮ":7021,"1800":7022,"ĠçĨĬæľ¬çľĮ":7023,"ĠãĥĹãĥ©ãĥģãĥĬ":7024,"ãģŁãģ¾":7025,"Ġç·ĳ":7026,"è¬¡":7027,"ECIAL":7028,"æĻĤä»£ãģ®":7029,"olution":7030,"ĠDavid":7031,"Go":7032,"ãĤªãĥ¼ãĥ«":7033,"Ġå¹ķ":7034,"ĠStory":7035,"ĠãĤ³ãĤ¹":7036,"Ġè¢":7037,"vent":7038,"åģľçķĻ":7039,"ella":7040,"æĸ¹å¼ı":7041,"CR":7042,"Ġãĥ¬ãĥĥãĥī":7043,"ãĥ³ãĥķãĤ£":7044,"æĬĹ":7045,"Ġçī©":7046,"ĠDAY":7047,"«»":7048,"ãĤ·ãĥ§ãĥĬãĥ«":7049,"appy":7050,"Ġãĥªãĥªãĥ¼ãĤ¹":7051,"çĶ±ç´Ģ":7052,"Ġ1923":7053,"ç¦ıå³¶":7054,"è¨º":7055,"Ġå¤§åĴĮ":7056,"ĠHouse":7057,"ãĥªãĥ¼ãĤ¬":7058,"éŁ³å£°":7059,"è§Ĵå·Ŀ":7060,"itter":7061,"ãĥĴãĥ«":7062,"ashi":7063,"sc":7064,"ĠãĤ´ãĥ¼ãĥ«ãĥī":7065,"bl":7066,"Ġå¸Ŀ":7067,"ãĥĪãĥł":7068,"ĠTri":7069,"ASH":7070,"ĠMil":7071,"iety":7072,"Ġæ¯Ķ":7073,"ĠæĢª":7074,"ç«£å·¥":7075,"ĠSound":7076,"éĢ£éĤ¦":7077,"ç¤¾ä¼ļåħļ":7078,"Ġå¤ªéĻ½":7079,"ĠTom":7080,"ĠçĶ¨":7081,"åĨł":7082,"ĠEnd":7083,"ãĤ¢ãĤ·":7084,"é»":7085,"ãĥ³ãĤ¸ãĤ§":7086,"ĠéĢ±":7087,"ĠPo":7088,"ãĤªãĤ¹":7089,"Ġãĥŀãĥª":7090,"ichael":7091,"COM":7092,"æĨ¶":7093,"åĪĳ":7094,"éĻĦå±ŀ":7095,"æ§»":7096,"ied":7097,"æĽ¸éĻ¢":7098,"ãĥĿãĥ¼ãĤ¿ãĥ¼":7099,"ĠVal":7100,"ãĥ«ãĥŀ":7101,"ªçĴ°":7102,"æĤ¦":7103,"ĠãĤµãĥł":7104,"ĠRO":7105,"ĠMr":7106,"Ġro":7107,"Ġä¿®":7108,"Ġé¤":7109,"ãĤĮãĤĵ":7110,"é£¼":7111,"ãĥŃãĥŀ":7112,"åĽł":7113,"ãĤ·ãĤ¢ãĤ¿ãĥ¼":7114,"ä¿¡çĶ¨":7115,"æĭ¡":7116,"Or":7117,"Ġä¸ĭãĤĬ":7118,"ç·ıéģ¸æĮĻ":7119,"è²»":7120,"ĠãģĶ":7121,"Ġcolor":7122,"ãģĳãĤĵ":7123,"ãĥĥãĤ»ãĥ«":7124,"ãĥĪãĥªãĥĥãĤ¯":7125,"JPG":7126,"Ġä¸ĬçĶ°":7127,"ãģ®å¦»":7128,"ãģ®æĪ¦ãģĦ":7129,"Ġä»²":7130,"ãģĨãģŁ":7131,"ãĥ¬ãĤ¹ãĥĪ":7132,"Ġit":7133,"ĠåĲĮå¹´":7134,"Ġä»®éĿ¢ãĥ©ãĤ¤ãĥĢãĥ¼":7135,"ĠGER":7136,"ãĥ¡ãĥĩãĤ£ãĤ¢":7137,"Ġè³ĩ":7138,"Ġåĺ":7139,"333":7140,"ĠéģĬ":7141,"Ġéģĭè¡Į":7142,"Ġçı¾ä»£":7143,"è¾»":7144,"(ãĢİ":7145,"Ġãĥĸãĥ©ãĥĥãĤ¯":7146,"ãĤĮãģĦ":7147,"Ġå·¦":7148,"ãĥľãĥ¼ãĤ¤":7149,"æļĹ":7150,"ĠåįĬ":7151,"ĠãĤªãĥ¼ãĥ«":7152,"æĢªçį£":7153,"éĽĨåĲĪ":7154,"Ġwh":7155,"æ¶²åŀĭ":7156,"ãģ®æĹħ":7157,"ĠåĲĳ":7158,"ĠMO":7159,"ĠçīĿ":7160,"Ġãĥĳãĥª":7161,"éķ·å®ĺ":7162,"æĢ¥è¡Į":7163,"mas":7164,"Ġãģł":7165,"åıĸç·łå½¹":7166,"onts":7167,"ĠåıĮ":7168,"ãģ«ãĤĪãĤĬ":7169,"åĩºãģĹ":7170,"çľł":7171,"ĠéĽĳèªĮ":7172,"olf":7173,"çµ±éłĺ":7174,"ĠHot":7175,"ãģıãģ¾":7176,"Ġæį":7177,"å¸Ĩ":7178,"ãĥ¼ãĥ©ãĤ¹":7179,"Ġë":7180,"å°Ĭ":7181,"åħ±çĶ£åħļ":7182,"ĠSim":7183,"1954":7184,"ãĥĹãĥŃãĥķãĤ£ãĥ¼ãĥ«":7185,"Ġè¡ĮåħĪ":7186,"ãĥ¡ãĥ³ãĤ¿":7187,"åıİéĮ²æĽ²":7188,"ĠèĹ¤äºķ":7189,"ãĤ¯ãĤ¿":7190,"èĦ³":7191,"ĠPhil":7192,"ä¹Ļå¥³":7193,"ãĥ¼ãĥĴ":7194,"ross":7195,"ais":7196,"ãĥĲãĥĥãĤ¯":7197,"ãĤµãĥĥãĤ«ãĥ¼éģ¸æīĭ":7198,"Gu":7199,"Ġ1922":7200,"yl":7201,"ãģ®åĽ½":7202,"ECT":7203,"ãĥ¼ãĥĽ":7204,"ãĥĦãĤ£":7205,"åĢ«":7206,"arm":7207,"Ġè»Ĭä¸¡":7208,"ĠãĥŁãĥ¥ãĥ¼ãĤ¸ãĥĥãĤ¯":7209,"ĠMark":7210,"ĠãĥĪãĥŃ":7211,"æ¬ł":7212,"çĶŁçī©":7213,"Ġçĩ":7214,"Ġåħ¥åĽ£":7215,"ĠãĥĹãĥ¬ãĥŁãĤ¢":7216,"Ġçħ§":7217,"ĠéŃĶæ³ķ":7218,"ĠâĶ":7219,"ãĤ¤ãĥ¤ãĥ¼":7220,"ãĤīãĤĮãģŁ":7221,"ãĤ¨ãĥ³ãĤ¸":7222,"åĽĽæ®µ":7223,"è»Ĭåº«":7224,"å§īå¦¹":7225,"Ġå²¡æľ¬":7226,"Ġå°ĳå¹´":7227,"åįĶåĲĮçµĦåĲĪ":7228,"Ġå¹":7229,"ãĥİãĤ¹":7230,"åħĦå¼Ł":7231,"æ¿Ģ":7232,"ĠçĪĨ":7233,"ãģ«ãģĹ":7234,"Ġæı":7235,"ãĥ¬ãĥ©":7236,"ĠCO":7237,"ãĢįãĢĤ":7238,"Ġå°ıåĢī":7239,"åı³è¡ĽéĸĢ":7240,"ĠéĪ´":7241,"ãĥ¼ãĥľãĥ¼ãĥī":7242,"Ġå°ıå±±":7243,"æļ´":7244,"DA":7245,"ts":7246,"Ġä¸ĬãĤĬ":7247,"Ġãĥľãĥ¼ãĤ«ãĥ«":7248,"ĠSuper":7249,"Ġä¸Ĭéĩİ":7250,":(":7251,"ĠéĽ¨":7252,"æ±Ĥ":7253,"åĪĿä»£":7254,"Ġè§Ĵ":7255,"ä»¥å¤ĸ":7256,"è¬Ģ":7257,"ãĤ·ãĥ£ãĥ¼":7258,"æŁĦ":7259,"ĠåĨ¬":7260,"ĠèĲ©":7261,"åħµåº«":7262,"ãĤªãĥªãĥ³ãĥĶãĥĥãĤ¯":7263,"ç¯ł":7264,"à¤":7265,"æ®ºäººäºĭä»¶":7266,"ãĥ³ãĤ¨":7267,"éĢ£è¼ī":7268,"é§Ĩ":7269,"ãĥĸãĥ©ãĥĥãĤ¯":7270,"ãĥ¬ãĥĩãĤ£":7271,"ãģĪãģį":7272,"\"''":7273,"ARA":7274,"äºĪå®ļ":7275,"ĠæŁ´çĶ°":7276,"ãĥ«ãĥĬ":7277,"ĠåĴĮçĶ°":7278,"ĠMOVIE":7279,"ãĤ³ãĥ¼ãĥ«":7280,"rand":7281,"å¸«åĽ£":7282,"ãĤ¨ãĥª":7283,"çĻºéĽ»":7284,"with":7285,"ãģ©ãĤĤ":7286,"Ġåī¯":7287,"ä¸ĸå¸¯æķ°":7288,"æĸ°ç¤¾":7289,"ĠéĩĳåŃĲ":7290,"ĠEC":7291,"ILE":7292,"ãģĦãģŁãģ¾":7293,"ãģķãģª":7294,"ĠåİŁçĶ°":7295,"ãĤīãģªãģĦ":7296,"ãĥĢãĤ¯ãĤ·ãĥ§ãĥ³":7297,"ITY":7298,"Ńè¼ī":7299,"çĭĤ":7300,"ĠãĤ¹ãĥļãĤ·ãĥ£ãĥ«":7301,"ãĤ´ãĥª":7302,"éĬħ":7303,"ä»ĺãģį":7304,"ĠCON":7305,"å°ĭ":7306,"Ġæ§ĭæĪĲ":7307,"ä¿ĿéĻº":7308,"å¥ĪåŃĲ":7309,"oci":7310,"èĩªçĶ±æ°ĳä¸»åħļ":7311,"ĠéĤ¦é¡Į":7312,"ä»ķæ§ĺ":7313,"ãĥŀãĥĥãĤ¯ãĤ¹":7314,"å°ıéĩİ":7315,"ĠåħĲ":7316,"ĠSouth":7317,"ĠãĤªãĥ¼ãĥĹãĥĭãĥ³ãĤ°":7318,"ĠElect":7319,"1951":7320,"ç´¢":7321,"NN":7322,"åįģåŃĹ":7323,"éĻ½åŃĲ":7324,"ANT":7325,"éŁĵ":7326,"ĠGirls":7327,"æĹħè¡Į":7328,"ĠOVA":7329,"åľ°ä¸ĭéīĦ":7330,"(#":7331,"Ġçļĩ":7332,"ĠåĢĭäººæĪĲç¸¾":7333,"102":7334,"ĠåĨħçĶ°":7335,"åºķ":7336,"ãģĭãģĹ":7337,"éĸĭéĢļ":7338,"å±¤":7339,"103":7340,"æĺİæĹ¥":7341,"ĠEdition":7342,"ç§»ç±į":7343,"ãĥ©ãĥľ":7344,"1950":7345,"åı¤å¢³":7346,"ĠAND":7347,"ãĥŁãĥĥãĤ¯":7348,"Ġå¤§åŃĹ":7349,"ĠçĶ±":7350,"ĠæĹ¥æľ¬ãģ®éīĦéģĵé§ħä¸Ģè¦§":7351,"åİŁçĶº":7352,"eel":7353,"Ġä¸Ńéĥ¨":7354,"ĠãĥĪãĤ¥":7355,"ãĥŁãĥ¥ãĥ¼ãĤ¸ãĤ·ãĥ£ãĥ³":7356,"ä¸Ńéĩİ":7357,"è©ķä¾¡":7358,"ĠèĴ":7359,"ãĥŁãĤ¹ãĥĨãĥªãĥ¼":7360,"ME":7361,"ãĤĵãģ§":7362,"ĠãĤ¢ãĥ©":7363,"ãģķãģĭ":7364,"ars":7365,"ĠVS":7366,"ãģ£ãģ¦ãģĦãĤĭ":7367,"Music":7368,"IFE":7369,"ĠãĤµãĥ©":7370,"ĠWith":7371,"å¤§åŃ¦éĻ¢":7372,"Ġå°ıæĿ¾":7373,"era":7374,"ĠRail":7375,"HO":7376,"ham":7377,"åŁºç¤İ":7378,"å«ģ":7379,"ĠçĴ°":7380,"umb":7381,"130":7382,"ography":7383,"âĻª":7384,"éĩįéĩı":7385,"Ġè¦ĭ":7386,"Ġå»¶":7387,"ĠåĽĽåĽ½":7388,"PE":7389,"VS":7390,"æĦĽãģ®":7391,"ãģįãģª":7392,"Com":7393,"ĠLP":7394,"ĠãĤŃãĥł":7395,"ıè¨ª":7396,"Ġfonts":7397,"æĭł":7398,"ãĥ³ãĤµãĥ¼ãĥĪ":7399,"ĠPR":7400,"Ġare":7401,"ĠFSW":7402,"ĠNorth":7403,"èĪŁ":7404,"ãĤıãĤĮãģŁ":7405,"èĭĹ":7406,"erman":7407,"å·Ŀå´İ":7408,"Pr":7409,"æ²ĸ":7410,"ĠèĳĹåĲįãģª":7411,"RY":7412,"Ġæ°´æĪ¸":7413,"åł¤":7414,"HS":7415,"ĠæĹ©å·Ŀ":7416,"UP":7417,"åĲĳãģĳ":7418,"112":7419,"ĠãĤ«ãĥª":7420,"å£Ĭ":7421,"Ġfontsize":7422,"ones":7423,"Ġåģ¥":7424,"ãģĽãģĦ":7425,"ĠPaul":7426,"ãĥ¼ãĥļ":7427,"Ġè¡Ĩ":7428,"ĠãĤªãĥªãĤ³ãĥ³":7429,"vel":7430,"AME":7431,"ãĥĿãĤ¤ãĥ³ãĥĪ":7432,"Ġlove":7433,"åı¢":7434,"Ġãĥķãĥª":7435,"ãģĮä¸ĺ":7436,"éĿĴæ£®":7437,"éĬĢæ²³":7438,"èªĺ":7439,"ãģ£ãģ±":7440,"çĴ":7441,"ãĢģ''":7442,"ãĥīãĥ³":7443,"rown":7444,"ãĥĭãĤ«":7445,"å¯¾è±¡åľ°åŁŁ":7446,"Ġä¼Ĭåĭ¢":7447,"ĠTE":7448,"ĠGold":7449,"Ġ119":7450,"Ġå§ī":7451,"Ġé«ĺæľ¨":7452,"æł¹çľĮ":7453,"ãģĤãģ£ãģŁ":7454,"ĠãĤ¤ãĥ³ãĥī":7455,"ãĥ³ãĥĩãĤ£ãĥ³ãĤ°ãĥĨãĥ¼ãĥŀ":7456,"ãĥĥãĥĿãĥ³":7457,"ARK":7458,"ournal":7459,"osh":7460,")/":7461,"ĠãĥĬãĥ¬ãĥ¼ãĤ·ãĥ§ãĥ³":7462,"ĠAlbum":7463,"ãĥīãĥ¼ãĥł":7464,"ãĥ¼ãģ®":7465,"Ġãĥĩãĥ¥":7466,"here":7467,"Ġå¹»":7468,"ãĥŀãĤ¬":7469,"Ġç¬¹":7470,"å·ŀéģĵ":7471,"ãģ¹ãģ¦":7472,"Ġç«¹åĨħ":7473,"Ġå±±å½¢çľĮ":7474,"ãĤ¤ãĤ¢ãĥĥãĥĹ":7475,"éĽ»è©±":7476,"Ġéķ·å´İçľĮ":7477,"Ġèĥ½":7478,"ĠPower":7479,"ĠMic":7480,"led":7481,"æĿİ":7482,"!'''":7483,"ãĤªãĥªãĤ¸ãĥĬãĥ«":7484,"ĠONE":7485,"ĠæĬĢè¡ĵ":7486,"éĩĳæ²¢":7487,"åĴĮåŃĲ":7488,"åĪĨé¡ŀ":7489,"è©ķè«ĸ":7490,"èĮ¨":7491,"ãĥ¢ãĥİ":7492,"Ġcm":7493,"ãĤīãĤĮãĤĭ":7494,"ä¿Ĺ":7495,"å¤§ä½¿":7496,"ORE":7497,"Ġçī¹å¾´":7498,"éĻ¸ä¸Ĭç«¶æĬĢ":7499,"IST":7500,"Ġ1921":7501,"ãĤ·ãĥ«":7502,"ãģĹãĤĩãģĨ":7503,"é§¿":7504,"ãĥŁãĥĥãĤ¯ãĤ¹":7505,"ridge":7506,"ãĥĵãĥ¥":7507,"ATT":7508,"ĠçīĽ":7509,"ĠéĸĭçĻº":7510,"ãĤŃãĤ·ãĤ³":7511,"ĠæĶ¾éĢģå¯¾è±¡åľ°åŁŁ":7512,"éĥģ":7513,"ĠWest":7514,"æĶ¯æīĢ":7515,"ãĥģãĥ£ãĥ³ãĥĶ":7516,"è¨Ģèªŀ":7517,"ij":7518,"ãĤ«ãĥ³":7519,"æĪ¯":7520,"OLD":7521,"ĠæºĲ":7522,"ĠãĤ´ãĥ¼ãĥ«":7523,"æŀĲ":7524,"İãģ®":7525,"ãĥ³ãĥĽ":7526,"ãģ¾ãģ¤ãĤĬ":7527,"ĠWay":7528,"ĠèĮ¨åŁİçľĮ":7529,"ior":7530,"é¡į":7531,"ãĤ¶ãĤ¤":7532,"ãģ¾ãģĦ":7533,"æĶ¿åºľ":7534,"è¬Ľåº§":7535,"ãĥ©ãĤ¤ãĥķ":7536,"??":7537,"ãĥ³ãĤª":7538,"åĲįäºº":7539,"éģ¸æĬľ":7540,"Ġtra":7541,"ãģ¾ãĤĵ":7542,"ãģĮå®ĮæĪĲ":7543,"ĠãĤ¹ãĥĶ":7544,"ä½ıå±ħ":7545,"âĪĴ":7546,"ĠãĤ¨ãĥª":7547,"åĦĢ":7548,"ĠRadio":7549,"ãĥ«ãĥ¢":7550,"ãĥ³ãĤ·ãĥ£":7551,"æĺ¥ç§ĭ":7552,"001":7553,"æīĢåľ¨åľ°":7554,"Ġåıį":7555,"Ġdel":7556,"é¨İå£«":7557,"ç¶Ń":7558,"Ġæ¥µ":7559,"å¸Ĥéķ·":7560,"ãĤµãĥ©":7561,"ãĥĹãĤ¹":7562,"ãĥĭãĥ£":7563,"åĩºå¼µæīĢ":7564,"ãģ®å¤ľ":7565,"ĠçĶŁæ¶¯":7566,"1953":7567,"ãģĹãĤį":7568,"ãĥĳãĥ¼":7569,"ãģ«æĶ¹ç§°":7570,"ãĥ³ãĥĶãĥ¥":7571,"ãĤ·ãĤ«":7572,"æ·µ":7573,"Ġãĥĸãĥ¬":7574,"ãĥĢãĥ³":7575,"éĹĩ":7576,"Ġå¸Ĥå·Ŀ":7577,"ĠSummer":7578,"ĠReg":7579,"eck":7580,"Ġ1919":7581,"èĳĹæĽ¸":7582,"åĶĲ":7583,"Ġå½±":7584,"ĠMem":7585,"ãĥĬãĤ¹":7586,"tra":7587,"ãĤ¦ãĤ¤":7588,"105":7589,"èĹ¤åİŁ":7590,"ãĥĪãĥ³ãĥįãĥ«":7591,"ãĥĹãĥĪ":7592,"ãĥĹãĥ¼ãĥ«":7593,"Ġ128":7594,"ĠIT":7595,"ym":7596,"Ġä½µ":7597,"åĲ«ãĤĢ":7598,"ãĥ¡ãĥŃ":7599,"Ġç¦ıçĶ°":7600,"ĠDD":7601,"æ²¡":7602,"ateg":7603,"ãĥ¼ãĥĩãĤ¶ãĤ¤ãĥ³":7604,"azz":7605,"ĠSol":7606,"å²©æīĭ":7607,"ĠGreat":7608,"ãĤ¹ãĤ¿ãĥ³":7609,"ãģ´":7610,"ãĤ¤ãĤ®ãĥªãĤ¹":7611,"çĲĨäºĭ":7612,"ĠLight":7613,"ãģ«åĩºæ¼Ķ":7614,"Ġãĥ©ãĤ¤ãĥĪ":7615,"104":7616,"éĸĵãģ®":7617,"ĠPRE":7618,"ĠåıĹè³ŀæŃ´":7619,"åĲĪä½µ":7620,"å²¡å±±":7621,"èĲĮ":7622,"å¸ĤçĶºæĿĳ":7623,"'''ãĢı":7624,"ãĥ«ãĥ¼ãĥĪ":7625,"IEC":7626,"Te":7627,"Ġbl":7628,"Ø§":7629,"åĩ¡":7630,"ãĥ¬ãĥĥãĤ¸":7631,"çŀ³":7632,"URO":7633,"Ġ:|":7634,"ĠSUZ":7635,"æľ±":7636,"éĩİçĶº":7637,"ãĤ¿ãĤ«":7638,"ãĤ¯ãĤ½ãĥ³":7639,"ĠãĥĩãĤ¤":7640,"ĠParty":7641,"åĽº":7642,"Ġç´ħ":7643,"çĨ":7644,"ãĥĬãĥĵ":7645,"ĠæĿ±å®Ŀ":7646,"ç©ºè»į":7647,"ĠãĤ¹ãĤ¿ãĤ¸ãĤª":7648,"elf":7649,"ogle":7650,"ãģ®å¨ĺ":7651,"ãĤ¯ãĤ·ãĥ¼":7652,"ãĥŁãĥ«":7653,"ude":7654,"Ġå¤§æŃ£":7655,"ĠPort":7656,"ĠéĿĴæ£®çľĮ":7657,"ĠçĽĽ":7658,"å¤ĸç§ĳ":7659,"ĠOpen":7660,"æĸ°äºº":7661,"çĻ¾åĲĪ":7662,"ãģ®åľ°åĲį":7663,"igital":7664,"å¤§åĴĮ":7665,"ĠMet":7666,"ĠæĿ±æĹ¥æľ¬":7667,"äººæ°ĳ":7668,"ĠRoad":7669,"ĠãĤ¢ãĥ³ãĥīãĥ¬":7670,"yth":7671,"åĮ»å¸«":7672,"ĠBra":7673,"ãĥ«ãĤ¤ãĤ¹":7674,"ãĥ³ãĥģãĥ£":7675,"ìĿ":7676,"ĠCr":7677,"ĠMart":7678,"END":7679,"ãĤªãĥ³ãĤº":7680,"è¦³éŁ³":7681,"ines":7682,"Ġç§ĭçĶ°çľĮ":7683,"è©³ç´°":7684,"ĠEp":7685,"ãĥĬãĤ¤ãĥĨãĥĥãĥī":7686,"GT":7687,"ĠMuseum":7688,"\")":7689,"å·£":7690,"ensis":7691,"ĠéĿ¢":7692,"ĠRobert":7693,"ange":7694,"ĠBand":7695,"Ġoff":7696,"kW":7697,"ãĤ¦ãĤ§ãĥĸãĤµãĤ¤ãĥĪ":7698,"éļł":7699,"ĠæĿ¾äºķ":7700,"ĠèªķçĶŁæĹ¥":7701,"è£ķåŃĲ":7702,"çŃĴ":7703,"ĠAv":7704,"JI":7705,"Ġè£ħ":7706,"ĠParis":7707,"ĠLast":7708,"ĠãĤ¢ãĥ¡ãĥªãĤ«ãģ®":7709,"ĠSociety":7710,"ãģ¨ãģ¯":7711,"ĠRECORDS":7712,"ĠéĮ²":7713,"æľĢå¤§":7714,"ãĤħãĤĵ":7715,"ida":7716,"ãĥķãĤ£ãĥ¼ãĥ«ãĥī":7717,"ĠãĤ»ãĥªãĤ¨":7718,"ĠãĤī":7719,"ãĥ³ãĥĩãĤ¹":7720,"ĠçĲĥ":7721,"ãĤ¯ãĤ»ãĥ«":7722,"rumental":7723,"ĠNC":7724,"ĠãĥĲãĥ¬":7725,"ĠDISC":7726,"ĠãĤµãĥĥãĤ«ãĥ¼":7727,"ħåŃĲ":7728,"oust":7729,"ĠæĦĽåªĽçľĮ":7730,"ories":7731,":ãĢİ":7732,"ĠCal":7733,"ãĤ¹ãĤ¯ãĥ¯":7734,"ye":7735,"ãĥŃãĥĬ":7736,"Ġå¾©":7737,"DAY":7738,"æĿ¾ç«¹":7739,"ç¦ıäºķ":7740,"ELL":7741,":ãĢĮ":7742,"ãĥªãĥ«":7743,"ãĤ¿ãĤ¤ãĥĹ":7744,"Ġ@":7745,"æİĽ":7746,"ĠNEAT":7747,"æ¡ĪåĨħ":7748,"Ġç«¶èµ°":7749,"åĬĩåł´çīĪ":7750,"çĻ»åł´äººçī©":7751,"BU":7752,"åĪĿãģ®":7753,"ĠSF":7754,"Ġè¦ĸ":7755,"ĠæĹ¥ç«ĭ":7756,"ĠãĥĶãĥ¼ãĤ¿ãĥ¼":7757,"æĬĺ":7758,"Ġçĭ¬ç«ĭ":7759,"ãģ®ãģĭ":7760,"ãĤ¸ãĥ©":7761,"å½¢å¼ı":7762,"ãĥıãĥ«":7763,"UMMER":7764,"Ġçµ¶æ»ħåį±æĥ§":7765,"ãĥĲãĥª":7766,"John":7767,"ĺåįĹ":7768,"Ġ1914":7769,"108":7770,"ãĥ¡ãĥ¼ãĥĪãĥ«":7771,"ãĤ¬ãĤ¤":7772,"ĠãĥķãĤ¡ãĤ¤":7773,"750":7774,"ãĥĸãĥŃãĥĥãĤ¯":7775,"Ġæ¨Ļ":7776,"za":7777,"éĻ¸è»į":7778,"ä¿£":7779,"æľ¨æĽľ":7780,"ãĤ¢ãĥªãĥ¼ãĥĬ":7781,"ãĥĥãĤ½":7782,"æŀ¶":7783,"æĴ®":7784,"ãģ¨åħ±":7785,"Ġèı¯":7786,"çĻ»éĮ²":7787,"ãĤºãĤŃ":7788,"ĠæŃ¦èĶµ":7789,"ĠæĲ":7790,"ãĥĢãĥĸãĥ«":7791,"å½¢æħĭ":7792,"æ·»":7793,"èĳĽ":7794,"çĤº":7795,"ĠãĤ½ãĤ¦ãĥ«":7796,"å¥ī":7797,"ãĤ¨ãĥŃ":7798,"ãĤŃãĥ£ãĤ¹ãĥĪ":7799,"Ġåıĸ":7800,"ãĤµãĥł":7801,"æĸ¬":7802,"æĶ¿æ²»å®¶":7803,"All":7804,"ä¹ħç¾İåŃĲ":7805,"æłĸ":7806,"EXT":7807,"è£½åĵģ":7808,"ĠShow":7809,"ĠåĪĿä»£":7810,"ĠçłĤ":7811,"ãĥĨãĥĭãĤ¹":7812,"Ġäº¤å·®":7813,"éĮ¦":7814,"å®īåħ¨":7815,"æĮĳæĪ¦":7816,"bert":7817,"éģ¿":7818,"ĠãĤ¢ãĥķãĥªãĤ«":7819,"ĠãĤ¹ãĥļãĥ¼ãĤ¹":7820,"Ġé«ĺçŃī":7821,"ç¬ĳãģĦ":7822,"ĠSal":7823,"uki":7824,"uel":7825,"ãĥªãĥ¼ãĥł":7826,"ãģĭãģ¤":7827,"è²·":7828,"?)":7829,"On":7830,"ĠCap":7831,"Ġãģ«å¯¾":7832,"çĶ°ä¸Ģ":7833,"ãģ§ãģįãĤĭ":7834,"Ġèī²":7835,"à¹":7836,"ãģĥ":7837,"ãĤ±ãĥĥãĥĪãĥľãĥ¼ãĥ«":7838,"Ġä¸īéĩįçľĮ":7839,"è·³":7840,"å¤©åłĤ":7841,"ãĥ¼ãĥŃãĥ¼":7842,"æĻ®éĢļ":7843,"Ġçµ±":7844,"Ġç´Ģåħĥåīį":7845,"ĠInstit":7846,"ĠãĥĢãĤ¤":7847,"SF":7848,"Ġåŀ":7849,"NY":7850,"Ġéģ¸æĮĻ":7851,"ira":7852,"ãĤ¨ãĥ©":7853,"'m":7854,"ĳç´Ħ":7855,"æĶ¿çŃĸ":7856,"ĠåĮºéĸĵ":7857,"ç°¡":7858,"JCT":7859,"Ġãģĭãģ¤":7860,"Ġèĩ¨":7861,"Ġfl":7862,"ĠæĿ±äº¬å¤§åŃ¦":7863,"ãģķãĤı":7864,"ĠåĭĿåĪ©":7865,"æ¸ĵ":7866,"ARY":7867,"ãĥĨãĤ¯":7868,"ãĥŁãĥ¥ãĥ¼ãĤ¸ãĥĥãĤ¯":7869,"ĠéĹ":7870,"æĪ¦éĹĺ":7871,"åĲ¸":7872,"ĠçĬ¬":7873,"ĠTim":7874,"ãģ¨ãģĹ":7875,"ĠMiss":7876,"éģĶä¹Ł":7877,"éİĮ":7878,"ful":7879,"edia":7880,"æģĲ":7881,"æľĪåł´æīĢ":7882,"ãĥ´ãĤ§ãĥ«":7883,"Ġac":7884,"æľŃ":7885,"ĠBSãĥĹãĥ¬ãĥŁãĤ¢ãĥł":7886,"ĠãĤ¹ãĥļãĤ¤ãĥ³":7887,"åī¤":7888,"ãĤ¹ãĥŁãĤ¹":7889,"åĪ¥äººåı£":7890,"Ġåĩºæ¼Ķä½ľåĵģ":7891,"angu":7892,"-(":7893,"ãĥķãĤ©ãĥ³":7894,"Ġå¤±çĤ¹":7895,"ĠãĥĶãĤ¢ãĥİ":7896,"ĠæĿ¾å±±":7897,"éļľå®³":7898,"ãģ¨ãģĹãģ¦ãģ®":7899,"Ġä¸ģçĽ®":7900,"åįĪ":7901,"1945":7902,"ãģĻãģļ":7903,"åĤ·":7904,"éģºçĶ£":7905,"å¥´":7906,"åľ°çĲĥ":7907,"è¾ŀåħ¸":7908,"ĠBM":7909,"ãĥĭãĥĥãĤ¯ãĤ¹":7910,"âĢĲ":7911,"ãĤīãģ®":7912,"Ġåľ°çĲĥ":7913,"Ġä½ĵéĩį":7914,"ĠSeason":7915,"ĠéĮ²éŁ³":7916,"isode":7917,"ĠåĲīå·Ŀ":7918,"Ġæ¾":7919,"çĳł":7920,"ç£¯":7921,"ãĥķãĥ©ãĤ¤":7922,"ãģĻãĤĭéģĵè·¯":7923,"æĭ¬":7924,"Ġè©ķä¾¡":7925,"ä¹Ŀæ®µ":7926,"ĠSan":7927,"Ġå¯Įå±±çľĮ":7928,"æ²¿éĿ©":7929,"tain":7930,"ãĤ±ãĤ¤":7931,"è¥¿åı£":7932,"ãģ¨äººåı£":7933,"å±ķç¤º":7934,")âĢ»":7935,"ãģ®ãĤĬ":7936,"ãĤ«ãĥ¯":7937,"111":7938,"æĤ²":7939,"ãĥ¼ãĤ¸ãĤ§":7940,"æ²³åĨħ":7941,"omas":7942,"é¡ķ":7943,"SL":7944,"æķ°ãģ®":7945,"ãĥĻãĤ¹":7946,"Ġæģµ":7947,"è£ģåĪ¤æīĢ":7948,"ichard":7949,"éī±":7950,"ique":7951,"ĠLand":7952,"Ġå§«":7953,"Ġãĥĵãĥ«":7954,"107":7955,"ĠFR":7956,"Äģ":7957,"oun":7958,"ãĥªãĥ¼ãĥĬ":7959,"ĠéĿĻ":7960,"ĠçĶŁå¹´ä¸įæĺİ":7961,"ĠBus":7962,"éĽĳèªĮ":7963,"PN":7964,"ĠEuro":7965,"çī¹éĽĨ":7966,"ĠDance":7967,"ãĥĹãĥ«":7968,"Ġå¤§å³¶":7969,"éĥ¨åĪĨ":7970,"æ¦Ĥ":7971,"Ġqu":7972,"æĹ¥æĮĩå®ļ":7973,"Ġper":7974,"Ġwebsite":7975,"ĠãĤ¨ãĤ¢":7976,"Don":7977,"ä¹¾":7978,"ãĤĪãģªãĤī":7979,"Am":7980,"CX":7981,"Ġé§Ĵ":7982,"Ġåĥķ":7983,"ĠæĻĤéĸĵ":7984,"formation":7985,"çĶŁå¾Ĵ":7986,"Ġå¼µ":7987,"ĠãĢĴ":7988,"Se":7989,"èĦĪ":7990,"ä¸Ńå³¶":7991,"ĠãĤ¸ãĥ§ãĥ¼":7992,"çĶ°åĴĮ":7993,"ĠéħĴäºķ":7994,"Ġè¿½":7995,"ãĥ¢ãĥ¼ãĥī":7996,"LECTION":7997,"ä¼¼":7998,"ãĥ¼ãĤ½ãĥĬãĥªãĥĨãĤ£":7999,"ĠãĤŃãĥ¥":8000,"Ġæ¯İéĢ±":8001,"Ġæ²¼":8002,"Ġ126":8003,"Ġæİ¥ç¶ļ":8004,"180":8005,"Ġãĥ´ãĤ§":8006,"è¬Ŀ":8007,"ĠMIN":8008,"å¸Ĥåł´":8009,"éĢŁåº¦":8010,"ç´ĭ":8011,"ĠMLB":8012,"åŃ¸":8013,"ĠHall":8014,"ãĤ³ãĥŀ":8015,"ãģĴãĤĭ":8016,"ãģªãģį":8017,"ĠèĳĽ":8018,"Ġãģ²ãĤį":8019,"ĠæĹ©ç¨²çĶ°":8020,"åĭī":8021,"åĬĩåĽ£":8022,"AKE":8023,"ãĥĬãĥŁ":8024,"å¾ªçĴ°":8025,"Ġå²ĲéĺľçľĮ":8026,"109":8027,"ĠçĢ¬æĪ¸":8028,"ãĥ³ãĥĺ":8029,"ãĤ¬ãĤ¤ãĥī":8030,"Ġ123":8031,"å¶º":8032,"æĦĽçŁ¥":8033,"ĠMS":8034,"å±±çĶº":8035,"Ġä¸ĸå¸¯æķ°ãģ¨äººåı£":8036,"ĠãĤ¢ãĤ«":8037,"å¹ķåĥļ":8038,"ãĥŁãĥ³ãĤ°":8039,"ãĥĵãĤ¸ãĥ§ãĥ³":8040,"ãĥļãĥ«":8041,"éģºè·¡":8042,"åĲįãģ®çĶ±æĿ¥":8043,"å¤«äºº":8044,"Ġçª":8045,"ãĤŃãĥ£ãĥ³ãĥĳãĤ¹":8046,"Ġ(:":8047,"ãģ®ä¸Ńå¤®":8048,"ãĥĳãĥª":8049,"-ãĢı":8050,"Ġmusic":8051,"Ġãĥ¤ãĥŀãĥı":8052,"ĠãĤ¢ãĤ¯ãĤ»ãĤ¹":8053,"Ġph":8054,"Vol":8055,"ãĤ¨ãĤ¹":8056,"ãĥ¼ãĥ¯":8057,"Ġåı°æ¹¾":8058,"åĪ¥äººåı£æ§ĭæĪĲ":8059,"ĠAUT":8060,"ãĥ¼ãĤ·ãĥ¥":8061,"ãģ®ãĤ¢":8062,"ãĢľãĢį":8063,"och":8064,"çĶ°å·Ŀ":8065,"1949":8066,"éĺ²è¡Ľ":8067,"æ¸ķ":8068,"ãĥĶãĥ³":8069,"ĠåĮĹéĻ¸":8070,"ãĥŀãĥ©ãĤ½ãĥ³":8071,"Ġå¯¾æĪ¦":8072,"ãĥłãĥĭ":8073,"ãĤµãĤ¦ãĥ³ãĥī":8074,"ĠTechn":8075,"æ¥ŃåĭĻ":8076,"Ġå±±åı£çľĮ":8077,"ĠLi":8078,"ĠãĤ¿ãĤ¤ãĤ¢ãĥĥãĥĹ":8079,"èĩ³":8080,"ãĤ®ãĥª":8081,"éľ§":8082,"Ð»":8083,"ĠãĥķãĤ§ãĥ©ãĥ¼ãĥª":8084,"ãĤĴéĸĭå§ĭ":8085,"Ġå¡ļ":8086,"ĠLeg":8087,"ãĥ¼ãĤ¶ãĥ¼":8088,"Ġ1918":8089,"ages":8090,"ä¿ĿèŃ·":8091,"Ġè¥¿æŃ¦":8092,"åīįãģ®":8093,"ãģĹãĤĩ":8094,"Ġ122":8095,"Ġ:'''":8096,"è½Ħ":8097,"è¿·":8098,"ĠåĶĲ":8099,"Ġå»ºç¯ī":8100,"åĪĬè¡Į":8101,"ĠKn":8102,"ãĥĹãĥ©ãĤ¹":8103,"å¾ĴæŃ©":8104,"ãĥįãĥ³":8105,"æĶ»æĴĥ":8106,"ĠITA":8107,"åĲįç§°":8108,"æİ²è¼ī":8109,"ä»¤åĴĮ":8110,")ãĥ»":8111,"Ġåĸ¶":8112,"éļ¼":8113,"Ġé¨İ":8114,"udio":8115,"Ġæ¡ľäºķ":8116,"ĠBel":8117,"ãĥĹãĥ¬ãĤ¹":8118,"Ġ121":8119,"1952":8120,"äº¤çķª":8121,"ĠèıĬæ±ł":8122,"ãĥŁãĥª":8123,"ãģĮãĤĬ":8124,"Ġ1000":8125,"ä¸īéĩį":8126,"ĠSil":8127,"æ±łçĶ°":8128,"Ġ:ãĢĮ":8129,"ãĥ¼ãĥĭãĥ£":8130,"ãĥ³ãĥĸãĥ«":8131,"ç¢ĳ":8132,"éĢı":8133,"ãĥĩãĤ£ãĥ¬ãĤ¯ãĤ¿ãĥ¼":8134,"ĠçĽ£":8135,"éģħãĤĮ":8136,"Ġ1913":8137,"KS":8138,"Ġæĸ°äºº":8139,"td":8140,"īçĲĥ":8141,"ãĥķãĥªãĥ¼":8142,"ç¿»è¨³":8143,"ĠAct":8144,"box":8145,"ĠNTT":8146,"ives":8147,"ĠãĤ¨ãĥ³ãĤ¸ãĥ³":8148,"å¼ģèŃ·å£«":8149,"ãĤ¯ãĤ¤ãĤº":8150,"ĠSide":8151,"ĠäºĪ":8152,"äº¤æµģ":8153,"ĠSPECIAL":8154,"ãĤ¦ãĤ£ãĥªãĤ¢ãĥł":8155,"ãĤ¸ãĥįãĤ¹":8156,"çµĤäºĨæĻĤ":8157,"ãģ¿ãģļ":8158,"äººç¨®":8159,"Ġãĥīãĥ©ãĤ´":8160,"ç¥Ŀ":8161,"ãĤ¢ãĥĭ":8162,"è¿«":8163,"ãĤ³ãĥ«":8164,"ĠDays":8165,"Co":8166,"irect":8167,"å°±ä»»":8168,"è³Ĭ":8169,"ĠåĢĻ":8170,"ãĥ¡ãĤ¬":8171,"ĠMat":8172,"ĠSHOW":8173,"ĠCAN":8174,"ally":8175,"ãĥĹãĥ©ãĤ¤":8176,"ĠèĶ":8177,"unt":8178,"ãĥĩãĥĵãĥ¥ãĥ¼":8179,"ä¸ŃåŃ¦":8180,"ãĤŃãĤ¹":8181,"Ġç´Ļ":8182,"ĠéĩİæĿĳ":8183,"ope":8184,"Ġæ³¢":8185,"Ġæ¡Ĥ":8186,"çľŁçĲĨ":8187,"åĩºèº«èĢħ":8188,"ãĤīãĤĵ":8189,"ãĢľãĢı":8190,"ãĥķãĤ©ãĥ«":8191,"ãĤ¦ãĤ§ãĥ«":8192,"ĠåĪº":8193,"ĠAC":8194,"ĠNet":8195,"ãĥĶãĤ¢ãĥİ":8196,"ĠEngine":8197,"PR":8198,"DD":8199,"Ġæµ·è»į":8200,"ACT":8201,"onder":8202,"ãĥĹãĥŃãĥĩãĥ¥ãĥ¼ãĤ¹":8203,"ãģĦãĤį":8204,"ãĥ¼ãĤ¬ãĥ³":8205,"ãĤģãģĲãģ¿":8206,"ĠåľĴ":8207,"ĠåĢĻè£ľ":8208,"ç§Ģæ¨¹":8209,"ĠæĿ±æ´ĭ":8210,"çŁŃèª¿":8211,"ãĥıãĥ³":8212,"éĿ©åĳ½":8213,"for":8214,"Ġæĺ¥æĹ¥":8215,"Ġãĥ«ãĤ¤":8216,"Ġab":8217,"å±±å´İ":8218,"ãĥ¯ãĥ¼ãĤ¹":8219,"ĠãĤ¯ãĥ©ãĤ¹":8220,"1948":8221,"Ġå°ıå³¶":8222,"Ġç¾©":8223,"åĶ¯":8224,"ĠScience":8225,"éģķ":8226,"Ġéģĵãģ®é§ħ":8227,"ãģĭãģļ":8228,"ince":8229,"ĠIsland":8230,"éĽ»åŃĲ":8231,"é£Łåĵģ":8232,"ä¸Ńå±±":8233,"Ġãĥģãĥ¥":8234,"ĠGBR":8235,"inter":8236,"å¼ķéĢĢ":8237,"Ġç£¯":8238,"160":8239,"ĠZepp":8240,"Ġ127":8241,"ãĤ¤ãĥ«ãĤº":8242,"ĠãĤ¢ãĤ¤ãĥīãĥ«":8243,"Ġç¬ĳ":8244,"ĠSTAGE":8245,"ãģªãģı":8246,"Ġup":8247,"ĠåĲįåı¤å±ĭå¸Ĥ":8248,"ĠåĲĦè©±":8249,"min":8250,"Ġæķ°":8251,"æī¹":8252,"Ġè¥¿æĹ¥æľ¬":8253,"Sc":8254,"ãĥ³ãĤ¼ãĥ«ãĤ¹":8255,"Ġ160":8256,"ĠãĤ¤ãĥ³ãĥĩãĤ£":8257,"æ¶Īéĺ²ç½²":8258,"çį²å¾Ĺ":8259,"ĠAre":8260,"ĠéĻ¸è»į":8261,"wood":8262,"æĶ¾éĢģå±Ģ":8263,"åķĨåºĹè¡Ĺ":8264,"MV":8265,"ãĤ¶ãĥ¼ãĥī":8266,"Ġè²¡":8267,"ä»®éĿ¢ãĥ©ãĤ¤":8268,"ĠGK":8269,"åĢĻè£ľ":8270,"å»£":8271,"der":8272,"Ġçĳ":8273,"ãĤ«ãĤ¦":8274,"ĠFire":8275,"Ġå·»":8276,"ãģ®ä¸Ńå¤®åĢ¤":8277,"ãĤĮãģ°":8278,"åĽŀè¡ĨèŃ°éĻ¢èŃ°åĵ¡":8279,"ãĥ¡ãĥĩãĤ£":8280,"èĺĩ":8281,"ĠãĥĢãĥĭãĤ¨ãĥ«":8282,"ãĤĮãģªãģĦ":8283,"ãĤ¢ãĥ³ãĥĪ":8284,"ĠèĳĹä½ľ":8285,"çĶ·æĢ§":8286,"ãĥŃãĤ·ãĤ¢":8287,"éģİåİ»":8288,"rie":8289,"ãĥĬãĤ¿":8290,"106":8291,"ç©´":8292,"èĲ©":8293,"ãĥīãĥ©ãĤ´":8294,"çĶºé§ħ":8295,"ĠæľŁ":8296,"çĭ¬ç«ĭ":8297,"NET":8298,"PB":8299,"ĠProgram":8300,"ãģĤãģªãģŁ":8301,"é¦¬èº«":8302,"ĠGame":8303,"Ġ(+":8304,"ĠãĤ«ãĥ©":8305,"ãĥĹãĥŃãĤ¸ãĤ§ãĤ¯ãĥĪ":8306,"æīĵæĴĥ":8307,"press":8308,"Ġ1917":8309,"ĠPlayStation":8310,"ĠJames":8311,"PO":8312,"ĠãģĵãģĨ":8313,"Ġãĥīãĥ©ãĥłãĤ¹":8314,"Ġæľ¬çĶ°":8315,"ãĥ¬ãĥ³ãĤ¸ãĥ£ãĥ¼":8316,"Ġä¸¡":8317,"æ©Łæ¢°":8318,"ãĥ©ãĥ³ãĤŃãĥ³ãĤ°":8319,"sv":8320,"è¹":8321,"ãĥĿãĥª":8322,"Ġãĥ¬ãĤ®ãĥ¥ãĥ©ãĥ¼":8323,"-ãĢį":8324,"Ġæľ¨ä¸ĭ":8325,"æ³Ĭ":8326,"Inst":8327,"ibr":8328,"åĦĦåĨĨ":8329,"ĠKO":8330,"aps":8331,"åĪ¶å®ļ":8332,"æŁĶ":8333,"oice":8334,"åı¥":8335,"Ġç¶¾":8336,"ĠMor":8337,"æĹ¥æľ¬ä»£è¡¨":8338,"MAN":8339,"aven":8340,"æ°ĳé¤¨":8341,"ãĥĹãĥŃãĥĢãĤ¯ãĤ·ãĥ§ãĥ³":8342,"ĠGener":8343,"rew":8344,"åĽŀè¡ĨèŃ°éĻ¢èŃ°åĵ¡ç·ıéģ¸æĮĻ":8345,"ãĤ¤ãĤ¢ãĥ³":8346,"è¡¨ç¤º":8347,"é³¥åıĸ":8348,"ĠClass":8349,"ç§»åĭķ":8350,"For":8351,"omb":8352,"ãĥĨãĥ¬ãĥĵæĶ¾éĢģ":8353,"IB":8354,"éĩĳåº«":8355,"æĢĿæĥ³":8356,"èĴ²":8357,"ãĥ³ãĥķãĤ¡":8358,"ãĥ«ãĤ½ãĥ³":8359,"ĠFest":8360,"Ġé«ĺéĢŁ":8361,"åı¢æĽ¸":8362,"eath":8363,"lish":8364,"ĠãĤ°ãĥ©ãĥ³ãĥī":8365,"çĶ°ç·ļ":8366,"Ġå¾³å³¶çľĮ":8367,"ĠMov":8368,"æ¸ī":8369,"aint":8370,"é«ª":8371,"UST":8372,"å±±ãģ®":8373,"attle":8374,"ĠLONE":8375,"ãĥįãĤ¤":8376,"itz":8377,"å¾Ģ":8378,"å¾®":8379,"ĠStr":8380,"iro":8381,"ney":8382,"ĠãĤªãĥķãĤ£ãĤ·ãĥ£ãĥ«":8383,"ĠUK":8384,"å¬":8385,"ĠLE":8386,"ĠCLUB":8387,"ä¸Ĭéĩİ":8388,"éĮ²éŁ³":8389,"ĠCollection":8390,"èĸ©":8391,"UDIO":8392,"ãģĦãĤı":8393,"Ġé¦Ļå·ĿçľĮ":8394,"ĠCenter":8395,"åĪĿåĽŀ":8396,"ein":8397,"ãĥĭãĤª":8398,"ĠFRA":8399,"ĠæĹ¥æľ¬ãĥĨãĥ¬ãĥĵç³»åĪĹ":8400,"ãĤ³ãĥ¢":8401,"Ġé§Ĳ":8402,"ĠMa":8403,"æľŁãģ®":8404,"ĠLONEOS":8405,"å¤ĸä¼Ŀ":8406,"la":8407,"Ad":8408,"1947":8409,"çģ«æĽľ":8410,"ãĤ¢ãĤ«ãĥĩãĥŁãĥ¼":8411,"ĠRac":8412,"Ġä»Ĭäºķ":8413,"ãģĪãĤĤãĤĵ":8414,"ãĤĦãģĻ":8415,"Ġ1912":8416,"ĠSD":8417,"ĠDR":8418,"ĠåįĴ":8419,"Ġå¤§ä¹ħä¿Ŀ":8420,"ĠéĢļéģİ":8421,"Ġ124":8422,"ĠSu":8423,"éģĵé¤¨":8424,"åįģåµĲ":8425,"ĠMAN":8426,"ä¼Ĭåĭ¢":8427,"Ġå¤§åĪĨçľĮ":8428,"æĴ²":8429,"work":8430,"ĠEr":8431,"ãĥŀãĥªãĤ¢":8432,"ãĤ¹ãĥĳãĤ¤":8433,"ĠALL":8434,"ĠèªŃå£²":8435,"ãĥ¼ãĥ¤":8436,"æĿ±åı£":8437,"por":8438,"Ġåı³":8439,"ãĥ¼ãĥĨãĤ£ãĥ³":8440,"ãĥĽãĥ³ãĥĢ":8441,"ĠãĥŀãĤ¸":8442,"Ġ(-":8443,"äºĶä¸ģçĽ®":8444,"ãĥĵãĥĥãĥĪ":8445,"Ġnot":8446,"Ġåĩ½é¤¨":8447,"Ġversion":8448,"ĠãģķãģıãĤī":8449,"ĠæĺŁéĩİ":8450,"Ġæ©Łéĸ¢":8451,"ãĤ·ãĤ¹":8452,"éłĤ":8453,"ãĤµãĥ«":8454,"ãĤ¢ãĥŀ":8455,"ãģĤãģķ":8456,"ãĤµãĤŃ":8457,"ipp":8458,"Ġç§ĺ":8459,"Ġäºľ":8460,"ãĥŁãĥįãĥ¼ãĥĪ":8461,"Ġäººéĸĵ":8462,"Ħæ¨©":8463,"åĪ¶åº¦":8464,"Ġä¸¸å±±":8465,"ãģģ":8466,"Ġ135":8467,"ãĥĨãĤ£ãĥ³":8468,"Ġå¿ħæ®º":8469,"Ġå´":8470,"Ġå²¡å´İ":8471,"ĠBill":8472,"Ġå¦ĸ":8473,"unk":8474,"ãĤ¤ãĥģ":8475,"ĠåĽ³":8476,"Ġ''\"":8477,"Ġæļ´":8478,"ĠFIFA":8479,"ãģ«çĻ»åł´":8480,"è¿½åĬł":8481,"ãģĵãĤĮ":8482,"Ġå¥½":8483,"ĠFirst":8484,"ç©ºéĸĵ":8485,"Ġåł´":8486,"ĠGrand":8487,"GB":8488,"ĠCharl":8489,"ĠJul":8490,"CP":8491,"çĶ»å®¶":8492,"å¤«å©¦":8493,"ĠæŃ¦çĶ°":8494,"EAR":8495,"CLUB":8496,"view":8497,"Ġãĥ¢ãĥı":8498,"Ġ*****":8499,"ãĥķãĤ¡ãĤ¤ãĥ«":8500,"æĺłçĶ»ç¥Ń":8501,"ĠèĥĮæĻ¯":8502,"ĠState":8503,"Ġå²©å´İ":8504,"ç®¡åĮº":8505,"DO":8506,"æ´ĭåŃĲ":8507,"ç°¿":8508,"ASS":8509,"Ġä½µæ®º":8510,"ãĤıãģĽ":8511,"TO":8512,"æĸ°çĶ°":8513,"åı°æ¹¾":8514,"ãĥ¼ãĤ·ãĥ¼":8515,"Ġç¹Ķ":8516,"å¡ģæīĵ":8517,"ĠãĢĮ'''":8518,"ĠãĤ¢ãĥī":8519,"åħĲç«¥":8520,"åįł":8521,"ĠFINAL":8522,"åĩºåĬĽ":8523,"ãĤ¨ãĥ³":8524,"ãĤ³ãĥŁãĥ¥ãĥĭ":8525,"ãĤ¹ãĥĪãĥ¼ãĥªãĥ¼":8526,"ãĤ¢ãĤ¿":8527,"Tube":8528,"idd":8529,"ãģŁãĤĭ":8530,"duc":8531,"ï¨":8532,"è£½èĸ¬":8533,"bit":8534,"ĠãĤ¸ãĥł":8535,"140":8536,"å³¶çĶº":8537,"ĠãĤ¢ãĥ¡ãĥªãĤ«åĲĪè¡ĨåĽ½":8538,"ãĤ¤ãĥ³ãĥī":8539,"ãĥĽãĥ¯ãĤ¤ãĥĪ":8540,"ãĤ·ãĥĥãĤ¯":8541,"rel":8542,"æĽ¹":8543,"ä½ĲãĢħæľ¨":8544,"åıĸãĤĬ":8545,"çī¹æ®Ĭ":8546,"Ġåıİ":8547,"ãĥ³ãĥĶãĥ¥ãĥ¼ãĤ¿":8548,"ĠãĤ®ãĥ£ãĥ©ãĥªãĥ¼":8549,"ĠSky":8550,"rey":8551,"Ġä¼Ŀ":8552,"ãģĮãģĦ":8553,"APP":8554,"åĭĿè²ł":8555,"Ġå²©æ³¢":8556,"ç¸®":8557,"ãģĿãĤĮ":8558,"1936":8559,"ĠWork":8560,"ani":8561,"äººçĶŁ":8562,"ãĥĹãĥ©ãĤ¶":8563,"ja":8564,"Ġå®®æľ¬":8565,"ãĥ¼ãĥĭãĥ¼":8566,"TM":8567,"We":8568,"å¦ĥ":8569,"ĠèŃ¦å¯Ł":8570,"stra":8571,"Ġç§ĳ":8572,"ç©ºãģ®":8573,"ĠNIGHT":8574,"ãĤ¨ãĥ³ãĤ¸ãĥ³":8575,"Ġæ°·":8576,"Ġ1915":8577,"Ġèĵ":8578,"ĠTer":8579,"ula":8580,"ï¨ĳ":8581,"Ġä½Ĳè³Ģ":8582,"å®ļç¾©":8583,"åĦªåŃĲ":8584,"ĠåĽ½æ°ĳ":8585,"ĠæľĿé®®":8586,"ofile":8587,"gy":8588,"als":8589,"ãģ¯ãģĺ":8590,"å®¶æĹıæķ°":8591,"æ©ĭæľ¬":8592,"åĬ©æīĭ":8593,"Ġæ¢¶":8594,"ĠåĽ½åĨħ":8595,"ĠãĤ¦ãĥ«ãĥĪãĥ©ãĥŀ":8596,"ĠDel":8597,"ãĥĩãĤ¸ãĤ¿ãĥ«":8598,"ĠæĦĽãģ®":8599,"Ġ*\"":8600,"ãĤ»ãĥ³ãĥĪ":8601,"ĠæĦ":8602,"Ġé´":8603,"ãģ¨ãģĦãģĨ":8604,"åľ°éľĩ":8605,"ãĥıãĥ©":8606,"Ġå±ĭ":8607,"FT":8608,"ander":8609,"oz":8610,"è¼¸éĢģ":8611,"Ġ1910":8612,"ãĥīãĥ¼ãĥ«":8613,"ĠHome":8614,"iginal":8615,"ĠWhite":8616,"ĠServ":8617,"ĠæĽ²åĲį":8618,"Ġãĥĸãĥª":8619,"ĠåĮĹäº¬":8620,"350":8621,"ĠãĥĩãĤ£ãĤ¹ãĤ³ãĤ°ãĥ©ãĥķãĤ£ãĥ¼":8622,"ãĥĸãĥ«ãĤ¯":8623,"ãĥ¢ãĤ¢":8624,"åħ¨åŁŁ":8625,"Ġåĺī":8626,"éĩĮåŃĲ":8627,"Ġ:||":8628,"ĠMot":8629,"ĠEast":8630,"ĠãĥĹãĥŃãĥķãĤ£ãĥ¼ãĥ«":8631,"ĠEnter":8632,"èĢģäºº":8633,"ãĤ¢ãĤ¦ãĥĪ":8634,"ãĥıãĥª":8635,"Ġå¹³éĩİ":8636,"ãģ¤ãģı":8637,"ãĥĹãĥŃãĥ¬ãĤ¹":8638,"èĭ±èªŀçīĪ":8639,"ĠãĤ·ãĥ«":8640,"Ġ1889":8641,"Ġå¥³åĦª":8642,"æĪ¦ç¸¾":8643,"ĠéĸĭåĤ¬æĹ¥":8644,"ĠåįĴæ¥Ń":8645,"ãĤ³ãĥŁãĥĥãĤ¯":8646,"And":8647,"ãĥ¼ãĥ¡ãĥ³":8648,"Ġ1900":8649,"osa":8650,"Ġå·Ŀåı£":8651,"ĠãĥĪãĥ¬":8652,"ept":8653,"Ġè¤ĩ":8654,"äººåħ¬":8655,"Ġèĩªæ²»":8656,"ĠãĤ«ãĥ¼ãĥ«":8657,"åİŁé§ħ":8658,"ĠæīĢå±ŀãĤ¯ãĥ©ãĥĸ":8659,"ãĥ³ãĤŃãĥ¼":8660,"åĭĻçľģ":8661,"ãģ®å®¶":8662,"ãĥ¼ãĥĶ":8663,"ãĥ¼ãĥķãĤ£":8664,"ĠãĤ¢ãĤ·":8665,"åĨ·":8666,"duction":8667,"æĬŀ":8668,"Ġåĳī":8669,"ãĥ¢ãĥ³ãĤ¹ãĤ¿ãĥ¼":8670,"éģ¥":8671,"ĠRAD":8672,"Ġåĸ¶æ¥Ń":8673,"SD":8674,"ĠãĤº":8675,"æ³¨éĩĪ":8676,"ãĤĴè¨Ńç½®":8677,"ms":8678,"ãģĭãģ¿":8679,"Ġèĸ¬":8680,"AA":8681,"å¹´çīĪ":8682,"ĠãĤŃãĥ£ãĥ©ãĤ¯ãĤ¿ãĥ¼":8683,"ãĥ¨ãĥ¼ãĥŃãĥĥãĥĳ":8684,"æĪ¦è»Ĭ":8685,"Ġæ£®çĶ°":8686,"ĠNY":8687,"ãĤ½ãĥŃ":8688,"åģ¥å¤ªéĥİ":8689,"ä¿Ŀåģ¥":8690,"ami":8691,"Ġèģ·":8692,"éİĸ":8693,"xx":8694,"å³¡":8695,"æł¡éķ·":8696,"Ġæľ¬ç¤¾":8697,"ãĤ¢ãĥķãĥªãĤ«":8698,"ãĥ«ãĤ»ãĥĩãĤ¹":8699,"åĪĿåĩºåł´":8700,"åľ°åĲį":8701,"li":8702,"åħ¬æ°ĳé¤¨":8703,"æľĿé®®":8704,"Ġåįĺè¡Įæľ¬":8705,"ĠDREAM":8706,"1940":8707,"æŃ´ä»£":8708,"Ġte":8709,"æŃ¦èĶµ":8710,"è¢«":8711,"çĽ£éĥ¨":8712,"Ġåİļ":8713,"ãĥīãĤŃ":8714,"AKI":8715,"ãĥ¦ãĥĬãĤ¤ãĥĨãĥĥãĥī":8716,"ASE":8717,"Ġæľį":8718,"ĠOFF":8719,"ãĥŀãĤ¤ãĥ«":8720,"åįģéĥİ":8721,"Ġå¤§å®®":8722,"ĠHALL":8723,"åĮł":8724,"ĠSL":8725,"ĠBEL":8726,"æ°´æĽľ":8727,"æ¼«":8728,"ĠéĩİçĲĥ":8729,"Ġèĳī":8730,"ãģĬãģĦ":8731,"Ġç´ł":8732,"ĠèĽ":8733,"ington":8734,"Ġæ··":8735,"Ġæ²ĸç¸ĦçľĮ":8736,"ĠéĽĨèĭ±ç¤¾":8737,"ãĤ¸ãĥŃ":8738,"ĠåĮĹæĿĳ":8739,"ĠãĤ¢ãĥĭãĥ¡ãĥ¼ãĤ·ãĥ§ãĥ³":8740,"Ġå¾³å³¶":8741,"yle":8742,"ĠSONG":8743,"ĠãĤ¸ãĤ§ãĥ¼ãĥłãĤº":8744,"Ġall":8745,"Ġãĥªãĥģãĥ£ãĥ¼ãĥī":8746,"ãģĻãģİ":8747,"éģ¸æīĭæ¨©å¤§ä¼ļ":8748,"éĢĶä¸Ń":8749,"æ¤įçī©":8750,"IVERS":8751,"ä¸ĬãģĴ":8752,"çµ¡":8753,"è¿°":8754,"ĠãĥĿãĥ«":8755,"ĠåĭĿçĤ¹":8756,"ĠæĹ¥ä»ĺ":8757,"å·¦è¡ĽéĸĢ":8758,"ãĤ¶ãĥ¼ãĤº":8759,"Ġãĥģãĥ§":8760,"ãģĮãģĦãĤĭ":8761,"ç¸ģ":8762,"åĽ½èªŀ":8763,"ĠåįĶ":8764,"å®¤åĨħ":8765,"fect":8766,"ãĤ¼ãĥŃ":8767,"ãĤ¯ãĥĪãĥ«":8768,"å¤ıãģ®":8769,"Ġä½ľçĶ»çĽ£çĿ£":8770,"Ġå®Įåħ¨":8771,"ĠéĬĢæ²³":8772,"å¤§éļĬ":8773,"å¥¨":8774,"ãĤĪãģĨãģ«":8775,"Ġ1916":8776,"ãĤ«ãĥĬ":8777,"hem":8778,"arden":8779,"ãĥĸãĥ«ãĥ¼":8780,"uman":8781,"oud":8782,"ĠSoul":8783,"ãĥ¼ãĥ´ãĤ¡":8784,"ãĥĭãĥ¥ãĥ¼":8785,"iction":8786,")===":8787,"ĠWal":8788,"ãĤ¸ãĥ£ãĥĥãĤ¯":8789,"Ġæłĥæľ¨çľĮ":8790,"oustic":8791,"ãĥ³ãĥĨãĤ£ãĤ¢":8792,"Ġè¡Ģæ¶²åŀĭ":8793,"ãģªãĤĬ":8794,"å®Łæ¥Ń":8795,"ãĥ©ãĤ°":8796,"ä¸ĭãģ®":8797,"ãĥķãĤ¡ãĥ³ãĤ¿":8798,"çŁ¥åŃĲ":8799,"ĠãĤ«ãĥĬãĥĢ":8800,"Ġæ¦Ĥ":8801,"éº»è¡£":8802,"æŁ´":8803,"ĠãĤªãĥ¼ãĤ¹ãĥĪãĥ©ãĥªãĤ¢":8804,"ãĥķãĤ¸":8805,"ãģĨãģ¡":8806,"ãģ¿ãģ¡":8807,"Ġåľ°æĸ¹":8808,"GR":8809,"iness":8810,"ĠPat":8811,"ĠMer":8812,"åģ¥å¤ª":8813,"è£½ä½ľæīĢ":8814,"ĠMoon":8815,"ĠãĤ¾":8816,"æĿ¥æŃ´":8817,"æµ©äºĮ":8818,"ãĥ¦ãĤŃ":8819,"ãģ®ç¥ŀ":8820,"âĪ":8821,"ĠPal":8822,"WS":8823,"åºĹèĪĹ":8824,"ĠJãĥªãĥ¼ãĤ°":8825,"èªįå®ļ":8826,"è«ĸæĸĩ":8827,"Ġä¸İ":8828,"Ġ1911":8829,"ãĤ·ãĤ§ãĥ«":8830,"zy":8831,"Ġçī¹æ®Ĭ":8832,"ĠDie":8833,"ĠåĨħå®¹":8834,"Ġéĸĵ":8835,"éĢļéģİ":8836,"ĠGroup":8837,"åħ¥éĸĢ":8838,"rich":8839,"å¥ª":8840,"Ġå¤±çŃĸ":8841,"115":8842,"ĠWEB":8843,"ä»£åŃĲ":8844,"ĠãĤ«ãĥĨ":8845,"ĠåĽ½åľŁ":8846,"Ġè«¸":8847,"ĠåŁºæľ¬":8848,"çĢ":8849,"æ©ŁåĻ¨":8850,"ãĥ¼ãĤ½ãĥ³ãĤ°":8851,"ZE":8852,"ĠMichael":8853,"å¤§éĩİ":8854,"ĠEar":8855,"æĶ¹éĢł":8856,"Ġäººåı£å¯Ĩåº¦":8857,"ĠNav":8858,"ãĥİãĥķ":8859,"128":8860,"åĲĪè¨Ī":8861,"èıĵ":8862,"çĽ¸æīĭ":8863,"ãĥĥãĥĳãĥ¼":8864,"Tw":8865,"aff":8866,"ota":8867,"ãĥĲãĥ¼ãĤ°":8868,"é§Ĳåľ¨":8869,"Japan":8870,"ãĤ¦ãĥŃ":8871,"åľ°çįĦ":8872,"éŁ¿æĽ²":8873,"é«ĺæĿ¾":8874,"ãĤ¦ãĥ«ãĥĪ":8875,"ĠãĤ¢ãĥĹãĥª":8876,"éĢ²è¡Į":8877,"ãĥŀãĥŀ":8878,"ĠãĥŃãĥĥãĤ¯":8879,"ĠAngel":8880,"ress":8881,"ĠSIL":8882,"ĠAssoci":8883,"Ġåħ¨ç±³":8884,"Ġãĥ´ãĤ©":8885,"ĠER":8886,"REE":8887,"åĩºæ¼ĶèĢħ":8888,"è¡Įãģį":8889,"ãĤ·ãĥ§ãĤ¦":8890,"Ġ132":8891,"è¿ĳä»£":8892,"è»¢è»Ĭ":8893,"ĠShe":8894,"ãģ¨åĲĮ":8895,"Ed":8896,"hib":8897,"è»Įéģĵ":8898,"ĠBD":8899,"ĠBass":8900,"ãĥĬãĥªãĤª":8901,"äºĭåħ¸":8902,"oul":8903,"ãĥ³ãĤ»ãĤ¹":8904,"Ġé¦Ļæ¸¯":8905,"ãĤĤãģĨ":8906,"ãĥĺãĥ«":8907,"ãĥ¶è°·":8908,"å¤§åŃ¦æķĻæİĪ":8909,"Fl":8910,"ãģµãģĺ":8911,"Ġå¤§è°·":8912,"éĽ»æ©Ł":8913,"éĩľ":8914,"ĠNov":8915,"ĠæĿ¾å°¾":8916,"201":8917,"æĹ¥ãģ«":8918,"ãģ£ãģĵ":8919,"ĠæİĴ":8920,"113":8921,"ãĥ´ãĤ¡ãĥ¼":8922,"ä¸ĩäºº":8923,"çĮĽ":8924,"ĠSur":8925,"ä¸ŃéļĬ":8926,"ĠKey":8927,"å±Ģéķ·":8928,"å¤§ä½ľæĪ¦":8929,"ãĥıãĤ¦":8930,"çĭŃ":8931,"Ġå§īå¦¹":8932,"ison":8933,"åĽĽåĽ½":8934,"Ġé«ĺæł¡":8935,"urt":8936,"ette":8937,"Ġè¡£":8938,"Ġãĥģãĥ£ãĥ¼ãĥĪ":8939,"eek":8940,"åĥ§":8941,"Ġãĥ«ãĤ¤ãĤ¹":8942,"å®Ŀå¡ļ":8943,"èī¦éļĬ":8944,"éĿĴå±±":8945,"ãĥīãĥªãĥ¼ãĥī":8946,"XS":8947,"ãĥ¼ãĥģãĤ§ãĥ³ãĤ¸":8948,"éļ£":8949,"Ġãĥīãĥ©ãĤ¤ãĥĲãĥ¼":8950,"ãĤ½ãĥ«":8951,"ç«¶èµ°":8952,"ãĥ¡ãĤ¤ãĤ¯":8953,"ãģ¯ãģĹ":8954,"Ġé¹¿å³¶":8955,"ãģ®ãģĨãģŁ":8956,"ĠBig":8957,"èĻ¹":8958,"Ġçĩĥ":8959,"ä½ĵãģ®":8960,"åįģä¸ī":8961,"ANA":8962,"è³ĩæł¼":8963,"æłĥæľ¨":8964,"Ġä½Ĳéĩİ":8965,"ĠFall":8966,"éģĵåºľ":8967,"æĿ±æ´ĭ":8968,"Ġåħ«å¹¡":8969,"Ġthat":8970,"ĠIV":8971,"ãĥ¼ãĥĬãĥ¡ãĥ³ãĥĪ":8972,"ĠDown":8973,"å¤§éĺªåºľ":8974,"ĠOver":8975,"Ġãĥľãĥĸ":8976,"ĠãĥĨãĥ¼ãĥŀ":8977,"ĠæľªæĿ¥":8978,"One":8979,"èĪĺ":8980,"éĲĺ":8981,"ãĤ¹ãĤ¤":8982,"amily":8983,"ĠRA":8984,"ĠGIRLS":8985,"ãģ®æµ·":8986,"ĠGal":8987,"ãģıãĤį":8988,"ense":8989,"adem":8990,"ĠYear":8991,"Ġåī£":8992,"èĬ¸èĥ½":8993,"ICK":8994,"ape":8995,"æħĪ":8996,"ãģ¯ãģª":8997,"é¨Ĵ":8998,"éĲµ":8999,"Ġ129":9000,"è¬İ":9001,"ĠSUN":9002,"âĸł":9003,"ĠFight":9004,"ĠãĤ¢ãĥĭ":9005,"ãĤ¸ãĥ§ãĥ¼ãĥ³ãĤº":9006,"167":9007,"ãģĦãģĹ":9008,"TY":9009,"ĠåºĹ":9010,"éįĭ":9011,"AWA":9012,"ãĥ¢ãĥ¼ãĤ¿":9013,"ĠãĤ¢ãĤ¯":9014,"Ġæľ«":9015,"Ġè²´":9016,"Ġé«ĺéĩİ":9017,"HD":9018,"ĠéĩĮ":9019,"irth":9020,"ĠCompany":9021,"Ġè¦³åħī":9022,"ĠçĶ£æ¥Ń":9023,"Ġèĥ":9024,"ãĥĪãĥĬãĥł":9025,"Î±":9026,"Ġç¾¤é¦¬çľĮ":9027,"Wind":9028,"ãĤ¹ãĥ©ãĥł":9029,"ular":9030,"çī¹æĢ¥":9031,"åĿª":9032,"Ġå¤ķ":9033,"rol":9034,"Ġæ®º":9035,"å¥ĳç´Ħ":9036,"ĠJack":9037,"svg":9038,"çĶ°åħī":9039,"ãĥĵãĥª":9040,"ãģ¨ãģĻãĤĭ":9041,"Ġå·¥èĹ¤":9042,"ĠåĲ¹ãģįæĽ¿ãģĪ":9043,"ĠLab":9044,"çĤŃ":9045,"ãĥ¼ãĤ¿ãĤ¹":9046,"çµ±è¨Ī":9047,"Ġè¡¨å½°":9048,"NC":9049,"pf":9050,"Ġ133":9051,"åı·æ©Ł":9052,"PLE":9053,"ãĥŃãĥľ":9054,"Ġä¸ŃçĶ°":9055,"ĠãĥŀãĥªãĤ¢":9056,"ä»¥åīį":9057,"ely":9058,"Ġèµ°":9059,"ĬæĢ¥":9060,"116":9061,"ĠDec":9062,"æĪĴ":9063,"æµĦ":9064,"ĠãĥŃãĥ³ãĥīãĥ³":9065,"Ġåħ¨å¹ħ":9066,"å¥ĪãĢħ":9067,"åĮ»åŃ¦":9068,"ca":9069,"æª":9070,"ĠãĤµãĤ¦ãĥ³ãĥī":9071,"ĠNews":9072,"ãĥ¬ãĥĬ":9073,"Ġãĥķãĥ«":9074,"Ġ800":9075,"ĠAmerica":9076,"Ġä»ı":9077,"uts":9078,"èº":9079,"'''-":9080,"ãĤ»ãĥ³":9081,"åģ¥åº·":9082,"UG":9083,"å¨ģ":9084,"ĠTak":9085,"ãĥĩãĤ£ãĥ¼":9086,"æĩī":9087,"143":9088,"Ġè·¯ç·ļãĥĩãĥ¼ãĤ¿":9089,"ĠTS":9090,"OTO":9091,"ãĤŃãĥ©":9092,"Ġéĥµä¾¿çķªåı·":9093,".\"":9094,"ĭåı£":9095,"ç´ĢåŃĲ":9096,"Ġå¿į":9097,"ĠãĤ¨ãĥķ":9098,"ãĤ¢ãĥ³ãĥĢ":9099,"çłĶç©¶ä¼ļ":9100,"ãĥ©ãĤ¦ãĥ³ãĥī":9101,"ãĥŃãĥĥãĥĪ":9102,"æģ©":9103,"ĠRain":9104,"ãĤ¹ãĥļãĥ³ãĤ¹":9105,"åı¸ä¼ļ":9106,"net":9107,"ĠRecord":9108,"XX":9109,"ĠLIFE":9110,"cert":9111,"æ¥¼":9112,"èĳµ":9113,"ãĥ¤ãĥ¼":9114,"nder":9115,"ĠAD":9116,"å¤§åŃ¦æł¡":9117,"å¯¾çŃĸ":9118,"ãĤ¤ãĥ¤ãĥ¢ãĥ³ãĥī":9119,"ĠSeries":9120,"ĠFilm":9121,"ister":9122,"Ex":9123,"ãĥ³ãĤ¸ãĥ£ãĥ¼":9124,"èĭĳ":9125,"114":9126,"ider":9127,"ãĤ¿ãĥª":9128,"æ©ĭé§ħ":9129,"å±¯":9130,"åŃ¦ç¿Ĵ":9131,"ãĥŁãĥªãĥ¼":9132,"Ġåħ±åĴĮ":9133,"ĠåĪºæ®º":9134,"less":9135,"ĠéĢ£ç¶ļ":9136,"ãĤ¢ãĤ¯":9137,"omen":9138,"ãĤĮãģ®":9139,"è´":9140,"æĻĤæľŁ":9141,"ĠæĶ¯":9142,"po":9143,"ãģ¿ãĤĨãģį":9144,"ãĤ´ãĥ«ãĥķ":9145,"ĠæĿ¾ç«¹":9146,"éĿĴå¹´":9147,"éµ":9148,"117":9149,"åīįçĶ°":9150,"ãĥķãĤ£ãĥ¼":9151,"Ġè£ľæ®º":9152,"Ġ1908":9153,"ĠåĮ»çĻĤ":9154,"1941":9155,"Ġå®ĪåĤĻçİĩ":9156,"åĤĳ":9157,"Ġ131":9158,"æ¼Ķå¥ı":9159,"Ġåł´æīĢ":9160,"Ġ1907":9161,"ĠãģĤãĤĬ":9162,"£åĳ³":9163,"leg":9164,"åĤĺ":9165,"å¯ħ":9166,"ĠFriend":9167,"Ġæµ·å¤ĸ":9168,"åĭ¢èª¿æŁ»":9169,"ãĥĨãĤ£ãĥĥãĤ¯":9170,"key":9171,"ãģĮãģ¿":9172,"ĠæĪĲçĶ°":9173,"hed":9174,"ãģĺãĤĩãģĨ":9175,"ĠçµĦç¹Ķ":9176,"èĥ½åĬĽ":9177,"uf":9178,"ãĤ°ãĥ©ãĤ¹":9179,"ĠBLUE":9180,"è¨ŃåĤĻ":9181,"ãĤ«ãĤ´":9182,"ĠçĴ°å¢ĥ":9183,"è¨Ĥ":9184,"å¹¼å°ĳ":9185,"æĦĽçŁ¥çľĮ":9186,"124":9187,"ãģµãĤĭ":9188,"ĠåĲīéĩİ":9189,"mann":9190,"åĩ¦çĲĨ":9191,"èģ´çİĩ":9192,"BB":9193,"æĤªéŃĶ":9194,"126":9195,"ĠãĤ°ãĥª":9196,"ĠæŃĮæīĭ":9197,"ãģįãģĶãģ¨":9198,"ACH":9199,"Ġç´Ķ":9200,"ĠQU":9201,"ãĥĲãĥ¼ãĤ¸ãĥ§ãĥ³":9202,"çĮ¿":9203,"ãĤ«ãĥŃ":9204,"ĠChamp":9205,"ĠçĻ»éĮ²":9206,"Black":9207,"è£ħåĤĻ":9208,"It":9209,"118":9210,"å±±ç·ļ":9211,"ĠEver":9212,"ãģĹãģ¦ãģĦãģŁ":9213,"1200":9214,"''\"":9215,"Ġç¥Ń":9216,"ĠãĤ¢ãĥ³ãĥĪ":9217,"ä½ľçĶ»çĽ£çĿ£":9218,"åįģäºĮ":9219,"åĳ¼ãģ°":9220,"ãĤ·ãĥįãĥŀ":9221,"»åĭķ":9222,"ä¸įåĭķ":9223,"Ġå¢ĥ":9224,"UC":9225,"ãĥĦãĤ§":9226,"even":9227,"Ġid":9228,"ãĤ¤ãĥ©ãĤ¹ãĥĪ":9229,"ĠãĤ¢ãĥ³":9230,"ĠMIX":9231,"orus":9232,"ĠWil":9233,"Ġ#:(":9234,"æĺ¼":9235,"Ġä¸ŃæĹ¥":9236,"æ¥½åľĴ":9237,"å®Įåħ¨":9238,"ä¸įè©³":9239,"ĠPublish":9240,"æĺŁãģ®":9241,"å¯§":9242,"ãĥĹãĥŃãĤ°ãĥ©ãĥł":9243,"è¨¼åĪ¸":9244,"è¨Ĺ":9245,"ä¼ĳæŃ¢":9246,"ait":9247,"å¾©æ´»":9248,"ä»¥ä¸ĭãģ®":9249,"220":9250,"ĠOs":9251,"ĠSport":9252,"ĠãĢĪ":9253,"ĠæºĢ":9254,"ãģĺãģ¾":9255,"ĠBu":9256,"121":9257,"è¦ıæł¼":9258,"ming":9259,"Ġop":9260,"æľĢå¾Įãģ®":9261,"ãĥīãĥ«ãĥķ":9262,"ĠãģŁãģĭ":9263,"ĠèŃ¦è¦ĸåºģ":9264,"1944":9265,"æīĵæĴĥæĪĲç¸¾":9266,"oom":9267,"å¤§åŃĹ":9268,"ãĤµãĥ³ãĤ¼ãĥ«ãĤ¹":9269,"ĠBas":9270,"320":9271,"PL":9272,"ãĥ¯ãĥ¼ãĤº":9273,"ãĤ²ãĥ«":9274,"ĠQue":9275,"cess":9276,"æľĢåĦªç§Ģ":9277,"ible":9278,"Con":9279,"ĠãĥĨãĥ¬":9280,"ui":9281,"é«ĺçĶ°":9282,"Ġä½Ĳä¼¯":9283,"ãĥķãĤ£ãĤ¹":9284,"Ġåħ¬æ¼Ķ":9285,"æĸĩåĮĸä¼ļé¤¨":9286,"ãĥīãĥŁ":9287,"bs":9288,"æĮ¿åħ¥æŃĮ":9289,"é¼ĵ":9290,"Ġ137":9291,"ĠãĤ¢ãĥ©ãĥ³":9292,"çłĶä¿®":9293,"Ġ'''.":9294,"åºı":9295,"ãģĬãģĨ":9296,"¹æľ¬":9297,"Ġ136":9298,"æģ¯åŃĲ":9299,"ĠSk":9300,"ĠåĮĸ":9301,"å¤§éĺªå¸Ĥ":9302,"ĠNat":9303,"æĹ¥å¹³åĿĩä¹Ĺè»Ĭäººåĵ¡":9304,"ãĥ³ãĥľãĥ¼ãĥ«":9305,"ĠHy":9306,"135":9307,"æĺ¥æĹ¥":9308,"ãĥİãĥĻãĥ«":9309,"ĠåĽ£":9310,"ĠåĪĨé¡ŀ":9311,"èŃ¦éĥ¨":9312,"ãĥ¦ãĥ¼":9313,"ä»ķäºĭ":9314,"Ġ360":9315,"ãĥ¼ãĤ¹ãĤ¿":9316,"ãģĤãĤĦ":9317,"åģ¥äºĮ":9318,"Ġç²¾":9319,"ĠåĤ":9320,"AST":9321,"asy":9322,"ĠMill":9323,"ĠLtd":9324,"ATER":9325,"ĠãĥįãĤ¤":9326,"HER":9327,"åģľè»Ĭ":9328,"URA":9329,"Ġæ¶Īéĺ²":9330,"ĠESP":9331,"æįķçī©":9332,"ãģŁãĤĵ":9333,"è¡Įäºĭ":9334,"æĪ¦èī¦":9335,"Ġç¦ıäºķçľĮ":9336,"åºµ":9337,"å°ıçĶ°":9338,"Ġç´«":9339,"ç¬¦":9340,"'''ãĢį":9341,"ãĤ¨ãĥī":9342,"ãĤ¹ãĤ³ãĥĥãĥĪ":9343,"ãģĦåĩº":9344,"ĠLaw":9345,"ĠåİŁçĶ»":9346,"ESS":9347,"Ġ134":9348,"ĠèĬ¦":9349,"æ·¡":9350,"æ··":9351,"ãĥ¦ãĥĭãĥĥãĥĪ":9352,"Ġmix":9353,"æİ¡":9354,"ĠGreen":9355,"Ġå¼·":9356,"ĠDNF":9357,"Ã§":9358,"ãĤ³ãĤ¢":9359,"Ġnew":9360,"mar":9361,"ĠMad":9362,"å°İåħ¥":9363,"El":9364,"Ġ144":9365,"çµ±åĲĪ":9366,"Car":9367,"ãĥ¬ãĥ¼ãĥī":9368,"è»įåĽ£":9369,"ãĥĢãĤ¤ãĤ¹":9370,"ĠçĶ·æĢ§":9371,"CG":9372,"ĠJournal":9373,"ĠéĿ¢ç©į":9374,"ĠLine":9375,"ãĤ·ãĥŀ":9376,"æĸ½è¡Į":9377,"oro":9378,"åłº":9379,"æĿ±åĮº":9380,"ãĥĢãĥ¤":9381,"é¹¿åħĲå³¶":9382,"ç¾İç©Ĥ":9383,"ãĤ¹ãģ®":9384,"ç¨®é¡ŀ":9385,"NTV":9386,"ĠèĹ":9387,"ç¾©å¡¾":9388,"ãģĦç«ĭãģ¡":9389,"Ġ138":9390,"ADE":9391,"Ġéĺ²å¤§":9392,"ĠTIME":9393,"Ġå¹´æľĪæĹ¥":9394,"119":9395,"Ġ::#":9396,"ãĥ¯ãĥ¼ãĥ«ãĥīãĤ«ãĥĥãĥĹ":9397,"HA":9398,"ãĥŁãĤµ":9399,"Ġcont":9400,"Ġæ°´éĩİ":9401,"æģĭãģ®":9402,"ĠãĥķãĤ©ãĥ¼ãĥī":9403,"ĠTBSç³»åĪĹ":9404,"ĠãĤ¹ãĤ³ãĥĥãĥĪ":9405,"ĠSam":9406,"hr":9407,"Ġå®īçĶ°":9408,"ãĥ©ãĥİ":9409,"ĠãĤ¢ãĥ¬ãĥĥãĤ¯ãĤ¹":9410,"GL":9411,"atic":9412,"é¯":9413,"Ġ\"''":9414,"ãĤ±ãĥ³":9415,"ãĤ¤ãĥ¤ãĥ«":9416,"illa":9417,"åĪĩãĤĬ":9418,"ĠæģĲ":9419,"æĹĭ":9420,"Ġæĸ¹åĲĳ":9421,"Ġçħ§æĺİ":9422,"Ġåı²":9423,"å±±æĿĳ":9424,"èĳĹèī²":9425,"Ġra":9426,"ãĥ¡ãĥ¼ãĥ«":9427,"æľŁçĶŁ":9428,"ãĥĭãĤ¨":9429,"æ¬²":9430,"æŃ£ç¾©":9431,"ĠSN":9432,"ĠåĬĩåĽ£":9433,"ãĢıãĢİ":9434,"é«ĺåİŁ":9435,"ãģĸãģį":9436,"ä¸ĸçķĮãģ®":9437,"ãĥ³ãĤ¹ãĥĪ":9438,"åĮĹåı£":9439,"ĠæĿ¾å²¡":9440,"èĹĿæĺ¥ç§ĭ":9441,"ĠJO":9442,"ĠéĩİçĶ°":9443,"å½±éŁ¿":9444,"ĠRoy":9445,"order":9446,"ĠåĬĩåł´ãĤ¢ãĥĭãĥ¡":9447,"ĠçĻ½çŁ³":9448,"ĠãģĤãģį":9449,"ãĤ¹ãĥĨãĥ«":9450,"Ġå¤§äºķ":9451,"éĤĦ":9452,"æİ¨éĢ²":9453,"æ©Łéĸ¢è»Ĭ":9454,"Ġç³»åĪĹ":9455,"Jr":9456,"ãĥ´ãĤ£ãĥ³":9457,"ĠKe":9458,"ĠåĦªç§Ģ":9459,"ç²¾ç¥ŀ":9460,"ãĥ«ãĥĨ":9461,"ãĤ°ãĥªãĥ¼ãĥ³":9462,"Ġé«ĺçŁ¥çľĮ":9463,"ĠãĤ°ãĥŃ":9464,"Ġãģ¿ãĤĵãģª":9465,"ĠCat":9466,"å§Ķåĵ¡éķ·":9467,"æ¨Ļæºĸ":9468,"ãģĪãĤĵ":9469,"ĠçŁ³åİŁ":9470,"å±±ä¸ĭ":9471,"Ġãģ¾ãģķ":9472,"Ġæ¿Ģ":9473,"åĬłåħ¥":9474,"ĠèĹ¤æľ¬":9475,"ãģĭãģŃ":9476,"ãĥĭãĤ¢å·ŀ":9477,"ĠSHI":9478,"ĠPet":9479,"ãĤ²ãĤ¤":9480,".(":9481,"ãĤıãĤĭ":9482,"ople":9483,"ĠåİŁé¡Į":9484,"æĿĳä¸Ĭ":9485,"Ġ139":9486,"1943":9487,"ĠUnited":9488,"ĠçĪ¶":9489,"cher":9490,"mp":9491,"ãĤıãģŁ":9492,"æł¸":9493,"ãĥŃãĤ¸ãĥ¼":9494,"ãĤ«ãĥ©ãĥ¼":9495,"æ©Łåĭķ":9496,"æµ´":9497,"ãĥıãĥ¼ãĥī":9498,"Ġåı¸ä¼ļ":9499,"«»äºķ":9500,"åħ±ç·¨":9501,"å¹¹éĥ¨":9502,"1939":9503,"ãĥıãĥ³ãĥī":9504,"Ġæ¸¯":9505,"ĠçµµãĤ³ãĥ³ãĥĨ":9506,"Ġ1906":9507,"çīŁ":9508,"ĠãģķãģĦãģŁãģ¾":9509,"ategory":9510,"oshi":9511,"ĠLong":9512,"Ġæ¸©":9513,"ç¾¤é¦¬":9514,"ä½Ļ":9515,"ãĥĥãĤŃãĥ³ãĤ°":9516,"conom":9517,"fin":9518,"ãĤ·ãĥ³ãĥĪãĥ³":9519,"ĠBaby":9520,"ãģ²ãĤī":9521,"ĠéłŃ":9522,"ĠBooks":9523,"ĠéĻ½":9524,"ĠAust":9525,"å¤ľãģ®":9526,"iana":9527,"ãĥŁãĥĬ":9528,"ĠãģĤãģªãģŁ":9529,"ĠAgain":9530,"èķ":9531,"ema":9532,"Ġä¹Ĺåĵ¡":9533,"123":9534,"ĠHO":9535,"Ġser":9536,"Ġéļ£æİ¥ãģĻãĤĭ":9537,"ãĥĸãĥ©ãĤ¦ãĥ³":9538,"Ġåı¤å·Ŀ":9539,"Ġad":9540,"ĠãĤŃãĥ£ãĥ©ãĤ¯ãĤ¿ãĥ¼ãĥĩãĤ¶ãĤ¤ãĥ³":9541,"ball":9542,"Ġ1909":9543,"ãģĪãĤĬ":9544,"uture":9545,"Ġå¿ł":9546,"ĠãĥĪãĥĭãĥ¼":9547,"Ġãĥ¬ãĤª":9548,"æĹ¥çĻºè¡Į":9549,"ãĤ¹ãĥĹãĥª":9550,"ĠæĿ±èĬĿ":9551,"ĠéĢ±åĪĬ":9552,"Ġ145":9553,"å¡ŀ":9554,"ãĤĵãģĵ":9555,"ãĢį)":9556,"Ġä¸ĸçķĮéģ¸æīĭæ¨©":9557,"Ġå®®å´İçľĮ":9558,"æ´Ĺ":9559,"å½¹åł´":9560,"ãģ¼ãģĨ":9561,"ç¬łåİŁ":9562,"Ġæ²ĸ":9563,"Ġå³¶çĶ°":9564,"ãĤ·ãĥ¼ãĤºãĥ³çµĤäºĨæĻĤ":9565,"ĠãĥĹãĥŃåħ¥ãĤĬ":9566,"Ġè¡ĨèŃ°éĻ¢":9567,"æĪ¦è¨ĺ":9568,"æ®ĸ":9569,"ãĥŀãĥ¼ãĤ¯":9570,"ãģĸãĤı":9571,"ãĤ¹ãĥļãĤ¤ãĥ³":9572,"ĠæµľæĿ¾":9573,"Ġè¨Ģ":9574,"Ġå±±æ¢¨çľĮ":9575,"ĠæĿ¾ä¸ĭ":9576,"ãģŀãģĨ":9577,"ÃŁ":9578,"çŁ³äºķ":9579,"ãĥ¼ãĥ´ãĤ£":9580,"ĠéĽ»æ°Ĺ":9581,"Ġç«¶æĬĢ":9582,"Ġå®Ŀå¡ļ":9583,"å¹´éĸĵ":9584,"Ġéĥ·":9585,"ãģ¿ãģªãģ¿":9586,"ĠåįĹæµ·":9587,"ouble":9588,"170":9589,"Ġé³´":9590,"ãĥ«ãĥĩãĤ£":9591,"ä¿¡åı·":9592,"ãĤ¸ãĥ§ãĥ¼ãĤ¸":9593,"Ġæĭħå½ĵ":9594,"Ġæª":9595,"Ġ170":9596,"ago":9597,"ãĤŃãĥ£ãĥ©":9598,"1931":9599,"ãĥ¼ãĤ¸ãĥ£ãĥ¼":9600,"ĠHor":9601,"è³ŀåıĹè³ŀ":9602,"ISE":9603,"ibrary":9604,"ãĤ¢ãĥªãĥ¼":9605,"ãĥ¼ãĥªãĥ³":9606,"éĽĳ":9607,"ĠHill":9608,"Ġãĥ¢ãĥĩãĥ«":9609,"ĠType":9610,"1946":9611,"ĠDis":9612,"ãĤ¦ãĤ©ãĥĥãĥģ":9613,"ãĥ³ãĤ¸ãĥ¥":9614,"Ġç¿»è¨³":9615,"Ġãĥ©ãĥĸ":9616,"ĠéģĭçĶ¨":9617,"Ġç¸":9618,"lege":9619,"ĠéŃļ":9620,"é³³":9621,"ĠInstitute":9622,"å¤§å®®":9623,"cho":9624,"Ġãĥĺãĥ«":9625,"ãģ®çĶº":9626,"èĩ´":9627,"IES":9628,"ĠSA":9629,"atus":9630,"ĠLet":9631,"å±ĭæķ·":9632,"ãģĬãĤĭ":9633,"ĠUl":9634,"406":9635,"è¡ĽæĺŁ":9636,"ness":9637,"rib":9638,"ä¸»è¦ģ":9639,"å°Ĩæ£ĭ":9640,"æ¤ľæŁ»":9641,"ãĤ³ãĤ¦":9642,"ãĥģãĥ£ãĥ¼":9643,"Ġå£°åĦª":9644,"BOX":9645,"Man":9646,"ĠãĥīãĤ¥":9647,"ĠãĤ¢ãĤ¤ãĤ¹":9648,"ä½¿ãģĦ":9649,"Ġç¾İè¡ĵçĽ£çĿ£":9650,"ĠPublic":9651,"ĠCP":9652,"ãĥģãĤ¢":9653,"åĲįèªīæķĻæİĪ":9654,"ãĥŀãĥªãĥ¼":9655,"Ġä»ĸãģ®":9656,"ãģ¿ãģ©ãĤĬ":9657,"çĲĨè«ĸ":9658,"Ġres":9659,"ODY":9660,"ĠãĤ¹ãĥ¼ãĥĳãĥ¼":9661,"ä¿¡çĶ¨éĩĳåº«":9662,"ague":9663,"ãĤ¸ãĤ·ãĥ§ãĥ³":9664,"åłħ":9665,"ĠVir":9666,"éĢ¢":9667,"leas":9668,"ĠãĤ¤ãĥ¡ãĥ¼ãĤ¸":9669,"Ġé«":9670,"ä¸Ńå¿ĥ":9671,"ĠæĶ¾éĢģæĹ¥æĻĤ":9672,"ĠVict":9673,"èĬ¸äºº":9674,"åĲĪåĶ±":9675,"ãģªãĤĵ":9676,"çĶ³":9677,"éļĬéķ·":9678,"ĠFestival":9679,"ambridge":9680,"ĠEurope":9681,"ĠãģŃ":9682,"Ġyour":9683,"ĠFrank":9684,"æĺĩæł¼":9685,"ĠãĥĲãĥ©ãĤ¨ãĥĨãĤ£":9686,"ĠBrit":9687,"ĠãĢĶ":9688,"æ°ĳä¸»":9689,"Dr":9690,"ĠãĤ»ãĥ³ãĤ¿ãĥ¼":9691,"ãĥŃãĥ¼ãĥŀ":9692,"240":9693,"æĲŃè¼ī":9694,"iol":9695,"Ġå±±åĨħ":9696,"ãĤ¹ãĤ«ãĤ¤":9697,"æĬķç¥¨":9698,"ious":9699,"Ġ143":9700,"çµĮç·¯":9701,"Ġ155":9702,"BD":9703,"åĮħ":9704,"ãĤ½ãĥĭãĥĥãĤ¯":9705,"ãĢģ)":9706,"ĠDan":9707,"ãĥ¼ãĤ¹ãĥĿãĥ¼ãĥĦ":9708,"enter":9709,"ãĥ³ãĤ·ãĥ¥":9710,"SO":9711,"ãģĵãģĵ":9712,"ĠStates":9713,"Ġå¿«":9714,"Ġæ²³å·Ŀ":9715,"æ¼ģæ¸¯":9716,"ãĥīãĤ¦":9717,"éĸ¢æķ°":9718,"ĠéĢļå¸¸çĽ¤":9719,"ĠèĮĤ":9720,"ãĥķãĤ£ãĥ³":9721,"Ġä¼ĬæĿ±":9722,"ç¥ŀå®®":9723,"åįĹéĥ¨":9724,"ĠMal":9725,"ãĤ¿ãĥ¯ãĥ¼":9726,"éĩĿ":9727,"æ¸Ľ":9728,"ĠçŁ¢éĩİ":9729,"ãģ¦ãĤĭ":9730,"è²¨çī©":9731,"Ġå¤§éĺªå¸Ĥ":9732,"ãĤ¾ãĥ³":9733,"ĠãĥĵãĥĥãĤ°":9734,"ãĥŀãĤŃ":9735,"ĠFre":9736,"é«ĺçŃīåŃ¦æł¡ä¸Ģè¦§":9737,"ãģ¾ãģŁãģ¯":9738,"ĠçľĭèŃ·":9739,"äººå½¢":9740,"ĠãĥĪãĥĥãĥĹ":9741,"ĠãĥĨãĥ¬ãĥĵçķªçµĦ":9742,"å±±æ¢¨":9743,"ä½ĵèĤ²å¤§åŃ¦":9744,"ãĥ³ãĥĩãĥ¬ãĥ©":9745,"lev":9746,"è¥¿éĥ¨":9747,"feat":9748,"Ġä¿º":9749,"ãĤ«ãĥ¡ãĥ©":9750,"ãĥľãĤ¦":9751,"æ¯Ĵ":9752,"230":9753,"å¹´åº¦ãĤ·ãĥ¼ãĤºãĥ³çµĤäºĨæĻĤ":9754,"ç¥ŀçµĮ":9755,"é·²":9756,"åĮĹåĮº":9757,"çŁ¥äºĭ":9758,"åĴĮä¹Ł":9759,"rick":9760,"dy":9761,"Ġç±³åĽ½":9762,"ãģ«ç·¨åħ¥":9763,"æµ·å²¸":9764,"ãģĳãģĦ":9765,"ĠåıĤçħ§":9766,"åģľè»Ĭåł´":9767,"Ġäº¤å·®ãģĻãĤĭéģĵè·¯":9768,"ĠMak":9769,"ĠãģĤãģĦ":9770,"ãĥ«ãĥ¼ãĥ«":9771,"Ġå¹´åº¦åĪ¥æīĵæĴĥæĪĲç¸¾":9772,"ä¸ĸä»£":9773,"ĠåľŁå±ĭ":9774,"ĠæľĽ":9775,"æĶ¿åħļ":9776,"ãģ®ä¼ļ":9777,"Ġéį":9778,"ional":9779,"æıĲæĲº":9780,"åĴĮå½¦":9781,"è²¬":9782,"ãĥ¼ãĥ³ãĤº":9783,"ĠèĪĪ":9784,"ĠãĢĬ":9785,"æĺİåħļ":9786,"LY":9787,"åĿĤæľ¬":9788,"Ġ142":9789,"è¨ĺèĢħ":9790,"ĠåĽŀæķ°":9791,"åįĹåı£":9792,"Ġæ²¹":9793,"Ġ141":9794,"Ġä¸īæľ¨":9795,"Ġäº¤éĢļãĤ¢ãĤ¯ãĤ»ãĤ¹":9796,"Ġä¸Ĭæµ·":9797,"Ġçı¾åľ¨ãģ®":9798,"ãĥ¤ãĥ³ãĤ°":9799,"1942":9800,"æºĿ":9801,"ãĤ·ãĥ³ãĤ°ãĥ«ãĤ¹":9802,"ĠLim":9803,"ĠãĤ¢ãĥŀ":9804,"ĠåŃ¦çĶŁ":9805,"ĠCOLLECTION":9806,"ãģ£ãģ½":9807,"çĬ¯ç½ª":9808,"Ġãģ¼":9809,"ĠAKB":9810,"ĠãĤ¯ãĥ¬ãĥ¼":9811,"Ġè»½":9812,"ĠæĿĳçĶ°":9813,"ãģ©ãĤĵ":9814,"go":9815,"gan":9816,"Ġæľįéĥ¨":9817,"ãĤ¢ãĥ¼ãĥĨãĤ£ãĤ¹ãĥĪ":9818,"ĠãĤĮ":9819,"icon":9820,"ĠHow":9821,"ĠçĨĬè°·":9822,"ãģĻãģ¹ãģ¦":9823,"Ver":9824,"umi":9825,"çĽ¸æĴ²":9826,"ãĥ¼ãĥķãĤ©":9827,"ror":9828,"ãĥĥãĤ¹ãĥ«":9829,"Ġæĸ°äºķ":9830,"è¦ªçİĭ":9831,"ãĥ©ãĤ¦":9832,"Ġ'''(":9833,"127":9834,"åĳī":9835,"ä¹ħéĸĵ":9836,"ĠéĸĭåĤ¬åľ°":9837,"è¤ĩåĮºéĸĵ":9838,"ĠãĥĢãĥĸãĥ«":9839,"ĠæĿīå±±":9840,"ãģ®åıĭ":9841,"ĠLov":9842,"Ġå°ıåŃ¦é¤¨":9843,"Ġè¥¿å·Ŀ":9844,"ĠãģªãģĬ":9845,"ãģ®å®Ł":9846,"ãĥŃãĥķ":9847,"ITH":9848,"ä¸ŃåŃ¦æł¡ãģ®":9849,"ĠRADIO":9850,"æĸĩèĬ¸":9851,"æ¨½":9852,"çĻºè¦ĭ":9853,"Ġ**'''":9854,"kgç´ļ":9855,"æĶ¯éĥ¨":9856,"ĠJan":9857,"ç«¶é¦¬":9858,"Ġæ¬§å·ŀ":9859,"ãģ¤ãģ¿":9860,"Ġç©ºæ¸¯":9861,"Par":9862,"MM":9863,"eld":9864,"ĠãĤ¹ãĤ«":9865,"urs":9866,"Ġå¤§ä½Ĳ":9867,"Ġcomp":9868,"æĸ°å¹¹ç·ļ":9869,"133":9870,"ĠSW":9871,"ãĤµãĤ¤ãĥī":9872,"ĠãĥĶãĥ³ãĤ¯":9873,"ĠãĥĴãĥŃ":9874,"Ġç§ģç«ĭ":9875,"ĠéĢļéģİãģĻãĤĭ":9876,"æĺ§":9877,"èĢ¶":9878,"è«¸åħĥ":9879,"Ð²":9880,"æ³ķå¾ĭç¬¬":9881,"ãĥĲãĤ¹ãĤ¿":9882,"å¥³åŃ¦æł¡":9883,"è¡Įãģı":9884,"iful":9885,"ĠèĮ¶":9886,"Ġåīµç«ĭ":9887,"ãģ®æīĭ":9888,"Ġç´ĭ":9889,"è¨ĵç·´":9890,"ĠTown":9891,"ç£ģ":9892,"çĶ°ä¿¡":9893,"èĹį":9894,"Ġ1905":9895,"Ġdo":9896,"Ñĥ":9897,"ãĥ©ãĤ¸":9898,"Ġä¸īäºķ":9899,"ãĥ«ãĤ¤":9900,"å°ıæĿ¾":9901,"ĠStudio":9902,"ãĤªãĤ±":9903,"1400":9904,"Ġç¦ıå±±":9905,"Die":9906,"ãĥĶãĥ¼":9907,"GC":9908,"ĠâĢĵ":9909,"ĠãĥĪãĥ¼ãĥŀãĤ¹":9910,"ãĥ¼ãĥĨãĤ£ãĥ¼":9911,"æĹ¥çĽ®":9912,"èĴ¼":9913,"èĬ½":9914,"é§Ĳåľ¨æīĢ":9915,"ĠLike":9916,"åį¿":9917,"Ġå¾³å·Ŀ":9918,"ĠThomas":9919,"MY":9920,"ãĥ¡ãĥª":9921,"yu":9922,"æľĪçĻºå£²":9923,"ĠãĤ°ãĥ©ãĥ³ãĥĹãĥª":9924,"Ġmi":9925,"ĠANN":9926,"ãĤµãĤ¹ãĥļãĥ³ãĤ¹":9927,"Ġãģ¨ãĤĤ":9928,"ãĥ«ãĤŃ":9929,"ĠRichard":9930,"ãĥ¼ãĥĬãĤ¹":9931,"åĴĮå¤«":9932,"Ġ162":9933,"ç¥ŀå¥Īå·ĿçľĮ":9934,"ĠâĺĨ":9935,"Ġart":9936,"205":9937,"UMP":9938,"ĠGeorge":9939,"éĢ¸":9940,"å¤§è°·":9941,"é«ĺçŁ¥":9942,"ĠãģĹãĤĵ":9943,"ĠGoogle":9944,"ãĤ¤ãĤ¢ãĥ³ãĥĦ":9945,"Ġäºĭæ¥Ń":9946,"ãĥĵãĥĥãĤ°":9947,"SUPER":9948,"Ġç¢":9949,"ĠæļĹ":9950,"ĠéĤ¦é¡ĮåİŁé¡Į":9951,"Ġ600":9952,"iter":9953,"æĺłçĶ»è³ŀ":9954,"Ġæµ¦åĴĮ":9955,"åı¸ä»¤éĥ¨":9956,"mon":9957,"ĠRacing":9958,"ĠCamp":9959,"åĵ²åĵī":9960,"Ġç¥ŀå¥Īå·Ŀ":9961,"ãĥĵãĥĥãĥī":9962,"äº«":9963,"ĠæĹ¥çĶ£":9964,"ĠæŃ©":9965,"è¬Ľå¸«":9966,"ãĤ¸ãĥ£ãĥ³":9967,"å·ŀå¸Ĥ":9968,"ĠPiano":9969,"éģĭåĸ¶":9970,"ĠãĥĵãĥĩãĤª":9971,"å¤§çµ±éłĺ":9972,"éĤ¸":9973,"ãĥĪãĥĥãĥĹ":9974,"OO":9975,"ĠBéĿ¢":9976,"ichi":9977,"ãĥ¼ãĤ¿ãĤ¤":9978,"ĠSUMMER":9979,"Ġé«ĺå±±":9980,"ĠèĩªçĦ¶":9981,"éļĪ":9982,"Ġ152":9983,"ĠãģĤãĤĭ":9984,"å¹´æ³ķå¾ĭç¬¬":9985,"122":9986,"icle":9987,"Ġ151":9988,"ãĤ¤ãĥ³ãĤ°":9989,"ĠGall":9990,"ĠæŃ»åİ»":9991,"ãĥ¡ãĥ³ãĤ¿ãĥªãĥ¼":9992,"ãĥ³ãĥĴ":9993,"ĠBen":9994,"ĠãĤ¢ãĥ¬":9995,"éģĵåħ·":9996,"ĠãĤ¸ãĤ§ãĥķ":9997,"ĠResearch":9998,"ãĥĸãĤ¹":9999,"ãģĵãģĿ":10000,"ĠDNQ":10001,"åĨħç§ĳ":10002,"ĠDNS":10003,"ãĤ¦ãĥ³ãĥĪ":10004,"ãģįãĤĬ":10005,"Ġmed":10006,"Ġæ¥ł":10007,"è¨Ģèĳī":10008,"ãĥĲãĤ«":10009,"Ġãĥ¬ãĥ¼ãĤ¹":10010,"ãģ®éĥ¨":10011,"ãĥŀãĥĥãĥģ":10012,"ĠHand":10013,"ĠTRI":10014,"ĠéĽ»åŃĲ":10015,"En":10016,"Ġæķĳ":10017,"Ġèħ":10018,"ãĥĸãĥ«ãĥ¼ãĤ¹":10019,"augh":10020,"ãģ¿ãģª":10021,"Ġãģ¯ãĤĭ":10022,"ĠéĿĴæĺ¥":10023,"Ġç¨®çĽ®":10024,"ãĤīãģ°":10025,"210":10026,"æ¥ł":10027,"ids":10028,"ç¬¹":10029,"AMP":10030,"ãĥ©ãĥ¼ãĤº":10031,"åħ¬ç¤¾":10032,"ä¹ĹãĤĬ":10033,"ãĤŃãĥ¥ãĤ¢":10034,"ãĥĨãĤ¹ãĥĪ":10035,"ĠãĤĪãģĹ":10036,"ĠJGP":10037,"ä¸ŃæŃ¢":10038,"ãĤ¹ãĤ¿ãĤ¤ãĥ«":10039,"ĠãĤ¨ãĥªãĥĥãĤ¯":10040,"ãĤ´ãĥ¼ãĥ«ãĥī":10041,"Ġè¿·":10042,"ala":10043,"ĠOper":10044,"Ġç·¨æĪĲ":10045,"ĠãģĿãģ®å¾Į":10046,"çĻºéĽ»æīĢ":10047,"ãĥĪãĥ¼ãĤ¯":10048,"Ġé»ĴçĶ°":10049,"ãĤ¬ãĥ¼ãĤ¹":10050,"å²¡çĶ°":10051,"ĠãĥŁãĥ¥":10052,"onda":10053,"ãĥ¼ãĥĨãĤ£ãĥ³ãĤ°":10054,"èģ·åĵ¡":10055,"ãĥĳãĤ¤":10056,"ãĥĴãĥ¥":10057,"ĠFrom":10058,"å¤©çİĭ":10059,"ãĤ¹ãĥ¼ãĥĳãĥ¼":10060,"ç¡¬":10061,"Ġå¤ªå¹³æ´ĭ":10062,"ĠæľŁéĸĵ":10063,"è»¸":10064,"ĠJust":10065,"Ġä½ľåĵģåĲį":10066,"ĠãĤ¨ãĥĩãĤ£":10067,"æ¤İ":10068,"åįļä¹ĭ":10069,"autiful":10070,"Ġç©ºä¸Ń":10071,"301":10072,"ãĤĴæĮģ":10073,"ãĥĩãĥ¼":10074,"360":10075,"§è·¯":10076,"ĠAug":10077,"Ġçķ°":10078,"ãģ»ãģĨ":10079,"²å½ĵ":10080,"Ġå¼¥":10081,"ãĥŀãĤ°":10082,"ĠRuss":10083,"Ġå®ĩéĥ½å®®":10084,"ĠMax":10085,"æ°´éĩı":10086,"uke":10087,"è¨ĺæĨ¶":10088,"190":10089,"ĠãĤ¹ãĤ³ãĤ¢":10090,"ĠåĩºçīĪ":10091,"ãĥ³ãĤ¹ãĤŃãĥ¼":10092,"Ġæ©ŁåĭķæĪ¦å£«ãĤ¬ãĥ³ãĥĢãĥł":10093,"éĢĲ":10094,"åĭŁ":10095,"ãĥĢãĤ¦":10096,"ãĥ¼ãĤªãĥķ":10097,"ãĥĬãĥĬ":10098,"ĠHon":10099,"ĠWr":10100,"çĶ°åĮº":10101,"å¿ħ":10102,"éĽĨåĽ£":10103,"Ġèĺ":10104,"ãĥ©ãĥĨãĥ³":10105,"ĠCast":10106,"ãģĳãģ®":10107,"ried":10108,"ãĥĺãĤ¤":10109,"ĠDiv":10110,"çģ¯åı°":10111,"å°ıåŃ¦":10112,"Ġãĥĳãĥ©":10113,"Ġ:(":10114,"ãģ²ãĤįãģĹ":10115,"Ġ156":10116,"æĶ¯ç¤¾":10117,"HY":10118,"ront":10119,"xford":10120,"ĠPeter":10121,"1930":10122,"ä¸Ńå·Ŀ":10123,"ĠæĿ¾æµ¦":10124,"æ¯İæĹ¥æĶ¾éĢģ":10125,"ãĤĴè¦ĭ":10126,"ĠDark":10127,"ĠPop":10128,"å¢¨":10129,"ĠJA":10130,"ãĥ«ãĥ«":10131,"å¬¢":10132,"ript":10133,"èĿ¶":10134,"Ġç§ĭå±±":10135,"æ¼«çĶ»å®¶":10136,"ĠæĪĳ":10137,"ĠæĢĿ":10138,"1937":10139,"OWOW":10140,"ĠPri":10141,"åŁºæºĸ":10142,"åĴ":10143,"è¥¿æĿĳ":10144,"çªª":10145,"UKI":10146,"no":10147,"ãģ®ãģ¡":10148,"æ¹Ĭ":10149,"ATA":10150,"ĠæĹ¥æľ¬åħ±çĶ£åħļ":10151,"ãĤ¹ãĥĨãĥ¼ãĤ·ãĥ§ãĥ³":10152,"144":10153,"ãĥľãĥ«":10154,"å¥Īç¾İ":10155,"ARE":10156,"å£®":10157,"ba":10158,"éģ©":10159,"åĪº":10160,"ĠGIRL":10161,"lement":10162,"çĢ¬æĪ¸":10163,"å¤§å³¶":10164,"Ġå¾Ĺç¥¨æķ°":10165,"Ġ147":10166,"ãģªãģĬ":10167,"Ġ154":10168,"ãģ®ãģŁãĤģãģ®":10169,"136":10170,"222":10171,"éĢļç®Ĺ":10172,"ĠMel":10173,"æĦĽåªĽ":10174,"Ġæ¾¤":10175,"ĠDist":10176,"æĸĩåĮĸæĶ¾éĢģ":10177,"Ġé£¯çĶ°":10178,"ãĥ©ãĤ¤ãĥĢãĥ¼":10179,"ãĤĵãģı":10180,"åĲįåı¤å±ĭå¸Ĥ":10181,"æıļ":10182,"ãĤ°ãĥ¬ãĤ¤":10183,"Ġå®®åŁİ":10184,"ĠElectric":10185,"ĠçĮª":10186,"ãĥ³ãĥŃãĥ¼ãĥī":10187,"ĠéĽ²":10188,"1938":10189,"Ġä¸ŃåİŁ":10190,"ĪãĤĬ":10191,"Ġæ²³éĩİ":10192,"åĵ²éĥİ":10193,"ĠãĤĢ":10194,"iko":10195,"Ġå¿ľ":10196,"ĠçľĮéģĵ":10197,"ãĥĹãĤ¿ãĥ¼":10198,"Ġè©©":10199,"åıĸå¼ķ":10200,"ĠHistor":10201,"è£Ĥ":10202,"ISH":10203,"Ġãģĵãģĵ":10204,".'''":10205,"ĠAut":10206,"æĸĩé¤¨":10207,"ãĥ©ãĤ¤ãĥī":10208,"Ġä¸»ãģªåĩºæ¼Ķ":10209,"ĠéĮ¦":10210,"rs":10211,"åįĶå¥ıæĽ²":10212,"é¢¨ãģ®":10213,"ona":10214,"äº¬åŃĲ":10215,"ORN":10216,"ĠOrd":10217,"ĠTur":10218,"ãĥķãĤ¡ãĤ¤ãĥĬãĥ«":10219,"ç·ļãģ®":10220,"166":10221,"ä½ľæĽ²å®¶":10222,"Ġå¼ģ":10223,"ĠOUT":10224,"ĠAlex":10225,"Ġrec":10226,"ãĤ¤ãĥ«ãĥ©ãĥ³ãĥī":10227,"Ġæ²¿":10228,"ĠçĽĽå²¡":10229,"Les":10230,"PP":10231,"ĠæĹ©ç¨²çĶ°å¤§åŃ¦":10232,"ãĥ¡ãĥ¢":10233,"260":10234,"ump":10235,"ĠéĢĨ":10236,"ãĥŀãĤ¬ãĤ¸ãĥ³":10237,"å¯®":10238,"uter":10239,"ĠGod":10240,"Ġå¤§æ©ĭ":10241,"Ġ146":10242,"ãĤ¹ãĤ¿ãĥ«":10243,"ãĥģãĥ³":10244,"ãĥĥãĥļ":10245,"ĠNED":10246,"ĠBY":10247,"ĠèįĴå·Ŀ":10248,"ãĥ¼ãĤŃãĥĥãĥĪ":10249,"ä»ĺè¿ĳ":10250,"ĠãģĵãĤĮ":10251,"èªŃå£²":10252,"ãĥ¼ãĤ¼ãĥ«":10253,"OUL":10254,"Ġãĥĭãĥ¥ãĥ¼ãĤ¹":10255,"ants":10256,"ãĥ³ãĤ·ãĥ¼":10257,"Ġå¥Īèī¯çľĮ":10258,"SR":10259,"Ġè¥¿çĶ°":10260,"ãĤ¦ãĥª":10261,"éĽĦä¸Ģ":10262,"Ã¼n":10263,"ĠMo":10264,"æİ¨çĲĨ":10265,"Ġãģ¸":10266,"çħ§æĺİ":10267,"ĠGL":10268,"åĽ½åĨħ":10269,"ĠDi":10270,"ĠAUS":10271,"ĠãĤ·ãĤ«ãĤ´":10272,"ĠTD":10273,"ãģĲãģ¡":10274,"ãĤ¦ãĤ£ãĥ³":10275,"gl":10276,"ãĤ¿ãĥ¼ãĤº":10277,"ç¨į":10278,"ĠSo":10279,"ãĥĥãĥĹãĥ«":10280,"Ġå¹³åĿĩ":10281,"å¤ªçĶ°":10282,"å¸Ĥå·Ŀ":10283,"286":10284,"åŁºæľ¬":10285,"ĠBEAT":10286,"ãģªãģİ":10287,"ãĥ¬ãĤ¤ãĤ¯":10288,"ĠçĻ»åł´ä½ľåĵģ":10289,"ãģıãģ®":10290,"!''":10291,"éĤĳ":10292,"ãĥ¼ãĤŃãĥ£":10293,"å°ıå·Ŀ":10294,"ĠåĨ¨":10295,"ĠEconom":10296,"Ġæ´ĭ":10297,"Ġ<":10298,"ãĥĭãĥ¼ãĤº":10299,"Ġone":10300,"ĠTEAM":10301,"ARS":10302,"ĠThis":10303,"ãĥĥãĥĶãĥ³ãĤ°":10304,"Ġå¤§å±±":10305,"Ġå¤§æ£®":10306,"ãĥ³ãĤ¿ãĥ«":10307,"ĠçĶŁãģĦç«ĭãģ¡":10308,"ragon":10309,"ĠHen":10310,"éĽ»æ°ĹéīĦéģĵ":10311,"ãĥ¬ãĥ¼ãĥ«":10312,"åĲĪæĪ¦":10313,"Ġæ»ĭè³ĢçľĮ":10314,"å±ķéĸĭ":10315,"çīĻ":10316,"æ°¸éģł":10317,"Ġè±ĬçĶ°":10318,"Ġå°Ĩ":10319,"raft":10320,"Ġpart":10321,"åĲ¹ãģįæĽ¿ãģĪ":10322,"ãģ®ç§ĺå¯Ĩ":10323,"ABC":10324,"éĢ£çµ¡":10325,"ĠãĤ®ãĥª":10326,"éģ£":10327,"OSHI":10328,"é´¨":10329,"ãĥĵãĤ¨":10330,"ãĤ³ãĥķ":10331,"ĠSUG":10332,"ç´³":10333,"ĠTop":10334,"ots":10335,"Ġé³¥åıĸçľĮ":10336,"åīįé§ħ":10337,"ãĥŀãĤ·":10338,"ãģ¦ãĤĵ":10339,"ãĥŃãĥĲ":10340,"ĠãĤªãĥ©ãĥ³ãĥĢ":10341,"ĠãĤ¤ãĥ©ãĤ¹ãĥĪ":10342,"gen":10343,"ãĤ«ãĤ¿":10344,"ãĤµãĤ¦":10345,"ĠStand":10346,"åįĹå¸Ĥ":10347,"å°ıèª¬å®¶":10348,"Ġç¶ļ":10349,"ĠDem":10350,"éģĵåºľçľĮ":10351,"ĠéĢļéģİãģĻãĤĭèĩªæ²»ä½ĵ":10352,"Ġ1901":10353,"ĠMur":10354,"ĠéĻ³":10355,"Li":10356,"Qu":10357,"Ġ149":10358,"æĿ¾å±±":10359,"uff":10360,"ãĤ¦ãĤ§ãĥ¼":10361,"èĮī":10362,"Ġgu":10363,"ãĥŁãĥĥãĥĪ":10364,"Ġä¼ĳ":10365,"Windows":10366,"Ge":10367,":(-":10368,"ãĤīãĤĮ":10369,"ĠJos":10370,"Ġ153":10371,"Ġav":10372,"Ġè²©å£²":10373,"Ġéĺ²è¡Ľ":10374,"æ¬¡åħĥ":10375,"ĠAéĿ¢":10376,"Ġâĸł":10377,"å¿ĺ":10378,"Ġæĵ":10379,"280":10380,"ĠåĬ´":10381,"burg":10382,"ĠUFC":10383,"ãĥĨãĥ¬ãĥĵãĥīãĥ©ãĥŀ":10384,"ĠèĮ¨åŁİ":10385,"ĠJr":10386,"çĶ¨èªŀ":10387,"ĠãĥķãĤ£ãĥªãĥĥãĥĹ":10388,"Ġæ¹ĸ":10389,"ãĥĢãĥ«ãĥĪ":10390,"OND":10391,"ĠJPN":10392,"åħ¼ä»»":10393,"ãĥĩãĤ£ãĤª":10394,"æĹ¥éģħãĤĮ":10395,"èª°":10396,"æµ©åı¸":10397,"ĠYoung":10398,"ĠæĴ®å½±çĽ£çĿ£":10399,"æ²³åİŁ":10400,"ĠéħĴ":10401,"ĠBRA":10402,"æĹ¥æľ¬æĶ¾éĢģ":10403,"ĠèĴ¼":10404,"ĠçĶŁæ´»":10405,"ãĥłãĥĭãĥĲãĤ¹":10406,"vol":10407,"ĠLin":10408,"Ġ;;":10409,"ĠãĥŀãĥĥãĤ¯ãĤ¹":10410,"ãĥ¼ãĥŀãĥĥãĥĪ":10411,"ĠçĶ°è¾º":10412,"204":10413,"éĿĴæľ¨":10414,"ãģłãģĹ":10415,"Ġå¸ĥ":10416,"ãĥģãĥ§ãĤ¦":10417,"Ġ148":10418,"ãģ¨ãģªãģ£ãģŁ":10419,"ãģĤãĤĨãģ¿":10420,"ãĥ¼ãĥ©ãĥ³":10421,"ĠMAG":10422,"ãģªãģ®":10423,"lease":10424,"__":10425,"ĠGEN":10426,"å¯Įå±±":10427,"ãĥĵãĥ¼ç´ļ":10428,"ĠãĥķãĤ¸ãĥĨãĥ¬ãĥĵç³»åĪĹ":10429,"ãĢģãĢģ":10430,"èĤ¥":10431,"ãĥªãĥ¥ãĥ¼":10432,"ĠCommun":10433,"ãĥ¬ãĤ¤ãĥ³":10434,"ĠåºĦ":10435,"Ġå£°ãģ®åĩºæ¼Ķ":10436,"ĠMk":10437,"ĠBMW":10438,"ĠãĤªãĥªãĥ³ãĥĶãĥĥãĤ¯":10439,"ãĥ³ãĥ¡ãĥ³ãĥĪ":10440,"ä¼İ":10441,"mb":10442,"elop":10443,"Ġhist":10444,"ãĤ½ãĤ¦ãĥ«":10445,"ĠNEWS":10446,"Ġè¢«":10447,"ĠãĥķãĤ¡ãĤ¤ãĥĬãĥ«":10448,"æ»ĳ":10449,"tt":10450,"ãĥĬãĥ¬ãĥ¼ãĤ·ãĥ§ãĥ³":10451,"åĪ·":10452,"ãĥ©ãĥī":10453,"ãĤ·ãĥ§ãĥĥãĥĹ":10454,"anguage":10455,"ãģ«å¯¾":10456,"çĶŁãģį":10457,"202":10458,"ãĥŃãĥ«":10459,"ĠåĭĿçİĩ":10460,"ãĤ¤ãĥ³ãĥģ":10461,"ĠMont":10462,"çĲĨæģµ":10463,"çĴĥ":10464,"ãĥªãĤµ":10465,"éĩĳæĽľæĹ¥":10466,"ãĥªãĤ¦ãĤ¹":10467,"ĠNag":10468,"åįĺä½į":10469,"ãģ®ãģĨãģ¡":10470,"ãĥªãĥ¼ãĥī":10471,"çĽ´äºº":10472,"ĠManag":10473,"ĠéĢ£è¼ī":10474,"ãģĭãģŁ":10475,"134":10476,"ĠãĤ¹ãĥĿ":10477,"ĠSmith":10478,"ãĥ³ãĥĸãĥ«ãĤ¯":10479,"ãĥ¡ãĥĥãĤ»":10480,"ãĥŁãĥ©ãĥ¼":10481,"ĠVERS":10482,"å¯©æŁ»":10483,"CF":10484,"ãĥłãĤ·":10485,"ĠãĥŃãĥ¼ãĥŀ":10486,"ãĥĲãĥ¼ãĤ¹":10487,"Ġå¤§è¥¿":10488,"å§ĵ":10489,"ublic":10490,"ãĤªãĥ¼ãĤ¹ãĥĪ":10491,"ãģ¨ãģ®éĸ¢ä¿Ĥ":10492,"åŁİå¸Ĥ":10493,"ãĥĴãĥĪ":10494,"ãĤĦãģĹ":10495,"é¢¨æĻ¯":10496,"ument":10497,"ãģ¾ãģ¾":10498,"Ref":10499,"ava":10500,"ĠæľĪåĪĬ":10501,"Ġ157":10502,".-":10503,"å¤ļæĳ©":10504,"ãĤ¸ãĥ§ãĥ³ãĤ½ãĥ³":10505,"ices":10506,"æĮģãģ¡":10507,"ãģ®ä¸Ńãģ®":10508,"çĶŁãģ¾ãĤĮ":10509,"ODE":10510,"ä¸ĸä¿Ŀ":10511,"ĠãĤ¦ãĥ«ãĥĪãĥ©":10512,"Ġmod":10513,"Ġsc":10514,"ãĥĶãĤ¯ãĤ»ãĥ«":10515,"ãĤ³ãĥŁãĥĥãĤ¯ãĤ¹":10516,"ĠLibrary":10517,"%'''":10518,"sy":10519,"ĠSay":10520,"åħ±è¨³":10521,"Ġgo":10522,"æ³£":10523,"Ġãĥĸãĥ©ãĤ¤ãĤ¢ãĥ³":10524,"ĠéĺªæĢ¥":10525,"cmCD":10526,"ua":10527,"ĠThat":10528,"æĹ¥ä»ĺ":10529,"range":10530,"åı²è·¡":10531,"æł¼éĹĺ":10532,"æ²¢å¸Ĥ":10533,"ĠãĥĮ":10534,"èŃ°å¸Ń":10535,"Ġèµ·çĤ¹":10536,"ãĤĨãģı":10537,"å¤ļæķ°":10538,"Col":10539,"ãĥĲãĥ¼ãĤµ":10540,"ãĤįãģĹ":10541,"Ġãģ§ãģįãģĶãģ¨":10542,"çľŁå®Ł":10543,"æµľæĿ¾":10544,"èĥŀ":10545,"Ġman":10546,"Ġéĸ¢æĿ±åºĥåŁŁåľı":10547,"ãĤ¢ãĤµ":10548,"åİŁæŃ£":10549,"æĿ¡ä»¶":10550,"ĠSweet":10551,"ãģĨãĤī":10552,"æĶ¾éĢģæĹ¥":10553,"Ġä¸īå®ħ":10554,"ãĥ¡ãĤ«":10555,"é§ħè¥¿åı£":10556,"ĠãĥŃãĤµãĥ³ãĤ¼ãĥ«ãĤ¹":10557,"ĠAirport":10558,"1935":10559,"ãĥľãĤ¹":10560,"iki":10561,"ĠAssociation":10562,"Ġ1903":10563,"raw":10564,"ä¸»åĤ¬":10565,"As":10566,"ARI":10567,"ĠCollege":10568,"ĠåıĤåĬłãĥŁãĥ¥ãĥ¼ãĤ¸ãĤ·ãĥ£ãĥ³":10569,"Ġpol":10570,"ãĥ¡ãĥī":10571,"Ġåľ°ä¸ĭ":10572,"Ġãĥģãĥ¼ãĥłåĲį":10573,"umber":10574,"rang":10575,"ãĥĲãĥ©ãĤ¨ãĥĨãĤ£":10576,"ĠéĢŁ":10577,"ĠèĳĹåĲįãģªåĩºèº«èĢħ":10578,"ãĥ³ãĥŁ":10579,"Ġåħ±èĳĹ":10580,"ãĥ¼ãĤĴ":10581,"æĽ¸é¤¨":10582,"å°¼":10583,"Ġsite":10584,"YLE":10585,"ãĥĲãĥ¼ãĥ³":10586,"ãĤ§ãĥ³":10587,"ãĤŃãĥ«":10588,"ender":10589,"007":10590,"Ġ158":10591,"ĠãģĬãĤĪãģ³":10592,"å¹³åĴĮ":10593,"ĠéĢ£éĤ¦":10594,"ãĥ«ãĤ¿ãĥ¼":10595,"ĠBeat":10596,"ĠGN":10597,"ãĤ®ãĤ¢":10598,"ãģ®åŃĲä¾Ľ":10599,"ĠCry":10600,"ĠRun":10601,"ĠãĤ¢ãĥ¼ãĥĨãĤ£ãĤ¹ãĥĪ":10602,"ĠåıĤèĢĥè³ĩæĸĻ":10603,"Ġè¿ĳéīĦ":10604,"ç´ĺ":10605,"ãģ°ãĤĵ":10606,"ãĥķãĤ©ãĥ¼ãĥł":10607,"Ġ1890":10608,"æ©ĺ":10609,"ĠJapanese":10610,"Ġâĺħ":10611,"ä¸īæµ¦":10612,"ĠãĤ¹ãĥĨãĤ£ãĥ¼ãĥ´":10613,"iny":10614,"æĿ±éĥ¨":10615,"ĠãĤ¤ãĥ³ãĤ¿ãĥ¼ãĥįãĥĥãĥĪ":10616,"è³Ľ":10617,"ning":10618,"ĠæĪ¦éĹĺ":10619,"Ġå¢ĹçĶ°":10620,"RT":10621,"å·Ŀåı£":10622,"ĠæľĢå¾Įãģ®":10623,"Ġè¨³":10624,"Ġçı¾å½¹":10625,"gin":10626,"osition":10627,"203":10628,"176":10629,"ĠæĽ½":10630,"Ġåħīæĸĩç¤¾":10631,"Ġãĥªãĥ¥":10632,"ãĥĲãĥ¬ãĥ¼ãĥľãĥ¼ãĥ«":10633,"å°ıåĢī":10634,"ĠãĥŀãĥªãĤª":10635,"ĠæĨ":10636,"ãĥĳãĥĥãĤ¯":10637,"ãĥ¼ãĤ«ãĤ¤ãĥĸ":10638,"Ġåłº":10639,"Ġæįķ":10640,"ĠãĥĽãĥĨãĥ«":10641,"ç¨¿":10642,"mR":10643,"kt":10644,"ĠSoft":10645,"182":10646,"ãģ¾ãģį":10647,"æ²Ī":10648,"155":10649,"ĠãĥķãĤ¡ãĥ³":10650,"å±ĭãģ®":10651,"åı¤å·Ŀ":10652,"ĠèįĴæľ¨":10653,"ĠPH":10654,"ĠãĥĹãĥ¬ãĤ¤":10655,"iving":10656,"ĠåıİéĮ²ãĤ¢ãĥ«ãĥĲãĥł":10657,"ãĥ²":10658,"ĠåĲįåı¤å±ĭå¸Ĥç«ĭ":10659,"ĠSecret":10660,"Ġãĥ¡ãĤŃãĤ·ãĤ³":10661,"ĠåĨħèĹ¤":10662,"ould":10663,"270":10664,"çĽ¸è«ĩ":10665,"ĠåĨħéĸ£":10666,"ĠEngineer":10667,"ĠãĤ±ãĤ¤":10668,"Ġæĸ°æ½®ç¤¾":10669,"Ġæ°¸äºķ":10670,"ĠAFC":10671,"ĠKiss":10672,"ä»®éĿ¢":10673,"pm":10674,"Ġãĥĩãĥ´ãĤ£ãĥĥãĥī":10675,"MON":10676,"å¤§å¡ļ":10677,"ãģĤãĤĵ":10678,"ĠåĢĻè£ľèĢħ":10679,"å®Łé¨ĵ":10680,"ä¸Ģçķª":10681,"ĠRel":10682,"æĲį":10683,"ãģ¨ãģĿãģ®":10684,"ĠãĥĲãĥĪãĥ«":10685,"Ġlink":10686,"ãģĳãģŁ":10687,"ãĥĪãĤ¦":10688,"æĦıãģ®":10689,"ãĥªãĤ¯":10690,"Ġçµ¹æľ¬":10691,"ãĤ¹ãĥ¯":10692,"ĠHa":10693,"ãĥ³ãĥīãĥ©":10694,"Ġåĭĩ":10695,"Ġéĩľ":10696,"é»Ļ":10697,"ãĥĿãĤ±ãĥĥãĥĪ":10698,"utt":10699,"Ġ1904":10700,"Ġå±±éĻ½":10701,"æĢĿèŃ°":10702,"Ġæµª":10703,"éĬĺ":10704,"ĠéĩĳæĽľæĹ¥":10705,"ouch":10706,"ãĥ¼ãĤ¸ãĥ¼":10707,"ç´Ķä¸Ģ":10708,"idge":10709,"Ġå¹³çĶ°":10710,"Ġæ¹ĺåįĹ":10711,"ãĤ¿ãĥ¼ãĥŁãĥĬãĥ«":10712,"ights":10713,"Ġå½¼":10714,"WOR":10715,"ĠFA":10716,"ãĤĨãģĭãĤĬ":10717,"ĠSant":10718,"ĠAwards":10719,"129":10720,"ĠGar":10721,"ãĥ¯ãĤ¤ãĥīåĬĩåł´":10722,"Ġç½":10723,"ãĤ°ãĥªãĥ¼":10724,"ãģ«å¤īæĽ´":10725,"ãĥĥãĤ·ãĥ£ãĥ¼":10726,"ĠFree":10727,"åĽ½å®¶":10728,"ĠDirect":10729,"ĠLou":10730,"ĠãĤ¹ãĤ¯":10731,"éģĭçĶ¨":10732,"ãĥĺãĥĥãĥī":10733,"å¾ĮèĹ¤":10734,"ĠYouTube":10735,"åģľçķĻæīĢ":10736,"çĨŁ":10737,"ç¾Ĭ":10738,"éłģ":10739,"Ġ***''(":10740,"ĠæĽ¸èªĮ":10741,"yr":10742,"çĹ´":10743,"æŁ±":10744,"ãĥ¼ãĤŃãĥ¼":10745,"ĠãĤ¢ãĤ¦":10746,"ãĥĭãĥĥãĥĿãĥ³":10747,"ĠMen":10748,"Ġèį»":10749,"Ġå·Ŀä¸Ĭ":10750,"ĠJRæĿ±æĹ¥æľ¬":10751,"Let":10752,"field":10753,"å°ģ":10754,"165":10755,"GS":10756,"158":10757,"Ġæ¯İæĹ¥":10758,"ãĤŃãĤ¢":10759,"çĴ°çĬ¶":10760,"ãĥĸãĥĥãĤ¯ãĤ¹":10761,"ĠåĬ©æ¼Ķ":10762,"ãĥ³ãĤ·ãĥ§ãĥ³":10763,"ĠTre":10764,"ãĤŃãĤµãĤ¹":10765,"ĠHUN":10766,"éĽĨèĭ±ç¤¾":10767,"ç¢ģ":10768,"310":10769,"ãĥĵãĤ¹":10770,"å²¬":10771,"ãĥīãĥªãĥ¼ãĥł":10772,"æĸī":10773,"ä½įä¸ĭ":10774,"ç¬Ľ":10775,"ãĢĤ(":10776,"æİ¥ç¶ļ":10777,"Ġè«ĸ":10778,"æ½ľæ°´":10779,"ãĥ³ãĥĵãĤ¢":10780,"ĠBall":10781,"å·¥åŃ¦éĥ¨":10782,"çµµãĤ³ãĥ³ãĥĨ":10783,"ĠWhat":10784,"ãĥĲãĥ¼ãĥī":10785,"çħĻ":10786,"äºĴ":10787,"ç·ıæĮĩæı®":10788,"æĭĽ":10789,"æ²³å·Ŀ":10790,"ras":10791,"ç¸¦":10792,"ĠSWE":10793,"é¼»":10794,"rian":10795,"Ġå®ĺ":10796,"ĠJo":10797,"åĩºåħ¥åı£":10798,"æĬ±":10799,"1921":10800,"ASA":10801,"ãģįãĤĵ":10802,"çıį":10803,"vis":10804,"156":10805,"ĠæĹ¥éĩİ":10806,"olo":10807,"Ġpre":10808,"ĠSOUND":10809,"ĠçĹħ":10810,"ä¸ŃåŃ¦æł¡ãģ®åŃ¦åĮº":10811,"ãĥ³ãĥģãĥ£ãĥ¼":10812,"409":10813,"Ġãĥ¡ãĥ«":10814,"æºĸæ±ºåĭĿ":10815,"ãĥİãĤ¤":10816,"è¡ĽçĶŁ":10817,"èŃ¦åĤĻ":10818,"ãģĲãĤĮ":10819,"Ġé«ĺçŃīåŃ¦æł¡":10820,"ĠãĥĿãĥ«ãĤ·ãĤ§":10821,"ãĥ¼ãĤ¬ãĥ¼":10822,"ule":10823,"ãĤ¸ãĥ£ãĥ³ãĥĹ":10824,"ä¿Ĭä»ĭ":10825,"çĵ¶":10826,"å¯Ĵ":10827,"ãĥıãĥ³ãĤ¿ãĥ¼":10828,"iff":10829,"ĠCAT":10830,"Ġ1897":10831,"ĠKING":10832,"èĬ¦":10833,"åħįè¨±":10834,"Ġå¨":10835,"ä¾¯":10836,"AYA":10837,"ĠBerlin":10838,"450":10839,"åİļçĶŁ":10840,"åĽŀéģ¿":10841,"èħķ":10842,"ĠçŃĳæ³¢":10843,"back":10844,"æĹ¥æĽľæĹ¥":10845,"ANGE":10846,"ĠAcc":10847,"ãĥĲãĤ¹åģľ":10848,"ãĥ¡ãĥ¼ãĤ«ãĥ¼":10849,"ĠTrack":10850,"ĠãĢį(":10851,"ãĤĴå»ĥæŃ¢":10852,"Ġ1896":10853,"ãĥĻãĥĥãĥĪ":10854,"çĲĥåł´":10855,"ĠSO":10856,"145":10857,"åĽŀè»¢":10858,"Ġä¸Ńèı¯":10859,"ãĥĻãĥ¼ãĥ«":10860,"éģĭè¼¸":10861,"ĠæŁ´":10862,"ĠList":10863,"éħĴéĢł":10864,"\".":10865,"åĪĨæŀĲ":10866,"Ġpar":10867,"ãĥįãĥ«ãĤ®ãĥ¼":10868,"BEST":10869,"Ġå³¶æł¹çľĮ":10870,"rosoft":10871,"ĠåĴĮæŃĮå±±çľĮ":10872,"LINE":10873,"ãĥ©ãĥ³ãĥĪ":10874,"ĠfÃ¼r":10875,"ĠAnt":10876,"Ġint":10877,"ĦŃ":10878,"Ġæ¤İ":10879,"ĠGerman":10880,"ãĤ¬ãĥª":10881,"ĠäºĶåįģåµĲ":10882,"åĪĿçīĪ":10883,"ãĥ¼ãĤ²ãĥ³":10884,"è®ĥ":10885,"BER":10886,"æľ¬æľ¨":10887,"ĠSTUDIO":10888,"Ġæ¯Ľ":10889,"æ¶¼åŃĲ":10890,"Ac":10891,"ãĤ¤ãĤ«":10892,"OVA":10893,"ĠåĪĿåĽŀéĻĲå®ļçĽ¤":10894,"åĽ°":10895,"Ġworld":10896,"ãĤ¯ãĥĪãĥªãĥ¼":10897,"Ġofficial":10898,"ä»®éĿ¢ãĥ©ãĤ¤ãĥĢãĥ¼":10899,"ĠãĤ¯ãĤ¤":10900,"154":10901,"æ·ĳ":10902,"ĠReal":10903,"æĶ¾æĺł":10904,"ĠPARTY":10905,"Ġè£½éĢł":10906,"ç¦Ħ":10907,"Ġ1902":10908,"ĠChristmas":10909,"UNK":10910,"ĠçĻºå£²åħĥ":10911,"211":10912,"AMI":10913,"åĤĻèĢĥ":10914,"Ġ165":10915,"Ġå·Ŀå³¶":10916,"IND":10917,"çĥĪ":10918,"Ne":10919,"ĠOl":10920,"ãĥĨãĤ£ãĥ³ãĤ°":10921,"çµĲæĪĲ":10922,"åĽ³éĳĳ":10923,"Ġãģ¾ãģŁãģ¯":10924,"å°ıè·¯":10925,"ih":10926,"reen":10927,"Ġ159":10928,"ä»ĺå±ŀ":10929,"éĩĳèŀį":10930,"å®ĪåĤĻ":10931,"è¾¼ãģ¿":10932,"æĹ¥çĶº":10933,"ãĥĪãĥ¼ãĥĬãĥ¡ãĥ³ãĥĪ":10934,"ĠGI":10935,"ãĥŁãĥĦ":10936,"åıĤèĢĥ":10937,"APPY":10938,"Rob":10939,"ĠèıħåİŁ":10940,"side":10941,"Ġä»ķ":10942,"afe":10943,"ajor":10944,"Ġãģ«å¯¾ãģĹãģ¦":10945,"æĩīç¾©å¡¾":10946,"Ġãģĭãģļ":10947,"ãĥ¬ãĥ³ãĤ¹":10948,"æĸİèĹ¤":10949,"ĠMV":10950,"çµĨ":10951,"å¿ľæı´":10952,"Ġå®Łæ¥Ń":10953,"ãĥŃãĥ¼ãĥ«":10954,"éĻĢ":10955,"mix":10956,"èŃļ":10957,"ĠÃĹ":10958,"ãģ®å£°":10959,"ãĥīãĥĭãĥ¼":10960,"ãĤ«ãĥĬãĥĢ":10961,"ãĥĿãĥ³":10962,"pp":10963,"ĠPan":10964,"ĠLee":10965,"ĠçĲĥåĽ£":10966,"208":10967,"ĠçŁŃç·¨":10968,"æĸīèĹ¤":10969,"ãĥĨãĥł":10970,"ãģķãĤĮãģ¦":10971,"åĪĹä¼Ŀ":10972,"Ã³n":10973,"ãĥĥãĤ·ãĥ§":10974,"Ġtrans":10975,"è¨İ":10976,"ĠStage":10977,"æĺŁäºº":10978,"æ½Ķ":10979,"âĹĭâĹĭ":10980,"oma":10981,"ĠãĥŁãĥ¥ãĥ¼ãĤ¸ãĤ«ãĥ«":10982,"ãĥ³ãĤŃãĥ£":10983,"175":10984,"æ°´æ³³":10985,"ä½ĵé¨ĵ":10986,"èı©":10987,"ãģŁãģı":10988,"é¡ĺãģĦ":10989,"mW":10990,"ãĥŀãĥĦ":10991,"ãĥĵãĤ¸ãĥįãĤ¹":10992,"ellow":10993,"æĹ¥æľ¬èªŀåĲ¹æĽ¿":10994,"ĠGarden":10995,"å¯¾æ±º":10996,"ĠCB":10997,"ç¬¬åĽĽ":10998,"ROCK":10999,"åŃ£ç¯Ģ":11000,"151":11001,"ä¿Ĭå½¦":11002,"èªŃãģ¿":11003,"Ġå¤§åİŁ":11004,"Ġèĩªåĭķè»Ĭ":11005,"Ġåħ¼":11006,"ĠãĤ¹ãĥª":11007,"å¹¸åŃĲ":11008,"ĠæĿ¥":11009,"éģ¸åĩº":11010,"330":11011,"ãģĭãģĬãĤĬ":11012,"ãĥİãĥĥãĥĪ":11013,"Ġvar":11014,"å¤©æ°Ĺ":11015,"ĠVolume":11016,"çĶĺ":11017,"ote":11018,"Ġä»Ļ":11019,"ĠãĤ¢ãĥĹãĥªãĥªãĤ¢":11020,"ãĥģãĤ«":11021,"ĠBy":11022,"ç·ıåĭĻ":11023,"åºŃåľĴ":11024,"ĠGro":11025,"Ġcan":11026,"ĠAcadem":11027,"1934":11028,"Ġ350":11029,"æ´¥å·Ŀ":11030,"Ġãĥĸãĥ©ãĤ¸ãĥ«":11031,"1920":11032,"ãĥ³ãĤ¬ãĥĿãĥ¼ãĥ«":11033,"éĺ¿éĥ¨":11034,"Ġç¬¬åĽĽ":11035,"Ġå¾Ĺç¥¨çİĩ":11036,"åį´":11037,"ova":11038,"MUSIC":11039,"152":11040,"çķĻç±³":11041,"ç¥ŀå¥Īå·Ŀ":11042,"Ġmin":11043,"åħ«éĥİ":11044,"ãģ®æİ¨ç§»":11045,"ĠãģĬãģĬ":11046,"ĠãĤªãĥªãĤ³ãĥ³æľĢé«ĺ":11047,"elle":11048,"Ġ161":11049,"çĻºè¶³":11050,"ĠãĥĽãĤ»":11051,"ãĤ¼ãĥ«":11052,"Blue":11053,"åĭ²ç«ł":11054,"ĠDesign":11055,"åĮĹæ²¢":11056,"ĠHappy":11057,"åħīå¯º":11058,"Ġç¦":11059,"æ°´æĪ¸":11060,"Ġå·ŀ":11061,"ĠçĶ¨èªŀ":11062,"ãĥ¢ãĥĪ":11063,"Ġ-(":11064,"Ġå¯©":11065,"ĠåĲĮæĻĤ":11066,"ä¼ļåĵ¡":11067,"æ¥½åĻ¨":11068,"ãģ²ãģĵ":11069,"Ġçĸ":11070,"Ġè¥¿éĥ¨":11071,"ĠæµľçĶ°":11072,"ĠéĻ¸ä¸Ĭèĩªè¡ĽéļĬ":11073,"ĠéŁ³éŁ¿çĽ£çĿ£":11074,"è¨ºçĻĤ":11075,"Guitar":11076,"åıĸå¾Ĺ":11077,"ãĤ¯ãĥ«ãĥĪ":11078,"èĢ³":11079,"ãĤĤãĤĤ":11080,"ãĤ¸ãĥ£ãĤ¤ãĤ¢ãĥ³ãĥĦ":11081,"ĠOld":11082,"ãĥĿãĥªãĤ¹":11083,"éĩĳãģ®":11084,"ãĥĴãĥ¼ãĥŃãĥ¼":11085,"ĠPOR":11086,"256":11087,"æīĢåľ¨":11088,"Ġdie":11089,"ĠãĤ·ãĤ¹ãĥĨãĥł":11090,"ĠåĲįæİ¢åģµ":11091,"æĻĤè¨Ī":11092,"ãĤ½ãĤ¦":11093,"ĠEnglish":11094,"å¦Ļãģª":11095,"ĠãĤ¨ãĥ³ãĥĩãĤ£ãĥ³ãĤ°ãĥĨãĥ¼ãĥŀ":11096,"ICA":11097,"æºĸåĦªåĭĿ":11098,"ĠéĹĩ":11099,"æ°ĳåĽ½":11100,"Ñı":11101,"éŃĶå¥³":11102,"å³¶ãģ®":11103,"Play":11104,"Red":11105,"ues":11106,"å¤§éĻ¸":11107,"ĠDO":11108,"ãĤŃãĥ¥ãĥ¡ãĥ³ãĤ¿ãĥªãĥ¼":11109,"åı²ä¸Ĭ":11110,"ãģĪãĤį":11111,"Ġç¥ŀçĶ°":11112,"ãĢıãĢģ":11113,"ãĥ³ãĤ·ãĤ¢":11114,"ĠãĤ¢ãĥ¬ãĤ¯ãĤµãĥ³ãĥī":11115,"alt":11116,"ource":11117,"Ġç³¸":11118,"cus":11119,"ãĥīãĥ©ãĥł":11120,"Ġåħ±åĴĮåħļ":11121,"ICS":11122,"ĠRh":11123,"ĠFly":11124,"ĠMASTER":11125,"oria":11126,"ĠDep":11127,"æĹħåĽ£":11128,"ãĤ¹ãĥª":11129,"ãĤ³ãĥ³ãĤµãĥ¼ãĥĪ":11130,"ĠãģĬãĤĤ":11131,"Ġæµ·ä¸Ĭ":11132,"Ġ175":11133,"JO":11134,"ãĥĭãĤªãĥ³":11135,"Ġéļľ":11136,"ĠåºĥçĢ¬":11137,"Ġå»£":11138,"ãĥīãĥ©ãĤ´ãĥ³":11139,"å³¶æĿĳ":11140,"ĠSPOR":11141,"ãĥ¼ãĥĩãĤ£ãĥ³ãĤ°":11142,"DC":11143,"FE":11144,"ĠWA":11145,"eder":11146,"ĠMount":11147,"ãĤ«ãĥ¼ãĥ«":11148,"ãĥĭãĥ¼ãĥ«":11149,"ĠåıĹ":11150,"TB":11151,"è¿ĳèĹ¤":11152,"Ġwas":11153,"ãĥĲãĤ¹ãĤ¿ãĥ¼ãĥŁãĥĬãĥ«":11154,"ĠåĮĹä¹Ŀå·ŀ":11155,"ãĥ¨ãĤ·":11156,"ĠãĤŃãĥ¼ãĥľãĥ¼ãĥī":11157,"ĠçµĤçĤ¹":11158,"ãĤ«ãĥķãĤ§":11159,"ische":11160,"ĠåĽº":11161,"ĠChild":11162,"æĪĲç«ĭ":11163,"æ²»éĥİ":11164,"Ġinter":11165,"åįĥèĳīçľĮ":11166,"éľŀ":11167,"Ġçĳŀ":11168,"ä¼ļè¨Ī":11169,"éĩİé§ħ":11170,"Ġæ©ĺ":11171,"ãĤªãĥ¼ãĥĹãĥĭãĥ³ãĤ°":11172,"ä¸ĸçķĮå¤§æĪ¦":11173,"upport":11174,"ãĤªãĥķãĤ£ãĤ·ãĥ£ãĥ«":11175,"ĠDead":11176,"ĠâĨĴ":11177,"Ġæİ¨":11178,"ãĤıãĤī":11179,"ios":11180,"æļ®ãĤīãģĹ":11181,"éĻįäººåĵ¡":11182,"ĠOnline":11183,"âĢĶ":11184,"ãģµãģı":11185,"667":11186,"ãĤ¨ãĥ³ãĥī":11187,"è«ĭ":11188,"Ġå°ĳä½Ĳ":11189,"ĠãĤ¹ãĥĨãĤ£ãĥ¼ãĥĸ":11190,"ĠåĴĮæŃĮå±±":11191,"FO":11192,"å¸Ĥåĸ¶":11193,"endo":11194,"ĸæĺ§":11195,"Ġ*;":11196,"çŃĶ":11197,"åįģä¸Ģ":11198,"åħµåĻ¨":11199,"Ġè²¨":11200,"ĠæĹ©å·ĿæĽ¸æĪ¿":11201,"ãĤŃãĥĥãĤ¯":11202,"178":11203,"Ġä¼ģæ¥Ń":11204,"ä¸īèı±":11205,"æĬķæīĭæĪĲç¸¾":11206,"ãģ¨æĶ¹ç§°":11207,"GHz":11208,"©çĪ¶":11209,"ãĥłãĥ©":11210,"ãĤ«ãĥŁ":11211,"ĠVERSION":11212,"Ġ1899":11213,"thers":11214,"ĠUs":11215,"VI":11216,"é¦Ļå·ĿçľĮ":11217,"æľīéĻĲ":11218,"ãĥĩãĥ¼ãĤ¿ãĥĻãĥ¼ãĤ¹":11219,"RS":11220,"ãģłãģ£ãģŁ":11221,"Ġè«ıè¨ª":11222,"Ġè¿ĳä»£":11223,"ãĤ¦ãĤ§ãĥ¼ãĥĩãĥ³":11224,"ĠæĽ¸èªĮæĥħåł±":11225,"ãģ¥ãģį":11226,"138":11227,"ãģķãĤĵãģ®":11228,"ĠãĤ¸ãĥ§ãĥĭãĥ¼":11229,"ãĥŃãĥĵ":11230,"åĩĨ":11231,"ãĥ©ãĥķ":11232,"ãĥĨãĤ£ãĥ¼":11233,"Fran":11234,"ä¸Ńéĥ¨":11235,"èĸĩ":11236,"éº¦":11237,"æŃ»åİ»":11238,"æĹ¥æ´»":11239,"'''âĹİ":11240,"Ġ:ãĢİ":11241,"ĠBad":11242,"anna":11243,"ĠAW":11244,"Ġæ¸¡éĤ":11245,"ĠåķĨåĵģ":11246,"Sm":11247,"ãģĦãģĺ":11248,"çĶŁæ¶¯":11249,"ãĥİãĥĸ":11250,"ĠDevelop":11251,"Ġæĳ":11252,"ĠCG":11253,"ĠGRE":11254,"ãģĶãģĨ":11255,"207":11256,"ç«ĭå¤§åŃ¦":11257,"ĠLev":11258,"Ġsur":11259,"163":11260,"ãģ®éĩĮ":11261,"Ġç§Ģ":11262,"ç«¶æĬĢåł´":11263,"fter":11264,"1933":11265,"åķĨå·¥":11266,"ĠãĤ³ãĥ¼ãĥģ":11267,"1932":11268,"Ġå²©çĶ°":11269,"ĠSpac":11270,"Ġåįļå¤ļ":11271,"Ġç´ĭç«ł":11272,"ãĥ©ãĥ©":11273,"å¯Ŀ":11274,"153":11275,"å¿ħæ®º":11276,"ĠåĬī":11277,"Ġåįĥä»£":11278,"ç«¶é¦¬åł´":11279,"ĠãĤ¢ãĤµ":11280,"ãĤ¹ãĥĶãĥ¼ãĥī":11281,"ãĥŃãĤ¤":11282,"ãĤ¹ãĥĪãĥªãĥ¼ãĥĪ":11283,"ZY":11284,"çĶ°è°·":11285,"ãĤ¿ãĥ¼ãĥ³":11286,"ä¿Ĭä¸Ģ":11287,"Ġãĥ©ãĤ¦ãĥ³ãĥī":11288,"wa":11289,"ä¸ŀ":11290,"ĠLuc":11291,"303":11292,"ãĥ©ãĥĥãĤ¯":11293,"ãĥŃãĥ¡":11294,"ĠGi":11295,"ãĥªãĤ¢ãĤ¹":11296,"ãĤ²ãĥ³":11297,"å¤§å°Ĩ":11298,"æ¬¡ä¸ĸçķĮå¤§æĪ¦":11299,"Ġå½¢å¼ı":11300,")\"":11301,"å½¼å¥³":11302,"IRE":11303,"ç±ł":11304,"ãģĩ":11305,"002":11306,"Ġãĥıãĥª":11307,"Ġ:#*":11308,"ĠãģĿãĤĮ":11309,"ãģ®å¤¢":11310,"æıı":11311,"ãĥ³ãĤ¬ãĥªãĥ¼":11312,"KT":11313,"ĠDA":11314,"Ġåł±":11315,"ãĥ©ãĥ´":11316,"åŃ¦è¡ĵ":11317,"257":11318,"æ¿±":11319,"ãĤ¹ãĥ³":11320,"åĬ±":11321,"ĠåĨĻçľŁéĽĨ":11322,"vs":11323,"Ġ::**":11324,"æĭĵä¹Ł":11325,"ãĤ¿ãĤŃ":11326,"309":11327,"æ±ºæĪ¦":11328,"ç«¶æĬĢå¤§ä¼ļ":11329,"Ġà¸":11330,"ãĥłãĥ¼ãĥĵãĥ¼":11331,"åĵ²åŃ¦":11332,"ection":11333,"ãĤģãģį":11334,"ĠMAR":11335,"Ġäººåı£åĭķ":11336,"è®Ĳ":11337,"é§ħæĿ±åı£":11338,"åł±åĳĬ":11339,"LC":11340,"ĠHel":11341,"ãģĮãģĹ":11342,"Ġé·¹":11343,"uth":11344,"èĩªåĭķ":11345,"ãĥĲãĤ¤ãĤª":11346,"outh":11347,"Ġå°ıæ³ī":11348,"ĠChina":11349,"ãĥģãĥ£ãĥ¼ãĥĪ":11350,"Ġå½©":11351,"ãĥ¢ãĥ¼ãĥ«":11352,"çĦ¡ãģĹ":11353,"ities":11354,"Ġãĥİãĥ¼ãĤ¹":11355,"æ°´çĶ£":11356,"æŃĮè¬¡":11357,"ãģ²ãģ¨ãģ¿":11358,"åħļæ´¾":11359,"ãĤ¸ãĤ§ãĥĥãĥĪ":11360,"çĸĳ":11361,"Ġæ§":11362,"ãĥľãĥĥãĤ¯ãĤ¹":11363,"ãĥ«ãĥĪãĤ¬ãĥ«":11364,"ĠBattle":11365,"è©°":11366,"ãĥ³ãĤ¯ãĤ¹":11367,"ç¦ıå¯º":11368,"Ġæģĭãģ®":11369,"ĠChampions":11370,"ĠãĤ¢ãĥ³ãĤ½":11371,"Ġå¹³äºķ":11372,"é»ĦéĸĢ":11373,"åĽŀæĹ¥æľ¬":11374,"Ġåı¤ä»£":11375,"èĳ¬":11376,"ãĤģãģŁ":11377,"Ġç´Ļæľ¬":11378,"åĩ¡ç¤¾":11379,")ãĢĮ":11380,"ãĤµãĥĿãĥ¼ãĥĪ":11381,"Ġæİ¢":11382,"ãĥĪãĥ©ãĤ¤":11383,"ãĤ¢ãĥ¬":11384,"ĠãĤ«ãĥ«ãĥŃãĤ¹":11385,"Ġè°·åı£":11386,"Ġä»£è¡¨æŃ´":11387,"Ġé®":11388,"ĠCir":11389,"ĠãĤ¯ãĥ©ãĤ¤":11390,"è³ĩæĸĻé¤¨":11391,"ãĥ¼ãĤ²ãĥ¼ãĥł":11392,"132":11393,"ĠãĥķãĤ§ãĥ«":11394,"ãĤ»ãĤ¹":11395,"ĠæĶ¾éĢģæľŁéĸĵ":11396,"è³¢ä¸Ģ":11397,"ĠWho":11398,"å¼ķãģį":11399,"Ġæ¤ľ":11400,"ĠGU":11401,"Ġãĥģãĥ£ãĥ¼ãĥ«ãĤº":11402,"Ġçį²å¾Ĺ":11403,"139":11404,"Ġ164":11405,"308":11406,"Ġå°±ä»»":11407,"ä¼ıè¦ĭ":11408,")|":11409,"Ġå¼ķéĢĢ":11410,"Ġåı¯":11411,"å·¥åŃ¦ç§ĳ":11412,"ãģ¨ãĤĵ":11413,"å¥³åŃĲå¤§åŃ¦":11414,"ĠSPA":11415,"ãĥīãĥ©ãĤ¤ãĥĲãĥ¼":11416,"Ġå¹²":11417,"ĠéĽĦ":11418,"ä¸Ńå¤®åĮº":11419,"Ġæ§ĭéĢł":11420,"ales":11421,"æľ¬åĲį":11422,"ãĤµãĥĸ":11423,"ãĤĴéĸĭè¨Ń":11424,"çļ®":11425,"ĠéİĮåĢī":11426,"Instrumental":11427,"åĲİ":11428,"Ġå§īå¦¹éĥ½å¸Ĥ":11429,"ĠMas":11430,"ĠLO":11431,"ĠèĬ³":11432,"äºĭä»¶ç°¿":11433,"Ġæµħéĩİ":11434,"amm":11435,"ãĤŃãĥ£ãĤ¹ãĤ¿ãĥ¼":11436,"CHO":11437,"ãģ®çİĭ":11438,"Ġ190":11439,"ĠTwo":11440,"ãĥ´ãĤ£ãĤ¹":11441,"æ½®æĸĩåº«":11442,"Ġå¸Į":11443,"å¿ĥçĲĨåŃ¦":11444,"ĠDS":11445,"åĨįéĸĭ":11446,"Ġé¦Ļå·Ŀ":11447,"ãĤ«ãĥĲãĥ¼":11448,"ãģ¾ãģĪ":11449,"ists":11450,"èĪŀä¼İ":11451,"ãĢį'''":11452,"è¨ĺå¿µé¤¨":11453,"åĳ½ãģ®":11454,"ĠEND":11455,"å¾ĮæľŁ":11456,"èģĸåŃĲ":11457,"ĠãĤ¢ãĤ·ãĤ¹ãĤ¿ãĥ³ãĥĪ":11458,"Ġæľ¬äºº":11459,"ĠåĽ½åĭ¢èª¿æŁ»":11460,"ao":11461,"ĠèĢģ":11462,"ĠDrums":11463,"ãĤµãĥ³ãĥĢãĥ¼":11464,"253":11465,"Ġå¥ĩ":11466,"åģľè»Ĭåł´ç·ļ":11467,"æĪ¦åĽ½":11468,"ãĤ¢ãĥĭãĥ¡ãĥ¼ãĤ·ãĥ§ãĥ³":11469,"ç¤¾åĵ¡":11470,"ä¸ĭè»Ĭ":11471,"Ġå¾Ĵ":11472,"AKB":11473,"ĠJun":11474,"æŃ£äºº":11475,"ĠWalk":11476,"149":11477,"Ġ1898":11478,"çŁ³çĶ°":11479,"âĢ»)":11480,"å²©æ³¢":11481,"æ´ĭä¸Ģ":11482,"Ġseason":11483,"206":11484,"Ġéĩİåı£":11485,"Ġæ£Ħæ¨©":11486,"ãģ¡ãĤĩ":11487,"ãĥİãĥ¼ãĥ«":11488,"oka":11489,"éĬŃ":11490,"ãĤ¬ãĥ¼ãĥī":11491,"ä¿ĿåŃĺ":11492,"Ġç§¦":11493,"ĠæĤªéŃĶ":11494,"ĠDoc":11495,"åŁ¼çİīçľĮ":11496,"æ¼ĶåĬĩ":11497,"ITS":11498,"ĠCharles":11499,"Ġåº§":11500,"Ġ163":11501,"Ġæ·¡":11502,"231":11503,"èĹ¤äºķ":11504,"Ġå¹³æĹ¥":11505,"ĠãĥŃãĥĻãĥ«ãĥĪ":11506,"éŁ³éŁ¿":11507,"ques":11508,"ration":11509,"Ġå¶":11510,"ãĤĴè¨Ńç«ĭ":11511,"Ġå°ıè¥¿":11512,"INK":11513,"Ġèµ¤ãģĦ":11514,"den":11515,"é¡§":11516,"é£²":11517,"ãģ¨ãģ¿":11518,"ĠFU":11519,"ãģ®éģĵ":11520,"157":11521,"ä¸Ńç¶Ļå±Ģ":11522,"åĩºæĽ¸æĪ¿":11523,"æµ·ä¸Ĭ":11524,"Ġãĥ¬ãĥķãĥĪ":11525,"Ġå¤ĸéĩİæīĭ":11526,"Ġãģĭãģ¤ãģ¦":11527,"159":11528,"arg":11529,"ĠãĥĻãĤ¤":11530,"ĠçŁ³æ©ĭ":11531,"¸æ°Ĺ":11532,"ãĥ³ãĤĴ":11533,"ãĥĦãĤ¡":11534,"æ´¥é§ħ":11535,"ĠæĪ¸çĶ°":11536,"Ã©e":11537,"ãĥ¼ãĥłãĤ¹":11538,"ĠBIG":11539,"ãĤµãĤ¤ãĤº":11540,"ief":11541,"Ġå¸°":11542,"è¼©":11543,"ĠService":11544,"clop":11545,"å°ıçī§":11546,"ä¾ĽçĶ¨":11547,"Ġ240":11548,"åĢĴ":11549,"Ġãĥŀãĥ©":11550,"å¤ªæľĹ":11551,"å³¯":11552,"ãĥķãĤ¡ãĥ³ãĤ¿ãĤ¸ãĥ¼":11553,"ĠSON":11554,"ãĥŀãĥīãĥªãĥ¼ãĥī":11555,"ãĥĵãĥĥãĥģ":11556,"137":11557,"ãĤ¯ãĤ½":11558,"ĠWood":11559,"Ġåľ°ä¸Ĭ":11560,"ãĥĬãĤ¦":11561,"ãĥ¯ãĥ¼ãĤ¯ãĤ¹":11562,"ãĤ¶ãĥ³":11563,"ãĤ²ãĥ¼ãĥĪ":11564,"äº¤éĢļçľģ":11565,"oya":11566,"æĮĻè¡Į":11567,"ĠãĤ«ãĥĨãĤ´ãĥª":11568,"375":11569,"ĠInformation":11570,"å°ıæĥĳæĺŁ":11571,"ĠCarl":11572,"å¼ıåħ¸":11573,"ãĥķãĤ¡ãĤ¤ãĥĪ":11574,"JA":11575,"Tr":11576,"æīī":11577,"ãģĵãĤĵ":11578,"Ġæĸ°çĶ°":11579,"å·¥æ¥Ńå¤§åŃ¦":11580,"Har":11581,"æĤ£":11582,"éĬĢåº§":11583,"148":11584,"Ġco":11585,"ãĤ·ãĤ¨":11586,"1928":11587,"ingle":11588,"åĪĨéĩİ":11589,"Ġä½Ĳè³ĢçľĮ":11590,"ãģ®æľ¨":11591,"ĠãĤ¹ãĥŀ":11592,"ä¿¡è¶Ĭ":11593,"Ġè£ı":11594,"ç´ĦæĿŁ":11595,"ĠèĪ¹æ©ĭ":11596,"èºį":11597,"Ġéĭ":11598,"ĠãĤ»ãĤ¬":11599,"Ġåħ«æľ¨":11600,"Ġãĥĺãĥ³ãĥªãĥ¼":11601,"ãģĤãģŁãĤĬ":11602,"æĶ¹éĿ©":11603,"ĠãĥŃãĥ¼ãĥī":11604,"åħ¥åŃ¦":11605,"ĠåĸĦ":11606,"Ġãĥ¡ãĤ¬":11607,"ident":11608,"ĠãĤ«ãĤ¿":11609,"Good":11610,"ç®ĩ":11611,"ä¹ĥæľ¨":11612,"Ġéģĭåĭķ":11613,"ĠCOUN":11614,"185":11615,"ĠPlan":11616,"ä¿Ŀå®ī":11617,"Ġæ´»åĭķ":11618,"ç´ĶåŃĲ":11619,"Ġag":11620,"çĸ¾":11621,"ĠSpace":11622,"ĠæķĹæĪ¦":11623,"ĠØ":11624,"ĠRiver":11625,"ĠãĥŀãĤ°":11626,"obile":11627,"ĠBrown":11628,"ĭèĹ¤":11629,"ãĥ¬ãĥ³ãĥĢãĥ¼":11630,"ĠMAX":11631,"ĠGen":11632,"æŃ©åħµ":11633,"uy":11634,"1929":11635,"åİŁæ¡Ī":11636,"Ġ1895":11637,"emb":11638,"ĠæŁ¿":11639,"Ġå·¨äºº":11640,"168":11641,"480":11642,"ĠãĤ¹ãĤ«ãĤ¤":11643,"ĠæĸĻ":11644,"ĠBut":11645,"OLL":11646,"ĠåĲĮä¸Ĭ":11647,"ãĥ¼ãĤ¦ãĤ£":11648,"ĠSon":11649,"ãĤ³ãĥ³ãĥĪ":11650,"æľĪãģ«":11651,"ĠAG":11652,"ãĥįãĥĥãĥĪãĥ¯ãĥ¼ãĤ¯":11653,"Ġç®¡çĲĨ":11654,"omo":11655,"åħ¨ç·ļ":11656,"ãĥĳãĥ«":11657,"Ġå¤©ä½¿":11658,"Ġ(ãĢİ":11659,"æľ¬åºĹ":11660,"åįļå¤ļ":11661,"MBS":11662,"æ°ĳåħļ":11663,"OVER":11664,"ä¼¯çĪµ":11665,"Ġå°¾å´İ":11666,"ito":11667,"ãĤ¢ãĤ¤ãĤ¹":11668,"ĠãĤ¤ãĤª":11669,"ãĤĴãĥªãĥªãĥ¼ãĤ¹":11670,"åį±æ©Ł":11671,"ĠSite":11672,"ãĥĩãĤ£ãĥ³ãĤ°":11673,"ãĤ´ãĥ¼":11674,"å¾Įãģ«":11675,"åįģåħŃ":11676,"æ²Ļç¹Ķ":11677,"Ġä½įç½®":11678,"Ġtime":11679,"ãĥĩãĤ£ãĤ¹":11680,"141":11681,"ĠåĲīå²¡":11682,"æī¹è©ķ":11683,"ĠPV":11684,"èĹ¤çĶ°":11685,"ãĥ³ãĥīãĥ¼":11686,"Å¡":11687,"èĸ¬åĵģ":11688,"ãĥ¡ãĤ¹":11689,"æ©Łç¨®":11690,"ãĤµãĥĥãĤ«ãĥ¼éĥ¨":11691,"ĠFar":11692,"ĠNow":11693,"Ġ167":11694,"åįģåħ«":11695,"ten":11696,"Ġèªį":11697,"ãĥįãĤ·ãĤ¢":11698,"Ġãĥĳãĥ¼ãĥĪ":11699,"æĬ¼":11700,"eve":11701,"çĽ¸æ¨¡":11702,"188":11703,"Ġ168":11704,"åľ°çĲĨ":11705,"Ġå¹´éĸĵ":11706,"ãĥ³ãĥĩãĥ¼":11707,"åıĸæī±":11708,"486":11709,"ĠÂ£":11710,"Br":11711,"å®¤åĵ²åĵī":11712,"Ġçĥ":11713,"Rock":11714,"Ġå£²":11715,"ĠäºĪéģ¸æķĹéĢĢ":11716,"äºĭéłħ":11717,"è¨Īç®Ĺ":11718,"Ġé§Ĳè»Ĭåł´":11719,"ãģ®å»ĥæŃ¢":11720,"255":11721,"ĠæŁĶ":11722,"æĺłçĶ»çĽ£çĿ£":11723,"ĠæĿīæľ¬":11724,"Ġè·ĿéĽ¢":11725,"ãĤ®ãĥ¥ãĥ©":11726,"ĠWebsite":11727,"ĸæĺ§ãģķ":11728,"ĠçĽ¸æ¨¡":11729,"åĽ½ä¼ļ":11730,"road":11731,"æ°Ĺè±¡":11732,"304":11733,"ĠPrinc":11734,"ĠMartin":11735,"va":11736,"ĠAB":11737,"ä¸ĢæľĹ":11738,"ĠGet":11739,"çķ¥æŃ´":11740,"ĠãĤŃãĥ£ãĥ©ãĤ¯ãĤ¿ãĥ¼ãĤ½ãĥ³ãĤ°":11741,"uya":11742,"æĿ¥ãģŁ":11743,"ĠçķĻ":11744,"Ġèªŀ":11745,"åħµåº«çľĮ":11746,"Ab":11747,"ãĥĨãĥį":11748,"ãģĹãģİ":11749,"ãĤµãĥĥãĤ«":11750,"ĠãĥıãĥŃ":11751,"da":11752,"åħ¬è«ĸ":11753,"åĲīå·Ŀ":11754,"å¹¸éĽĦ":11755,"ĠEntertain":11756,"æĻ®":11757,"åŀĤ":11758,"ĠçĶŁå¾Ĵ":11759,"ãĤ¹ãĤ¯ãĥ¼ãĥ«":11760,"ĠYOUR":11761,"ĠéĻį":11762,"MG":11763,"ĠæĺİçŁ³":11764,"ĠæľĢçµĤè©±":11765,"åŃ¦éķ·":11766,"Ġvocal":11767,"å¥½ä¼ļ":11768,"Ġ{":11769,"Ġå±±ä¸Ń":11770,"ĸæĺ§ãģķåĽŀéģ¿":11771,"å¤ªå¹³æ´ĭ":11772,"ĠMovie":11773,"éĸ²":11774,"131":11775,"ãĥŃãĥ¯":11776,"Best":11777,"CV":11778,"ĠPolit":11779,"ãĥ³ãĥ¯":11780,"ãģ¾ãģ§ãģ®":11781,"ãĤµãĥŀ":11782,"161":11783,"å²¡æľ¬":11784,"ĠçĽĹ":11785,"æ¯İæĹ¥":11786,"Ġ210":11787,"å®´":11788,"ĠãĥŃãĥĥãĥĨ":11789,"è¡¨å½°":11790,"Ġåħ¬åħ±":11791,"åľ°åĽ³":11792,"Part":11793,"oid":11794,"åĳª":11795,"ĠæľĿåĢī":11796,"ĠMach":11797,"ãĤ¨ãĤ¹ãĥĳ":11798,"ado":11799,"003":11800,"ãĥ¡ãĥĥãĥĪ":11801,"ruct":11802,"ĠæıĲ":11803,"Ġå¯¾æĪ¦çĽ¸æīĭ":11804,"ãĤ¦ãĤ£ãĥªãĤ¢ãĥłãĤº":11805,"410":11806,"290":11807,"Ġãĥīãĥ³":11808,"æŃ¦åĻ¨":11809,"ç¢ºèªį":11810,"ĠBell":11811,"éģ¸æĬŀ":11812,"å¾Įç·¨":11813,"Ġåħ±åĲĮ":11814,"andy":11815,"ĠãĤªãĥ«":11816,"overn":11817,"åħ¬åı¸":11818,"Ġè¶£åĳ³":11819,"Mon":11820,"ç¦ħ":11821,"ground":11822,"aya":11823,"kin":11824,"ĠãĤ°ãĥªãĥ¼":11825,"Per":11826,"ãĥ´ãĤ£ãĥ«":11827,"å®°":11828,"ĠABC":11829,"çĶ±é¦Ļ":11830,"ãĥ¼ãĥªãĥ¼ãĤ°":11831,"ç°¡æĺĵ":11832,"è²¢":11833,"ãĥĸãĥ©ãĥ³ãĥī":11834,"çĲ¢":11835,"æįľæŁ»å®ĺ":11836,"ãģĭãģı":11837,"éĩĮå¥Ī":11838,"ĠEpisode":11839,"ä½ĵéĩį":11840,"å¥³çİĭ":11841,"Ġsy":11842,"ãĤ³ãĥŁãĥ¥ãĥĭãĥĨãĤ£":11843,"æ¢¶":11844,"åģľæŃ¢":11845,"ĠLady":11846,"ĠEURO":11847,"æĢĴ":11848,"ĠãĥĳãĥĬ":11849,"Ġé¦¬åł´":11850,"ãģĦãģ¯":11851,"éĽ¶":11852,"Ġinc":11853,"Ãľ":11854,"å¤§ä½Ĳ":11855,"åĨ¨":11856,"ÙĦ":11857,"æİĴ":11858,"306":11859,"Ġæ¿±":11860,"ĠLu":11861,"æĸ¹è¨Ģ":11862,"æĭĿ":11863,"ĠãĥĽãĥ¯ãĤ¤ãĥĪ":11864,"ãĤ³ãĥĬãĥ³":11865,"åİŁçĶ°":11866,"å¹³æĪĲåħĥå¹´":11867,"ãģĿãģ®ä»ĸãģ®":11868,"ãĥ³ãĤ²ãĥ³":11869,"å¤§åľ°":11870,"éģłèĹ¤":11871,"ãĥŀãĥī":11872,"ãĥ¼ãĥŃãĥ³":11873,"Sil":11874,"ãĥĲãĥĪ":11875,"ãĤªãĥ©":11876,"è¼ĥ":11877,"Ġä¸Ńè¥¿":11878,"åºĥåĳĬ":11879,"Ġå¤§éĺªå¸Ĥç«ĭ":11880,"æŃ¦éģĵé¤¨":11881,"ĠãģĦãĤı":11882,"âĪŀ":11883,"å¹½":11884,"ĠPict":11885,"488":11886,"å¥ĩå¦Ļãģª":11887,"ãĥ¢ãĥı":11888,"ĠãĤµãĥ³ãĤ¿":11889,"Ġ[":11890,"åĲĮçĽŁ":11891,"ĠEãĥĨãĥ¬":11892,"Ġå»ºè¨Ń":11893,"Ġå¹´åº¦åĪ¥æĬķæīĭæĪĲç¸¾":11894,"dition":11895,"ĠãĤ»ãĥªãĤ¨A":11896,"ãĥ³ãĥ´":11897,"ãĥĻãĥ³":11898,"åĮ»çĻĤæ©Łéĸ¢":11899,"ĠãģĳãĤĵ":11900,"Ġèī²å½©":11901,"ä¾ł":11902,"ãĥĥãĥĪãĥľãĥ¼ãĥ«":11903,"ãĤ¤ãĤ§":11904,"225":11905,"ware":11906,"ãĤ¿ãĤ¯ãĤ·ãĥ¼":11907,"å¤§ä½¿é¤¨":11908,"Ġèĵ®":11909,"IVERSARY":11910,"ating":11911,"ĠãĥŀãĥĦ":11912,"ĠOffice":11913,"Int":11914,"ãĤ¢ãĤ¦":11915,"Ġ220":11916,"ATSU":11917,"çīĪãģ®":11918,"å¤©åĽ½":11919,"ãĥ¼ãĤ·ãĥ£ãĥ«":11920,"ãĥ©ãĥŀãĥ³":11921,"ãĤ¤ãĥ³ãĤ¿ãĥ¼ãĥģãĤ§ãĥ³ãĤ¸":11922,"Ġ#\"":11923,"ç·ļéĽ»åĬĽ":11924,"ken":11925,"ä¾µ":11926,"ĠFac":11927,"ĠãĥŀãĥĥãĥĪ":11928,"asc":11929,"å²¡å´İ":11930,"çĪª":11931,"ãĤ¯ãĥ©ãĥ¼ãĥ¬ãĥ³":11932,"ãģ®çľĮéģĵ":11933,"ICIAL":11934,"Ġãĥŀãĥĭ":11935,"å¹¼å°ĳæľŁ":11936,"åįĹçĶº":11937,"235":11938,"äºĪåł±":11939,"Ġè¨Ńè¨Ī":11940,"ãĥ¡ãĥĪãĥŃ":11941,"246":11942,"æ¬¡å®ĺ":11943,"Ġå¯ĮçĶ°":11944,"éĢĲèī¦":11945,"éļ·":11946,"What":11947,"è¾²æ¥ŃåįĶåĲĮçµĦåĲĪ":11948,"çĥı":11949,"ĠãĤ½ãĥŃ":11950,"164":11951,"Ġè©¦":11952,"ROM":11953,"ãĤµãĥ¼":11954,"ãĤ¯ãĥªãĤ¹ãĥŀãĤ¹":11955,"273":11956,"æ´¥åŃĲ":11957,"ference":11958,"Ġä»»å¤©åłĤ":11959,")âĨĴ":11960,"ĠåµĲ":11961,"å¤§æ¨¹":11962,"ãģĻãģĭ":11963,"ãĥ¼ãĤ¯ãĥ«":11964,"ãĥķãĤ£ãĥĥãĤ¯":11965,"Ġå¤§åŀĭ":11966,"169":11967,"226":11968,"Mr":11969,"Ġåºľ":11970,"Ġå·ĿæĿĳ":11971,"ä¸ŃåĩºãģĹ":11972,"ĠHi":11973,"550":11974,"æĿľ":11975,"ãĥ³ãĥĢãĤ¤":11976,"ĠAK":11977,"ãĥĹãĥĨãĥ³":11978,"Ġæ¨ĭåı£":11979,"Ġ1873":11980,"æµ·ãģ®":11981,"ORS":11982,"142":11983,"éĩĳå±ŀ":11984,"ãģ®çľĮéģĵä¸Ģè¦§":11985,"ĠSub":11986,"Ġåģľ":11987,"ä¸Ģãģ®":11988,"147":11989,"ĠãĥķãĤ¸":11990,"ãĤ°ãĤ¼":11991,"ĠæĹ¥é«ĺ":11992,"ãĥĲãĤ¹ãĤ±ãĥĥãĥĪãĥľãĥ¼ãĥ«":11993,"ĠãĤ»ãĥĥãĥĪ":11994,"ãĥ³ãĥİ":11995,"âĻ¥":11996,"Ġ169":11997,"ĠBox":11998,"Ġãģ¨ãģªãĤĭ":11999,"162":12000,"éļħ":12001,"ĠAfric":12002,"305":12003,"Ġãĥ¢ãĥ³":12004,"ĠãĤ¯ãĥªãĤ¹ãĥĨãĤ£":12005,"ĠAugust":12006,"470":12007,"å·¨äºº":12008,"è¨ĺåı·":12009,"Ġèī¦æŃ´":12010,"ä¸īä¸ĸ":12011,"Gl":12012,"Je":12013,"Ġé½":12014,"Ġè¥¿å±±":12015,"ä»Ĭäºķ":12016,"åĳ¼ãģ¶":12017,"ãĥ«ãĥ¼ãĥł":12018,"ãĥŁãĤ«":12019,"åİŁåŃĲ":12020,"ãĤ»ãĥĸãĥ³":12021,"æķĻåĵ¡":12022,"Ġéģº":12023,"Ķèĸĩ":12024,"ãĢĬ":12025,"Ġéļİ":12026,"146":12027,"ä½Ĳè³Ģ":12028,"éģ¸æĮĻåĮº":12029,"Ġæ¦İ":12030,"ĠDANCE":12031,"ãĥ¼ãĥĭãĥ¥":12032,"ãĤµãĤ¦ãĥ³ãĥīãĥĪãĥ©ãĥĥãĤ¯":12033,"ãĥĥãĤ»ãĤ¤":12034,"UFC":12035,"é¦Ļæ¸¯":12036,"Ġãĥľãĥ«":12037,"ĠShi":12038,"ãģĭãģĽ":12039,"Ġæ²³åĨħ":12040,"ç¢§":12041,"Ġ//":12042,"obal":12043,"ãĥĹãĥ¬ãĤ¼":12044,"æ°´éģĵ":12045,"ALK":12046,"Ġçķĳ":12047,"ĠçĲīçĲĥ":12048,"ĠEntertainment":12049,"bar":12050,"ĠãĥĻãĥĪãĥĬãĥł":12051,"ĠãĥĭãĥĥãĤ¯":12052,"RçµĤäºĨ":12053,"ĠAnim":12054,"Ġãģ¶":12055,"Ġç©ºä¸Ńç·ļéĽ»åĬĽ":12056,"çĻ¾ç§ĳ":12057,"ãģ²ãģ¨ãĤĬ":12058,"ĠãĥŁãĥīãĥ«":12059,"REAK":12060,"ante":12061,"èĭ±æ¨¹":12062,"ĠæĮ¿åħ¥æŃĮ":12063,"Ġçł´":12064,"å³¶é§ħ":12065,"ãĥĢãĥĸãĥ«ãĤ¹":12066,"å°ıåŃ¦é¤¨":12067,"Ġãĥ©ãĤ¹ãĥĪ":12068,"ãĥ³ãĥĩãĥ«":12069,"å¿ĥçĲĨ":12070,"ĠANNIVERSARY":12071,"ãĥļãĥĥãĥĪ":12072,"ĠCITY":12073,"ä»£çĲĨ":12074,"æĺİåŃĲ":12075,"ĠãĥĸãĥŃ":12076,"ĠCA":12077,"ç¾İéĩĮ":12078,"çĻºçĶŁ":12079,"ãĥ´ãĤ£ãĥĥãĥģ":12080,"DX":12081,"ks":12082,"Ġicon":12083,"Ġå¤§æĹ¥æľ¬":12084,"ĠæĿ¾åİŁ":12085,"ĠOxford":12086,"ãĥ³ãĥŀãĥ¼ãĤ¯":12087,"ãģĦãģª":12088,"ãĤªãĥķ":12089,"ä¸ĬãĤĬ":12090,"Ġç§ĳåŃ¦":12091,"ĠBay":12092,"340":12093,"å¹³éĩİ":12094,"ãģłãģ¡":12095,"åħŃä¸ģçĽ®":12096,"ãĤ¿ãĤ¤ãĤ¬ãĥ¼ãĤ¹":12097,"ĠBLACK":12098,"çĽ´åŃĲ":12099,"ebook":12100,"Ġéľ§":12101,"ĠIP":12102,"Ġæ¥Ń":12103,"éķ·è°·å·Ŀ":12104,"Ġ172":12105,"Ġå®Łæĸ½":12106,"æ²¿":12107,"åĮĹä¹Ŀå·ŀ":12108,"ãģĺãĤĵ":12109,"ĠãĥĢãĥ¼ãĤ¯":12110,"èĪĪæ¥Ń":12111,"ĠåĲīæĿĳ":12112,"ĠJean":12113,"men":12114,"è¡Ŀ":12115,"ãģĲãĤĭ":12116,"ãĥģãĥ£ãĥ¬ãĥ³ãĤ¸":12117,"å§¦":12118,"ãĥ³ãĥĬãĥ¼":12119,"pect":12120,"UMI":12121,"£ãĤĬ":12122,"Ġãĥĳãĥģ":12123,"ãģ¤ãģ°":12124,"ãĥĸãĥ©ãĤ¶ãĥ¼ãĤº":12125,"ãģ¯ãģĦ":12126,"ĠVan":12127,"çĿ¦":12128,"ĠãĤ´ãĥ¼ãĥ«ãĥĩ":12129,"ĠFamily":12130,"Ġé¨İæīĭ":12131,"ä»²éĸĵ":12132,"elt":12133,"Ġåľ°çįĦ":12134,"ops":12135,"ĠãĥĿãĤ¸ãĤ·ãĥ§ãĥ³":12136,"Ġé£¯å¡ļ":12137,"ĠãĤ¢ãĥĭãĥ¡ãĥ¼ãĤ·ãĥ§ãĥ³åĪ¶ä½ľ":12138,"Ġà":12139,"ãĤ¸ãĥł":12140,"Ġwe":12141,"ãĥ¬ãĤ¢":12142,"ĠCult":12143,"Ġå¤§çŁ³":12144,"æ¥½åĽ£":12145,"Ġ1891":12146,"æ´ĭèī¦":12147,"ãĥ¬ãĤªãĥ³":12148,"åĨįæĶ¾éĢģ":12149,"èı©èĸ©":12150,"ä¸Ńèı¯":12151,"Ġãĥıãĥªãĥ¼":12152,"Ġå¤©çļĩ":12153,"ĠANIM":12154,"ãĥĥãĥĴ":12155,"ĠãĥĴãĥ¥":12156,"Ġè§Ĵå·ĿæĽ¸åºĹ":12157,"ãĥ¼ãĥ©ãĤ¤":12158,"ãĥķãĤ§ãĤ¹":12159,"ç§ĺæĽ¸":12160,"å®£è¨Ģ":12161,"ãĥĻãĥŃ":12162,"ãĥķãĤ£ãĥ«ãĥł":12163,"ãĥīãĥ©ãĤ¤ãĥĸ":12164,"ĠBur":12165,"ãĤªãĥ¼ãĥĪ":12166,"roid":12167,"ãĤ³ãĥ¼":12168,"ĠãĤ¢ãĥĢãĥ«ãĥĪ":12169,"ĠWild":12170,"ivil":12171,"ĠJu":12172,"Ġ166":12173,"ĠDC":12174,"ãĥģãĤ§ãĥ«":12175,"ãĥĻãĥªãĥ¼":12176,"ĠBC":12177,"è¥¿æŃ¦":12178,"ãĤĦãģį":12179,"ĠçĶ°åı£":12180,"Åį":12181,"183":12182,"ĠTor":12183,"Ġåĭ²":12184,"ining":12185,"ãģ¯ãģ¾":12186,"ãĥ³ãĥŀãĥ¼":12187,"ĠçİĦ":12188,"ĠPresents":12189,"1911":12190,"ãĥĲãĤ¤ãĥ«":12191,"æ´¥çĶº":12192,"ãĥ«ãĥİãĥ¼":12193,"ãĤ¤ãĥ¡ãĥ¼ãĤ¸":12194,"inst":12195,"ischen":12196,"ãĥİãĤ¢":12197,"äº¨":12198,"æķ´çĲĨ":12199,"ãĤ¯ãĤ·ãĥ³ãĤ°":12200,"ĠPublishing":12201,"rough":12202,"'''âĢĵ":12203,"esch":12204,"gar":12205,"1926":12206,"ĠVis":12207,"è¿İ":12208,"Ġè¦ģ":12209,"Ġå½¢æħĭ":12210,"pro":12211,"Ġå¾ĴæŃ©":12212,"ãĤºãĥ«":12213,"Ġåľ°åĽ³":12214,"Ġä¹ħä¿ĿçĶ°":12215,"3000":12216,"uo":12217,"éģ¼":12218,"ĠRos":12219,"302":12220,"ĠLeague":12221,"æĭ¡å¤§":12222,"ĠRailway":12223,"ĠåĮĹå·Ŀ":12224,"ĠãĤĪãģĨ":12225,"è³ĥ":12226,"å®®åŁİ":12227,"çĭĹ":12228,"ãĤ¯ãĥªãĤ¨":12229,"æ³¢æķ°":12230,"è²´åŃĲ":12231,"MIX":12232,"çľŁä¸Ģ":12233,"èµ¤ãģĦ":12234,"ãĥ¼ãĥ©ãĥł":12235,"KK":12236,"ĠSR":12237,"åĵĢ":12238,"SEN":12239,"ãĥ³ãĥĹãĥŃ":12240,"Ġæł¡èĪİ":12241,"ĠæĢ§èĥ½":12242,"ĠåĲĦè©±ãĥªãĤ¹ãĥĪ":12243,"ãĥĩãĤ¶ãĤ¤":12244,"Ġç·´":12245,"ĠTem":12246,"ĠZe":12247,"SHOW":12248,"ãģ«ç§»è»¢":12249,"åĲĪæĪĲ":12250,"ĠæĪĲç¸¾":12251,"DU":12252,"1927":12253,"Ġç¯łåİŁ":12254,"ĠRoyal":12255,"DP":12256,"ĠãĤ¹ãĤºãĤŃ":12257,"åħ¬åħ±":12258,"ãĥĹãĥªãĥ³ãĤ¹":12259,"ĠèĬ¸è¡ĵ":12260,"ĸåĥı":12261,"ĠMaster":12262,"äº¤éĢļå±Ģ":12263,"Ġéĸī":12264,"ãĥ©ãĤ¶":12265,"ãĥĦãĤ¤":12266,"ĠChar":12267,"cyclop":12268,"ãĥŃãĤ±":12269,"ãĤĴåĲ«ãĤĢ":12270,"èŃ°éķ·":12271,"åħĥæ°Ĺ":12272,"Bass":12273,"TRA":12274,"Ġ1893":12275,"ıæ³¢":12276,"ãĥ´ãĤ¡ãĥ«":12277,"Ġå¾³éĸĵ":12278,"æ·³ä¸Ģ":12279,"æĻĤçĤ¹":12280,"åįĶå®ļ":12281,"ãĥ³ãĥĲãĤ¹":12282,"ĠConcert":12283,"Ġç®±":12284,"ãģĹãģªãģĦ":12285,"ä½³åŃĲ":12286,"Ġè³ŀ":12287,"æľ¬éĥ¨ãģ¯":12288,"ĠåľŁæĽľãĥ¯ãĤ¤ãĥīåĬĩåł´":12289,"PH":12290,"ãĥ¼ãĤ°ãĥ«":12291,"Ġä½ľåĵģè³ŀ":12292,"Ġæ«»äºķ":12293,"æĹ¥éĸĵ":12294,"ãĤ´ãĥ¼ãĥ«ãĥĩãĥ³":12295,"éĢĥ":12296,"ãģĬãĤĵ":12297,"iy":12298,"ãĥŁãĤ¯":12299,"DN":12300,"ãĥİãĤ³":12301,"åİ³":12302,"ãĤ¹ãĥĨãĤ£ãĥĲãĥ«":12303,"ãĤ¿ãĥŀ":12304,"ĠãĤªãĤª":12305,"Ġç«ĭèĬ±":12306,"FU":12307,"ĠFun":12308,"ĠãĤ¯ãĥı":12309,"ãģ®éķ·":12310,"éŁ¿æĽ²ç¬¬":12311,"ãģ®ä½įç½®":12312,"ãĥ´ãĤ£ãĤ¢":12313,"ãĤ¨ãĥ³ãĤ¸ãĥĭãĤ¢":12314,"ĠãĤ¹ãĤ¿ãĥ¼":12315,"è¦ģæĸĩåĮĸè²¡":12316,"èĤĩ":12317,"Star":12318,"Tra":12319,"åĪĪ":12320,"ãĥİãĥ¼ãĥĪ":12321,"çĶŁæĶ¾éĢģ":12322,"ĠUnder":12323,"''ãĢı":12324,"åľŁæĽľæĹ¥":12325,"ãĥ³ãĥ¢ãĥ¼ãĥ«":12326,"ãĥªãĥ¼ãĥĢãĥ¼":12327,"ãģ¾ãĤıãĤĬ":12328,"ĠDigital":12329,"æĸĩæĽ¸":12330,"Ġ1886":12331,"æŁĶéģĵ":12332,"Ġé«Ļ":12333,"ãĥİãĥŁãĥįãĥ¼ãĥĪ":12334,"ĠUSS":12335,"çĮª":12336,"ĠART":12337,"LL":12338,"çŁ³æ²¹":12339,"éĽħå½¦":12340,"212":12341,"obe":12342,"ĠåĪ¶ä½ľåįĶåĬĽ":12343,"ãĤ¤ãĥ³ãĥĩãĤ£":12344,"ãĤ¨ãĥ¼ãĤ¹":12345,"ãĥ³ãĥĪãĤ¹":12346,"Ġæ´¥çĶ°":12347,"ãĥŁãĤµãĤ¤ãĥ«":12348,"Me":12349,"1925":12350,"çŀ¬":12351,"ĠHEART":12352,"cer":12353,"Ð´":12354,"ãĤ¤ãĥ©":12355,"ãĤ«ãĥ¡":12356,"Ġåľĭ":12357,"ãĤ¦ãĤ©ãĥ¼ãĤº":12358,"ĠåºĹèĪĹ":12359,"ĠãĥĲãĤ¹è·¯ç·ļ":12360,"åĪĿæľŁ":12361,"Ġep":12362,"åĲīéĩİ":12363,"Ġå¸¯":12364,"ãĤ¢ãĥ¼ãĤº":12365,"171":12366,"Ġèĩªæ²»ä½ĵ":12367,"ãģ®è¡Ĺ":12368,"1900":12369,"éĸĭæł¡":12370,"ĠãĤ¢ãĥ«ãĥķãĤ¡":12371,"ãĥŁãĥ¼ãĥ«":12372,"ãĤĴéĸĭåĤ¬":12373,"Ġè¾²æ¥Ń":12374,"ĠéłĨ":12375,"ç¥Ĳä¸Ģ":12376,"JECT":12377,"Ġ1892":12378,"ĠåĪĿçĻ»åł´":12379,"å±¯åľ°":12380,"ĠMagic":12381,"ĠLes":12382,"ĠGames":12383,"å¥ĩè·¡":12384,"æĹ¥åĲĳ":12385,"ãģ®ãģĤ":12386,"ãĥªãĥĢ":12387,"äººæ°Ĺ":12388,"404":12389,"ĠãĤ¹ãĥĨãĥ¼ãĤ¸":12390,"Ġåħ¬éĸĭå¹´":12391,"orial":12392,"ĠDeath":12393,"anger":12394,"ĠãĥĨãĥ¬ãĥĵæľĿæĹ¥ç³»åĪĹ":12395,"ĠãĤ¨ãĥķãĤ¨ãĥł":12396,"Ġ1875":12397,"ãĥĻãĥ©":12398,"Ġfeaturing":12399,"Ġä¹Ļ":12400,"ĠèĴ²":12401,"ERATION":12402,"well":12403,"ĠRd":12404,"ãĥ¼ãĥĢãĥ³":12405,"Ġus":12406,"ãĤ¢ãĥ¼ãĤ«ãĤ¤ãĥĸ":12407,"èĢĲ":12408,"éĺªç¥ŀ":12409,"ãĥ¢ãĥ¼ãĤ·ãĥ§ãĥ³":12410,"Ġæ²³åĲĪ":12411,"IDEO":12412,"åĲįä½ľ":12413,"çĶ»åĥı":12414,"boards":12415,"ĠNOR":12416,"ĠWonder":12417,"ãĤ»ãĥ³ãĤ¹":12418,"åĮ¹":12419,"ãĤªãĥ¬":12420,"254":12421,"Ġå²¡éĥ¨":12422,"ZO":12423,"ãĤ²ãĤ¹":12424,"ãģµãģ¿":12425,"å§¿":12426,"Ġ177":12427,"åĵ²å¤«":12428,"ourt":12429,"Ġé¦ĸéĥ½":12430,"Ġæĵį":12431,"233":12432,"Ġ:#:":12433,"ãĥŃãĥľãĥĥãĥĪ":12434,"ä½įæ±ºå®ļæĪ¦":12435,"ĠWii":12436,"ãĥĳãĥ¯ãĥ¼":12437,"ãĥĨãĥ¬ãĥĵå°ıèª¬":12438,"åĪ¶å¾¡":12439,"Ãł":12440,"181":12441,"PM":12442,"ãģ®ãĤĬãģ°":12443,"ãĥ³ãĥĻãĥ«ãĤ¯":12444,"çķł":12445,"åįĥéĩĮ":12446,"ĠåĴĮæ³ī":12447,"ãĤŃãĥł":12448,"Ġval":12449,"Ġãĥģãĥ£ãĥ³ãĥįãĥ«":12450,"æľĪæĽľæĹ¥":12451,"çī¡":12452,"ĠNEXT":12453,"inger":12454,"å®¶åºŃ":12455,"Ġedition":12456,"ãģ®ä½ı":12457,"ãĤªãĥļãĥ©":12458,"åĭĻå¤§èĩ£":12459,"æīĵãģ¡":12460,"çº":12461,"Ġæľªå®Łæĸ½":12462,"å®ĹæķĻ":12463,"ĠSa":12464,"æĿ¾çĶ°":12465,"æ¥½ç«ł":12466,"ĠWoman":12467,"æľªåħ¬éĸĭ":12468,"ãĥªãĥ¤":12469,"ĠãĥĹãĥŃãĥĩãĥ¥ãĥ¼ãĤ¹":12470,"Ġåı°åĮĹ":12471,"æŃ£æĺİ":12472,"å¾Ĺç¥¨":12473,"Ġ1887":12474,"ĠåĪĿåĩºåł´":12475,"IAN":12476,"ĠJazz":12477,"ãģ°ãĤī":12478,"load":12479,"åĮºåĪĨ":12480,"ãĥķãĤ§ãĥ«":12481,"ĠãģĹãĤĩãģĨ":12482,"Ġå°ĳå¥³":12483,"éķ·éĩİçľĮ":12484,"ĠæºĸãĢħæ±ºåĭĿæķĹéĢĢ":12485,"Ġä¼ĬéģĶ":12486,"uit":12487,"ãĥĥãĥ©":12488,"ãģŁãģĭãģĹ":12489,"209":12490,"ANB":12491,"èĽĩ":12492,"ĠOrder":12493,"ĠMind":12494,"ãģĹãģ¿":12495,"æĶ¿å¤§åŃ¦":12496,"eta":12497,"ĠãĤ¹ãĥĪãĥª":12498,"éĽĨç·¨":12499,"Ġæ¨©":12500,"ãĥ¬ãĤº":12501,"ãĥįãĤ³":12502,"ãĥ¬ãĥł":12503,"éİĮåĢī":12504,"ãĥªãĥĴ":12505,"Ġåħļ":12506,"ãĥĨãĥĥãĤ¯":12507,"307":12508,"ĠæĺİæĹ¥":12509,"276":12510,"ãģ®ä¸Ĭ":12511,"ãĥ³ãĤ»ãĥ³":12512,"ĠãĤ«ãĥªãĥķãĤ©ãĥ«":12513,"ract":12514,"ĠãĥĩãĤ¶ãĤ¤ãĥ³":12515,"ĠãĥķãĤ©ãĥ¼ãĥŀãĥĥãĥĪ":12516,"Ġclass":12517,"ĠFant":12518,"Ġãĥ¯ãĤ·ãĥ³ãĥĪãĥ³":12519,"ãĥªãĥĥãĤ¸":12520,"ãĤ¿ãĥĥãĤ°":12521,"èĩĵ":12522,"Ġéĥ¨æ´»åĭķ":12523,"ĠSpacew":12524,"enz":12525,"åģī":12526,"ãģ¯ä»¥ä¸ĭãģ®":12527,"é«ĺéĩİ":12528,"æĦıåĳ³":12529,"Ġåŀĭ":12530,"lor":12531,"uh":12532,"ãĤ¦ãĥ©":12533,"ĠFound":12534,"çĦ¡ç·ļ":12535,"ĠãĤ³ãĤ¹ãĥ¢ãĤ¹":12536,"ĠCy":12537,"ĠçĶºçĶ°":12538,"ĠãĥŃãĥ¼ãĥ©":12539,"åħ¨æĹ¥æľ¬":12540,"ĠTK":12541,"éļı":12542,"227":12543,"ãģĴãĤĵ":12544,"azine":12545,"tim":12546,"å¹´éĳĳ":12547,"æ³¥":12548,"ç«ĭãģ¤":12549,"Ġç¡":12550,"177":12551,"Ġæ½®":12552,"ĠMus":12553,"å£±":12554,"ĠåĬ©çĽ£çĿ£":12555,"ĠæĿ±æŃ¦":12556,"æĭłçĤ¹":12557,"ature":12558,"ĠLap":12559,"ãĤ¸ãĤ§ãĤ¤":12560,"åģľçķĻåł´":12561,"ãĤĴæĮģãģ¤":12562,"åĭĺ":12563,"ĠOct":12564,"Ã©s":12565,"ãģ®èĢģäºº":12566,"èĥĮæĻ¯":12567,"Will":12568,"195":12569,"179":12570,"Ġå¯¿":12571,"ista":12572,"åĸĦè©¦åĲĪ":12573,"Ġçķªåľ°":12574,"ĠEXILE":12575,"äº¬éĥ½åºľ":12576,"å¡ģæīĭ":12577,"ä½ĵæĵį":12578,"ĠSpacewatch":12579,"ĠFin":12580,"Ġ171":12581,"Ġåĳ¼":12582,"ãĤ«ãĥ³ãĥī":12583,"Ġ1884":12584,"çĽ®çļĦ":12585,"Ġtour":12586,"ãĥ³ãĤ·ãĥ§":12587,"èģ·æ¥Ń":12588,"ĠTimes":12589,"Ġ173":12590,"440":12591,"VOL":12592,"è¨´":12593,"238":12594,"ĠæľĢé«ĺä½į":12595,"To":12596,"ĠVI":12597,"åĪĨæł¡":12598,"ishi":12599,"Ġãĥıãĥ¼ãĥĪ":12600,"ãĤªãĥĪ":12601,"ãĥ³ãĤ¬ãĥł":12602,"Ġãĥŀãĥ«ãĤ³":12603,"ĠæĶ¾éĢģå±ĢåĲį":12604,"å¤ĸåĽ½":12605,"ĠæĹ¥æľ¬èªŀåĲ¹æĽ¿":12606,"æīĢèĶµ":12607,"ãĥ¼ãĤ¹ãĤ¿ãĥ¼":12608,"æĮ¯èĪĪå±Ģ":12609,"å¸ĤçĶºæĿĳä¸Ģè¦§":12610,"Dream":12611,"ãģ®çłĶç©¶":12612,"äºĺ":12613,"ĠãĤ¢ãĥĪãĥ©":12614,"ãģıãģ«":12615,"ĠSea":12616,"æĹ¥çı¾åľ¨":12617,"ãĥĭãĤ¹ãĥĪ":12618,"çİĭèĢħ":12619,"ika":12620,"éĢ±åĪĬ":12621,"ãĥ¥ãĥ©":12622,"èıĮ":12623,"ĠRS":12624,"éĥ½å¸Ĥåľı":12625,"aker":12626,"Ġãĥĳãĥ¼ãĤ½ãĥĬãĥªãĥĨãĤ£":12627,"çĶ°è£ķ":12628,"ãĤĴçĻºå£²":12629,"æľĢå¼·":12630,"ãģ®ä¸»":12631,"ãģĦãģĵ":12632,"ãĥĵãĥ¼ãĥģ":12633,"ãģĿãģ°":12634,"ĠåĽ½åľŁäº¤éĢļçľģ":12635,"FS":12636,"Ġpf":12637,"æŃ¯ç§ĳ":12638,"ãĥ¡ãĤ¿ãĥ«":12639,"370":12640,"ĠPOP":12641,"ãĤ¨ãĤ´":12642,"ãĥĨãĤ£ãĤ¹":12643,"265":12644,"Ġ176":12645,"275":12646,"Ä«":12647,"ĠçĶĺ":12648,"æĸ°çĶº":12649,"åįĹåĮº":12650,"ĠæĬ¼":12651,"ĠSingle":12652,"ĠGHz":12653,"258":12654,"Ġæľ´":12655,"å¢ĹåĪĬ":12656,"ãĥ¼ãĤ¤ãĥ³ãĤ°":12657,"ĠNetwork":12658,"å²¡å±±çľĮ":12659,"LP":12660,"ĠãĤ¢ãĥ¼ãĥĪ":12661,"åħīãģ®":12662,"ĠOFFICIAL":12663,"Ġå±ķ":12664,"ĠãĤ¯ãĥªãĤ¹ãĥĪ":12665,"ĠãĤ¢ãĤ¹":12666,"ĠNak":12667,"ãĥĨãĤ¤ãĥ³ãĥ¡ãĥ³ãĥĪ":12668,"ãĥªãĤºãĥł":12669,"çĲĨåŃĲ":12670,"éĸĭå±Ģ":12671,"æµ©ä¸Ģ":12672,"åºĥåł±":12673,"ãĥ¼ãĤŃãĥ³ãĤ°":12674,"ĠåķĨæ¥Ń":12675,"Ġcategory":12676,"ĠInv":12677,"ĠæĪ¦åĽ½":12678,"çİ²åŃĲ":12679,"åŃĲåľĴ":12680,"Ġne":12681,"å¤©æĸĩ":12682,"«éľ²":12683,"ĠãĤ¹ãĤ¤ãĤ¹":12684,"Ġè©¦åĲĪæķ°":12685,"ĠGAME":12686,"ä¸ĬçĶ°":12687,"Ġä¸Ģéĥ¨":12688,"osoph":12689,"ãĤ¹ãĥĳãĥĭãĥĥãĤ¯":12690,"Ġ'''ãĢĮ":12691,"ĠSK":12692,"ãĥĳãĥĳ":12693,"éłĺåŁŁ":12694,"ãģ¯ãĤĦ":12695,"ãĥ¼ãĥĭãĥ§":12696,"Ġèĭ±åĽ½":12697,"ãĤ¢ãĥĪ":12698,"ãģĦãģı":12699,"æģµç¾İ":12700,"éĢļå¸¸":12701,"åķĨäºĭ":12702,"ãĥķãĤ§ãĥ©ãĥ¼ãĥª":12703,"å®ĩéĥ½å®®":12704,"ãĤ¢ãĤ¤ãĥīãĥ«ãĥŀãĤ¹ãĤ¿ãĥ¼":12705,"!)":12706,"ĠSV":12707,"ãĥľãĥ¬ãĥ¼":12708,"å½ĵæĻĤ":12709,"ĠEarth":12710,"Ġåį°":12711,"Ġä¾ĭ":12712,"ĠPA":12713,"åĮĹéĥ¨":12714,"Ġæľ±":12715,"ãĤµãĥ³ãĥĹ":12716,"Ġday":12717,"291":12718,"ĠæĬĺ":12719,"ãĤ±ãĥ¼ãĥĪ":12720,"ãĥĥãĥĶãĥ¼":12721,"ãĥĬãĤ¬":12722,"ãĤµãĥ³ãĤ¿":12723,"è°·æĿĳ":12724,"Ġæł¡æŃĮ":12725,"ĠåŃ¦åľĴ":12726,"192":12727,"åĨĻçľŁéĽĨ":12728,"åŁºç¤İãĥĩãĥ¼ãĤ¿":12729,"ãĥŁãĥİ":12730,"ãĥ¤ãĥ³":12731,"Ġå¯Ľ":12732,"490":12733,"SPR":12734,"å¹¾":12735,"æīĩ":12736,"267":12737,"cept":12738,"åł±éģĵ":12739,"ãĥĹãĥªãĥ³ãĤ»ãĤ¹":12740,"orning":12741,"Ð¹":12742,"ãĥŀãĥ³ãĥī":12743,"Ġçķªç·ļ":12744,"Ġsub":12745,"Ġê":12746,"æĽĸæĺ§ãģķåĽŀéģ¿":12747,"ãĥīãĤ¢":12748,"380":12749,"Ġãĥĸãĥ©ãĥĥãĥī":12750,"Ġç¿Į":12751,"ãĥĬãĥ¼ãĤº":12752,"IGH":12753,"ĠæĪ¦ç¸¾":12754,"Ġ**#":12755,"ãĥªãĥ¼ãĤ¯":12756,"ĠAustral":12757,"ĠForm":12758,"ãĤ¾ãĥ¼ãĥ³":12759,"ä»ĬæĹ¥":12760,"ãĤµãĥ¼ãĤŃãĥĥãĥĪ":12761,"ĠãĤªãĥ¼ãĤ¹ãĥĪãĥªãĤ¢":12762,"Ġda":12763,"å·¡æ´ĭèī¦":12764,"ĠBon":12765,"ido":12766,"ĠãĥªãĤª":12767,"å®Łç¸¾":12768,"Ġç§ĭèĳī":12769,"åŁ·è¡Į":12770,"ãĤºãĥŀ":12771,"Ġè¶³ç«ĭ":12772,"omi":12773,"è©ķè«ĸå®¶":12774,"ĠHal":12775,"æĢ§åĪ¥":12776,"ãĤ³ãĥ¼ãĥ©ãĤ¹":12777,"ĠVIC":12778,"å´©":12779,"ĠåįĹéĥ¨":12780,"ãĥ¶å´İ":12781,"ãĤ¹ãĥĪãĤ¢":12782,"ãĥ³ãĥģãĥ³":12783,"ç¾İäºº":12784,"è¡¨çı¾":12785,"rict":12786,":\"":12787,"ãĥĤ":12788,"ãĥ¬ãĤ³":12789,"ĠMore":12790,"Ġ185":12791,"ĠéĻ¤":12792,"Ġå²©æ³¢æĽ¸åºĹ":12793,");":12794,"§åĽ°":12795,"ĠNPB":12796,"ZA":12797,"Ġgr":12798,"ãĥ¯ãĥ¼ãĥ«":12799,"çķªåı°":12800,"æ¨ªæµľå¸Ĥ":12801,"Do":12802,"æľīæ¨©":12803,"éłĨåŃĲ":12804,"ĠãĤ¢ãĥ³ãĥĩãĤ£":12805,"Ġè·¯ç·ļçĬ¶æ³ģ":12806,"174":12807,"Ġ178":12808,"ãĤ°ãĥ©ãĥ³ãĥī":12809,"ĠéĻĲ":12810,"è©©äºº":12811,"ĠSongs":12812,"åĩ½é¤¨":12813,"âĶģâĶģâĶģâĶģ":12814,"ãĢįãĢģãĢĮ":12815,"ãĥŁãĥĥãĥī":12816,"æµ¦åĴĮ":12817,"ĠForce":12818,"ãĥĵãĤ¢ãĥ³":12819,"åł´ãģ®":12820,"ĠEy":12821,"èī¯åŃĲ":12822,"Ġå¯¾å¿ľ":12823,"ãģ¯ãĤĵ":12824,"Bar":12825,"Sch":12826,"ãĥ¡ãĥ¼ãĥ©":12827,"ä½Ĳéĩİ":12828,"Ġçīĩå²¡":12829,"ĠIC":12830,"Ġsong":12831,"ĠSTYLE":12832,"yp":12833,"ç¶ļè·ĿéĽ¢":12834,"ãĥķãĤ¡ãĤ¤ãĤ¿ãĥ¼":12835,"å¸ĮæľĽ":12836,"ĠKar":12837,"Ġå¤©éĩİ":12838,"ãĤĮãĤĵåĿĬ":12839,"ãĥ«ãĥ¢ãĤ°ãĥ©ãĥķãĤ£":12840,"005":12841,"ĠãĤ¢ãĥ³ãĥĬ":12842,"åĲĮå±ħ":12843,"èī¦èīĩ":12844,"å¼ıéĩİçĲĥ":12845,"æģĭæĦĽ":12846,"ility":12847,"è©¦åĲĪçµĲæŀľ":12848,"ç¦ıå²¡çľĮ":12849,"Ġåįĵ":12850,"ãĥ¬ãĥ¼ãĥĻãĥ«":12851,"ĠSat":12852,"Ġåį±":12853,"æ¨ªå±±":12854,"ãĤªãĥ¼":12855,"Ġ174":12856,"æĿ¾äºķ":12857,"Ġä¸ĬåİŁ":12858,"Ġ?":12859,"å¹´è¡¨":12860,"çĶŁãģ®":12861,"Ġè·¯ç·ļãĥĲãĤ¹":12862,"ĠæĹ¥åĲĳ":12863,"ĠSPORTS":12864,"åŃĲä¾Ľ":12865,"ASON":12866,"ãģ«ãģªãģ£ãģŁ":12867,"aper":12868,"ãĥªãĥĥãĥģ":12869,"ãģĹãģĬ":12870,"æµģãĤĮ":12871,"ãĤ¨ãĥĥãĥĪ":12872,"ç¤¾åĽ£æ³ķäºº":12873,"Ġ183":12874,"éĩįå·¥":12875,"èªłä¸Ģ":12876,"''(''":12877,"ĠTRA":12878,"ĠPAR":12879,"ãģĪãģªãģĦ":12880,"å·¥æĪ¿":12881,"ãĤ³ãĥ³ãĤ¯":12882,"æ¡ľäºķ":12883,"ĠLAST":12884,"ission":12885,"251":12886,"ãĤ¹ãĤ¿ãĥ¼ãĥĪ":12887,"ĠãĥĬãĤ¤":12888,"Ġå®£":12889,"æµ·å¤ĸ":12890,"ĠãĥĻãĥ³":12891,"Ġå½ĵèĲ½":12892,"ãģŁãĤįãģĨ":12893,"ãĥ¢ãĥ³ãĥĪ":12894,"ĠãĤ¨ãĥ³ãĤ¿":12895,"èĲ½èªŀ":12896,"ias":12897,"æľ¨çĶº":12898,"æ·«":12899,"Ġæ²Ļ":12900,"æĽ´æĸ°":12901,"ĠåĬ´åĥį":12902,"ãĤ°ãĥŀ":12903,"Ġç·Ĵ":12904,"ĠçĮ¿":12905,"ļåŃĲ":12906,"ĠBlues":12907,"Ġdown":12908,"Ġæµ®":12909,"ãĤ·ãĥ¥ãĥ¼":12910,"Ġæ£®ä¸ĭ":12911,"ĠæľĽæľĪ":12912,"FR":12913,"ãģ«æĶ¹":12914,"WW":12915,"ãĥĿãĥŃ":12916,"ãĥĪãĥ¨ãĤ¿":12917,"ãģ¯ãģ¤":12918,"ĠJFL":12919,"åĲįãģ¯":12920,"ĠåĨħéĩİæīĭ":12921,"BI":12922,"Ġå¤§å·Ŀ":12923,"173":12924,"ãĥģãĥ«":12925,"ĠSte":12926,"Ġãĥ¢ãĥ³ãĥĨ":12927,"Ġãĥ¦ãĥĢãĥ¤":12928,"Ġå½¹èģ·":12929,"Ġæ¸¡éĥ¨":12930,"Ġåħ¬æĺİåħļ":12931,"ĠCall":12932,"ĠFoot":12933,"å°ıå±±":12934,"æ°ĳä¿Ĺ":12935,"Ġéĸĭæ¥Ń":12936,"White":12937,"Ġæ¨ªéłĪè³Ģ":12938,"ãģ²ãģķ":12939,"ãģµãģŁ":12940,"ĠãĤ¤ãĥ³ãĤ°":12941,"åĲĮãģĺ":12942,"ĠçĻºè¡Į":12943,"ĠåıİéĮ²ä½ľåĵģ":12944,"ãĥŀãĥįãĥ¼ãĤ¸ãĥ£ãĥ¼":12945,"214":12946,"Ġ260":12947,"ĠæĻº":12948,"èªķ":12949,"ĠSKY":12950,"éĿĴãģĦ":12951,"ãģ®ãĥĨãĥ¼ãĥŀ":12952,"ãĤ¨ãĤ¯ãĤ¹":12953,"åİŁæĿĳ":12954,"ä¾ĳ":12955,"ĠSqu":12956,"Ġseries":12957,"ãģ¡ãģ®":12958,"ĠçĶŁå¹´æľĪæĹ¥":12959,"ãģ»ãĤĵ":12960,"åĴĮæŃĮå±±":12961,"æ°ĹçŃĴ":12962,"ĠéŁ³å£°":12963,"alth":12964,"ãĥĢãĤ¦ãĥ³":12965,"ization":12966,"ä¹ĭåĨħ":12967,"mark":12968,"uj":12969,"Ġèľ":12970,"åĪĨãģ®":12971,"ãĥĺãĥĵãĥ¼ç´ļ":12972,"å®ĮäºĨ":12973,"Ġ-)":12974,"iger":12975,"405":12976,"ãĥŁãĥ©":12977,"ãĤ¶ãĥĻãĤ¹":12978,"ãĤ«ãĥ©ãĤªãĤ±":12979,"éĻ¤ãģı":12980,"å¹´ç¬¬":12981,"ĠæĹ¥æľ¬ç¤¾ä¼ļåħļ":12982,"ĠæĶ¾éĢģåĮºåŁŁ":12983,"ãģķãĤĦãģĭ":12984,"At":12985,"ãĤ·ãĤªãĥ³":12986,"ĠTwitter":12987,"ãĥĥãĤ·ãĥ³ãĤ°":12988,"ĠãĤŃãĥı":12989,"ç²§":12990,"äººçĽ®":12991,"ather":12992,"ASHI":12993,"ĠFinal":12994,"ĠåĨ·":12995,"HF":12996,"ams":12997,"ãĥ¼ãĥŀãĥªãĤª":12998,"402":12999,"172":13000,"urch":13001,"æĬ«éľ²":13002,"Hi":13003,"USH":13004,"ãĥ³ãĤ·ãĤ¹ãĤ³":13005,"ãģ¸ãģ®éģĵ":13006,"æ©ĭæ¢ģ":13007,"éĿĻå²¡çľĮ":13008,"ĠGeneral":13009,"World":13010,"ĠÏ":13011,"è³ĩæľ¬":13012,"åı¸ä»¤å®ĺ":13013,"è¡Įåĭķ":13014,"004":13015,"ĠTW":13016,"Rem":13017,"aly":13018,"ä¼į":13019,"ãĥ¼ãĤ¿ãĤ¦ãĥ³":13020,"ãĤ¸ãĥ£ãĥ¼ãĥĬ":13021,"ITION":13022,"èĲ¬":13023,"png":13024,"ãģ®å³¶":13025,"Ġ192":13026,"ĠSecond":13027,"247":13028,"æ²³ãĥīãĥ©ãĥŀ":13029,"CMãĤ½ãĥ³ãĤ°":13030,"èªĵ":13031,"åĽŀåħ¬æ¼Ķ":13032,"ãģĽãĤĭ":13033,"çĻ½ãģĦ":13034,"åįĵçĲĥ":13035,"ĠåŁºç¤İ":13036,"ĠèĬ¸èĥ½":13037,"ĠCambridge":13038,"ĠDog":13039,"Ġ181":13040,"245":13041,"ĠãĤ·ãĤ¢":13042,"Ġ1600":13043,"èĮľ":13044,"æķ¦åŃĲ":13045,"ãģŁãģ«":13046,"Ġå±±éĻ°":13047,"ç³ĸ":13048,"éĢłèĪ¹":13049,"ĠHard":13050,"Ġæĸ°æĹ§":13051,"Ġéĸ¢éĢ£åķĨåĵģ":13052,"ãĤ¤ãĤ¢ãĥŁ":13053,"åıįå¿ľ":13054,"è¸ı":13055,"Ġover":13056,"Ġãĥīãĥªãĥ¼ãĥł":13057,"ĠãĤ¹ãĥĳãĤ¤":13058,"æģĲæĢĸ":13059,"Ap":13060,"é¨İæīĭ":13061,"ãĤ¤ãĥ³ãĤ¿ãĥĵãĥ¥ãĥ¼":13062,"ĠCup":13063,"ãĤ¨ãĥĩãĤ£":13064,"Ġå®®çĶ°":13065,"sen":13066,"ä¼ĳãģ¿":13067,"ĠãĥĿãĥ¼ãĥ©ãĥ³ãĥī":13068,"ĠãĤ¯ãĥ¬ãĤ¸ãĥĥãĥĪ":13069,"Op":13070,"ãĥĥãĥĹãĤ¹":13071,"ãĤŃãĥĥãĥī":13072,"ãĥŁãĥ«ãĥĪãĥ³":13073,"ãĤīãģİ":13074,"ICHI":13075,"ĠãĤ²ãĤ¹ãĥĪåĩºæ¼Ķ":13076,"ãģ£ãģ·":13077,"Ġ1500":13078,"ãĤ±ãĥ¼ãĥĸãĥ«":13079,"ĠãĥĲãĥĥãĤ¯":13080,"ĠçµĮåĸ¶":13081,"ĠçĲ´":13082,"ĠÂ°":13083,"ĠREM":13084,"èĹ©ä¸»":13085,"ĠéĢ²æ°´":13086,"ĠRoll":13087,"Ġå¦Ļ":13088,"401":13089,"ä¸ĩæŀļ":13090,"Ġmedal":13091,"1924":13092,"184":13093,"abe":13094,"ĠãĥľãĤ¹ãĥĪãĥ³":13095,"çµĤçĤ¹":13096,"Ġäººåı£åĭķæħĭ":13097,"ãĤ³ãĥĪ":13098,"278":13099,"ãģļãĤĮ":13100,"æ©ŁåĭķæĪ¦å£«ãĤ¬ãĥ³ãĥĢãĥł":13101,"å®®æľ¬":13102,"aus":13103,"oi":13104,"å¤§åŃ¦åĲįèªīæķĻæİĪ":13105,"å±ĭçĶº":13106,"ĠãĥĲãĥ«":13107,"ĠæŃ¦è£ħ":13108,"Ġéļł":13109,"é«ĺéĢŁåº¦":13110,"é§Ĳå±¯åľ°":13111,"ĠLegend":13112,"191":13113,"ãģ§ãĤĵ":13114,"229":13115,"åĵ¡æķ°":13116,"åįģä¹Ŀ":13117,"Ġåħ¬å¼ıãĥĸãĥŃãĤ°":13118,"ãĥ³ãĥĺãĥ³":13119,"ĠÅ":13120,"NEW":13121,"INT":13122,"ĠæĿ±æµ·å¤§åŃ¦":13123,"å¤§ç³»":13124,"ãģĬãģ°":13125,"Ġåĳ½":13126,"430":13127,"ĠCra":13128,"âĸ³":13129,"Ġæ»ĭè³Ģ":13130,"ãģĦãģªãģĦ":13131,"ãģĨãģĪ":13132,"ĠExpress":13133,"win":13134,"ĠHOC":13135,"æ¬¡ãģ®":13136,"ĠãĥĢãĤ¤ãĥ¤ãĥ¢ãĥ³ãĥī":13137,"ĠSimon":13138,"aku":13139,"ĠæĿĳå±±":13140,"Ġé¤Ĭ":13141,"å¥īè¡Į":13142,"èĭ±äºĮ":13143,"ĠåıĤåĬłä½ľåĵģ":13144,"650":13145,"ĠåįĪ":13146,"ĠéĢļå¸¸":13147,"ãĥĨãĤ¤ãĥ©ãĥ¼":13148,"ĠBusiness":13149,"ĠNor":13150,"ç´¡":13151,"æŀľãģ¦":13152,"ĠMI":13153,"ĠãĤ¸ãĥ¥ãĥĭãĤ¢":13154,"ĠBank":13155,"ĠWall":13156,"æŃ£æ¨¹":13157,"bow":13158,"åı¤ä»£":13159,"1923":13160,"æĢ§ãģ®":13161,"ĠãĥĬãĥı":13162,"313":13163,"ãĤıãĤĮãĤĭ":13164,"äºľç¾İ":13165,"è©©éĽĨ":13166,"ãĤ«ãĥĦ":13167,"ĠåıĬ":13168,"POP":13169,"van":13170,"ĠåŃ¦åĮº":13171,"ĠPlat":13172,"ĠçĮ«":13173,"æģŃåŃĲ":13174,"ãĥĶãĥ¥":13175,"Ġä¸»ãģªåĩºæ¼Ķä½ľåĵģ":13176,"ois":13177,"ãģĹãĤĤ":13178,"çĻ½çŁ³":13179,"ĠOther":13180,"Ġãĥĵãĥªãĥ¼":13181,"GY":13182,"Ġåı£":13183,"æ©ĭå¸Ĥ":13184,"ĠãĥŃãĥ¼ãĤ¿ãĤ¹":13185,"575":13186,"CER":13187,"ÙĨ":13188,"ãĥ¼ãĥĺ":13189,"Ġå®¿":13190,"ĠæĿ¾æ°¸":13191,"Ġæ¨ªæµľå¸Ĥ":13192,"Ġãĥ¬ãĤ¢ãĥ«":13193,"ĠDa":13194,"ç§¦":13195,"ayer":13196,"ç³»éĽ»è»Ĭ":13197,"ĠTRM":13198,"Ġæİ¥ç¶ļè·¯ç·ļ":13199,"Web":13200,"ãĥ¼ãĤ®":13201,"ĠHOT":13202,"åº¦çĽ®":13203,"Ġè¼¸":13204,"ĠéĽ£":13205,"ĠåŃ«":13206,"ãĥĩãĥ©":13207,"ãģĬãĤĤ":13208,"æľĪæľŁ":13209,"ãĥĪãĥ¼ãĥŀãĤ¹":13210,"æĸĩåłĤ":13211,"çĶŁãģįãĤĭ":13212,"ĠKnow":13213,"æ½ľæ°´èī¦":13214,"006":13215,"ãģķãĤĪãģªãĤī":13216,"Data":13217,"ãĤªãĥŃ":13218,"åĩ½":13219,"Ġéħįçµ¦":13220,"263":13221,"ãĤ¼ãĥ³":13222,"íķ":13223,"äººæļ®ãĤīãģĹ":13224,"Ġéĥ½éģĵåºľçľĮ":13225,"zer":13226,"Ġãĥĩãĥ¼ãĤ¿":13227,"Ġè¡Ľ":13228,"Ġå¼¦":13229,"ä»ĺãģĳ":13230,"ĠColl":13231,"Ġä»®":13232,"ĠçĽĬ":13233,"SHI":13234,"Ġæįķæīĭ":13235,"ãģĽãģļ":13236,"ĠNever":13237,"252":13238,"ĠåĬłè³Ģ":13239,"ĠæĹ¥æľ¬åĽ½":13240,"ãĥŃãĤ±ãĥĥãĥĪ":13241,"Ġåħ±æ¼Ķ":13242,"ĠãĥĳãĥĪãĥªãĥĥãĤ¯":13243,"æĳ©æĽ¸æĪ¿":13244,"ĠçĽ£ä¿®":13245,"å·Į":13246,"orrow":13247,"ĠæĢ¥":13248,"iner":13249,"262":13250,"ä¸»ä»»":13251,"ĠOK":13252,"Ġ186":13253,"ĠkW":13254,"ĠãĤªãĥ¼ãĥĹãĥĭãĥ³ãĤ°ãĥĨãĥ¼ãĥŀ":13255,"TW":13256,"æĻ©":13257,"ĬåİŁ":13258,"221":13259,"Ġå°ıæ±ł":13260,"éĢļå¸¸çĽ¤":13261,"Ġéķ·å²¡":13262,"æİĪæ¥Ń":13263,"Ġåħµè£ħ":13264,"ãĥıãĥ¤":13265,"Ġåº·":13266,"å±±åŁİ":13267,"ĠPeople":13268,"light":13269,"ãĥĩãĥ³ãĥĪ":13270,"å¼±":13271,"åĨħãģ¯":13272,"åħ¥ãĤĮ":13273,"å®ľ":13274,"Ġåħ¨æĪ¦":13275,"Ġç¨²èĳī":13276,"Ġ**(":13277,"ãĥĻãĥª":13278,"Ġéĸ¢éĢ£æĽ¸ç±į":13279,"ours":13280,"ãĤĬãĤħãģĨ":13281,"ĠãĥĩãĥĭãĤ¹":13282,"ãĥĥãĥĪãĥŀãĥ³":13283,"ĠæŃ¦è±Ĭ":13284,"ĠAsia":13285,"ĠãĤ¤ãĥ³ãĥĨ":13286,"é¦Ļç¹Ķ":13287,"night":13288,"ĠãĤªãĥ¬":13289,"éĤ¦å½¦":13290,"Ġåħ¬å¼ıãĤ¦ãĤ§ãĥĸãĤµãĤ¤ãĥĪ":13291,"ĠJoseph":13292,"ç¦ıçĶ°":13293,"ĠéĢĢä»»":13294,"Ġout":13295,"çĻĤæ³ķ":13296,"ãĥŁãĥ¥ãĥ¼ãĤ¸ãĤ«ãĥ«":13297,"ĠCHI":13298,"STAR":13299,"åıĤè¬Ģ":13300,"Ġéĺ¿ä¹ħ":13301,"213":13302,"ãĤ»ãĥ¬":13303,"266":13304,"ç¥ŀè©±":13305,"Ġ::::":13306,"Ġpe":13307,"è£ħçĶ²":13308,"ROSS":13309,"å±±éĻ½":13310,"ãĥ©ãĥĨãĥ³ç³»":13311,"new":13312,"Ġmon":13313,"ĠãĤ½ãĥĭãĥ¼":13314,"å¹´éĩĳ":13315,"Ġ1894":13316,"æĸ°æ½®ç¤¾":13317,"ĠãĤªãĥ³":13318,"Ġè¦ĸèģ´çİĩ":13319,"Ġapp":13320,"ĠBACK":13321,"ĠéĬŃ":13322,"è©ł":13323,"Ġtr":13324,"OX":13325,"ĠJAM":13326,"æ³ķåŃ¦éĥ¨":13327,"ĠCIN":13328,"ãĤ³ãĥª":13329,"éļĶ":13330,"ä¼ĳæĹ¥":13331,"ãĤ±ãĤ¢":13332,"ĠãĤ¨ãĤ¯":13333,"ABY":13334,"Ġãĥªãĥªãĥ¼ãĤ¹æĹ¥":13335,"Ġ1885":13336,"èªŀãģ®":13337,"Ġå®ĹæķĻ":13338,"åŁİéĥ¡":13339,"ĠMB":13340,"ãĤ¿ãĤ¹":13341,"æŁ´çĶ°":13342,"ãĥ¢ãĥ¼ãĤ¿ãĥ¼ãĤ¹ãĥĿãĥ¼ãĥĦ":13343,"ĠCur":13344,"241":13345,"Ġäºĭæ¥ŃæīĢ":13346,"ĠPrem":13347,"ĠåĽ½åĭ¢èª¿æŁ»ãģ«ãĤĪãĤĭ":13348,"186":13349,"269":13350,"å¸«ç¯Ħ":13351,"Ġé´¨":13352,"Ġä¸¦":13353,"259":13354,"ĠãĤ¸ãĥŁãĥ¼":13355,"ĠãģķãĤĪãģªãĤī":13356,"éĩİçľŁ":13357,"ãĥ¼ãĤ±ãĥĥãĥĪ":13358,"Ġåģ¥åº·":13359,"ĠMHz":13360,"Ġé«ĺå³¶":13361,"458":13362,"ĠãĥĬãĤ¤ãĥĪ":13363,"Ġ182":13364,"ĠåĿĤåı£":13365,"Ãº":13366,"ãĥīãĥ¼":13367,"ãģįãĤĩãģĨ":13368,"408":13369,"çĻºå£²ãģķãĤĮãģŁ":13370,"åĩºçīĪä¼ļ":13371,"Ġæ¼¢":13372,"ãĥĳãĥ©ãĥĢãĤ¤ãĤ¹":13373,"Amer":13374,"Ġãĥŀãĥ«ãĤ¯":13375,"è«ıè¨ª":13376,"ãĥĥãĥª":13377,"ĠGOLD":13378,"å¿įèĢħ":13379,"åįģäºĶ":13380,"ahn":13381,"ĠAdvent":13382,"äº¬åĮº":13383,"Ġãĥķãĥ©ãĤ¤":13384,"Ġå¦»":13385,"ĠManagement":13386,"ĠFS":13387,"ãĤ´ãĥ«":13388,"ĠSpring":13389,"éĻ¶":13390,"ĠæĹ¥ç¨ĭ":13391,"ä¸ŃåŃ¦æł¡ä¸Ģè¦§":13392,"æĢªè«ĩ":13393,"ãĤ¬ãĥ©":13394,"ãĥķãĤ§ãĤ¢":13395,"åīµè¨Ń":13396,"ĠæĿ±æĹ¥æľ¬æĹħå®¢éīĦéģĵ":13397,"ĠCSS":13398,"ãģ®è¬İ":13399,"éħĶ":13400,"Ġåħ«çİĭåŃĲ":13401,"Girl":13402,"Ġes":13403,"Ġ1880":13404,"ĠãĤ«ãĥ¼ãĥī":13405,"ĠãĤ¯ãĥ¬ãĤ¤":13406,"å¤©ç¥ŀ":13407,"ĠãĤ°ãĥ©ãĥ³ãĥīãĤ¹ãĥ©ãĥł":13408,"ãĥĦãĤŃ":13409,"ĠæĢ§åĪ¥":13410,"ĠåĢĻè£ľèĢħåĲį":13411,"Ġ1888":13412,"ç´Ģè¡Į":13413,"ĠåĿª":13414,"ĠLB":13415,"ĠYEAR":13416,"Is":13417,"ãĥªãĥ¬ãĥ¼":13418,"èĩ¼":13419,"Ġå¹²æĶ¯":13420,"ãĤ¹ãĤ«ãĥ«":13421,"ãĥ¼ãĥ´ãĤ§":13422,"ãĥķãĥ©ãĥ³ãĤ¯":13423,"ĠReport":13424,"ĠNA":13425,"åīµæ¥Ń":13426,"ĠãĤĨãģį":13427,"ãĥģãĥ¥ãĤ¢":13428,"IECE":13429,"èŁ":13430,"ãĤ¤ãĥŃãĥĥãĥĪ":13431,"ĠFe":13432,"Ġãĥ¢ãĤ¹ãĤ¯ãĥ¯":13433,"ains":13434,"áĥ":13435,"æ§ĭæĪĲäººæķ°":13436,"ĠDON":13437,"Ġãĥ¬ãĤ¹":13438,"ĠåĢīæķ·":13439,"Ġæľ¬å¤ļ":13440,"ĠTX":13441,"atre":13442,"ĠHead":13443,"ãĤ³ãĥĸ":13444,"ĠFer":13445,"274":13446,"Mac":13447,"time":13448,"Ġå¤§æĿĳ":13449,"ãģķãģİ":13450,"å»·":13451,"åįĶèŃ°ä¼ļ":13452,"ĠDevelopment":13453,"ĠJRA":13454,"Ġæħ¶æĩīç¾©å¡¾":13455,"ãĤ¯ãĥ¬ãĤ¤":13456,"ãĥķãĤ©ãĥ¼ãĤ¹":13457,"èº«ä¸ĸå¸¯":13458,"Ġè¨Ńç½®":13459,"ĠMedia":13460,"ãģ§ãģį":13461,"Ġå®¢":13462,"ĠãĥªãĥĪãĥ«":13463,"ĠLost":13464,"189":13465,"ãĥľãĥ¼ãĥ³":13466,"åħ±ç·¨èĳĹ":13467,"ãģªãģĦãģ§":13468,"Ġå·ĿçĶ°":13469,"242":13470,"234":13471,"ãģ®ãģĵãģ¨":13472,"Ġä¸»äººåħ¬":13473,"æ¥ĵ":13474,"249":13475,"ĠæĶ»":13476,"ĠãĤ»ãĤ¤":13477,"ãĥ³ãĥķãĥ©":13478,"ãĥ«ãĥĪãĤ¥":13479,"Ġ202":13480,"Ġä½ľå®¶":13481,"å¹´é½¢åĪ¥äººåı£æ§ĭæĪĲ":13482,"ĠHOUSE":13483,"ĠSING":13484,"çī©çĲĨ":13485,"ĠãĤ»ãĤ°":13486,"ãĤ¯ãĤµãĥ¼":13487,"äººç¨®åĪ¥äººåı£æ§ĭæĪĲ":13488,"å¸Ĥãģ®":13489,"ãĤ¤ãĤªãĥªãĥ³":13490,"ãĥ©ãĤ¤ãĥ´":13491,"æĹ©å·Ŀ":13492,"009":13493,"ãĥıãĥŀ":13494,"ãĤ¯ãĥ©ãĥ¼ãĤ¯":13495,"ological":13496,"ville":13497,"ãĤ¢ãĤ¤ãĥ©ãĥ³ãĥī":13498,"KEY":13499,"ãĥ»ãĥ»ãĥ»":13500,"FX":13501,"228":13502,"ĠFuture":13503,"æ°ĳæĹı":13504,"Ġtw":13505,"264":13506,"åĤĺä¸ĭ":13507,"iles":13508,"ãĤ°ãĥ©ãĥķ":13509,"ãĥ©ãĤ¯ãĥ«":13510,"Ġåĵģå·Ŀ":13511,"Ġ189":13512,"aga":13513,"ä¸įåıĤåĬł":13514,"Ġåĭķçī©":13515,"ãĥĭãĥ§":13516,"ãĤĬãģŁãģĦ":13517,"æ¯İéĢ±":13518,"193":13519,"ĠToy":13520,"ĠãĤ«ãĥ¯":13521,"ãĥ«ãĥİ":13522,"ãĥģãĥĥãĤ¯":13523,"ĠWater":13524,"æĸ°äºķ":13525,"åĨħçĶ°":13526,"ORI":13527,"çĪ¾":13528,"ĠçļĨ":13529,"eda":13530,"æĪ»":13531,"æĺ¯":13532,"ãģ©ãģĭ":13533,"MAX":13534,"'re":13535,"Ġé«ĺå´İ":13536,"ç²ī":13537,"ĠGuide":13538,"ker":13539,"ila":13540,"Ġ179":13541,"å¯ºé§ħ":13542,"ä¹ħåŃĲ":13543,"duced":13544,"Ever":13545,"è§£æķ£":13546,"ĠRED":13547,"åĲĮå¥½ä¼ļ":13548,"itor":13549,"Ġhis":13550,"Ġå°±å½¹":13551,"Tom":13552,"232":13553,"261":13554,"èĭ¥æĿ¾":13555,"ãģ®å»ĥæŃ¢å¸ĤçĶºæĿĳä¸Ģè¦§":13556,"ĠãĥĨãĤŃãĤµãĤ¹":13557,"å®¶æĹıä¸ĸå¸¯":13558,"ĠéľĬ":13559,"ĠSIDE":13560,"ä»°":13561,"Ġ;ãĢİ":13562,"489":13563,"ĠæĸĩèĹĿæĺ¥ç§ĭ":13564,"Ġå¸Ĥç«ĭ":13565,"ĠCam":13566,"èĩªçĶ±åħļ":13567,"çĶ°è¾º":13568,"èĻļ":13569,"æŃ³ä»¥ä¸Ĭãģ®èĢģäºº":13570,"ãĤ»ãĥķ":13571,"ĠãĥĢãĥ³ãĤ¹":13572,"ĠãĤ»ãĥĲãĤ¹":13573,"ĠãĥķãĤ£ãĥª":13574,"1922":13575,"ĠDef":13576,"Ġ#ãĢĮ":13577,"åĮĹéĻ¸":13578,"Ġ230":13579,"ç¶¾åŃĲ":13580,"å¿«éĢŁ":13581,"ĠæĶ¾æĺł":13582,"ication":13583,"ãĤıãĤĮ":13584,"ĠãģĤãĤĦ":13585,"Ġå®®å·Ŀ":13586,"æŃ³æľªæºĢãģ®åŃĲä¾Ľ":13587,"åĩºæĽ¸æĪ¿æĸ°ç¤¾":13588,")ãĢĪ":13589,"èĬ±ãģ®":13590,"Ġãģªãģĭ":13591,"ç¬¦åı·":13592,"ĠéĽĳ":13593,"Ġæ°ĳä¸»":13594,"aro":13595,"237":13596,"288":13597,"365":13598,"é«ĺçŃīå¥³åŃ¦æł¡":13599,"heim":13600,"ĠEY":13601,"ela":13602,"è£³":13603,"Ġsec":13604,"ãģ¸ãģĦ":13605,"è§¦":13606,"æĸ°äººè³ŀ":13607,"çĶ±ç¾İåŃĲ":13608,"ãĤ¯ãĥĪãĥªãĤ¢":13609,"ĠPOWER":13610,"Ġèī¯":13611,"æŃ³æľªæºĢãģ®åŃĲä¾ĽãģĮãģĦãĤĭ":13612,"429":13613,"Ġçı":13614,"å¹³æĹ¥":13615,"ĠBlood":13616,"Can":13617,"è«Ń":13618,"ĠãĥĬãĥ¬ãĥ¼ãĤ¿ãĥ¼":13619,"AKU":13620,"ĠèĲ½åĲĪ":13621,"Ġç´°å·Ŀ":13622,"å¹ķåĥļçĽ£éĥ¨":13623,"åĲĮå±ħãģĹãģ¦ãģĦãĤĭ":13624,"ãĤ¢ãĥŃ":13625,"ĠNa":13626,"ãĥģãĤ³":13627,"åĢīæķ·":13628,"ç¿Ķå¤ª":13629,"çĢ§":13630,"ĠBa":13631,"å¯ºéĻ¢":13632,"ĠTHEATER":13633,"ĠãĤĤãģĨ":13634,"ĠãĤ³ãĥ¼ãĥĬãĥ¼":13635,"ç·ıäººåı£":13636,"Ġåľ°åĮº":13637,"èį»":13638,"ç«¹åĨħ":13639,"ĠéĬħ":13640,"ãĤ¯ãĥ©ãĤ¤ãĥĬ":13641,"çĬ¶æħĭ":13642,"ĠåıĮèĳī":13643,"å°¿":13644,"åĪĨéĽ¢":13645,"ATO":13646,"ĠãĥĢãĤ¦":13647,"Ġç¥ŀè°·":13648,"TDOWN":13649,"187":13650,"Ġéĸ¢éĢ£æĸĩçĮ®":13651,"ãĥ³å·ŀ":13652,"TX":13653,"«åĪ»":13654,"ãĤ«ãĥł":13655,"ä¸Ģå¤«":13656,"Ġç§ĭåħĥ":13657,"EED":13658,"ãĤ½ãĥ¼":13659,"å¤§åŃ¦ãģ®äººçī©ä¸Ģè¦§":13660,"ãĥľãĥ¼ãĥī":13661,"1901":13662,"Ġç§»":13663,"ĠTechnology":13664,"é£Łãģ¹":13665,"285":13666,"Ġãĥªãĥ¼":13667,"èĶŃ":13668,"ĠåĽ£ä½ĵ":13669,"243":13670,"281":13671,"è°·å¸Ĥ":13672,"ĠãĤµãĤ¯ãĥ©":13673,"ãĥŀãĤ¤ãĤ±ãĥ«":13674,"ĠSand":13675,"ç§Ģä¸Ģ":13676,"Ġè²¨çī©":13677,"Ġ184":13678,"ãĥĢãĥ¼ãĤ¯":13679,"æĬĦ":13680,"ãĤ¨ãĥįãĥ«ãĤ®ãĥ¼":13681,"åīįç·¨":13682,"Ġä¸Ńäº¬åºĥåŁŁåľı":13683,"ãģ®æľ¬":13684,"268":13685,"ĠæľĪæĽľæĹ¥":13686,"ĠJones":13687,"ĠKill":13688,"ĠæİĴæ°´éĩı":13689,"ĠãĥĹãĥ¼ãĥ«":13690,"Ġæķ´":13691,"Ġåħ«æĪ¸":13692,"ä»¥å¤ĸãģ®":13693,"ãĤ¢ãĥ¯ãĥ¼":13694,"ãĤĬãģĭ":13695,"244":13696,"å»ºéĢł":13697,"å¸ĮåŃĲ":13698,"ĠReview":13699,"ĠæĦŁ":13700,"ĠStudies":13701,"åĲĪè¡ĨåĽ½ãģ®":13702,"ĠçĶºä¸ģ":13703,"ĠArts":13704,"ãĤªãĤ¦":13705,"éĸ²è¦§":13706,"å¹²":13707,"åŃ¦çłĶç©¶ç§ĳ":13708,"Ġä½Ĳä¹ħéĸĵ":13709,"from":13710,"Ġ320":13711,"ĠAF":13712,"Ġå·¡":13713,"Ġlife":13714,"ãĤĪãģĨãģª":13715,"ãĥľãĥ¼ãĤ¤ãĤº":13716,".:":13717,"223":13718,"236":13719,"ĠãĤ¯ãĤ¤ãĤº":13720,"Ġå¸Ĥæ°ĳ":13721,"è¦³æ¸¬":13722,"Ġèµ¤åĿĤ":13723,"åĲĮå±ħãģĹãģ¦ãģĦãĤĭå¤«å©¦":13724,"åºĥå³¶çľĮ":13725,"ĠåįģäºĮ":13726,"Just":13727,"åľ¨ä½į":13728,"ãĤ¢ãĥªãĤ¹":13729,"ä¸īåĽ½":13730,"ãĥįãĤº":13731,"éĸ¢è¥¿ãĥĨãĥ¬ãĥĵ":13732,"iec":13733,"éģ¸æĽ¸":13734,"æ³¢åł¤":13735,"ĠåĢĭ":13736,"kgä»¥ä¸ĭ":13737,"ĠOh":13738,"ãĥ¢ãĥ³ãĥĨ":13739,"äºĪéģ¸æķĹéĢĢ":13740,"217":13741,"æĺİçŁ³":13742,"ening":13743,"ĠLy":13744,"ĠãĥŀãĤ¯ãĥ©ãĥ¼ãĥ¬ãĥ³":13745,"289":13746,"Ġãĥĸãĥ«ãĥ¼ãĤ¹":13747,"War":13748,"æİĥ":13749,"æ±łè¢ĭ":13750,"ĠèĮħ":13751,"ãģ®ä¸Ńãģ§":13752,"estern":13753,"ĠHERO":13754,"æł¡çĶŁ":13755,"ĠKBS":13756,"åħ«çİĭåŃĲ":13757,"Ġè©²å½ĵ":13758,"Ġè¦ªåĸĦè©¦åĲĪ":13759,"æĹ¥ç«ĭ":13760,"ãĥªãĥĥãĥĦ":13761,"ĠãĤ°ãĥĥãĥī":13762,"Ġåıİåħ¥":13763,"Ġ205":13764,"è²©":13765,"Pol":13766,"RAG":13767,"åĪ¶ä½ľå±Ģ":13768,"bor":13769,"ãģ®æĦĽ":13770,"ãĥªãĥĬ":13771,"ĠãĤ³ãĥ¼ãĥ©ãĤ¹":13772,"åįģåĽĽ":13773,"Ġabout":13774,"KING":13775,"ĠWomen":13776,"ĠãĥŁãĤ«":13777,"çĽ´ç¾İ":13778,"å¸Ĥæ°ĳä¼ļé¤¨":13779,"Ġçī§éĩİ":13780,"ĠFranc":13781,"ĠAcademy":13782,"æĶ¾éĢģæĻĤéĸĵ":13783,"ãĥķãĤ¡ãĤ¯ãĥĪãĥªãĥ¼":13784,"Ġéº»çĶŁ":13785,"é«ĺæľ¨":13786,"ĠãĤ³ãĥŁãĥĥãĤ¯":13787,"ãģ®æĽ²":13788,"åŃ¤":13789,"ãĥĲãĤ¯":13790,"å¤ªå¤«":13791,"Ġãĥ¤ãĥ³":13792,"ynam":13793,"ĠãĤĭ":13794,"Ġ3000":13795,"ĠãĤ¢ãĥªãĤ¹":13796,"Ġprofile":13797,"éļ¼äºº":13798,"Ġè¸":13799,"awn":13800,"ç½ł":13801,"Ã±":13802,"ãģº":13803,"åľ°ãģ®":13804,"ĠBirth":13805,"ãģ£ãģı":13806,"åı¤åħ¸":13807,"Ġãĥ¡ãĤ¤ãĥ³":13808,"ĠFrance":13809,"Ġãģ³":13810,"ĠBreak":13811,"una":13812,"Ġãģ®ãģ¨ãģį":13813,"ãĤ¹ãĤ³ãĤ¢":13814,"Ang":13815,"ĠSom":13816,"è£¸":13817,"rip":13818,"ãĥ³ãĥĳãĥĭãĥ¼":13819,"Ġ1800":13820,"å»Ĭ":13821,"ards":13822,"å¾³å³¶":13823,"ãĥĵãĥ¼ãĥĪ":13824,"248":13825,"intendo":13826,"ĠåıĹè³ŀèĢħ":13827,"Ġè¨Ģèªŀ":13828,"ãĥŀãĥĪ":13829,"ieve":13830,"å°ıåŃ¦æł¡ä¸Ģè¦§":13831,"Ġæ¼Ķå¥ı":13832,"under":13833,"å¤§åŃ¦å¤§åŃ¦éĻ¢":13834,"ãģ¤ãģĵ":13835,"ãĤ¤ãĥ«ãĤ¹":13836,"ĠãĥįãĥĥãĥĪå±Ģ":13837,"ãģįãĤī":13838,"ãĥľãĥŃ":13839,"Ġsch":13840,"BLE":13841,"leep":13842,"ä¸¸å±±":13843,"åµ":13844,"äººäºĭ":13845,"ãģĦãģļãģ¿":13846,"ãĤªãĥ³ãĥ©ãĤ¤ãĥ³":13847,"Ġè¿ĳçķ¿åºĥåŁŁåľı":13848,"åĮ»ç§ĳå¤§åŃ¦":13849,"åĵģå·Ŀ":13850,"acific":13851,"æħ§":13852,"ãģŃãģĵ":13853,"ĠAcoustic":13854,"ĠèĻ¹":13855,"ãģ®åĨħ":13856,"ãĤ¯ãĥģãĥ£":13857,"194":13858,"ãĤ¨ãĥ´ãĤ¡":13859,"OUT":13860,"ĠYears":13861,"Ġä¸ĸçķĮãģ®":13862,"åĩºæĿ¥":13863,"ĠèĹ¤æ²¢":13864,"ĠVerlag":13865,"Ġè¨Ńç«ĭ":13866,"ãĥŃãĤ¤ãĥī":13867,"ãĤŃãĥŁ":13868,"Ġles":13869,"Ġãģ¿ãģļ":13870,"å©¦äºº":13871,"ä¿ĿèĤ²æīĢ":13872,"Ġåĸľå¤ļ":13873,"216":13874,"Off":13875,"501":13876,"ĠãĤ³ãĥ¼ãĥī":13877,"ãĥ³ãĤ¸ãĤ§ãĥ«":13878,"ĠãĤ»ãĥĥãĤ¿ãĥ¼":13879,"çĶ²åºľ":13880,"Ġå§Ķåĵ¡":13881,"ved":13882,"åĽ½åĪĨ":13883,"ç·ıæķ°":13884,"ãĥ¼ãĥīãĥ³":13885,"ĠãĥĲãĥ«ãĤ»":13886,"Ġçīĩå±±":13887,"ĠGOOD":13888,"èĥ¸":13889,"314":13890,"ãģĪãģ°":13891,"Ġæ°´è°·":13892,"Ġè»¢":13893,"ãĥĭãĥ¥ãĥ¼ãĥ¨ãĥ¼ãĤ¯":13894,"Ġå¤ļæĳ©":13895,"ãģĦãģ¾":13896,"æ¬§å·ŀ":13897,"æģĭäºº":13898,"ĠCross":13899,"ĠæĿ¾å¹³":13900,"Ġåĩºèº«åľ°":13901,"ãĤ°ãĥĥãĥī":13902,"ĠæĿ±æĢ¥":13903,"çĳĽ":13904,"ç¶¬":13905,"ĠProt":13906,"å¤§æ´¥":13907,"ãĤ³ãĥ©":13908,"Ġæľ¨æĽľæĹ¥":13909,"ĠçĻºè¦ĭ":13910,"ĠãģĦãģ¡":13911,"Ke":13912,"«å®ļ":13913,"ĠCentury":13914,"ãĤ½ãĥĬãĤ¿":13915,"éĩĳåŃĲ":13916,"ãĥŁãĤº":13917,"æĽ²çĽ®":13918,"éģĵåł´":13919,"Ġèµ·å·¥":13920,"åĮĸéĥ¨":13921,"è©±åĩºæ¼Ķ":13922,"356":13923,"artment":13924,"Ġ406":13925,"296":13926,"ãĥŀãĥ¼ãĥ«":13927,"Ġä¹Ĺè»Ĭäººåĵ¡":13928,"ĠApr":13929,"æ·Ģ":13930,"å¤īåĮĸ":13931,"æĽ½æł¹":13932,"Ki":13933,"æľĪåĪĬ":13934,"ãĥįãĤ¿":13935,"æĻºä¹ĭ":13936,"ãĤ¹ãĥļãĥ¼ãĤ¹":13937,"ãĤ¨ãĥ³ãĥĩãĤ£ãĥ³ãĤ°ãĥĨãĥ¼ãĥŀ":13938,"ĠãĤ¬ãĥ³ãĥĢãĥł":13939,"ĠãĥĲãĥ«ãĤ»ãĥŃãĥĬ":13940,"ãģ®å±±":13941,"ãĥīãĥĬãĥ«ãĥī":13942,"ĠçĻ½äºķ":13943,"æ±½":13944,"è²¸":13945,"ä»ģç¾İ":13946,"ige":13947,"Ġãģ«ãĤĪ":13948,"Ġåĵ²":13949,"ĠSOL":13950,"çĶ°ç¾İ":13951,"ĠçĽ£çĿ£è³ŀ":13952,"Life":13953,"ĠMass":13954,"ĠãĥĨãĤ£ãĥł":13955,"ATTRO":13956,"ä»¤åĴĮåħĥå¹´":13957,"å¤§è¾ŀåħ¸":13958,"353":13959,"é³©":13960,"ĠHuman":13961,"357":13962,"æł¡æŃĮ":13963,"ĠInternet":13964,"Ð¾Ð²":13965,"æİ¡çĶ¨":13966,"ãģ£ãģ¡ãĤĥ":13967,"ãĥĬå·ŀ":13968,"ãĥ¼ãĥĹãĥ«":13969,"Ġ2021":13970,"ĠLo":13971,"ĠFIGHT":13972,"ä½ľåĵģè³ŀ":13973,"chestra":13974,"lywood":13975,"Ġä»¥ä¸ĭ":13976,"Ġæ²¿ç·ļ":13977,"Sun":13978,"æĥ³ãģĦ":13979,"lear":13980,"284":13981,"èĩªè»¢è»Ĭ":13982,"éĺ²æ³¢åł¤":13983,"éħįç½®":13984,"Ġæ¼ĶåĬĩ":13985,"å¸Ĥè¡Ĺ":13986,"ĠLAC":13987,"ĠèĶµ":13988,"ä¿¡å¤«":13989,"éĤª":13990,"å¹³åĿĩæ§ĭæĪĲäººæķ°":13991,"å¹´é½¢ãģ®ä¸Ńå¤®åĢ¤":13992,"ãģ®æģ¯åŃĲ":13993,"ĠTs":13994,"ĠãĤ¢ãĥĢãĥł":13995,"RESS":13996,"Ġnight":13997,"åŃ¦ãģ®":13998,"ç·ĬæĢ¥":13999,"ĠId":14000,"è°·é§ħ":14001,"ãĥ¼ãĥªãĤ¹":14002,"çĢ¬å·Ŀ":14003,"URN":14004,"ĠèĪªç¶ļè·ĿéĽ¢":14005,":''":14006,"ãĥ¢ãĥ¼ãĥĭãĥ³ãĤ°":14007,"ĠKim":14008,"åĨħä¸ĸå¸¯æķ°":14009,"2400":14010,"èĲ½æĪĲ":14011,"ĠæĹ¥æľ¬éĥµä¾¿":14012,"ãģ©ãģĵ":14013,"ves":14014,"ãĥ©ãĤ¤ãĤªãĥ³ãĤº":14015,"Ġcenter":14016,"Ã©t":14017,"æĿ¡ç´Ħ":14018,"ãĥ¼ãĤ±ãĥ¼ãĥī":14019,"ãĢĩ":14020,"ĠåłĤ":14021,"1918":14022,"ĠWITH":14023,"åĲĪåĲĮ":14024,"ä¸īæľ¨":14025,"311":14026,"awai":14027,"åįĺèº«ä¸ĸå¸¯":14028,"Super":14029,"ĠMP":14030,"ãĤªãĤª":14031,"ĠYam":14032,"nam":14033,"ãĥĩãĥ¼ãĥĪ":14034,"æīĭç´Ļ":14035,"æ²¢å·Ŀ":14036,"éĻ½ä¸Ģ":14037,"ĠæĹŃå·Ŀ":14038,"ç¾İå¥³":14039,"çĶ·å¥³":14040,"é¶":14041,"Ġãģ°":14042,"ãĤ·ãĥ¥ãĤ¿":14043,"ĠãĤ«ãĤ¤":14044,"ãĤĮãģĤãģĦ":14045,"ĠåĪĹ":14046,"èĪªè·¯":14047,"Ġå®Łæ³ģ":14048,"ĠçĿĢéłĨ":14049,"ãĥĨãĥĭãĤ¹éĥ¨":14050,"Ġãĥıãĥ«":14051,"ãĥ³ãĥĦãĤ§":14052,"ä¹ĥæľ¨åĿĤ":14053,"ĠNEC":14054,"HR":14055,"282":14056,"çĹħéĻ¢åīį":14057,"ĠãĥĻãĥ«ãĥªãĥ³":14058,"çĽĽå²¡":14059,"ãĥŁãĥ¤":14060,"ãĥĮãĤ¹":14061,"Bill":14062,"283":14063,"èĭ±æĺİ":14064,"ãĥ³ãĤ·ãĥĥãĥĹ":14065,"ides":14066,"ĠæīĢå±ŀåħļæ´¾":14067,"ãĥ¢ãĤ¹ãĤ¯ãĥ¯":14068,"ĠãĤªãĥłãĥĭãĥĲãĤ¹":14069,"Ħæĥ³":14070,"Ġ212":14071,"åĭ¤åĭĻ":14072,"å¤§ä¹ħä¿Ŀ":14073,"ãģĬç¬ĳãģĦ":14074,"ä½ıå±ħæķ°":14075,"Mag":14076,"ĠéĢļä¿¡":14077,"ĠèıĬåľ°":14078,"icus":14079,"Ġ187":14080,"ians":14081,"éº»ç¾İ":14082,"ãĥªãĥĥãĥĪ":14083,"ĠâĢĲ":14084,"ways":14085,"ãģ®æĸ°":14086,"UTO":14087,"ĠBritish":14088,"ÙĪ":14089,"ĠBird":14090,"ĠæĮģ":14091,"æīĢæľī":14092,"ATS":14093,"ãĥ¼ãĥªãĤ¢":14094,"Ġå¿ĹæĿĳ":14095,"ãĤ®ãĥ£ãĥ©ãĥªãĥ¼":14096,"ãģĤãģļ":14097,"293":14098,"éĢ£åĲĪä¼ļ":14099,"çĶŁçĶ£éĻĲå®ļçĽ¤":14100,"åħĨ":14101,"ãģ¾ãĤĮãĤĭ":14102,"å®®å¸Ĥ":14103,"çļĩå¸Ŀ":14104,"ĠMarch":14105,"ĠãĤ«ãĥĥãĥĹ":14106,"ĠãĤ·ãĥ³ãĥĩãĥ¬ãĥ©":14107,"éĽħä¹ĭ":14108,"Ġæ¥Ĭ":14109,"ãĥ«ãĥĺ":14110,"å¯¾æĬĹ":14111,"çĹĽ":14112,"ULL":14113,"Heart":14114,"ĠãĤ¹ãĥļãĥ¼ãĤ¹ãĤ¦ãĤ©ãĥĥãĥģ":14115,"CB":14116,"ĠBob":14117,"ĠRom":14118,"ãĤĴè¡Į":14119,"äººãģĤãģŁãĤĬ":14120,"ãģĭãĤĬãģ®":14121,"äº¬éĥ½å¸Ĥ":14122,"999":14123,"çī¹åĪ¥è³ŀ":14124,"Gold":14125,"ĠKh":14126,"éģĶéĥİ":14127,"å§«è·¯":14128,"Ġå§«è·¯":14129,"ĠãĤ¹ãĤŃ":14130,"279":14131,"çļĨ":14132,"éĿŀå®¶æĹıä¸ĸå¸¯":14133,"iÄ":14134,"008":14135,"alog":14136,"ĠãĤµãĥŀ":14137,"è¦§ä¼ļ":14138,"Ã£":14139,"239":14140,"åĳ¼ãģ°ãĤĮãĤĭ":14141,"ĠæĶ¾éĢģåĮºåŁŁåĨħä¸ĸå¸¯æķ°":14142,"Disc":14143,"ãĥģãĥ¼ãĥķ":14144,"è»Ĭç·ļ":14145,"ĠæĿ¾æĿĳ":14146,"ĠProf":14147,"Sec":14148,"å¤§æĺł":14149,"è¿ĳçķ¿":14150,"åĴ²ãģı":14151,"éħĴäºķ":14152,"ãĥĻãĥ³ãĥģãĥ£ãĥ¼":14153,"æ³ķåīĩ":14154,"åĩĽ":14155,"ĠPass":14156,"ished":14157,"Ġãĥĭãĥ¥ãĥ¼ãĤ¸":14158,"éĽħåŃĲ":14159,"Ġè§Ĵå·Ŀæĸĩåº«":14160,"ä½ıå±ħå¯Ĩåº¦":14161,"390":14162,"ãĥ³ãĥĦãĤ¡":14163,"ĠIND":14164,"ãģĽãĤĪ":14165,"å©Ĩ":14166,"Ġè¾°":14167,"ĠWE":14168,"Ġè©¦åĲĪçµĲæŀľ":14169,"æµ´åł´":14170,"Kiss":14171,"294":14172,"æ¬§":14173,"Ġãĥ¡ãĤ«":14174,"ĠBOY":14175,"Ġæ¶Ļ":14176,"åĮ»çĻĤãĤ»ãĥ³ãĤ¿ãĥ¼":14177,"Ġé£Ľè¡Į":14178,"Ġé¤¨":14179,"Gr":14180,"ãĥīãĥŁãĥ³ãĥĪãĥ³":14181,"Med":14182,"ÑĮ":14183,"ĠCons":14184,"215":14185,"æ¯Ķè¼ĥ":14186,"ĠåłĢåĨħ":14187,"ĠãĥŁãĥ¥ãĥ¼ãĤ¸ãĥĥãĤ¯ãĥĵãĥĩãĤª":14188,"ML":14189,"ç¥ŀãģ®":14190,"å±¥æŃ´":14191,"364":14192,"Ġãģ¨ãģĦãģĨ":14193,"çįħåŃĲ":14194,"å¤¢ãģ®":14195,"è²¡åĽ£":14196,"355":14197,"æĭħ":14198,"ĠMicrosoft":14199,"ãĤ¹ãĥĪãĥ¼ãĥ³":14200,"ãĤĴãģ¤":14201,"ãĥªãĥĪãĥ«":14202,"Ġæŀł":14203,"ãĥ©ãĥ³ãĤ¹":14204,"ĠGun":14205,"adt":14206,"æĿ¾æµ¦":14207,"ĠArm":14208,"æ²¢æĿĳ":14209,"ĠçĻ½äºº":14210,"èıĬæ±ł":14211,"aru":14212,"Ġæµ·èĢģ":14213,"ãģ®ãģ¯":14214,"Ġest":14215,"ãģĹãģĵ":14216,"Blu":14217,"ĠModel":14218,"Ġå¯©æŁ»":14219,"val":14220,"ãģ®ä¸ĭ":14221,"Ġå±±å·Ŀ":14222,"åĬłçĽŁ":14223,"ãĥ¤ãĥŀãĥĪ":14224,"è²¬ä»»":14225,"ãĤ¯ãĥ¯":14226,"ĠDI":14227,"ãģĮãģ¨ãģĨ":14228,"itary":14229,"Ġãĥ©ãĤ°":14230,"Ġãģ¯ãģĺ":14231,"Ġ9784":14232,"ĠCentral":14233,"ĠæĹ¥æľ¬å¤§åŃ¦":14234,"ĠServer":14235,"Ġä½³":14236,"ĠãĤ¹ãĥĹãĥª":14237,"çĤī":14238,"é¡§åķı":14239,"Ġé«ĺå²¡":14240,"apt":14241,"Ġèªł":14242,"JRæĿ±æĹ¥æľ¬":14243,"ĠSocial":14244,"ĠãĤ·ãĥľãĥ¬ãĥ¼":14245,"ĠQueen":14246,"ãĥªãĥĲ":14247,"stein":14248,"ãĥŀãĤ¸ãĥĥãĤ¯":14249,"Ġ5000":14250,"ãģ¿ãĤĵãģª":14251,"ãĥĳãĥ¼ãĥ«":14252,"ãĤĪãģĦ":14253,"Ġä¸Ĭãģ®":14254,"NHKç·ıåĲĪ":14255,"ĠAk":14256,"ĠDer":14257,"è¡¨ãģĻ":14258,"Ġ256":14259,"æ¤¿":14260,"ĠçĻ½ãģĦ":14261,"ĠçĽ®æ¬¡":14262,"ãģ¿ãģĵ":14263,"§åĽ°ç·ļ":14264,"å³¶æł¹çľĮ":14265,"Ġå¤©ç¥ŀ":14266,"ãĥħ":14267,"ãĤ¢ãĥĭãĤ¢":14268,"ĠBud":14269,"äºĮäºº":14270,"287":14271,"Ġå¥¥çĶ°":14272,"çµ±ä¸Ģ":14273,"ÑģÐº":14274,"Ġå¤§çĶ°":14275,"oir":14276,"ãģ®å°ı":14277,"ãĤµãĤ®":14278,"Ġè¿ĳæ±Ł":14279,"ãĤ«ãĤ¹":14280,"ĠIll":14281,"ãģ¤ãģĺ":14282,"403":14283,"åĺĺ":14284,"book":14285,"ĠãĤĬãĤĩãģĨ":14286,"(ãĢĮ":14287,"Ġãĥ´ãĤ§ãĥ«":14288,"BUM":14289,"NZ":14290,"ĠPost":14291,"ober":14292,"ĠãĥĴãĥ¥ãĥ¼":14293,"å®ļæķ°":14294,"385":14295,"å¾©å¸°":14296,"ĠWAVE":14297,"Ġ225":14298,"ader":14299,"åħ«æľ¨":14300,"oke":14301,"Ġãĥ¯ãĤ¤ãĥ«ãĥī":14302,"æ¤ľäºĭ":14303,"Ð¼":14304,"å¡Ĺ":14305,"1919":14306,"ĠãĤ»ãĤ°ãĥ³ãĥĢ":14307,"oli":14308,"ĠSEC":14309,"ĠSOUL":14310,"æ£ļ":14311,"ient":14312,"ãĥ«ãĤ°":14313,"ĠLQ":14314,"ĠåĩºéĽ²":14315,"Ġpage":14316,"äºĪåĤĻ":14317,"ĠPhys":14318,"WAVE":14319,"ĠRevolution":14320,"ĠéĦŃ":14321,"455":14322,"åı«":14323,"ãģ²ãĤįãģ¿":14324,"Ġå¯ºçĶ°":14325,"æ«":14326,"Ġ191":14327,"chi":14328,"ãģłãģ¾":14329,"Ġ280":14330,"Å«":14331,"ĠData":14332,"ãĥłãĥ¼ãĥ³":14333,"ĠåħĦ":14334,"ãĥªãĤ¹ãĥĪæķĻ":14335,"ban":14336,"åīįæľŁ":14337,"Ġå·Ŀè¶Ĭ":14338,"ĠâĢķ":14339,"Ġéĩįéĩı":14340,"Ġ193":14341,"ĠJim":14342,"Ġbook":14343,"ĠQUATTRO":14344,"åŃ¦å°ĤæĶ»":14345,"271":14346,"å®īçĶ°":14347,"§åĽ°ç·ļä»¥ä¸ĭ":14348,"ãĥıãĥĬ":14349,"èŃ¦è¦ĸåºģ":14350,"ĠãĤ±ãĥ³":14351,"Ġ******":14352,"ĠçĶ²æĸĲ":14353,"éĢĨè¥²":14354,"ãĤ¨ãĥ³ãĤ¸ãĤ§ãĥ«":14355,"Ġ203":14356,"åĽ½éīĦ":14357,"Ġ188":14358,"INO":14359,"Ġéķ·è°·":14360,"Ġè²ŀ":14361,"ĠBOYS":14362,"ĠERP":14363,"Ġ1882":14364,"æ¤ľå®ļ":14365,"ĠãĤĦãģ¾":14366,"ĠOnly":14367,"ãĥ«ãĤ¦ãĤ§ãĥ¼":14368,"336":14369,"Ġæµħèįī":14370,"ĠãĤ¼ãĥŃ":14371,"ãĤ¢ãĥĢãĥł":14372,"ãĥ¡ãĤ¤ãĥĪ":14373,"çģĺ":14374,"åĽŀãĤĬ":14375,"ãĤıãģĮ":14376,"ç·´ç¿Ĵ":14377,"ãĤĴçĻºè¡¨":14378,"æĻĤä»£åĬĩ":14379,"UTAYA":14380,"ĠãģŁãģĳ":14381,"ĠJac":14382,"ĠChorus":14383,"Japanese":14384,"ä¸Ńå°Ĩ":14385,"277":14386,"ĠãĤ¨ãĥŀ":14387,"ãĥ³ãĥĢãĥ«":14388,"Ġéĭ¼":14389,"ãģ®é¢¨":14390,"Ġ204":14391,"åģ¥åı¸":14392,"¿æĺĵ":14393,"ãĥ¡ãĤ¤ãĥ³":14394,"æİĺ":14395,"ãĤıãģĭ":14396,"ãĤģãĤĵ":14397,"æ´ĭä»ĭ":14398,"uda":14399,"Ġäº¬éĥ½å¸Ĥ":14400,"Ġéı¡":14401,"ĠMid":14402,"295":14403,"ãĥķãĤ¡ãĤ¤ãĤ¢":14404,"ĠãĥķãĤ§ãĥª":14405,"Ġä½ıåıĭ":14406,"Mic":14407,"ãģ¨å®¶":14408,"head":14409,"ĠåłĢæ±Ł":14410,"ãģ£ãģ±ãģĦ":14411,"Ġå¶ĭ":14412,"ĠRay":14413,"ãĥ¼ãĥ¬ãĥ³ãĤ¹":14414,"åīµéĢł":14415,"Ġçĭ¬åĶ±":14416,"ãĥīãĤ³ãĥ¢":14417,"ãĤ³ãĥĲ":14418,"ĠFort":14419,"vers":14420,"ĠOk":14421,"Ġãģ¤ãĤĵãģı":14422,"Ġãĥīãĥ©ãģĪãĤĤãĤĵ":14423,"ĠAtt":14424,"Ġè¨ĪçĶ»":14425,"åĮ¡":14426,"æĪ¦æķĹéĢĢ":14427,"äººãģĤãģŁãĤĬåıİåħ¥":14428,"çīĿ":14429,"ĠãĥįãĤ¤ãĥĨãĤ£ãĥĸ":14430,"åĬª":14431,"ĠãĤ¹ãĥŃ":14432,"ession":14433,"ãĤµãĤ¹":14434,"ĠWinter":14435,"Ġç«£å·¥":14436,"ãĥ¦ãĤ¦":14437,"åĦŁ":14438,"ĠFact":14439,"459":14440,"315":14441,"ĠãĤĪãĤĬ":14442,"ä¸Ĭæĺł":14443,"apter":14444,"Little":14445,"ãģĦãģį":14446,"ãģ«å°±ä»»":14447,"Ġåħ¬å¼ıãĥĹãĥŃãĥķãĤ£ãĥ¼ãĥ«":14448,"kgä»¥ä¸ĭç´ļ":14449,"ĠRX":14450,"å·Ŀä¸Ĭ":14451,"ĠãĥĲãĤ¤ãĤª":14452,"éĽĦäºĮ":14453,"å¦ĤæĿ¥":14454,"ĠèĲ©åİŁ":14455,"ĠHenry":14456,"ĠåĲĮæĻĤãĥįãĥĥãĥĪ":14457,"ç¾İç´Ģ":14458,"Ġå¨ĺ":14459,"è¨Ģå®Ĺ":14460,"pet":14461,"èĢħãģŁãģ¡":14462,"ãĥ¯ãĥ³ãĥĢ":14463,"åħĥç¤¾":14464,"æ¯Ķå¯¿":14465,"Ġè°·å·Ŀ":14466,"ĠSony":14467,"ãĤ´ãĥªãĥ¼":14468,"ĠéĢļåŃ¦":14469,"Ġåħ«ä»£":14470,"ãĥĳãĥ³ä¸īä¸ĸ":14471,"ãĥªãĥ¥ãĤ¦":14472,"Sweet":14473,"å·Ŀç·ļ":14474,"è¡ĵå¸«":14475,"è¦ıæ¨¡":14476,"Ġæĸ°èģŀ":14477,"ãģµãģŁãĤĬ":14478,"ĠéŁĵ":14479,"ãĤĴæĭħå½ĵ":14480,"850":14481,"Vocal":14482,"ĠTan":14483,"ãĥĲãĤ¿":14484,"ãģ®ãģªãģĦ":14485,"334":14486,"åįģä¸ĥ":14487,"Dav":14488,"JAPAN":14489,"ä¸įå®ļæľŁ":14490,"Ġgl":14491,"æĢªäºº":14492,"ĠçĢ":14493,"æ²»çĻĤ":14494,"è£ħçīĪ":14495,"ĠFriends":14496,"ĠCRA":14497,"æ¸ļ":14498,"Ġä¸»è¦ģäººçī©":14499,"åĬĽå£«":14500,"çī§åł´":14501,"ãģĦãģĳ":14502,"Ġé§ħåĲį":14503,"ĠçµĲå©ļ":14504,"ips":14505,"ĠProgramming":14506,"ãĢĤ)":14507,"ãģĹãĤħ":14508,"åħ¬ä¼ļ":14509,"æİ§":14510,"Ġä¸»æ¼ĶçĶ·åĦªè³ŀ":14511,"312":14512,"321":14513,"ãģªãģ¹":14514,"487":14515,"Ġæ°´ä¸Ĭ":14516,"é£¯çĶ°":14517,"ãĥıãĥŃ":14518,"åīįç·ļ":14519,"ãĥĵãĤª":14520,"Ġ1872":14521,"407":14522,"ĠæľĢå¤ļ":14523,"èī¦éķ·":14524,"ãģŁãģĳãģĹ":14525,"How":14526,"UF":14527,"ãĥ©ãĤ¤ãĤ¹":14528,"299":14529,"ãĥ¡ãĥ«ãĤ»ãĥĩãĤ¹":14530,"Ġæĺĩ":14531,"dom":14532,"ĠãĥĲãĤ¹ãĤ±ãĥĥãĥĪãĥľãĥ¼ãĥ«":14533,"æĿĳç«ĭ":14534,"EAST":14535,"Ġè¬Ľè«ĩç¤¾æĸĩåº«":14536,"ĠãĥĪãĥ©ãĥ³ãĤ¹":14537,"duct":14538,"Ġèī²å½©è¨Ńè¨Ī":14539,"Ġborder":14540,"Ġç³»çµ±":14541,"Ġç§ĺå¯Ĩ":14542,"Ġ211":14543,"ãģ«åıĤåĬł":14544,"ĠèĦĩ":14545,"ĠSystems":14546,"ãģĦãĤĵ":14547,"ĠView":14548,"Ġå°ıæ²¢":14549,"urity":14550,"åįĬå³¶":14551,"å¾Ģå¾©":14552,"ĠãĥŁãĤ¹":14553,"Ġå¼ĵ":14554,"éŃĶçİĭ":14555,"ĠæĽ´":14556,"ĠèįĴäºķ":14557,"åįĺçĻº":14558,"å¹»æĥ³":14559,"318":14560,"ĠçľŁçĶ°":14561,"Ġåı¤è³Ģ":14562,"ãĤ¸ãĥ³ãĤ°":14563,"åı°åĮĹ":14564,"ãĥ¼ãĥ¬ãĤ¹":14565,"Ġæ´¾":14566,"come":14567,"çµµæľ¬":14568,"ãĤĮãĤĵåĿĬå°Ĩè»į":14569,"PK":14570,"ãĥ©ãĤ¤ãĤ¯":14571,"åĭķæ©Ł":14572,"ĠSBS":14573,"ĠTOM":14574,"å»»":14575,"oda":14576,"ãĥĳãĥ³ãĥģ":14577,"ãģ®ä¾ĭ":14578,"âĻ¡":14579,"ĠåħĲç«¥":14580,"ãģĤãģįãĤī":14581,"æĶ¯æı´åŃ¦æł¡":14582,"Ġè¶Ļ":14583,"ĠæģĭæĦĽ":14584,"ĠTOC":14585,"ĠHonda":14586,"ĠãģĤãģķ":14587,"ĠBul":14588,"æĻĤåı°":14589,"ãĥĽãĤ¤":14590,"366":14591,"Ġæľīé¦¬":14592,"äººæ°ĳåħ±åĴĮåĽ½":14593,"ÃľR":14594,"ãģ¨ãĤģ":14595,"Ġå¯Ĩ":14596,"ç¨ĭå¼ı":14597,"ĠåĿĤçĶ°":14598,"ĠEduc":14599,"ĠãĥĹãĥªãĥ¡ãĥ¼ãĥ©":14600,"NR":14601,"sk":14602,"Ġå®®ä¸ĭ":14603,"ãĤ¹ãĥĨãĤ£ãĥ³":14604,"ĠçµĲåŁİ":14605,"èĵĭ":14606,"æĦŁè¬Ŀ":14607,"ãģ¯ãĤĭãģĭ":14608,"ãĤ·ãĥ§ãĥ¼ãĥĪ":14609,"åĲ¦":14610,"Ġden":14611,"ĠæŃ¯":14612,"ãģ®æģĭäºº":14613,"fore":14614,"æĪ¦ãģĦ":14615,"è¶Ĭåīį":14616,"ĠãĥĬãĥ³ãĥĲ":14617,"åĨ¬èĪİ":14618,"åĳ¨å¹´è¨ĺå¿µå¼ıåħ¸":14619,"Ġæ¨Ļé«ĺ":14620,"eh":14621,"ãĥ©ãĥĪ":14622,"ĠåĽ½éīĦ":14623,"ä¹Ŀéĥİ":14624,"ãĤ¸ãĥ¥ãĤ¢ãĥ«":14625,"åĸľå¤ļ":14626,"åĪĥ":14627,"éŁ³ãĥŁãĤ¯":14628,"Ġæ±łè¢ĭ":14629,"ĠPROJECT":14630,"WD":14631,"æĿµ":14632,"ãĥ¼ãĥĸãĤ¹":14633,
[...]
