#version: 0.2 - Trained by `huggingface/tokenizers`
ã ĥ
ã Ĥ
ã ģ
= =
Ġ ==
' '
ãĥ ¼
å ¹
Ġ å
æ ľ
Ġ 1
ã Ģ
Ġ *
å¹ ´
ãĥ ³
2 0
Ġ æ
Ġ ãĥ
Ĺ ¥
Ġ ãĤ
ä ¸
æľ Ī
æ Ĺ¥
ãĥ »
Ġ== =
'' '
ãģ ®
Ġ ç
ãĥ «
ãĤ ¹
Ġ 20
ä º
ç Ķ
ãĥ¼ ãĥ
Ġ (
Ġ é
ãĤ ¤
Ġ1 9
ãĥ ª
Ġ* *
Ġ è
å Ń
ãĥ ©
ãĥ Ī
å ¤
ãĤ ¯
ãĥ ĥ
ä ½
å ı
é ĥ
å ħ
ãĤ ¢
Ġ 2
Ġ '''
1 9
ãĢ ģ
å ®
ãĥ¼ ãĤ
ãĥ ¬
e r
ãĥ³ ãĥ
Ġ ãģ
Ġ20 1
å Ľ
Ġ S
é Ģ
ãĥ³ ãĤ
æ Ŀ
ä »
Ġ20 0
å ·
å ±
Ġ 3
a n
i n
å ¸
ãĢ Ĥ
o n
ãĤ £
å Ĳ
åŃ ¦
æ Ī
Ġ :
æ ĸ
é ģ
æľ ¬
0 0
ãĥ Ń
ãĤ ·
é ĩ
çĶ °
¬ ¬
æ Ľ
å Ī
Ġå ¤
Ġ ä¸
Ġ C
å¤ §
ä ¼
Ġ M
Ġ 4
Ġ T
äº º
ãĤ ¿
ãĥ ķ
å º
æ Ń
Ġ ãĢ
æ ĺ
é ĸ
éĥ ¨
a r
ç Ľ
ãĥ Ĩ
åŃ Ĳ
å ľ
ç ·
è ¡
Ġ ''
e n
Ġ A
ç ľ
o r
ãĥ ī
Ġ B
ãģ Ħ
ãĥ ŀ
1 0
ãĤ «
ãĥ £
å¸ Ĥ
æ ī
ãĤ ĭ
æ ³
ãĤ ¸
ä½ ľ
å °
ãģ ¨
æ ł
Ġ 5
Ġ P
å Į
å ĭ
h e
Ġ== ==
a t
Ġ19 9
å į
ä¸ Ģ
Ġ L
Ġ #
e s
ãĢ ı
ãĢ į
ãĥ ĵ
Ġç ¬¬
ç ī
å ł
a l
å± ±
ãĥ ¥
ãĤ ¦
æ ķ
ãĤ ³
ãĥ Ĳ
Ġ D
ãģ Ĺ
Ġ F
ç «
1 2
è ¦
ãĥ ĭ
ãĤ ª
Ġ R
ãĥ ł
ãģ ª
ä ¹
ç §
é Ľ
ãģ «
å· Ŀ
ĩ º
è ¨
Ġ 6
1 1
ãĥ ĸ
ãĤ Ĭ
ãģ Ł
æ µ
è ©
è ª
Ġ I
ãĥ Ĭ
æ ²
ãĥ ĩ
çľ Į
ĠãĤ ¢
ä ¿
ä¼ ļ
Ġæ Ŀ
ãĤ §
Ġ G
ç ¾
è Ģ
å ½
« ĺ
ãĥ Ĺ
i t
i c
æ °
ç µ
å ¼
ãģ ĭ
éģ ĵ
å ¥
éĩ İ
ä¸ Ń
ãĥ¼ ãĥ«
æ Ķ
20 0
å¹ ³
Ġ N
åĽ ŀ
i s
ç ¤
ãĤ µ
æ ¥
Ġ ;
ãĤ Ń
ãĤ ¨
ãĥ ¡
çĽ ®
Ġ t
Ġ 7
Ġ H
é Ļ
é §
Ġ1 0
æ Ļ
ãĤ ĵ
â Ģ
å ĵ
ãĥĥ ãĤ¯
ä½ į
ãģ ¯
æĪ Ĳ
å ³
Ġå ħ
å ¯
Ĵ Į
ķ ·
l e
æł ¡
Ł ³
ãĥ ģ
å Ĭ
ãĥ §
ãĥ Ł
æĽ ²
åĽ ½
ç ķ
æĿ ĳ
å £
Ġ W
ç¤ ¾
ç ´
é§ ħ
è ³
Ġå¤ §
Ġ 9
é ł
ç ¥
å Ĩ
è »
æĸ ĩ
1 8
Ġ 8
å ĴĮ
å³ ¶
åł ´
å ¾
ãĥ³ ãĤ¯
ç Ļ
Ġ19 8
İ Ł
Ġ E
ãĤ ī
ãĢ Į
çĶ º
Ġ J
1 5
ãģ į
ãĤ¹ ãĥĪ
ãĢ İ
ãĤ ¡
o u
o f
ĠãĢ İ
ä» £
æľ ¨
å ĩº
ç· ļ
ãģ Ĩ
r e
o l
¼ Ķ
å ī
Ġ1 2
åĲ į
ãĤ Ĵ
Ħ ļ
äº ¬
éĢ £
1 6
ãĥ³ãĤ °
ãģ ¾
1 3
Ġ O
å ²
s t
ãģ ķ
ãģ Į
e t
Ġ1 8
ç« ĭ
1 4
Ġãĥ ķ
Ġ 0
æ ´
Ĺ ¤
æ ©
Ġ of
å Ł
ãĥĥ ãĥĪ
åľ °
é «ĺ
æĪ ¦
3 0
æī ĭ
é ķ·
1 7
Ġ: *
ãģ ¿
é ļ
ãĤ °
å İŁ
i on
Ġé ĸ
æĿ ±
ãģ ¦
Ġå ı
çĶ Ł
åı ·
Ġ .
e l
æ ¸
ãģ §
ç ¬¬
äº ķ
ä¸ Ĭ
ĠãĤ ¹
ãĥ¬ ãĥĵ
o m
ãĥª ãĥ³ãĤ¯
åŃ¦ æł¡
æ³ ¨
¥ ¿
ç Ĳ
ãĥ ĳ
ĸ éĥ¨
ãĤ Į
Ġå °
ãĥ¼ãĤ º
éĸ ĵ
ĸéĥ¨ ãĥªãĥ³ãĤ¯
ãĥ Ģ
Ġæ Ĺ¥
in g
an d
ç¾ İ
ãĥ ı
ãĥ¼ãĥ ī
Ġè Ħļ
Ġå ®
å ¿
è¡ Į
Ġ K
2 5
ãģ ¡
ĠãĢ Į
é Ŀ
i l
æ ¼Ķ
ãģ Ļ
æī Ģ
Ġ V
Ġ19 7
Ġæ ĸ
éĥ İ
a m
ç ©
Ġ1 1
å° ı
ãĤ »
è© ±
c h
æĻ Ĥ
ãĥ¼ãĥ Ī
ĠæĿ ±
åĪ Ĩ
ãĥ ¢
ãĥ İ
çĶ »
Ġå Ĳ
ãģ ı
a s
Ġå¤ ĸéĥ¨ãĥªãĥ³ãĤ¯
ãĥ¼ ãĤ¹
æ¥ Ń
19 9
è Ĺ¤
éĢ ģ
åĲ Ī
ãĥ³ãĥ ī
åĭ Ŀ
ĠèĦļ æ³¨
ç İ
ãģ Ĥ
åı £
è Ī
ãĤ ¬
Ġç Ķ
äº ĭ
Ħ ª
æ ¨
Ġ: :
Ġéĸ ¢
ãĥ¼ãĥ ł
èĢ ħ
çī ©
ãĤ º
è £
¾ éĢģ
ãĥ ¯
ä¸ ī
ãģ Ĭ
ãĤ¤ ãĥĪ
ãĥ³ ãĥĪ
Ġä¸ Ń
äº Į
e d
Ġt he
2 4
ãĤ ½
ãĥ Ļ
ãĥ į
å¥ ³
Ġ d
Ġãĥ ŀ
ãģ ĵ
åĮ º
è ī
æ ±
æĸ °
å ´
æĺ İ
é ¤
æ Ĺ
Ġ f
å¤§ åŃ¦
u s
2 2
åħ ¬
æ ŀ
æµ ·
Ġ1 5
å¼ ı
ãĥª ãĥ¼
éģ ¸
åĨ ħ
Ġå° ı
ãĥ© ãĤ¤
è Ń
å¹³ æĪĲ
è³ ŀ
r a
Ġ U
2 3
å² ¡
Ġ19 6
r o
Ġ1 4
ĠãĤ ¸
Ġ1 3
ãĥĨ ãĤ£
å® ¶
Ġå į
E R
ĠãĤ ·
ãĥ ´
ç· ¨
2 6
I N
° ·
ãģ ¤
å´ İ
ãĤ Ī
ãĥ Ħ
åī į
æķ °
2 8
è» Ĭ
Ġ1 6
2 7
ãĤ Ĥ
Ġ -
Ġæ Ń
âĢ ĵ
¦ ı
Ġ** *
æĽ ¸
Ġ1 7
2 1
éł ħ
é ¦
é¤ ¨
é ĺ
è ·
ãĤ¹ ãĤ¿
ç¥ ŀ
èĢ ĥ
ĠæĹ¥ æľ¬
2 9
ä½ Ĳ
Ġéĸ¢ éĢ£
æĹ¥ æľ¬
ãĤ ±
Ġå ±
æ² »
t h
Ġ æľ
Ġæ ĺ
çķ ª
ç Ŀ
ãĥ ľ
ĠãĤ ª
Ġå ĩº
éłħ çĽ®
çī Ī
è Ĭ
A R
ç Ń
i g
èª ŀ
å® ļ
æ Ģ
éĢ ļ
ãĤ ©
ãģ £
åı ²
ĠãĤ ¨
ãĥĨ ãĥ¬ãĥĵ
å¤ ª
å Ħª
åĵ ģ
è °·
æŃ £
en t
Ġå Ľ
åľ Ĵ
ãĥ Ŀ
ä¸ ĭ
çĻ º
Ġ m
çĲ Ĩ
è ¥¿
ç§ ĳ
è ²
ãĥ¼ãĤ ¸
ä¸ ĸ
æĽ ľ
æ° ´
19 8
è ĳ
ãĥ§ ãĥ³
Ġ ä½ľ
å ĳ
a c
Ġå± ±
éĥ ½
ãĥ³ãĤ ¿
Ġãĥ Ĩ
åĭ ķ
ãĥ ļ
æ ®
æ© ĭ
è¦ ģ
i v
Ġ b
é Į
i d
Ġé ĩ
u n
Ġæĸ °
ĠãĤ µ
Ġéĸ¢éĢ£ éłħçĽ®
Ġ s
O N
è ĩ
ãĥ Ķ
æĺ Ń
ç Ł
5 0
ãĥĩ ãĤ£
a d
ãĢ ľ
Ġå Ī
ä ¾
Ġ p
ç ¨
éĸ ĭ
åĮ Ĺ
ãĤ ¶
æŃ ´
S B
ĠãĤ ¤
ī Ħ
ãĥ Ľ
a y
Ġ in
Ġé «ĺ
== =
Ġå Į
ĠãĤ «
æĶ ¾éĢģ
åº ¦
éĸ ¢
u m
åħ ¸
u r
éĮ ²
ãģ Ī
Ġç Ļ
çĶ ¨
§ ĭ
é ¡
åĵ ¡
A N
Ġ and
Ġ* ãĢİ
ãĥª ãĤ¢
æķ Ļ
Ġé ģ
Ġãĥ ©
Ħ Ľ
a g
ç Ĥ
æĸ ¹
Ĭ Ģ
Ġ Y
SB N
Ġå ľ
è ĭ
è Ĥ
è¨ ĺ
å± ĭ
å Ģ
¦ Ĥ
ãĤ¤ ãĥ«
æ ģ
éĻ ¢
ĠãĤ ¯
ĠS t
00 0
ãģ ĳ
ä¿ ¡
æľ Ł
i m
Ġ c
å ģ
ãĥ¼ ãĤ¯
ä¸ »
i r
æĿ ¾
4 0
æ Į
ãĤ ®
æ¥ ½
åĮ ĸ
è ¾
æ³ ķ
ä½ ĵ
åº Ĺ
å· ŀ
ãĤ Ħ
3 1
£ ®
è¨ Ń
å£ ²
è· ¯
éĥ ¡
è¦ §
ä¹ ħ
Ġãĥ Ĳ
åħ ĥ
æ© Ł
o t
ãĤ ´
æ İ
ĠãĤ Ń
Ġãĥ ĩ
é īĦ
er s
æ ¬
Ĥ Ļ
ç ł
ãĤ ı
19 7
ãĥ ¤
ãĥ³ ãĤ¹
å£ «
ĠãĤ ³
æ ĥ
Ġæ °
ãĥĥ ãĥĹ
å ĸ
å± Ģ
è ģ
å· ¥
åŁ İ
Ŀ ãģ®
Ġ v
æĺŃ åĴĮ
at ion
S T
æ² ¢
ĠI SBN
Ġå ¾
Ġå ²
Ġãĥ Ń
æŃ Į
Ġ ä»
çµ Ħ
e c
o w
çľ Ł
åı °
çĶ ·
Ġä¸ ī
Ġ19 5
çİ ĭ
ãģ ĺ
Ġãĥ ª
T he
Ġ201 0
éĽ Ĩ
å® ®
Ġ201 5
ç© º
åħ ī
Ġ201 4
Ġ "
ĠåĮ Ĺ
e m
Ġ201 2
åį Ĺ
¦Ĥ è¦ģ
çĿ £
ĠãĤ ¿
ä¸Ģ è¦§
¢ ¨
Ġ201 3
ä¿ Ŀ
å ¡
Ġç µ
çĤ ¹
ç ³
Ġ w
ãĥ¼ãĤ ¿
è «
æĺ ł
çŃ ī
ãĥ¼ãĤ ·
ãĤ ģ
ç Į
4 8
Ġãĥ ı
ãĤ¿ ãĥ¼
ĠåĽ ½
ç ¶
Ġ201 1
éĩ ĳ
£ çĿ£
Ġ201 6
ĠT he
è¡ ¨
é Ł³
o s
Ġãĥ Ĺ
Ġãĥ Ī
p x
æĪ ¸
Ġãĥ ī
åħ ¥
äº ¤
åĪ ¥
éģ¸ æīĭ
ãĥķ ãĤ£
ãĥĥ ãĥī
åĽ £
èĤ ²
Ġ200 9
å¤ «
ãģ ł
H E
I C
Ġç ī
Ġãĥ ģ
æ° ĳ
. .
ãĥķ ãĤ¡
Ġæ ²
ä¹ ĭ
Ġ200 0
4 5
Ġç ·
Ġæ Ķ
å »
ãĤ į
Ġ201 7
è© ŀ
o d
Ġ k
u t
Ġãĥ ¬
3 5
o v
è¡ ĵ
Ġæ µ
éĽ Ħ
Ġãĥķ ãĤ¡
æ º
Ġ200 8
Ġåħ ¨
ĠæĿ± äº¬
éĸ Ģ
éĿ ¢
a p
ı ¾
å Ŀ
ç¾ ©
ãĥ³ãĥ Ģ
ãģĻ ãĤĭ
ç³ »
Ġç Ľ
ç§ Ĵ
Ġè ¥¿
è ı
éĺ ª
Ġ201 8
åº «
çŁ ¥
Ġ200 7
Ġé Ģ
å¯ º
t er
å¤ ©
æ¬ ¡
ç ¯
i e
Ġãĥ Ł
Ġåı Ĥ
3 3
èī ¯
7 8
u l
èĩ ª
n d
Ġ# :
O R
è ¼
ä¼ Ĭ
Ġä¸ »
çĶ ±
Ġ2 5
èĭ ±
ãĤ¤ ãĥ³
éĽ »
ä¸ ģ
a k
æ ¯
A L
ç ½
æ´ ¥
å½ ¢
ãĥ¼ãĥ ŀ
å ŀ
åĬ Ľ
ĠæĿ ¾
æĶ ¿
ç Ł³
ãĤ· ãĥ£
ãĤ ²
Ġé Ŀ
é¦ ¬
6 0
Ġæ ¦Ĥè¦ģ
i a
Ġå ·
å ĥ
ãģ °
''' (
A T
Ġå ¥
Ġ200 6
æ Ł
o c
å½ ¹
ĠãĤ ¦
V E
ç ±
Ġãĥ ĳ
ĠãĥĨ ãĥ¬ãĥĵ
ãĥ¼ ãĥ³
ãĥĹ ãĥŃ
ç ¸
å ķ
ãģ ©
Ġãĥ ĸ
è¦ ĭ
ãĥ Ĵ
Ġå ¯
åħ ¨
åŁ Ł
éļ Ĭ
âĢ »
ä» ĸ
Ġ: ;
å¾ Į
Ġç ¦ı
3 6
ãĥ¼ãĥ Ĺ
Ġ200 5
Ġ20 19
ãĥ« ãĥĪ
å· »
éĩ Į
åı ¸
åĲ ī
çĮ ®
å¸Ĥ ç«ĭ
ãĥª ãĥ¼ãĤº
å¥ Ī
ç· ı
åı ¤
ä¸ģ çĽ®
Ġ2 3
çķ Į
ãĥ¼ãĥ ª
ãĥ© ãĥŀ
Ġ2 1
4 7
ãĥĥãĤ¯ ãĤ¹
åħ ļ
äº Ķ
æ ĭ
Ġ â
Ġãĥ ¡
Ġæ ¸
é £
19 6
Ġ200 1
Ġ* :
åĬ ł
ãĤ· ãĥ¥
ãĤ¢ ãĥ«
Ġ l
o p
éĩ į
Ġ2 4
c e
å± ŀ
Ġãĥ Ģ
æĸĩ çĮ®
æ £®
ãĥ³ãĤ ¸
Ġ äºº
ãĥ¼ãĥ ©
5 5
3 8
Ġç ¥
is t
æ ĦĽ
3 7
Ġé ķ·
è ±
èĳ ī
il l
æŃ ¦
Ġ ä½Ĳ
åº ĥ
0 1
ãģ ²
åł ±
- -
ĠC h
æŀ Ĺ
ç ®
ãĤ¸ ãĥ£
Ġ199 9
çĲ ĥ
è» į
ç ļ
4 9
Ġå Ĭ
ãĥª ãĤ«
Ġä¸ Ĭ
å §
I I
3 9
æ± Ł
Ġå Ĩ
è ¶
èŃ °
Ġ200 4
0 8
Ġ2 2
è ¿
ĠI n
æ ¡
4 6
Ŀãģ® ä»ĸ
åĪ ¶
åľ ¨
ig h
å¹ ¸
Ġæ ±
åĭ Ļ
ĥ ½
èĬ ±
èĢĥ æĸĩçĮ®
ãĥ¼ãĤ °
æĺ Ł
å¹´ åº¦
Ġ2 6
å® Ł
èª ¬
Ġ200 2
' s
Ġãģ Ĥ
I S
ãĥģ ãĥ£
ãĥ¼ãĥ Ĭ
Ġãĥ Ļ
çł Ķ
ãĤ Ĩ
ãĥ³ãĥ ĩ
ĠãĤ »
ãģĭ ãĤī
ãĤ¹ ãĥĨ
ãĤ¯ ãĥ©
U S
0 9
çµ Į
es s
Ġ ãģ®
ç´ Ģ
0 5
æ ½
Ġç ¾
ãĥ¬ ãĤ¤
çī ¹
ĠãĤ °
åŀ ĭ
es t
è µ
æĢ §
Ġè Ĭ
Ġ200 3
B S
ar t
æ ·
3 4
å°ı åŃ¦æł¡
0 6
Ġæ ³
o g
æ¸ ¯
Ġãģ Ĭ
İ éĮ²
r i
åį ĥ
ar d
Ġåĩº åħ¸
æ¨ ¹
i le
è¨ Ī
E N
ãģĹ ãģ¦
åħ ±
0 7
a b
ãĥª ãĤ¹
Ġé Ľ
å¤ ĸ
åĬ ĩ
ä¼ Ŀ
Ġéĩ ĳ
æµ ľ
å½ ¦
ĤĻ èĢĥ
å£ °
åį ļ
ĠåĲ į
a v
º «
åĲ Į
Ġåľ °
ä» ĭ
ãģ ¸
ç ¦ı
Ģ ¬
æŃ ³
ä¹ Ł
æĺ ¥
éĢ ł
ãĤ ĥ
Ġå º
å¸ ¯
ãĥĲ ãĤ¹
Ġå ī
Ġ2 7
ä½ľ åĵģ
ãģ ³
åį ģ
å¿ Ĺ
æ´ ĭ
Ġç «
ç Ħ
æĿ± äº¬
ĠæĶ ¾éĢģ
Ġå ¸
4 4
é Ĥ
ãģĤ ãĤĭ
çĶ £
Ġ3 0
Ġæ ł
Ġç Ł³
ĠæŃ ´
Ġç¥ ŀ
æ° Ĺ
Ġå ĤĻèĢĥ
A M
é Ń
ãĤ° ãĥ©
Ġåħ ¬
ãĥ³ãĥ Ĩ
æ ħ
é ħ
ç© ¶
ãģ Ľ
çĽ £çĿ£
O U
å¤ ®
» Ĵ
Ġæ ī
ĠåıĤ èĢĥæĸĩçĮ®
Ġ2 8
åħ «
ĠT HE
è³ Ģ
æľ Ŀ
c t
ç« ł
æ ĬĢ
å¯ ¾
ãģ ļ
å ¦
æ¨ ©
æĻĤ éĸĵ
ou r
Ġ199 8
æ Ĭ
å° ¾
i f
ĠçĶ °
ç§ Ģ
Ġå ½
ãĢ ħ
o k
åĽ Ľ
R E
3 2
å® ¤
å® ī
ĠãĢ ľ
ãĥ ¦
åį Ķ
é¡ Į
Ġæ Ī
Ġ# '''
åº ľ
é¦ Ļ
æ Ĵ
å¤ª éĥİ
ãĤ· ãĥªãĥ¼ãĤº
éīĦ éģĵ
è¾ º
al l
åĪ ©
åĩº æ¼Ķ
O L
ãĥ³ãĤ¿ ãĥ¼
'' ,
ãĥ³ãĥ Ĳ
ĠãĥķãĤ¡ ãĤ¤ãĥ«
ãĤŃ ãĥ£
ãĥ¼ãĤ «
æĥ ħ
Ġãģ Ŀãģ®ä»ĸ
ç ģ
Ġç ´
ç´ ļ
ãĥķ ãĤ©
in e
0 4
el l
åģ ¥
Ġãĥ ĭ
Ġæ° ´
Ġè ¡
Ġ +
ãĥ³ãĤ º
å¸ «
ãĤ¸ ãĤª
åĢ ī
ãĤ¤ãĥĪ ãĥ«
Ġk m
ãĥ© ãĥ¼
5 8
æ ı
åı Ĥ
ãĤ¤ ãĥī
e w
Ġ n
ãĤµ ãĤ¤ãĥĪ
è §
æ® µ
Ġd e
igh t
æ² ³
é ¢¨
0 3
Ġæ Ĺ
Ġãĥ ¢
ä¼ļ ç¤¾
ä¹ Ŀ
â Ĩ
è¡ Ľ
æĹ ı
Ġå Ń
è Į
Ġ# *
æ ¶
Ġæ ¨
Ġ æľ¬
éĻ ½
5 7
Ġãĥ Ŀ
L E
Ġ2 9
u b
ç Ģ¬
æĸĩ åº«
Ġè ©
5 9
Ġ âĢ»
æĿ ¥
åĽ ³
æ ¹
æĺł çĶ»
iv e
ç ı¾
Ġåį Ĺ
çłĶ ç©¶
A C
ä¸ ĩ
è º«
è į
ç Ĺ
åł Ĥ
ä¿ ®
åľ Ł
æĶ ¯
é«ĺ çŃī
e p
æ³ ¢
ä½ľ æĽ²
ä» ¥
Ġå® ®
ç ¿
éģ ĭ
IN E
Ġãĥ Ľ
5 6
ãģķ ãĤĮ
it h
ãĥ´ ãĤ£
ä¸ į
å¤ ľ
æĶ ¹
u e
ãĥ ¨
å Ĥ
è ¬
éļ Ľ
åĥ ı
ãĥĭ ãĥ¡
ãĥ´ ãĤ¡
ãĥĥ ãĥģ
æľ ī
å ¢
å¤ ļ
Ġä¸ Ģ
æ± º
I T
èĳ Ĺ
åĿ Ĥ
ãĥ¡ ãĥªãĤ«
å¡ ļ
Ī ´
Ġç ķ
æµ ¦
0 2
H K
Ġé ł
æ³ ī
Ġæľ Ģ
å® ĺ
Ġä½ľ æĽ²
æ Ĥ
åĽŀ æĪ¦
Ġt o
g e
ãĥĬ ãĥ«
Ġç ľ
ç Ī
åº §
ãĥĭ ãĥ¼
é º
O M
r om
A S
åĪ Ŀ
ä¸Ń åŃ¦æł¡
Ġãĥ Ĭ
Ġé ĺ
ãģ ¶
â ĺ
it y
çĽ ´
Ġç· ¨
e v
Ġè ĩ
ãģª ãģĦ
ĠãĤ ²
è Ķ
åĪ Ĺ
an t
æ´ »
ĠæŃ´ åı²
ĠãĤ¢ ãĥ«
æ¸ ħ
äºº çī©
éĢ Ģ
Ġ199 7
Ġè Ĺ¤
å½ ĵ
ĠãĤŃ ãĥ£
ãģĹ ãģŁ
æķ Ĺ
æĻĤ ä»£
4 3
ãĥĲ ãĥł
ãĥŀ ãĥ³
å¼ ĺ
e x
ãĤ ĩ
ç Ĭ
ĠåĲ ī
Ġæ ķ
æł ¼
äº¬ éĥ½
äº Ī
4 1
æľ Ģ
è£ ½
ĠéĿ Ĵ
åħ µ
4 2
ãĥĭ ãĤ¢
Ġãĥ ľ
å° ĳ
ãĤ¦ ãĤ§
Ġè ¨
o b
ç¨ ®
ãĥ³ãĥ Ĺ
åĸ ¶
ãĢį (
ãĥ³ãĤ° ãĥ«
ãĥķ ãĤ§
µ ãĥ¼
Ġ Z
Ġæ ĦĽ
Ġ ä¼Ĭ
Ġå¤ ©
ç¸ ¾
Ġ å¹³
Ġf or
³ ¥
æģ µ
Ġ æľ¨
åŃ Ĺ
çĻº å£²
u d
Ġãģ ¨
» åł´
ãĥ¼ãĥ ģ
C D
h i
Ġè Ī
ãĥ ĺ
ãĤ ¥
ĠR et
Ġ20 20
Ġå Ħª
Ġå· Ŀ
a st
Ġ199 5
Ġ* #
ãĤ¹ãĤ¿ ãĥ¼
ä½ ¿
ç·¨ æĽ²
ç½ ®
ãĤ¨ ãĥ«
Ġå ĭ
äº¤ éĢļ
ãĤ¤ ãĤ¹
Ġ199 6
ãĥ¼ãĥ Ħ
æŃ ¢
or d
ĠçĻ º
èĶ µ
i an
ãĥī ãĥ©ãĥŀ
ãĤ Ģ
è ĸ
çĿ Ģ
æĮ ĩ
'' )
æł ¹
Ġä¸ ĸ
O W
¹ ¿
Ã Ĺ
ĠA l
e b
çµ Ĥ
ä½ ı
Ġè £
æŀ ľ
ãĤ½ ãĥ³
¥ æŃ´
ãĥĥ ãĤ«
é«ĺçŃī åŃ¦æł¡
Ġå² ¡
e at
ãĥĸ ãĥ«
çĻ ½
ĠãĤ¹ ãĤ¿
ãĤ· ãĥ§ãĥ³
å¤§ ä¼ļ
è ĥ½
Ġ1 00
Ġæĺ ł
åķ Ĩ
Ġãģ ª
9 9
ä¾ ¿
ĠA n
ç ĭ
Ġãĥ ĵ
5 4
r an
åı ĸ
Ġå İŁ
ãĥ³ãĥ ģ
Ġå¥ ³
çµ Ĳ
ãĥ¼ãĥ Ĩ
Ġãĥ «
éĢ ²
éĿ Ĵ
20 10
¦ åĲĪ
è£ ķ
20 13
å° Ĩ
ç± ³
Ã ©
Ġçī ¹
20 12
e y
åı ĭ
æµ· éģĵ
ãĥ³ãĤ ·
ãĥĸ ãĥ©
Ġ g
or t
R A
ĠçĶ Ł
èī ²
åĦª åĭĿ
20 15
æ® º
ãĥª ãĤª
20 11
Ġæ ¡
æ ¾
åĨ Ĩ
æľ ª
20 14
æŁ »
æĪ ¿
Ġä½ľ è©ŀ
åº ·
Ġåį ĥ
Ġæ º
ãĤ¸ ãĤ§
ãĥ¼ãĥ ĳ
Ġãĥ ´
éļ Ĩ
Ġå¤§ éĺª
ç¶ ļ
æ ļ
éĩ Ī
æµ ģ
ãģķ ãĤĵ
æ §ĭ
Ĩ Ĭ
ãĥ¼ãĥ ĩ
ãĥ¼ãĤ· ãĥ§ãĥ³
æĻ º
çİ ī
ãĥ¼ãĥ ¬
æ° ¸
ĠL INE
Ġåº ĥ
æĸ ½
åĮ »
å İ
V D
è£ ħ
å¿ ĥ
æĸ Ļ
ag e
200 8
200 9
Ġå² ©
ĠãĥĹ ãĥŃ
ãĥ¼ãĥ« ãĥī
Ġ h
Ġé Ł³
ĠF ile
ãĤ» ãĥ³ãĤ¿ãĥ¼
å ĤĻ
i k
O K
ãģĦ ãĤĭ
Ġé Ļ
ãĥ¼ãĥ ĭ
ãĥĩ ãĥ¥
r y
200 7
Ġèĩ ª
ä¿ Ĭ
E C
ĠåĪ Ŀ
Ġ3 8
Ġ3 6
20 16
ãģ Ķ
ä» »
ĠãĤ¸ ãĥ£
ãĤ¤ ãĤ¢
Ġãģ ĭ
åĬ ©
Ġ199 4
ç¥ Ń
ãĥ¬ ãĤ¹
ãĥ© ãĤ¯
I VE
å¤ ī
æĸĩ åĮĸ
ãĤ ¼
ç ¹
ãģ İ
Ġåĩº æ¼Ķ
æ ¤
é ľ
a in
å Ļ
i al
éĿ ©
Ġè ¿
Ġ on
ĠP r
èŃ ¦
ac k
Ġ* '''
Ġå ¿
æ ¢
Ġ199 3
çļ Ħ
ĠS p
ä½ľ è©ŀ
è« ĸ
Ġç¾ İ
é ĬĢ
ĠA r
ĠS T
Ĩ ä½į
åŁ º
ç ¬
éĢ Ł
å¾ ³
Ġé ¦
Ġè ĭ
200 6
Ġé §
åħ Ĳ
) ,
as s
9 8
ĠãĤ ½
çµ ±
éĻ ¸
è Ħļ
Ġãģ ¯
Ġãĥĩ ãĤ£
ãĥ¼ãĥ Ń
5 1
ĠLINE AR
ĠçĻ ½
ãģ µ
åĬĩ åł´
R O
Ġb y
æ ¼
ĠåĦª åĭĿ
7 6
at e
èĬ ¸
åĳ ¨
Ġåī į
èª ¿
ç§ °
çĽ ¸
ª å¼ı
Ġ9 78
Ġéĩ İ
ãģ¡ ãĤĥ
Ī´ æľ¨
æµ ©
Ġæ¨ ª
ãĥ¼ãĥ Ĳ
é ¨
Ġå ¼
ãĢı (
é Ł
ãĤ· ãĥ§
æĿ ¡
å §ĭ
è² ´
ãģ Ń
Ġ3 1
on g
F C
åħ¬ åľĴ
Ġå Ł
ov e
ãĥ¼ãĥ ĸ
¾ į
ä» ĺ
ç ħ
E T
Ġ3 2
æĥħ åł±
Ġ199 0
ä¸Ģ éĥİ
5 3
ãĥ© ãĤ¹
ãĥ© ãĥ³ãĥī
æ »
Ġå® ī
ãģ Ĳ
en d
æ §
æĹ ħ
Ġ199 2
ãĤ· ãĤ¢
A K
5 2
ĠãĤ ¬
ä¹ Ĺ
Ġ* ãĢĮ
IN G
Ġæĸ ĩ
) -
å° Ĥ
Ġæī Ģ
ä¸ ¸
çĹ ħ
åħ Ń
20 00
I ON
ãĥª ãĥ¼ãĤ°
Ġè ª
A D
ãĥ³ãĥĩ ãĤ£
Ġãĥ Ķ
20 17
ãĥ¼ãĥ ķ
ar y
ä»£ è¡¨
éģ Ķ
I G
å¿ µ
8 8
â Ĺ
åĳ ½
Ġçµ Į
Ġæ³ ¨
Ġãģ ¾
Ġä¸ ĭ
ãĥ¼ãĤº ãĥ³
æ± ł
Ġãĥ ¯
åĩº çīĪ
ç§ ĭ
ãĥª ãĥ³
å½ ±
ªå¼ı ä¼ļç¤¾
Ġ3 4
Ġ( ''
i o
ãĤ¯ ãĥĪ
f f
ĠC D
ĠS h
A P
Ġ- --
Ġæĺ İ
U N
å¯ Į
7 7
Ġè µ
200 5
éĻ Ĳ
ĠçĽ £çĿ£
6 6
Ġæ £®
Ġãģ ĵ
Ġ199 1
éŃ Ķ
ä¼ ģ
on d
b er
ãĤ¦ ãĤ£
å ĩ
ä¸ĸ çķĮ
è» ¢
åĻ ¨
éģ¸æīĭ æ¨©
Ġç ı¾
èī ¦
ãģ£ ãģŁ
âĺ Ĩ
åı¤ å±ĭ
ç į
å¤ ı
ãģ Ŀ
l d
ĠT h
S t
ç® ¡
æķĻ èĤ²
i es
ä¸ĸ å¸¯
Ġãĥ ¦
ãĤ¹ ãĥļ
Ġæ ©
ĠãĤ¸ ãĤ§
ç¥ŀ ç¤¾
Ġåľ Ł
æģ ĭ
ĠU n
çķª çµĦ
Ġè ĳ
1 00
or y
I D
ãĥ³ãĤ ¬
è Ĳ
an g
å¯ Ł
ãģ »
O C
è± Ĭ
i x
Ġ3 7
Ġ3 3
ãĥ¼ãĤ¿ ãĥ¼
éĽ ħ
éĺ ²
id e
ic h
Ġãģ ķ
æ Ħ
çİ ĩ
è¶ Ĭ
Ġ at
ãĤ¢ ãĥĭãĥ¡
Ġæ³¨ éĩĪ
èĪ ¹
ĠB l
ãģ£ ãģ¦
ãĤª ãĥ³
æ¸ Ī
9 0
Ġ X
Ġéĸ ĭ
ãĤ§ ãĥ«
l y
u p
é¡ ŀ
ä» ¶
i p
ĠãĤ¿ ãĤ¤ãĥĪãĥ«
ãĤ¹ ãĤ³
ĠåĨ ħ
ä¸Ń å¤®
æľĿ æĹ¥
Ġå¯ Į
ãĤ¯ ãĥŃ
Ġ4 8
ãĥ¼ãĥ ĵ
Ġä¸» ãģª
å¼ı ãĤµãĤ¤ãĥĪ
Ġåħ «
çĦ ¡
ä¸ ĥ
å² ©
Ġ4 0
ç± į
ĠãĤ¸ ãĥ§
Ġåı İéĮ²
9 6
O S
ãĤ¦ ãĤ¹
E S
200 4
20 18
åĤ ¬
èª ²
Ġ==== =
ãĥĥ ãĥķ
Ġæĺł çĶ»
ãĤ¸ ãĤ¢
ãĥ¥ ãĥ¼
Ġ Q
ç« ¶
Ġf rom
æĢ ¥
Ġæµ ·
ãĥĻ ãĥ«
æ £
Ġæ Ļ
åĽ½ éļĽ
èŃ ·
e g
ãģª ãĤĭ
ãĤĩ ãģĨ
ĠæŃ ¦
å® Ŀ
èĪ ª
k m
e ar
åĵ ²
ç¥ ¨
ãĤ¸ ãĥ§
åŃ Ŀ
å® ı
Ġé ĥ
ãĤ·ãĥ£ ãĥ«
.. .
ĠãĤ ±
Ġ198 9
n e
æĽľ æĹ¥
Ġéģ ¸
ãĥķ ãĥĪ
ãĤ« ãĥ«
é »Ĵ
µ ä¾¿
æ¾ ¤
Ġå Ģ
æĴ ĥ
Ġ3 5
æĪĲ ç¸¾
ec t
è¨ ³
æ½ Ł
å¤§ éĺª
é ³¥
it e
ĠC om
Ġç·¨ æĽ²
Ġç §
in d
ãĤ¢ãĥ« ãĥĲãĥł
ĠéĢ ļ
9 7
Ġé £
on t
a w
Ġå¸ Ĥ
Ġ5 0
ä¸ ¡
å³¶ çľĮ
200 3
å ©
Ġ å¹´
ãĥĹ ãĥª
E L
ãĥ³ãĥ ĳ
Ġå £
ãģ« ãĤĪ
Ġæ Ľ
ĠçĶ ·
s e
ĠåĬ ł
ãģŁ ãģ¡
åı İéĮ²
æº ĸ
éĩİ çĲĥ
ãĥĥ ãĥĦ
A Y
ãĥ© ãĥ³
å Ķ
o y
Ġãģ ¿
Ġ198 8
ĠãĤ ´
ãĤ¿ ãĤ¤
ãĥĲ ãĥ¼
åħ Ī
è¦ ³
ĠãĤ ®
è¿ ĳ
o h
ä» ģ
p h
6 8
Ġãģ «
ĠçĻº å£²
ĠåŃ ¦
ãĢ ĳ
Ġç Ł
è« ĩ
åº ģ
è¨ Ģ
Ĺ è³ŀ
Ġ äº¬éĥ½
¿ éĿ©
Ġå »
çĽ ¤
ç« ¹
Ġè ¦
E ST
ĠV ol
Ġ( )
a u
å¸ ¸
æĹ §
éĥ ·
æľĪ åı·
è Ħ
Ġç §ĭ
ĠN o
çģ «
å¾ Ĺ
Ġ198 7
20 19
O T
åĪ Ĭ
us ic
ãĥ¼ãĤ µãĥ¼
ĠP ro
çħ §
Ġæº ĸ
éł Ń
Ġ æľĪ
ãĥ¼ãĥĨ ãĤ£
æĺİ æ²»
Ġw ith
) ãĢģ
Ġ* ''
m er
åĲ ĳ
Ġ3 9
ãģ Ĵ
ãĥ ¶
u re
Ġ4 6
Ġè ¶
iv ers
Ġéł Ĩä½į
éĸ¢ éĢ£
Ġãĥ Ĵ
é Ĺ
è³ ĩ
Ġâ Ĺ
å» º
i z
ãĥ¥ ãĥ¼ãĤ¸
7 0
Ġä¸ į
ãĤŃ ãĥ¼
) '''
Ġè¿ ĳ
Ġãģ Ħ
ãĥ³ãĥ Ķ
ãģ ¹
T V
ãĥĪ ãĥ©
m an
å® ¿
ãĥ¬ ãĤ¯
Ġ--- -
ar k
çµ µ
èµ °
Ġ ãĢģ
u st
äº ľ
åĭķ è»Ĭ
Ġãĥķ ãĥ©
Ġå ł
å¥³ åŃĲ
u c
åŃ¦ éĥ¨
ĠY ou
ãĤ¤ ãĤ¯
éº »
é ¾į
è§ £
Ġãĥ ¤
æ į
H I
ĠãĤ ¶
Ġè ı
æ Ĩ
Ġè »
A G
æ¯ į
éĩ ı
åŃ¦ åľĴ
Ġãĥ İ
ãģ¡ãĤĥ ãĤĵ
ãĤ¢ ãĥ³
B C
ç§ »
n t
è¡ Ĺ
8 0
ä½ ³
ç·ı åĲĪ
U M
is h
Ġ198 6
200 1
ãĥī ãĥ«
Ġçľ Ł
Ġ äºĮ
èı ¯
å· ®
200 2
ãĥĽ ãĥ¼ãĥ«
ä¿ Ĥ
q u
ĠåĪ ¶
è¨ĺ å¿µ
æķĹ éĢĢ
Ġãĥ į
çī© èªŀ
èģ ĸ
éģĵ è·¯
å® Ī
å® Ĺ
ãģ® ãģ¿
S P
éħ į
Ġ st
èĪ İ
ĠãĤ¢ ãĥ¡ãĥªãĤ«
Ġãĥģ ãĥ¼ãĥł
ãĤ¤ ãĤº
ãĥ³ãĥ ķ
I R
Ġ6 0
Ķ åĵ¡
Ġåĭ Ŀ
) :
èĪ ŀ
'' ''
Ġé ļ
ĠåĲ Į
ç´ °
ãĤ¹ ãĤ¯
Ġ198 5
ãĤ¸ ãĥ¥
ãĥĥ ãĤ·ãĥ¥
çĬ ¶
éŁ³ æ¥½
è· ¡
ãĤ ħ
Ġãĥ ĺ
Ġè §
çĻ ¾
ĠP l
æº Ģ
ãĥ¼ãĤ ¬
ãĥĸ ãĥŃ
èģ ·
Ġæ± Ł
å·Ŀ çľĮ
Ĵ °
ãĥ¼ãĥ Ģ
ĠS P
æŃ ©
ãĥª ãĤ¹ãĥĪ
Ġå ĳ
Ġæ ¥
æ¨ ª
6 5
) .
çľ ģ
Ġç Ħ
èģ ŀ
Ġãĥģ ãĥ£
ä» ¤
çĹħ éĻ¢
Ġé »Ĵ
æł Ħ
E D
äºĭ æ¥Ń
ãĤ· ãĥ³ãĤ°ãĥ«
Ġ198 0
Ġæ ´
7 5
I L
ĠæŃ Į
ãĤ¤ ãĥĦ
åİ »
ãĥ³ãĤ ½
Ġæ² ³
ĠO F
ic e
æĽ¸ æĪ¿
Ġè į
æİ Ī
è© ¦åĲĪ
å± ħ
âĨ Ĵ
ãĥĥãĤ« ãĥ¼
éĸĭ å§ĭ
éĥ µä¾¿
Ġ198 4
ĠéŁ³ æ¥½
å» ĥ
Ġç İ
o od
7 9
Ġæ ¯
ç ²
Ġ äºķ
äº Ĩ
ãĥĪ ãĥ«
è Ļ
ç¹ Ķ
Ġä½Ĳ èĹ¤
Ġåı ¤
t e
åĸ ľ
Ġç ¨
ç´ Ħ
ĠãĤª ãĥª
äºĭ ä»¶
ãĤ¸ ãĥĨãĥ¬ãĥĵ
Ġæ ģ
Ġ:: :
å® ¢
æ§ ĺ
ĠN ew
Ġ5 6
ãĥ³ãĥĲ ãĥ¼
å® ĩ
U T
Ġæ Ł
a z
ĠåĮĹ æµ·éģĵ
8 6
Ġé§ ħ
Ġæĺ Ń
Ġæ² ¿éĿ©
ĳ äºĭ
Ġæ ¼Ķ
or e
I M
ç¥ Ĳ
ãĤĪ ãĤĬ
ãĤ¯ãĥ© ãĥĸ
ĠC l
Ġãģ Ĺ
èĮ Ĥ
Ġç· ı
èª ł
Ġé Ī´æľ¨
i b
å§ Ķåĵ¡
å® ¹
Ġãģ Ł
ãĥ« ãĤ¹
Ġè ²
Ġ re
er t
or ld
çĻ Ĥ
Ġå ĴĮ
¶ ´
ãĥĩ ãĥ«
8 9
ãĥ¼ ãĤ¹ãĥĪ
ãĥ³ãĤ ³
ãĤ ¾
a h
Ġ198 2
S S
ç¾ ½
en s
Ġ198 3
à ¸
un d
ãĥ³ãĤ Ń
Ġ5 7
é«ĺ æł¡
ãĥĹ ãĥ¬
çľĮ éģĵ
ãģĦ ãģŁ
ãĥ³ãĥ Ħ
Ġ198 1
ç¾İ è¡ĵ
Ġä½ľ åĵģ
å¤ ¢
Ġæ¸ ħ
) ãĢĤ
åľ° åŁŁ
æ ¢¨
Ġ4 5
ä¹Ŀ å·ŀ
Ġ: #
å¾ ¡
I V
ç« ľ
ãĥģ ãĥ¼ãĥł
è Ĺ
Ġå½ ¹
Ġæ ·
Ġ4 2
is s
çķª åı·
è£ ľ
ãĤ½ ãĥ¼ãĥī
Ġãģ §
éŁ ¿
Ļ å²¡
Ġè ±
Ġå® ĩ
ĠçĦ ¡
Ġå¾ Ĺ
ãģķãĤĮ ãģŁ
Ġä¸ĸ çķĮ
ãĥ« ãĥ¼ãĥĹ
èį ī
Ġ4 7
Ġ5 5
ĠæĺŃ åĴĮ
ç©º æ¸¯
ãĥķ ãĥ©
éĤ ¦
ãĥĪ ãĥª
ç½ ²
âĨ Ĳ
Ġèµ ¤
Ġç ©
è¼ ī
äºº åı£
Ġãģ ²
ĠæĿ ĳ
Ĵ ²
ĠN HK
ãĥĩãĥ¥ ãĥ¼ãĤµãĥ¼
n g
Ġç¦ı å²¡
ãĤ¦ ãĤ©
Ġv s
å¥ ½
199 9
æĮ Ļ
ãĥ³ãĥ į
Ġ4 9
Ġåħ ĥ
çĻ »åł´
èĩª åĭķè»Ĭ
ãģ«ãĤĪ ãĤĭ
ħ å½ĵ
Ġä» Ĭ
oc k
æ¸ ¡
ãĥĭ ãĥ¥
å¿ ł
å ¶
æĥ ³
Ġãĥ© ãĤ¤
Ġãĥķ ãĤ£
å¼ µ
ãĤ· ãĥ¼
æĺ Į
ãĥ© ãĥł
¬ ¼
8 7
a ch
æ±º åĭĿ
åĪ¶ ä½ľ
å¿ ľ
T BS
æķ ı
ãĥ Į
on e
åħ¬ æ¼Ķ
éĹ ĺ
èĪ Ī
ãĥ¼ãĥª ãĥ¼
å¥ ı
ãģ ĸ
ãĥ¼ãĤ Ń
ãĥ³ãĥ ŀ
ãĤĤ ãģ®
i re
ç® Ĺ
ãĥ© ãĥĸ
Ġ4 4
å¹ ¼
r es
ç´ Ķ
ãĥĿ ãĥ¼ãĥĦ
ãģª ãģĹ
æ´ ¾
ãĤ¤ ãĥ¤
ãĥĶ ãĤ½ãĥ¼ãĥī
ãĥ©ãĤ¤ ãĥĸ
Ġæ¸ ¡
ĠèĬ Ŀ
Ġãĥ ļ
ãģ¨ ãģĹãģ¦
6 4
Ġç ĨĬ
æĸ½ è¨Ń
Ġå Ŀ
ä¿ ³
Ġ4 1
ĠL IVE
å ¨
ĠèĬ ±
ãģ ¼
æŃ »
ĠåĽ Ľ
æ² ¼
ĠçĻºå£² æĹ¥
6 1
ä¸» åħļ
æĸ¹ éĿ¢
Ġé ¹¿
m ent
ãĥĬ ãĥ¼
v er
r ic
im e
æº Ĳ
æĹ¥ çĻºå£²
é£ Ł
çļ ĩ
å¸ Į
Ġè£ ½
Ġ*** *
éł Ĩ
k g
Ġèĳ Ĺ
Ġæķ Ļ
ãĥ¢ ãĥ³
ç¯ Ģ
èĩ £
Ġ4 3
Ġå£ °
ĠãĤ¹ãĤ¿ ãĥĥãĥķ
Ġ197 9
Ġå¤ ª
Ġ ä¹ħ
ãģ§ ãģĤãĤĭ
ãĥŁ ãĥ¼
N HK
Ġè¡ Į
ä¼ģ çĶ»
Ġ å¹´åº¦
ĠM ar
Ġéģ¸ æīĭ
ãĥ« ãĤ¯
è¡ Ĩ
éĥ½ å¸Ĥ
Ġäºº åı£
ou nd
5 00
Ġå ³
éļ İ
Ġè ·
è§ Ĵ
ãĥ¼ãĥ Ļ
ex t
åĽŀ çĽ®
è¦ ª
å± ķ
åĲ ¹
ç £
çľĮ ç«ĭ
ä¹ ĥ
å·¥ æ¥Ń
s s
æĽ¸ åºĹ
199 8
ç³» åĪĹ
ãģ¾ ãģ§
e e
éĥµä¾¿ å±Ģ
Ġæ İ
o ok
O D
ãĤ« ãĥĥãĥĹ
ãģĦ ãģ¦
Ġæ Ģ
Ġå¾ ³
O P
or k
Ġ y
er n
å¦ »
ãĥ¼ãĤ ½
Ġ197 8
6 9
å¯ Ĩ
èª Į
ĠæĿ ¥æŃ´
ãĤ¿ ãĥ«
æīĢ å±ŀ
ãģ¸ ãģ®
ĠåĲį åı¤å±ĭ
äºĪ éģ¸
åŃ¦ ç§ĳ
ãĤ¢ ãĥ¡ãĥªãĤ«
ãĥĥ ãĤ°
åŃ¦ éĻ¢
æĽ ¿
ãĤ² ãĥ¼ãĥł
Ġæ ŀ
ç¾ ¤
æ· ±
ãĥª ãĤ¨
ãĥ³ãĥ ľ
ç Ĵ°
ãĥĲ ãĤ¤
å¹ Į
éĻ į
åĨ į
Ġæľ Ŀ
æł ªå¼ıä¼ļç¤¾
ĠçĶ° ä¸Ń
ĠåıİéĮ² æĽ²
ĠãĤ Ĩ
ĠåĽ½ éģĵ
ĠèĦļ æľ¬
OU R
åįĶ ä¼ļ
æ° ı
ãĥ³ãĥ ĸ
Ġéģ ĵ
è ¼Ķ
æĻ ¯
çķ Ļ
ãĥ¬ ãĥ¼
æ¸ ©
èµ ¤
ãĤĮ ãģŁ
Ġå¾ Į
ãĤĬ ãģ®
ç¯ ī
O VE
å Ħ
å® Į
ãĥĢ ãĥ¼
ĠçĻ »åł´
å¹ ķ
ä¸ ĺ
ãģ¨ ãģ®
ãĥī ãĥª
ĠãĤ¦ ãĤ£
ãĥ³ãĤ «
èŃ¦ å¯Ł
ãĥ¼ãĥ ´
ĠR e
æī ĵ
ãĤ¦ ãĥ³
ãĥģ ãĤ§
çŁ ¢
Ġ5 4
å§ «
Ġäºº çī©
) (
Ġf eat
Ġ197 7
ĠL ove
Ġè Ń
Ġ197 6
ĠS c
ĠæĹ¥æľ¬ ãģ®
éł ĺ
Ġé ħ
6 7
u g
ãĤ¹ ãĤ«
è¬ Ľ
Ġ âĢ
æ¯ Ķ
Ġãĥ ¨
Ġæľ ī
å½ ©
ä¼ ¸
ãĥĵ ãĥ¼
æľ Ĺ
199 7
åĩº èº«
ĠD VD
u k
åĭ ¢
ic al
le ct
éĽ ²
Y O
ãĥ« ãĥī
ĠI N
å¢ ĥ
Ġ:: *
æŃ´ åı²
== ==
èĲ ½
ĠçµĮ æŃ´
ãĥĨ ãĥ«
ĭ äºº
ãĥĥ ãĥĳ
Ġé«ĺ æ©ĭ
æ³ °
éĢ ±
æķĻ æİĪ
ãģĵ ãģ¨
ãĥ¼ãĥ ľ
c m
åķ ı
å¤ ĸéĥ¨ãĥªãĥ³ãĤ¯
Ġ5 8
Ġåįĥ èĳī
èĸ ¬
ç ª
ĠæĿ±äº¬ éĥ½
é Ĭ
åĸ Ħ
åĪ ¤
ãĤ¯ ãĤ»
6 2
ĠãĤ² ãĥ¼ãĥł
Ġ197 0
Ġ197 5
ãĥĪ ãĥŃ
Ġ äº¤éĢļ
èı ľ
ol d
é£ Ľ
åľ° æĸ¹
ĠM e
Ġé Ń
åĲ ¾
6 3
ãĤ¢ ãĤ¤
çī¹ åĪ¥
ä¿³ åĦª
Ġæ Ĭ
ç¨ ĭ
ä½ĵ èĤ²
ĥ Į
ä¾ ĭ
Ġæĸ° æ½Ł
è¡ £
C h
æĭ ħå½ĵ
é ¹¿
éł Ī
çĪ ¶
Ġæ± ł
åľ° åĮº
æ ¿
( )
199 6
ac e
éĬĢ è¡Į
o st
ãĥĹ ãĥ©
ãĥ³ãĥ Ĭ
è² ¡
ãĥ³ãĤ »
äºĭ åĭĻ
ãĤŃ ãĥ¥
Ġéĺ ¿
a i
äºº ãģ®
® å½±
ãĥ³ãĥį ãĥ«
ãĥį ãĥĥãĥĪ
¼ çİī
ãĤ¿ ãĤ¤ãĥĪãĥ«
å² ¸
ç´ ł
å¼ ¾
ĠãĤ· ãĥ£
ä¼ ĳ
Ġb ar
ç© Ĥ
å® Ļ
æħ ĭ
ation al
è¼ ª
ãĥ© ãĤ¸ãĤª
ãĥĩãĤ£ ãĤ¢
ãĤ¹ ãĥĳ
ĠæīĢ å±ŀ
Ġè± Ĭ
ĠåĬ ĩ
ä» Ĭ
m m
Ġæĺİ æ²»
ĠB e
F A
E X
ãĥ¼ãĥ į
ĠS H
Ġãĥĸ ãĥ©
åı ¯
äº ī
s on
åģ ľ
æľ «
æ©Ł éĸ¢
ãĥĲ ãĥ«
Ġè Į
ç¤¾ ä¼ļ
ĠåĿ Ĥ
ĠH e
â Ķ
Ġ äºĶ
æİ ¢
Ġçķ ª
T HE
åī ĩ
æ ĳ
ãĤĮ ãĤĭ
Ġç ģ
Ġ197 3
Ġ197 2
æĶ »
çĶ ²
ĠB r
Ġå±± åı£
ãĤ¦ ãĥ³ãĥī
éĸ¢ ä¿Ĥ
Ġãģ Į
ter n
æ¡ ľ
ĠæĪ ¦
Ġå® Ł
Ġ5 3
ĠM an
ãĥ¼ãĥ İ
Ġãĥķ ãĤ©
æ¶ Ī
199 5
ç§ĳ åŃ¦
ãĤĪ ãģĨ
Ġ197 4
ãĤ± ãĥĥãĥĪ
æĸ° èģŀ
Ġ5 2
çĻ »
ĠM y
ãģ§ ãģ®
ä¾ Ľ
ãĤĦ ãģ¾
Ġå³ ¶
ĠéĽ »
ĠA N
ĠC ol
Ġ8 0
æ¬¡ éĥİ
ĠãĤ Ĵ
éĽ ¢
Ġä¸Ń æĿĳ
ãĥĢ ãĥł
ç ¢
Ġéģ ĭ
æĿ ¯
Ġç« ¹
è¾ ²
ãĥ¼ãĥ Ł
å»ĥ æŃ¢
æ³ ģ
® éĿ¢
ç ı
åĲ Ľ
Ġé ĥ½
Ġãĥķ ãĤ§
Ġåľ° çĲĨ
ĠæĹ §
è¼ Ŀ
Ġ197 1
ç© į
ĠM usic
ãĥŃ ãĥ³
èĪª ç©º
ãĥª ãĥ¼ãĤ¹
åĭ ĩ
» Ħ
åĽ³ æĽ¸
å» ¶
è¦ ı
ĠæĪ Ĳ
åĸ¶ æ¥Ń
èĭ ¥
èĦļ æ³¨
ER S
ãĥģ ãĥ¥
en ce
Ĩ ±
Ġå°ı æŀĹ
éģ ł
C H
9 5
ãģĹ ãģĦ
é¨ ĵ
ãĥĵ ãĥ«
is c
éĻĲ å®ļ
å¸ Ŀ
ãĥ³ãĤ µ
ĠW orld
çŁ Ń
ãĥ³ãĥĨ ãĤ£
8 5
ç¯ ĩ
Ġè· ¯
p er
it ion
éĽ ª
³ ç´°
çĽ £
Ġ5 1
l l
Ġ# #
ic k
ãĥª ãĥ³ãĤ°
æĬ ķ
å¼ ķ
9 2
ent s
å¹ ¹
å¯ ¿
ãģı ãĤī
é§ħ åīį
æĦ ı
ãĤ¶ ãĤ¤ãĥ³
Ń å¹Į
æ§ĭ æĪĲ
Ã ¼
å¥³ åĦª
D VD
ar e
Ġç Ĳ
èŃ° åĵ¡
åĵ ī
ĠS ch
ãĤ¹ ãĥĨãĤ£
ãĥ« ãĥķ
p e
Ġè ¾
åı· ç·ļ
ãĥŃ ãĥ¼
j p
æĻ ´
Ġçµ Ĳ
å¹´ ãģ®
or m
ĠS U
å° İ
åĪ ĳäºĭ
å±± çľĮ
æľ Ľ
ä½¿ çĶ¨
æĮĩ å®ļ
åį ĺ
éģ İ
èĪ ¬
9 3
C T
ap an
Ġ196 9
ĠE d
ãģª ãģ©
è± ¡
l and
é ½
r d
oh n
Ġ Ð
åı İ
Ġæ° ¸
åį Ĭ
ĠãĤ¿ ãĤ¤
199 4
Ġç© º
an n
7 3
Ġé īĦ
åŃ¦ èĢħ
æĽ ´
7 1
åĿ ĩ
æĢ ª
Ġæľ ª
7 2
« çĶ»
) ''
Ġé¦ Ļ
ãĥĥ ãĤ»
ĠãĢİ '''
ãĥŁ ãĤ¢
âĢ Ŀ
ãĤ³ ãĥ³
åī µ
å¼ ¥
å°ĳ å¥³
ir l
Ġ r
Ġ196 8
Ġ '
Ġä¸Ń åĽ½
ãĤª ãĥª
Ġåħ ±
Ġè ¬
9 4
ç ĨĬ
Ġè·¯ ç·ļ
æ¤ ľ
. ,
ç¸ Ħ
Ġv ol
æĿ ī
ãĥĩ ãĤª
in a
æ°ĳ ä¸»åħļ
ĠçĽ ¸
Ġ7 0
ĠéĻ ¸
ä¸ī éĥİ
Ġè¨ ĺ
Ġèĭ ±
ĠG u
ãĥŀ ãĥ«
å¾ ©
Ġ ~
Ġæ¨ª æµľ
ç«¶ æĬĢ
è© ķ
ĠUn ivers
æĨ ²
om e
ãĥĩ ãĥ¼ãĤ¿
çŁ¥ çľĮ
t on
ãĥ¼ãĥĬ ãĥ¼
ĠãĤ· ãĥ¼ãĤºãĥ³
è¨ĺ éĮ²
ĠæŃ £
å ĺ
A B
è¶ ³
ĠæĶ¾éĢģ æĹ¥
Ļ åı°
Ġå¥³ åŃĲ
å® ħ
ĠãĢ Ĳ
ãĤ¢ ãĥĬ
Ġãĥ© ãĤ¸ãĤª
è·¯ ç·ļ
Ġæ Į
ãĥŃ ãĤ¹
ĠãĤ¹ ãĥļ
i er
ĠåĲ Ī
Ġæ© Ł
ou nt
ãĥĸ ãĥª
Ġ'' ''''
çµĤ äºĨ
ãĥ£ ãĥ¼
ãĤ· ãĤ§
Ġ196 7
H T
ç ¦
ãģĳ ãĤĭ
8 4
å§Ķåĵ¡ ä¼ļ
ĠT V
OK YO
åĨ Ļ
Ġåħ¬ å¼ıãĤµãĤ¤ãĥĪ
9 1
éĻ º
æ´» åĭķ
å¸ ĥ
åī Ľ
L U
æİ ¥
ĠèĪ ŀ
ow n
Ġè£½ ä½ľ
æŀ Ŀ
8 3
ãĥ¼ãĥŀ ãĥ³
199 3
ãĥī ãĥ©
Ġæĺ ¥
it t
ĠI I
æ ¦Ĥè¦ģ
æ· ³
ãĥŀ ãĤ¤
ãĥĽ ãĥ¼ãĥł
h er
å®¶ æĹı
7 4
Ġ e
jp g
è«ĩ ç¤¾
åŃ £
ĠT e
ak e
æ Ł³
åĳ ³
ãĥ´ ãĤ§
ĠB S
199 1
Ġè ģ
ç¤ º
ãĤ® ãĥ¥
r um
8 1
ãĥ¼ãĥ« ãĤº
ãĤ¹ãĥļ ãĤ·ãĥ£ãĥ«
an ce
ãĤ°ãĥ© ãĥķãĤ£
8 2
. )
Ġ196 6
Ġåħ ¥
Ġå±± æľ¬
æİ ¨
199 2
æ² Ļ
æ¹ ĸ
Ġç ł
ĠC on
æ Ĳ
Ġéĺ ª
Ġæĺ Ł
20 20
ĠãĤ¢ ãĥĭãĥ¡
Ġåħ ī
é İ
ãĥĵ ãĤ¢
çµĮ æ¸Ī
199 0
r am
ãĥĳ ãĥ³
ãĥ©ãĤ¯ ãĤ¿ãĥ¼
ç ĳ
è¦ ĸ
ä¾ ¡
ĠæĹ ©
å¨ ĺ
ĠP h
ou s
Ġåħ µ
ãĥ¬ ãĥĥ
ãĤ¢ ãĥ¼
ãĤį ãģĨ
ãĥĨ ãĥ¼ãĥŀ
ãĤ¹ãĥĨ ãĥł
Ġå¤ ĸ
ou t
è© ©
æĹ ©
Ġåį ģ
æħ ¶
ĠçŁ ¢
in t
O V
Ġæ ¹
ãĢħ æľ¨
åĪ ĩ
ç§ ĺ
Ġç ĭ
ç¿ Ĵ
ãĥĻ ãĥ³ãĥĪ
ĠéĿ Ļå²¡
ĠL e
éģ Ĭ
Ġèĭ ¥
æį ľ
Ġ196 5
ãģ² ãĤį
åľ ı
Ġç« ĭ
D S
å® ³
Ġçķ ¥æŃ´
ãģ¨ ãģĨ
Ġéĩ į
æĶ¯ åºĹ
Ġä¼Ĭ èĹ¤
ĠåĲī çĶ°
ãĥ³ãĤ µãĥ¼
ãĤ¤ ãĥ³ãĥĪ
ãĤ· ãĥ¼ãĤºãĥ³
å½ °
é ¬¼
ç¨ ļ
ĠE x
ç¶ Ļ
ä»¥ ä¸Ĭ
Ġç ¬
Ġ5 9
ãĥļ ãĥ¼ãĤ¸
å¶ ĭ
è³ ¢
E M
Ġç ±
äº Ģ
çĽ Ł
ĠS e
Ġç ¤
Ġ å¹³æĪĲ
ãģĤ ãĤĬ
æĺ ĩ
ĠçĶ· åŃĲ
ĠãĤ¸ ãĥ§ãĥ³
äº ®
Ġå¯ ¾
çŃ ĸ
åŃ ĺ
ä¸į æĺİ
Ġãĥĭ ãĥ¥
ar l
Ġåı Ĺè³ŀ
ãĥ¬ ãĥ³
ĠãĤ¹ ãĥĪ
ãĥ¼ãĥĩ ãĤ£
åĳ Ĭ
å· ¦
é½ ¢
æĶ¹ æŃ£
ĠD e
æĳ ©
ĠJ R
Ġè© ¦åĲĪ
ĠN E
Ġæ ¢
ç¨ ²
Ġå±± çĶ°
C E
æ¹ ¾
o ol
åº Ń
æ¼Ķ åĩº
å¹ ¡
åľ¨ åľ°
ãĥ¬ ãĥ¼ãĤ·ãĥ§ãĥ³
ĠæĿ ī
Ġä¸» æ¼Ķ
US S
å±± å¸Ĥ
ãĥ¬ ãĥ³ãĤ¸
Ġåºĥ å³¶
åī £
ãĥĭ ãĥĥãĤ¯
or n
R I
if e
AR T
åħ¬ å¼ıãĤµãĤ¤ãĥĪ
I n
ãĥ¡ ãĥ³ãĥĪ
çį £
å¯ Ľ
æ¨ Ļ
ãģ ¥
åı ³
ĠI s
Ġ äº¬
é ¶´
ãĢ ī
ĸ ç¸Ħ
éĺ ľ
çĦ ¶
Ġæ »
å Ĵ²
éĤ £
åħ ¼
ĠãĤ¹ ãĥ¼ãĥĳ
ãĥ³ãĥ ĵ
èĦļ æľ¬
è« ¸
Ġãĥŀ ãĤ¤
ĠãĥĻ ãĤ¹ãĥĪ
å¼ ·
ãĥ¼ãĤ« ãĥ«
OC K
åįĶ åĬĽ
è¡ Ģ
Ġè ¦ı
èĭ± èªŀ
ãģ® ä¸Ģ
âĹ ĭ
äº¤ å·®
Ġ a
ãĥľ ãĥ¼ãĥ«
éĸ £
Ġç± ³
åĩº åħ¸
è£½ ä½ľ
Ġãĥŀ ãĥ«
ãĥ¼ãĤ µ
Ġ196 4
Ĳ éĺľ
æ½ ®
Ġæ¡ ľ
ä¼ļ é¤¨
ĠåĪ¶ ä½ľ
åģ µ
åĩº åł´
é¡Į æŃĮ
ol og
ĠæĻ Ĥ
in k
åıĤ åĬł
å¹´ ä»£
S U
ĠF or
å¹¼ ç¨ļ
åĽ½ ãģ®
Ġè ī
¤ ĩ
Ġéķ· éĩİ
o x
il d
at a
Ġæ± º
åŁİ çľĮ
æ¸© æ³ī
éĢ£ ç¶ļ
Ġ6 4
S A
a x
èŃ° éĻ¢
ĠW h
Ġå ĸ
ĠI m
Ġãģ į
re am
ĠG r
ãĤ¯ ãĥª
ĠPr ess
ic a
'' .
å¹¼ç¨ļ åľĴ
ãģ® å¥³
H z
Ġçģ «
II I
®éĿ¢ ãĥ©ãĤ¤
ãĥĥ ãĤŃ
åħ ĭ
Ġ196 0
a il
S C
ãĥŁ ãĥ¥
å¸ Ń
åį Ĵ
ĠãģĿãģ®ä»ĸ ãģ®
198 9
ĠL ive
Ġt ext
Ġ7 5
ç¬ ĳ
ç¾İ åŃĲ
Ġ:* *
ĠéĢ £
èĬ ³
èĢ ģ
Ġæ ¤
Ġæµ ħ
èª Ń
é«ĺ éĢŁ
å° ļ
è ¢
ãĥķ ãĤ¸ãĥĨãĥ¬ãĥĵ
ĠâĹ ĭ
ĠãĤ Ĥ
ĠãĤ Ħ
ãĤ¸ ãĥ§ãĥ³
ĠçĶ º
Ġ6 5
ĠC M
Ġãĥ´ ãĤ¡
ĠB O
Ġãģ µ
ä»£ çĽ®
ig n
ãĥı ãĤ¤
ĠR ec
ĠåĲ Ħ
ST ER
k y
ĠF l
ĠA L
ä¼Ŀ èª¬
ãĤ¦ ãĥ«
çµĲ æŀľ
æ® ¿
ĠåĬł èĹ¤
o o
ĠãĤ¸ ãĥ¥
ĠUnivers ity
Ġæ¸¡ è¾º
æı ´
am p
éł ĥ
Ġå¾Ĺ çĤ¹
çĶ° å¸Ĥ
al e
Ġå ¡
ĠT OUR
ç´ Ļ
ãģĵ ãģĨ
Ġé Ĥ
c k
ãģĹ ãģ®
ic s
Ġ )
ãĤ¨ ãĥĶãĤ½ãĥ¼ãĥī
Ġæµ ľ
âĨĲ âĨĲ
as e
US IC
Ġãģ »
ĠO n
Ġå §
ĠO N
un g
ON E
åķ ĵ
åł Ģ
ãĤ± ãĥ«
ĠåĽ½ éļĽ
ãĥį ãĤ¹
Ġä» ĸ
éĸĭ çĻº
Ġåį ĺ
an s
at t
å¾Į ãģ®
çłĶç©¶ æīĢ
am e
åŃĲ ãģ®
''' )
ol l
Ġ al
ķ çĶŁ
ãĥĪ ãĥ³
éģ¸ æĮĻ
Ġæ ¼
Ġç¤ ¾
æķ ´
ãĥ³ãĥĢ ãĥł
ãģ ŀ
è¨ ¼
Ġå® ¶
è¶ ħ
éĺ ¿
ãĤ³ ãĥ¼ãĥī
c he
I X
éĥ¨ éĸĢ
é¤ Ĭ
Ġä¸Ń å¤®
å² ³
Ġè¦ı æł¼
è ĺ
éĩİçĲĥ éģ¸æīĭ
Ġ6 3
æĬĢ è¡ĵ
Ġéģ İ
( *
Ġãģ Ĩ
IG HT
ĠæķĻ èĤ²
ãĤ³ ãĥ¼ãĤ¹
Ġãĥī ãĥ©ãĥŀ
å°ı èª¬
ãĥ³ ãģ®
âĶ ģ
ul t
is e
ãĥ¼ãĤ ¼
Ġ6 1
Ġé ³¥
Ġç Ń
Ġãģ ¤
ç¬¬ ä¸Ģ
ãĤĨ ãģį
AC K
ic t
ãĥĭ ãĥ³ãĤ°
Ġ6 2
Ġçī ¡
ĭ è°·
ĠçĨĬ æľ¬
æĮ ¯
Ġæ° ĳ
AP AN
ĠE n
æĮ ģ
ãĥ¼ãĤ ¶
re e
ãĥ³ãĥĢ ãĥ¼
Ġãĥ´ ãĤ£
éħ Ĵ
æĭ ĵ
å¾ Ĵ
éĢļ ãĤĬ
Ĵ å·Ŀ
Ġ196 3
ap p
æĢ Ŀ
ĠæĿ¾ æľ¬
ãĥĨ ãĥ³
ç®¡ çĲĨ
R et
Ġãĥĸ ãĥ«
ä¹ ±
åľ Ń
éľ Ĭ
Ġè§ £
ãĥĭ ãĤ¹
åĮº éĸĵ
ãģŁ ãģĭ
ç² ¾
198 8
ãģ¤ ãģ®
en n
! (
I O
Ġè» Ĭ
Ġæŀ Ĺ
ro w
I A
Ġãĥ Ħ
Ġè© ³ç´°
å°ĳ å¹´
Ġå ¢
ãĥ¼ãĤ« ãĥ¼
åħ¬ å¼ı
å¦ ¹
ĠãĤ Ī
Ġåħ¬ å¼ı
ĠåŁ ¼çİī
ãĤ¸ ãĥ¼
ĠCom p
çķ ĳ
Ġå° ĳ
198 7
Ġéĸĭ åĤ¬
ãĤī ãģĻ
T A
Ġå ģ
ãĥ³ãĤ ´
ãĤ¸ ãĥĬãĥ«
ãĤ® ãĥªãĤ¹
Ġè °·
æľ¬ ç·ļ
æ¡ Ī
AN D
Ġt h
p t
åĽ³æĽ¸ é¤¨
ĠåĪ ©
ĠéŃ Ķ
M A
å© ¦
ay s
ow s
I SBN
æĹ¥æľ¬ ãģ®
ĠãĤ¢ãĥ« ãĥĲãĥł
ĠS y
è ħ
Ġé£ ¯
çł ²
ĠãĤ² ãĤ¹ãĥĪ
ãĤµ ãĥĥãĤ«ãĥ¼
ãģ® é§ħ
Ġ6 6
æ³ķ äºº
ãĥŁ ãĥ¥ãĥ¼ãĤ¸
åı Ĺè³ŀ
çī §
å¢ Ĺ
Ġç¾İ è¡ĵ
å¤§ æŃ£
çĭ ¬
ç¿ Ķ
Ġãĥ ł
ĠG o
ãĥ¼ãĥĻ ãĥ«
p r
ãĥĬ ãĤ¤
å¹ ħ
AL L
Ġè ³
ãĥĪ ãĤ¥
Ġè¬ Ľ
ĠA d
ĠãĥĨ ãĤ£
âĺ ħ
Ġ et
Ġåł Ģ
Ġè ĥĮ
ç« ¥
âĢ Ļ
Ġé ¢¨
æĶ ¾
èĩª çĶ±
Ġè Ĳ
ãģķãĤĮ ãĤĭ
éĥ¨ éķ·
ĠJ apan
ä½ µ
Ġ ä¼ļ
Ġçı¾ åľ¨
Ġ196 2
198 6
Ġç« ¶
ĠæĽ ¸
Ġç ¶
Ġæł ªå¼ıä¼ļç¤¾
èª į
P S
ãĤ¤ãĥī ãĥ«
ãĥ¼ãĥĵ ãĤ¹
I E
æĿ ¿
éģ º
Ġéģ ł
ĠåĬĩ åł´
ãĤ¯ ãĤ·ãĥ§ãĥ³
åŀ £
ãĥ¯ ãĥ¼
OU N
ãĥ¬ ãĥĥãĥĪ
ãģĪ ãĤĭ
çĶº ç«ĭ
ow er
è³ ª
è¿ ½
å°Ĥ éĸĢ
Ġå¤ ļ
ing s
ub l
ĠW ar
ä» ķ
as h
E A
å ª
çĬ¶ æ³ģ
ĠO r
J R
Ġs h
æŀ ļ
ion s
ä¼ ¯
Ġæ ¬
ĠF C
åĦ Ħ
Ġæ¼Ķ åĩº
S H
ĠãĤ· ãĥ³ãĤ°ãĥ«
Ġåı °
ĠC H
r u
ãģ¦ ãģĦãĤĭ
åıĤ çħ§
ĠL OVE
Ġ196 1
ãĥ³ãĥĪ ãĥ³
ç·¨ éĽĨ
ĠS er
Ġéģİ åİ»
ãģª ãģĭ
Ġé¹¿ åħĲ
å° Ħ
ĠI D
ãĥ¼ãĥ© ãĥ³ãĥī
le y
ãĥ¼ ãĤ¤
ãģŁ ãĤģ
ãĤħ ãģĨ
æ» ħ
ãĤª ãĥĸ
Ġéļ £
B l
ãģĦ ãģ®
p ort
é§ħ éĸĵ
ĠãĤ¢ ãĤ¤
ĠD N
ãĤ° ãĥ«ãĥ¼ãĥĹ
ãĤ· ãĥĨãĤ£
an k
Ġç¥ŀ å¥Ī
Ġæ¸ħ æ°´
æĻ ĥ
èĮ ¶
Ġæ© ĭ
ãģ£ ãģ
æķ ·
Ġæ ¶
ĠãĥĹ ãĥ¬
ãģĦ ãģ¡
ãĥ¡ ãĥ³ãĥĲãĥ¼
Ġç§ĭ çĶ°
ĠO ff
ãĥª ãĥĥãĤ¯
ä¸Ģ ä¸ģçĽ®
åł´ æīĢ
r on
Ġ is
Ġä¸ĸ å¸¯
4 00
B O
198 5
Ġäºķ ä¸Ĭ
Ġéķ· å´İ
Ð °
ãĥĵ ãĥĩãĤª
Ġæ Ĵ
ãĤ· ãĤ¹ãĥĨãĥł
ĠãĥĨãĥ¬ãĥĵ ãĥīãĥ©ãĥŀ
ĠèĪŀ åı°
èĹ ©
åĸ¶æ¥Ń æīĢ
åħ¥ åı£
v e
ä¹ħ ä¿Ŀ
ãģ ¬
ãĤ¿ ãĥªãĤ¢
ãģĭ ãĤĬ
p l
w e
æ¥ µ
th er
è³ĩ æĸĻ
ãĥĨ ãĥ¬
åŃ¦ ä¼ļ
Ġ6 8
Ġå¤ ı
æĪ¦ äºī
3 00
Ġãģª ãģĹ
Ġéĥ ¡
Ġd es
å© ļ
ĠV er
éħį ä¿¡
Ġl a
åĲį ç¾©
éĸĭ åĤ¬
Ġåĳ ¨
s h
C M
çµĦ åĲĪ
åĮĹ æµ·éģĵ
Ġ6 7
åĬ Ł
198 4
å¾ ¹
F M
ĠT ra
æľĪ æĹ¥
ĠP ar
æĤ ª
ãĥ© ãĥ«
ĠF M
åĬ ¹
ãĥĲ ãĥ¼ãĥĪ
Ġæĸ ½
ãģ« ãģĬ
ĠAr t
re at
ãģĹ ãģ¾
a f
Ġæ´ ¥
ãĤ³ ãĥŃ
ãĤµ ãĤ¤
ĠI t
ãĢ Ĳ
ãĤ¤ ãĥĬ
g h
åĢ ¤
ãĤĵ ãģª
ac t
ĠãĤŃãĥ£ ãĤ¹ãĥĪ
Ð ¾
U R
ç¾İè¡ĵ é¤¨
Ġå¥ ¥
ĠèŃ ¦
ãĥĹãĥŃ ãĥĩãĥ¥ãĥ¼ãĤµãĥ¼
ĠJ ohn
æķ ¬
Ġâ Ĩ
èµ ·
ç¾ ħ
198 3
Ġ6 9
ĠåĲį åīį
ĠåĢ ĭäºº
ãģ Ŀãģ®ä»ĸ
Ġ ch
ãĥĻ ãĤ¹ãĥĪ
ĠæĶ ¿
oc al
P ER
åį ĵ
ãĥķ ãĥ¬
Ġãĥ »
åĽŀæĪ¦ æķĹéĢĢ
äºĭåĭĻ æīĢ
L D
Ġ j
ãĥ©ãĤ¤ ãĥ³
ãĥŃ ãĥĥãĤ¯
éĸ¢éĢ£ éłħçĽ®
ãĥį ãĥ«
Ġé¦ ¬
Ġä¸ ĥ
Ġ und
it ar
Ġ /
Ġ ä¹Ĺ
å¥ ¥
ãĥ³ãĥĹ ãĥª
Ġ ä¿Ŀ
ãĤĪ ãģ³
Ġé º
ra y
è¨Ī çĶ»
© å£²
ç¦ı å²¡
ĠP art
ĠAl l
é ®
åĨ ¬
ãĤ½ ãĥ³ãĤ°
Ġd er
Ġæ ĥ
µ Ĳ
ç§ ģ
â Ļ
Ġå° ¾
ãĤ¢ ãĥª
'' (
è ĵ
ĠT BS
åĦª ç§Ģ
å·¥ åł´
Ġ äºĪéģ¸
é ³
E E
æĪ¦ å£«
åĺ ī
åĶ ±
æ¤ į
ĵ åĽ½
198 2
ç Ĩ±
Ġæºĸ åĦªåĭĿ
é ĳ
c l
ç ĩ
åģ ´
ä»¥ ä¸ĭ
Ġèĩª çĶ±
ĠJ APAN
ra ph
äºĮ ä¸ģçĽ®
åī ¯
ĠæŃ´ ä»£
ãģ² ãģ¨
ĠãĤ¯ ãĥªãĤ¹
198 0
éĽ ¨
Ġé ĬĢ
ic ial
Ġ or
å¹ »
c om
çī© é¤¨
Ġç§ ģ
ãģ® ä¸Ģè¦§
( +
Ġæ³ ķ
æįľ æŁ»
åĽ£ åľ°
Ġæ Ĥ
S h
ç¬¬ äºĮ
ãģ® åŃĲ
Ġå¤§ ä¼ļ
ĠãĤ° ãĥ©
ãĤĤ ãģ¨
ĠçĻ»åł´ äººçī©
Ġæ· ±
ãģ® ãģĬ
æ ĵ
Ġ195 9
ç¬ ł
Ī Ĵ
ĠæĬ ķ
å¼ ģ
Ġ9 0
ãģ§ ãģ¯
ãĥ¼ãĥ ¡
y o
å½¹ æīĢ
w ard
Ġç ¿
or s
åĲį åı¤å±ĭ
198 1
ord s
ãģ£ ãģ¨
Ġå¾ ¡
å¾ ´
åı Ĭ
å¹³ åĿĩ
Ġä¸Ń å±±
å· ±
çķ ¥
Ġ7 2
ãĥĶ ãĤ¢
Ġãģ® ãģ¡
Ġè¶ ħ
i el
åħ ·
ĠãĤ¦ ãĤ§
æı Ĳ
å¤§ èĩ£
Ġçľ Į
é¨ İ
ar a
æĸĩ åŃ¦
ãģ¤ ãģĦãģ¦
å¥ ĩ
ãĤīãģĻ ãģĺ
ãĤ¹ ãĥ¼ãĥĳ
Ġ195 8
Ġãģ ¡
é Ī´æľ¨
ãĥ¬ ãĥ¼ãĤ·
ãĥŀ ãĤ¹
ĠA nd
è¨Ń ç½®
T S
ãĢ Ī
Ġå» º
Ġå ¦
ĠJ IS
æ¢ ħ
ot t
ĠãĥĲ ãĤ¹
Ġæ Ł³
æĦ Ł
Ġä¸ ¸
ä¸» æ¼Ķ
é¦ ĸ
as on
Ġå¥ Ī
æĥ ĳ
Ġéĩĳ æĽľ
æİ¢ åģµ
åĳ ¼
ãģĭ ãĤı
ãĥ¼ãĤ¯ ãĤ¹
ãĥĸ ãĥ¬
æĬ ľ
M C
Ġæģ ĭ
Ġ0 1
ĠM USIC
å¡ ģ
ãģĹãģ¦ ãģĦãĤĭ
Ġ7 3
åĮ» çĻĤ
ä¸Ń åĽ½
ä¹ Ļ
æĹ¥æľ¬ ãĥĨãĥ¬ãĥĵ
çĶ£ æ¥Ń
æľ¬ éĥ¨
Ġ ä»£è¡¨
Ġè¨ĺ éĮ²
ãĥ¼ãĤ ¨
æľ į
ãĥĥ ãĤŃãĥ¼
å¼ Ł
æ§ĭ éĢł
ĠA m
çı¾ åľ¨
ĠåľŁ æĽľ
ĠC ar
Ġåħ Ń
ãĤ¶ ãĥ¼
Ġ195 5
é£ ¯
ãĤª ãĥ¼ãĥĹ
ãĤĪ ãģĹ
ãĢį ãĢĮ
a e
ãĥĵ ãĥ¥ãĥ¼
ĠE X
ãĤ¹ãĥĨ ãĥ¼ãĤ¸
ãĤ¹ ãĥĿãĥ¼ãĥĦ
ãĥķ ãĥ«
åĥ į
Ġç ¯
åĬ ´
ãĥģ ãĥ§
ãĤ¯ ãĤ¹
Ġæ ĭ
at h
ãĥĥ ãĤ¸
ĥ æľ¨
Ġç¾ ½
ç¥ ¥
ãĥĢ ãĥ«
le t
Ġ 00
è ĥ
æł ª
Ġæĸĩ åĮĸ
ãĥ´ ãĤ©
ers ion
åºĥ å³¶
Ġç¥ŀ æĪ¸
ç³» çµ±
åħ¬ éĸĭ
ä¸ĸ ç´Ģ
r ist
ãģı ãĤĵ
Ġæ±º åĭĿ
æ¹ ¯
ãģ Ŀãģ®
A l
åĳ¨ å¹´
ãĤŃ ãĥ³ãĤ°
åĽ½ éģĵ
ĠãĤµ ãĥĸ
å¤ī æĽ´
Ġè «
ãĥĥ ãĤµ
èŃ° ä¼ļ
ãĥªãĤ¢ ãĥł
ãĥ¼ãĤ ³
é ·
Ġãģ Ļ
o on
ä½Ĳ èĹ¤
Ġä¸į æĺİ
Ġå¤ ±
Ġç¨ ²
å¾ ĭ
ãĤ« ãĥ©
Ġ7 1
ãĤ¹ãĤ³ ãĤ°ãĥ©ãĥķãĤ£
ãĥĨãĥ¬ãĥĵ æľĿæĹ¥
èª¿ æŁ»
åħĥ å¹´
ãĥĿ ãĥ¼ãĥĪ
è© ¦
éĳ ĳ
åª Ľ
ĠæŃ »
Ġç ³
i et
ãĤ¬ ãĥ¼
ĠI S
ev er
ĠR OCK
ãĥĹãĥŃ éĩİçĲĥéģ¸æīĭ
ĠãĥĹ ãĥ©
è£ ģ
ãĤ¯ ãĥ¬
è ¤ĩ
B A
çµ ¦
ĠW eb
Ġæ¥ ½
Ġåħµ åº«
ĠG irl
éŃ ļ
ĠG T
Ġå®® å´İ
ç· ĳ
B R
Ġãĥī ãĥ©
éĿ Ļ
ĠH ist
ĠåİŁ ä½ľ
é »Ħ
ãĥ« ãĥł
æĸ Ĺ
éģ¸æīĭ ä¸Ģè¦§
ãĥ« ãĤ»
ĠN ight
ãĥª ãĥ¥
ĠãĥĨãĥ¬ãĥĵ ãĤ¢ãĥĭãĥ¡
Ġæľ Ńå¹Į
'' '''
Ġ195 6
an c
Ġä¸» è¦ģ
æ¯ Ľ
ç¤ ¼
Ġéħ į
ãĤŃ ãĤ·
åĳ¨ è¾º
Ã ¤
Ġå¤§éĺª åºľ
åħµ è¡Ľ
et t
ĠéĿĴ æ£®
ãģŁ ãģĦ
ãĥ« ãĤ¿
æµ ħ
ç¶ ¾
ĠæĪ ¸
ä¼ģ æ¥Ń
ä¸» ãģª
ãģ¾ ãģ¤
i am
Ġå¯ º
f t
ĠA R
ĠéīĦ éģĵ
çĻº è¡Į
åı į
Ġ7 8
od e
Ġãģ Ŀãģ®
y s
ĠâĢ ľ
ãĥ¼ãĤ ²
ãĥ¢ ãĥĩãĥ«
ãģ® å¤§
Ġ7 6
Ġ** ãĢĮ
n er
Ġæ ļ
Ġy ou
å³ °
AT ION
T ER
å®Į æĪĲ
i i
ãĤ½ ãĥķãĥĪ
ãĥ¼ãĥĲ ãĥ¼
Ġ'' '''
çĶŁ æ´»
Ġå¤§ åĪĨ
am b
Ġt ill
Ġçİ ĭ
ãĤ¹ãĥĪ ãĥ³
ĠâĹ ı
åĢ Ļ
åįĴ æ¥Ń
av e
L A
Ġæł ¡
ĠC o
er e
Ġ195 7
m e
äºº åĵ¡
ãģ® ä¸Ń
ãĤ¯ãĤ» ãĤ¹
T h
å±± çĶ°
ĠAn n
ĠæĶ¾éĢģ å±Ģ
ç« ¯
ãĥĩ ãĤ¶ãĤ¤ãĥ³
Ġ7 7
w ay
æĸ Ń
åįļ çī©é¤¨
ãģ¨ ãĤĤ
ĠåĪ Ĩ
N o
Ġç ®
ç±³ ãĥīãĥ«
éĢļ ä¿¡
Ġå ĩ
Ġéĺ ²
Ġä» ®éĿ¢ãĥ©ãĤ¤
ID E
197 9
æľŁ éĸĵ
Ġçī¹ åĪ¥
Ġãģ ı
j ect
èĩª æ²»
Â °
ĠãĥĻ ãĥ«
ad e
ä¿Ŀ èĤ²
O G
ĠC ent
åį °
it ed
U K
ĠG e
S p
ĠF ran
ãĥ¬ ãĥĥãĥī
ãģª ãĤī
ation s
æħ İ
M S
Ġéĸ¢ æĿ±
èĬ Ŀ
Ġå±± å½¢
ãĥ© ãĤ¤ãĥĪ
åºĥ åŁŁ
ĠåıĤ åĬł
ãĤ¬ ãĥ³ãĥĢãĥł
Ã ¡
Ġå¯Į å£«
ãĥ¬ ãĥ³ãĥĪ
i um
è¦³ åħī
çĽ Ľ
ãĥ³ãĤ½ ãĥ³
re t
in s
Ġåĩº åł´
® éĢļ
Ġçī ĩ
Ġç¨ ®
c c
èı ±
Ġç¬¬ äºĮ
L a
Ġ7 4
Ã ¶
Ġãĥķ ãĤ¸ãĥĨãĥ¬ãĥĵ
ãģ« ãģ¯
ĠR o
T H
æļ ¦
ĠãĤ· ãĥ¥
åĲ Ħ
ãĥ³ãĥ Ļ
ĠãģĤ ãĤīãģĻãģĺ
çĪ Ĩ
Ġçİ ī
ãĥĭãĥ¥ ãĥ¼ãĤ¹
èŃ¦å¯Ł ç½²
åį ±
ãģ® äººçī©
ĠãĤ¢ ãĥ³ãĥī
ie w
ãĤ¤ ãĥŃ
æ´ ŀ
Ġå½ ĵ
åħĪ çĶŁ
ĠçµĲ æŀľ
æ¶Ī éĺ²
ĠéĢļ ç®Ĺ
R e
çł Ĥ
æ¨ ¡
ĠA mer
Ġç¬¬ ä¸Ģ
197 8
ĠæĿ± æµ·
âĹ ı
æ» Ŀ
æĿ Ĳ
ãĥķãĤ© ãĥ¼ãĥī
P G
at s
å±± åı£
Ġéģĵ è·¯
èĬ¸ è¡ĵ
ãģ« ãģ¤ãģĦãģ¦
Ġp res
çĶ° æĿĳ
) ãĢį
Ġä¸Ģ èĪ¬
æ¨ª æµľ
l es
Ġ i
ĠãĤ¯ ãĥ©
ãĤ®ãĥ¥ ãĥ©ãĥ¼
Ġãģ Ŀ
çĶ° ä¸Ń
ãĥĲ ãĥ©
Ġé Ł
ä¹ ³
Ġ195 4
W A
Ġæĸ½ è¨Ń
åĨĻ çľŁ
Ŀ éĽ¢
ãĥķãĤ¡ ãĤ¤
ä½į ç½®
q ue
ĠT OKYO
Ġ ä½ı
. ''
ãĥī ãĤ¥
æ¯ İ
I F
äº¤å·® çĤ¹
197 7
Ġèģ ĸ
ãĤ¸ ãĤ¿ãĥ«
ct ion
ãĤ¤ ãĥ³ãĤ¿
ãģª ãģ¿
Ġ19 50
a ir
ãĥª ãĥĨãĤ£
åķı é¡Į
ãĤ¦ ãĥĪ
C A
ç¿ ¼
Ġæ¯ İ
ĠIn tern
Ġä½Ĳ ãĢħæľ¨
Ġãĥķãĥ© ãĥ³ãĤ¹
ãĥĥ ãĤ¿
å® £
ãĥ¯ ãĥ¼ãĥ«ãĥī
æĺł åĥı
Ġè¬Ľ è«ĩç¤¾
Ġç·ı åĲĪ
ĠæĹ¥æľ¬ èªŀ
ãĤ¬ ãĥ³
åĵģ çķª
Ġç¦ı äºķ
åħ± åĴĮ
ãģ® æĹ¥
ĠæĴ ®å½±
Ġåī µ
ãĤ« ãĥ¼
æĤ ł
Ġ8 5
ĠãĤ Ĭ
åº Ħ
ãĥĭ ãĤ³
Ġèı Ĭ
Ġ0 2
AG E
ãĥªãĥ¼ ãĥ³
ĠM A
æ®º äºº
å¿ į
ç¤¾ éķ·
è² ŀ
æ±º å®ļ
Ġ19 45
ĠçĶ »
Ġå¿ Ĺ
ĠåŁ İ
éĸĭ æ¥Ń
A n
ov er
at ch
ãĤ¢ ãĤ¹
am a
ut e
Ġ8 8
ãĥģãĥ£ ãĥ³ãĥįãĥ«
d e
ä¸ İ
ãĤ³ ãĥ³ãĥĨ
Ġk g
' t
Ġå ķ
ĠãĤ¯ ãĥŃ
Ġç ļ
E B
ı ¡
æŃ³ ä»¥ä¸Ĭ
ãĥ³ãĤ ²
ä¹ĭ åĬ©
at er
( -
ãĥĬ ãĤ¤ãĥĪ
çģ ¯
è°· å·Ŀ
ãĥ¼ãĥŃ ãĥĥãĥĳ
æĶ¿ æ²»
Ġåħ¨ åĽ½
å¯Į å£«
éĽ» æ°Ĺ
ãģ¨ ãģªãĤĭ
ĠæĿ± åĮĹ
çµ ¶
ãĥĪ ãĥ¬
Ġãĥī ãĤ¤ãĥĦ
å¤ ±
ãĥ¼ãĤ ±
ç· Ĵ
ãģ¾ ãĤĬ
| |
ãģ¨ ãģį
çİĭ åŃĲ
ãĥĥ ãĥĶ
Ġ1 20
ĠT R
ĠãĤ¹ ãĥĨ
ä» ı
èģ ¡
ĠP er
ĠèĪ ª
ãĥ³ãĥ ı
â ĸ
Ġè º«
åı¸ ä»¤
Ġè¡Į æĶ¿
in al
Ĵ äºķ
Ġå® Ŀ
ãĤ¦ ãĥł
I K
Ġæľ¨ æĿĳ
ãĥĸãĥŃ ãĤ°
Ġå ĵ
Ġ7 9
197 6
S W
ĠP C
Ð ¸
ä¸ ¹
it s
Ġè¦ıæł¼ åĵģçķª
ĠãĥĩãĤ£ ãĤ¹ãĤ³ãĤ°ãĥ©ãĥķãĤ£
Ġ le
ä½ľ æĪ¦
ĠæīĢ åľ¨åľ°
åįĥ èĳī
Ġè§£ èª¬
è¡Ľ éļĬ
ãĤµ ãĥ³
Ġä¸ĸå¸¯ æķ°
ĠO p
åı Ĺ
ĠA ir
è² ¨
ĠèĪ ¹
Ġãĥģ ãĤ§
197 3
ãģ« ãģ¦
æ¡ ĥ
ran s
Ġ19 48
é§ Ĳ
ãĤ¤ ãĤ¨
è»Ĭ ä¸¡
197 0
ĠID OL
çł ´
çĶ· åŃĲ
197 1
Ġæµ ¦
Ġ ä¹Ŀå·ŀ
ĠçŁ³ å·Ŀ
å®ĩ å®Ļ
on y
Ġè ĸ
çĬ ¬
Ġå® ļ
ãĤµ ãĥ¼ãĥĵãĤ¹
ĠæľĪ æĽľ
Ð µ
us e
Ġä» Ļåı°
çķ °
è¦ ļ
am es
åĨħ å®¹
äºĶ éĥİ
Ġç Ī
ãģĤ ãģį
Ġ195 2
éº Ĺ
ãģ¶ ãĤĬ
ĠæľĢ çµĤ
p le
ãĤĢ ãĤī
Ġ195 3
Ġ ä¿¡
ãĤĨ ãģĨ
ĠãĥŁ ãĥ¥ãĥ¼ãĤ¸
Ġ ed
a j
T R
b o
å· ¡
Ġæ² ĸç¸Ħ
ãģĭãĤī ãģ®
çķ ¿
ĠãĤ¯ ãĥ©ãĥĸ
ãĥ©ãĤ¯ ãĤ¿
ĠS ou
! ?
è¨Ń ç«ĭ
on s
âĶģ âĶģ
ãĥ¼ãĥ ¨
197 5
ĠãĥĹ ãĥª
Ġç Į
Ġéĺª ç¥ŀ
197 4
Ġ an
Ġp ro
ãģª ãģŁ
Ġ8 1
ãĤ® ãĥ£
u al
ĠæĿ± æĺł
ãĤ® ãĥ¼
ç¥ŀ æĪ¸
u ra
k i
Ġè¨ Ń
ĠãĤ° ãĥ«ãĥ¼ãĥĹ
ãĥķãĤ£ ãĥ¼ãĥ«
ãĥ³ãĤ¸ ãĥ³
ic an
re d
ou se
éĢ£ çĽŁ
è¼ ¸
æĸ İ
ĠçĶ ²
ik e
Ġåħ¨ åŁŁ
æĴ ®å½±
ãĥ¬ãĤ¯ ãĤ·ãĥ§ãĥ³
åŃ¦ çĶŁ
Ġ* (
B E
Ġå² Ĳéĺľ
ä¸Ń æĿĳ
ĠE ng
Ġå°ı éĩİ
ãĤ´ ãĥ³
r is
éģĭ åĭķ
ãĢı )
ĳ èªĮ
197 2
ãģŁ ãĤĬ
å µĲ
Ġ:: ;
ĠB EST
ãĤ¹ ãĥĶ
ãĥ¨ ãĤ¿
ĠãĤ· ãĥ§
ä½ľ å®¶
O H
y n
ãĤ« ãĤ¤
é ĭ
è¡Ľ éĸĢ
ĠãĤ ı
ãĥī ãĤ¤ãĥĦ
çī ĩ
ĠãĥĹãĥŃ ãĥĩãĥ¥ãĥ¼ãĤµãĥ¼
Ġå¸ ¸
çį Ħ
ãĥ¬ ãĥ¼ãĤ¹
L S
ãĥ© ãĤ¹ãĥĪ
ãģ® ãģĨ
Ġèı ħ
ãĥĳ ãĥ¼ãĤ¯
æ·± å¤ľ
p s
åĿ Ĭ
Ġå· ¥
Ġæ ħ
en g
t o
Ġ8 2
ar i
T T
U D
ĭ èŃ·
Ġ15 0
Ġb e
ĠåĪ© çĶ¨
ãĥķ ãĥŃ
og raph
çģ ½
Ġç¦ı å³¶
ĠO f
Ġå¥Ī èī¯
ç¥ ī
us s
æ£ ĭ
ĠIm age
åĩ ¦
æ¼ «çĶ»
æĪ ĳ
Ġä¸» é¡ĮæŃĮ
å¤ ķ
ãĥĳ ãĤ¹
æµ· è»į
''' ,
éģ ·
Ġè¡ ¨
éĿ ĸ
å¸ °
ä¸ī ä¸ģçĽ®
å¸Ĥ æ°ĳ
å¾Ĺ çĤ¹
if t
os e
ãģ® åľ°
ul l
b le
æľĢ é«ĺ
E P
ĠæĹ¥æľ¬ ãĥĨãĥ¬ãĥĵ
ãĥ¼ãĥ ¢
åı Į
ĠB ar
ĠL ife
æ´ ²
ĠåĪ ¥
ãĥ³ãĥĶ ãĥĥãĤ¯
ãĤŃãĥ£ ãĥ©ãĤ¯ãĤ¿ãĥ¼
ãĥĩ ãĥ³
æĿ±äº¬ éĥ½
ĠW ind
ãĥ¼ãĥĢ ãĥ¼
25 0
ãĢ ķ
æ² ¹
ĠW OR
ãĤ« ãĥ¼ãĥī
èĺ Ń
Ġæĺł åĥı
ãĥ« ãĤº
ãĥ¼ãĥ ı
çı¾ ä»£
Ġç¥ŀå¥Ī å·ĿçľĮ
Ġå® Ī
W h
Ġ'' (
ãģ© ãģĨ
ãĥŀ ãĥª
å¡ ©
ĠãĥĪ ãĥ©
èª ī
ãĥĻ ãĥ¼ãĤ¹
I P
Ġ195 1
ãĤī ãģĦ
Ġéģ¸æīĭ åĲį
è ¸
åħ Ħ
6 00
Ġå²© æīĭ
èŃ°éĻ¢ èŃ°åĵ¡
ç ĸ
G E
y a
èĦ ĩ
ĠçĽ ´
ĠB est
å¤§ è¼Ķ
ur n
8 00
ãģĬ ãĤĪãģ³
ãĤ³ ãĥŁ
Ġ19 49
å§ ī
ç °
Ġãĥ©ãĤ¤ ãĥĸ
Ġé ľ
ĠåĮ »
ĠæĦĽ çŁ¥çľĮ
æĹ Ĺ
ãĤ¬ ãĤ¹
æĽ¿ ãģĪ
Ġ8 4
å¤© çļĩ
d u
ç´ ħ
èı Ĭ
è² ©å£²
ĠãĤ¯ ãĥª
al k
Ġç Ģ¬
ĠH ar
Ġå±± å´İ
Ġç´ Ģ
ĠA s
ĠåĪ¶ å®ļ
æĤ Ł
r en
or g
ç¯ Ħ
ĠC ount
å² Ĳ
L e
F L
å¯ Ħ
ĠS m
ĠY ork
ec ial
an a
ĠãĤ ¼
u ro
Ġæ ®
Ġpres ents
ãĥªãĤ¢ ãĥ³
Ġm e
çĬ ¯
ĠåŁ º
Ġå¢ Ĺ
é® ®
ãģĬ ãĤĬ
ĠT our
ãĤ¯ ãĥ«
in o
çĻº è¡¨
ok yo
Ġçµ ¶
ãĤĵ ãģł
æ¶ ²
ŀ į
Ġ19 47
æµ ª
Ġãĥı ãĤ¤
ãĤ° ãĥŃ
æĸ° æ½Ł
æķ ¦
åĽ½ ç«ĭ
U L
Ġãĥ¬ ãĤ¤
ĠSt ud
Ġ8 6
Ġå¤ ¢
ãĥĥ ãĥĨ
éľ ĩ
æ¸ħ æ°´
Ġ1 10
ĠW ill
ĠåĢ ī
ĠãĤ· ãĥªãĥ¼ãĤº
ãĥŁ ãĤ¹
N E
G P
æı Ľ
æĹħ å®¢
ĠPl ay
ãĤ¢ ãĤ¤ãĥīãĥ«
ãĥĹãĥ¬ ãĥŁãĤ¢
ãĥ¡ ãĤ¤
196 9
éĿ ŀ
ãģ® ãģŁãĤģ
ĠãĤ¨ ãĥ«
Ġéĸ¢ è¥¿
ĠL a
é«ĺ æ©ĭ
æĶ¹ ç§°
ç½ ª
r id
Ġå¹´åº¦ åĪ¥
Ġv er
ç´ Ĺ
ãĥ³ãĥ ļ
ĠT o
Ġ9 9
Ġè¦ ³
å¡ Ķ
ĠO ne
çĪ µ
ãĤ¤ ãĤª
i en
A r
æķ £
ãĤ¤ ãĥĻãĥ³ãĥĪ
Ġé ¶´
ĠU p
å°Ĥ æĶ»
b um
ãĥķãĥ© ãĥ³ãĤ¹
æĹ¥æľ¬ èªŀ
Ġ8 3
ĠåĲĪ è¨Ī
ãĤ¤ ãĥĸ
ãĥŁ ãĥĭ
ãĥ¼ãĤ »
ab le
ãģ¾ ãĤĭ
äºĮ éĥİ
ãĥ« ãĥĦ
ĠT w
éł Ĩä½į
æ¶ ¼
Ġ8 7
ãģĭ ãģª
Ġc om
åĪ Ģ
ĠI nd
ĠC ity
ãĤĬ ãģ°
ãģĭ ãģĦ
ãģ®äººçī© ä¸Ģè¦§
çĦ ¼
ä½ĵèĤ² é¤¨
I AL
ãĤ¯ ãĤ¿ãĥ¼
ãĤ¢ ãĤ«
ĠæĢ §
éĻ ¤
æĹ¥ æĶ¾éĢģ
ĠH er
ĠQ u
ãģ® éģ¸æīĭä¸Ģè¦§
ĠT ime
å±± æľ¬
ãĥ¼ãĤ½ ãĥ³
Ġ** ãĢİ
ĠG O
ĠèĮ ¨
st er
k e
åıĬ ãģ³
éĻ¸ ä¸Ĭ
ĠT O
Ġæ¢ ħ
f orm
ãĥ³ãĥ Ń
äº Ń
Ġå·Ŀ å´İ
ãģĵ ãģ®
ãĥ¼ãĤ ¦
å¤§ è³ŀ
Ġç·¨ éĽĨ
of t
Ġåľ ¨
Ġæ±ł çĶ°
æ® Ĭ
æ¼ ¢
Ġ z
ĠE l
Ġæĥ ħ
ãĤ¸ ãĥ³
ãĥ¯ ãĥ¼ãĥī
å»¶ éķ·
V ER
ĠãĤ« ãĥ«
å° ±
olog y
æķ ĳ
Ġ9 5
ä» ²
Ġå» ĥ
Ġçĭ ¬
ĠãĤ¤ ãĤ®ãĥªãĤ¹
Ġãĥĭ ãĤ³
ãģ«ãģĬ ãģĳãĤĭ
Ġ19 44
ĠR em
éĬ ĥ
çĹ ĩ
Ġm m
in c
ãĥ³ãĥĩãĤ£ ãĥ³ãĤ°
Ġc ol
Ġé Į
æĵ į
or th
R C
Ġ8 9
ãĤ¹ãĤ¿ ãĥĥãĥķ
Ġé£ Ľ
K A
æŃĮ æīĭ
è»Ĭ åł´
ĠãĢ į
é į
è İ
K B
ĠãĤªãĥª ãĤ¸ãĥĬãĥ«
ãĤ² ãĤ¹ãĥĪ
æĸĩåĮĸ è²¡
éħ ¸
st em
itt le
åĭ ²
196 8
ĠS ong
! ãĢį
äºº éĸĵ
E FA
ãĤº ãĥł
Ġçµ Ĥ
et s
ī èĹ¤
ãĥķ ãĥªãĤ«
å·Ŀ å¸Ĥ
ãģ¤ ãģį
ĠãĤ¢ ãĤ¸ãĤ¢
EN T
ãĤĵ ãģĺ
æĸĩ ç¤¾
ç ŀ
ĠA b
ãĥ¼ãĤ ª
Ġæ¸ ĭè°·
ãĤ¯ ãĤ·
åĮº åŁŁ
l er
ãĥĩ ãĤ¤
ãģĤ ãģĦ
èį ĺ
ĠãĤ® ãĥ£
é ī
ĠA t
ãĤ¢ ãĤ¸ãĤ¢
ĠF EST
ĠãĤµãĥĸ ãĤ¿ãĤ¤ãĥĪãĥ«
ĠG l
ĠéĻ¸ ä¸Ĭ
ĠR es
çŃ Ĩ
Ġæł Ĺ
åĲī çĶ°
ĠW e
è¢ ĭ
in i
ĠA p
Ġæ §ĭ
ãĥĥ ãĥĿ
Ġè Ĥ
æ³ ³
ä¸ĩ åĨĨ
ãģķ ãģ¨
ãĤ¦ãĤ§ ãĤ¤
k a
ç¥ ĸ
æĪ¦ éļĬ
ãĤ¸ãĥ£ ãĥ¼
ä»¥ éĻį
ĠãĤ¨ ãĥĶãĤ½ãĥ¼ãĥī
ãĥ¼ãĤ· ãĥ£
Ġæī ĭ
ç¦ı ç¥ī
ĠD ay
ĠãĤ¹ ãĤ³
ĠS E
Ġ ä¹Ŀ
è ¥
Ġæ° ı
ĠéĢ ²
an e
ãģķ ãģį
l o
ãĥ¬ãĥ¼ãĤ· ãĥ³ãĤ°
éĢ£ åĲĪ
è¬ Ļ
ĠãĥĿ ãĤ¤ãĥ³ãĥĪ
ĠãĤ¹ãĥĪ ãĥ¼ãĥªãĥ¼
ãĤ¨ ãĤ¹ãĥĪ
ĠçµĮ æ¸Ī
ãĥĥ ãĤ±
ro s
ãĥ¦ ãĥĭ
ãĥ¬ ãĥ¼ãĥĪ
ãĥĻ ãĥ«ãĥĪ
é¦¬ åł´
ĠA g
å¯¾ å¿ľ
ĠèĳĹ æĽ¸
Ġéģİåİ» ãģ®
Ġæ±Ł æĪ¸
èĻ «
åĲĪ è¡Ĩ
G O
ãĥ© ãĥªãĥ¼
ĠãĤµ ãĤ¤
éļ ľ
ä¼ļ èŃ°
å½ ¼
ĠS C
ĠR ob
Ġç Ĭ
Ñ Ģ
ä» Ļ
Ġå¹´ è¡¨
ĠâĨ Ĳ
LU B
Ġéł Ī
ãģ® å¤ī
Ð ½
æī į
c y
æģ Ń
ãĤ³ ãĤ¹
ç´ į
ãĤ¦ ãĥ³ãĤµãĥ¼
çĶº æĿĳ
ãĥ¼ãĤ ´
Ġä¸ī éĩį
ãĥĩ ãĤ¹
æı ®
ãĥĪãĥ© ãĥĥãĤ¯
ĠS oc
ĠåĨ į
L IVE
å¹´ æľĪæĹ¥
å¯ ©
é Ĳ
è± Ĩ
up er
éĸ ī
c o
åİ ļ
åĪĹ è»Ĭ
Ġ19 43
ãĤı ãĤĬ
ãĥĥ ãĤ·
æĶ¯ æı´
èĩªåĭķè»Ĭ éģĵ
Ġæ¼ «çĶ»
ĠM c
ãĥ¤ ãĥŀ
Ġç¦ıå²¡ çľĮ
éĻ Ħ
es e
æķ ħ
åĪ »
G A
åİŁ çĶ»
a ul
åıĤ èĢĥæĸĩçĮ®
éŃ Ĥ
ãģĬ ãģĬ
èĳĹ ä½ľ
è¾ ŀ
Ġ \
ãĤ¹ãĤ¿ ãĥ¼ãĤº
ĠSt ar
å°ı æŀĹ
Ġ9 6
éĽ ·
åĽŀ å¤§ä¼ļ
S E
ãģ® å·»
ãĤ¬ ãĥ«
ãĥŀ ãĥ¼
ãĥģ ãĥĬ
ĠB E
ĠåĲ ¹
) )
ĠM F
V A
ĠP ol
ãĤ³ ãĥ¼ãĥĬãĥ¼
ide o
å° »
æł Ĺ
Ġè¡ Ģ
ä¸» ç¾©
Ĵ éĻº
è¾ °
ĠãĤ¤ ãĥ³ãĤ¿
çĴ° å¢ĥ
é ¼
ãĥĵ ãĥ³
ãĤªãĥ¼ãĥĹ ãĥ³
ä¼ļ éķ·
å¸Ŀ åĽ½
ãĥ¢ ãĥ³ãĥī
ç´ ¹
Ġéº »
en er
æŀ ł
ç· ´
é «
ãģĮ ãģĤãĤĭ
ãĥ³ãĤ ¼
ON G
è² ł
ĠC OM
ãĢģ ãĢĮ
ĠCom m
ãĥı ãĤ¦ãĤ¹
´ çĶ°
Ġ9 2
Ġé ¾į
éĽ» è»Ĭ
ç£ ¨
éĢ Ķ
196 7
ãĥĴ ãĥŃ
- '''
ãĥŀ ãĥ©
ç· ł
M P
Ġ9 3
ãģķ ãģĦ
ot o
Ġå® Į
ãģ ľ
m y
éģĭ è¡Į
Ġèª ķçĶŁ
Ġçķª çµĦ
Ġæ©ĭ æľ¬
è» ½
ĠåĪĿ åĽŀ
Ġèį Ĵ
C l
ĠæĿ İ
ãģį ãĤĭ
ãĤĤ ãĤĵ
ĠçĽ ®
ä½ ĳ
Ġâ ĸ
ãĤ¿ãĤ¤ ãĥł
ãĥ¡ ãĥ©
åĳ Ĥ
Ġåĩº èº«
ãĥ¼ãĥĵ ãĥ¼
å¹´ éĢ£ç¶ļ
éķ· å´İ
it al
ĠM on
ãĤ° ãĥª
æĿ Ł
é¡ Ķ
Ġãĥķ ãĥŃ
ãģı ãĤĬ
æĸĩ åŃĹ
ĠY our
éĸĭ è¨Ń
L O
èī ĩ
é ı¡
Ġç¾ ¤
å· ¨
ĠRec ords
è± ª
* *
ãĤ¿ ãĥ³
æ½ ¤
è³Ģ çľĮ
ãĤ» ãĥĥãĥĪ
ivers ary
Ġ19 46
ĠåŃ¦ æł¡
Ġ4 00
Ġèĭ± èªŀ
r al
Ġ19 41
ç¶ ±
ĠãĤ¯ ãĥ¬
æ¿ ĥ
ãĤ· ãĥ³
ĠãĤ¦ ãĤ©
ĠæľĢ é«ĺ
Ġ ä¼ģçĶ»
iz e
Ġ ì
é£ ¾
è¨ ª
èģ ´
Ġ19 40
èĪ Ĺ
åħ¥ ãĤĬ
ĠD ream
Ġè£ ľ
æ¾ Ħ
ç¨ İ
éķ· éĩİ
æ¶ ¯
åĽ½ æ°ĳ
et h
z e
Ġæ ¿
ĠåĮ º
æ¥½ éĥ¨
ãĥ¼ãĥ Į
ãĥĦ ãĤ¢ãĥ¼
ãĥ¯ ãĥ³
em ent
åĽ£ ä½ĵ
ãģ¿ ãģ®
åľ ĭ
Ġ9 8
æľª æºĢ
Ġ ä½ĵ
åħ±åĴĮ åĽ½
Ġãĥ¦ ãĥĭ
ra g
Ġå¡ ©
ãĥ« ãĤ«
ĠèĹ¤ åİŁ
it a
ĠåŃ Ĳ
al d
ĠIntern ational
Ġ9 7
19 60
ãĥ¯ ãĤ¤
ãĥ« ãĤ³
æĿ¾ æľ¬
Ġæ¶ Ī
æĿ± æĺł
çĤ İ
è· ĿéĽ¢
ĠæĦĽ åªĽ
ĠC an
ãĤ¯ãĥ© ãĤ¹
Ġ9 1
Ġ19 42
ĠèĥĮ çķªåı·
ãĤ·ãĥ£ ãĥ³
éĿ Ļå²¡
ĠåĽ½ ç«ĭ
åĪ ¸
Ġãĥ¤ ãĥŀ
Ġèī ¦
çĶ° çĶº
os s
Ġå¼ ķ
æĲ º
ãĥĲ ãĥ³
M I
åĽĽ éĥİ
ãĥŃ ãĤ¦
uc k
Ġm y
1 10
ĠSt ation
Ġãģ» ãģĭ
è¡Į æĶ¿
ĠãĤŃãĥ£ ãĥ©ãĤ¯ãĤ¿
ĠãĤ¹ ãĥĨãĤ£
ãĤ« ãĥª
èĢ ķ
ĠIn st
å¸ ³
ãĥ¼ãĥĸ ãĥ«
.. ..
ãĤģ ãģĲ
ĠM ag
: '''
ãĥĥ ãĤ³
éĽ» åĬĽ
l in
Ġåķ Ĩ
èĻ İ
F F
ãĥ¼ãĥ¨ ãĥ¼ãĤ¯
æĻ ¶
ãĥª ãĥªãĥ¼ãĤ¹
b y
è» Į
ãĥĥ ãĤ¿ãĥ¼
ĠY OU
ç¹ ģ
ãĥķ ãĥª
IV AL
» è¨³
ãĥĨ ãĤ¤
ent al
AR D
ĠæĬķ æīĭ
æ±Ł æĪ¸
ĠU EFA
um mer
ãģ« ãģĤãĤĭ
æĸ°èģŀ ç¤¾
f er
ãģ® èĬ±
åįļ å£«
Ġå¤ ľ
ãģį ãģŁ
æľª æĿ¥
ãĥ³ãĥĳ ãĤ¹
æ£ Ĵ
ãģķ ãģ¾
ãĤģ ãģ¦
å¦ Ļ
Ġæł ĥæľ¨
è Ĵ
ãģĹ ãĤĵ
å°ĤéĸĢ åŃ¦æł¡
Ġ as
ãĤ¹ ãĤŃ
ãĤ¹ãĥĪ ãĥ©
Ġç¤¾ ä¼ļ
ĠR ev
åº Ĭ
è¨ ±
A Z
Ġé İ
Ġ9 4
éĢ Ĩ
M y
196 6
196 1
Ġæľ¨ æĽľ
ĠæĮ ĩ
ãģ« ãģª
çĶ° é§ħ
è¾ ¼
Ġãĥ¡ ãĤ¤
ĠåĬĩåł´ çīĪ
ĠãĤ¹ ãĥĿãĥ¼ãĥĦ
Ġp p
Ġå®ĩ å®Ļ
å¡ ¾
ãĥĬ ãĥĢ
196 5
ãĥ³ãĥ ĭ
ãģ® æĪ¦
a ut
Ġ0 3
å· ³
ir st
å¹´ ãģ¶ãĤĬ
ĠD r
ãĥĳ ãĥ©
åĩºçīĪ ç¤¾
Ġéĥ ¨
å»º ç¯ī
ãģ¯ ãĤĭ
ãĥĸ ãĥ³
Ġãģ§ ãģĤãĤĭ
ĠçĶ» åĥı
ãĤª ãĥ«
ãĥĢ ãĤ¤
ĠãĤ¿ãĤ¤ ãĥł
ĠåĲ Ľ
ĠHist ory
å¤§ æĪ¦
ãĥĽ ãĥĨãĥ«
ian o
åĲį ãģ®
Ġåľ° åŁŁ
Ġæī ĵ
ãĥĨãĥ¬ãĥĵ æĿ±äº¬
ĠãĤĨ ãģĨ
Ġèį ī
ĠE P
æĹħå®¢ éīĦéģĵ
ĠçĲ Ĩ
u ch
çĨĬ æľ¬
ãĤ¸ãĥ§ ãĥ¼
ĠE N
å¼ ĵ
ĠO P
ĠCh rist
ĠA c
å®Ł æĸ½
çĶ» çĽ£çĿ£
Ġé »Ħ
åħ ħ
å³ ł
Ġåīį çĶ°
ĠéĢ Ģ
ä½ı å®ħ
ãĤ» ãĥ«
ãĤ¸ãĤ¢ ãĥł
Ã ¨
Ġãģĵ ãģ®
æĭ ³
çª ģ
ĠOff icial
L B
éģĭ è»¢
Ġå¤ ī
å¯¾ è±¡
ãĥı ãĥł
èĵ ®
ãĥĥ ãĤ·ãĥ§ãĥ³
çİ ²
Ġçµ µ
æ¸¡ è¾º
ĠM ix
or i
- )
ĠB er
m a
èĸ «
é¡ ĺ
ĠçĦ¡ æīĢå±ŀ
ĠãĤ¸ãĥ§ ãĥ¼ãĤ¸
åºĥåŁŁ åľı
åıİ åħ¥
ãĥ¼ãĥĩ ãĥ³
at es
Ġå²¡ å±±
ãĥ³ãĥ ¡
å¢ ³
çĶ± æĿ¥
Ġç¦ı å³¶çľĮ
Ġ un
ãĢħ æ±ºåĭĿ
ãĥŃ ãĥ¼ãĥī
ut ion
æĿ± æµ·
çĽ Ĭ
ãĥ©ãĤ¤ ãĥĲãĥ¼
ãĤ¹ ãĥ©
ĠèĩªçĶ± æ°ĳä¸»åħļ
ĠãĥĨãĥ¬ãĥĵ æľĿæĹ¥
Ġd u
Ã Ń
Ġæ° Ĺ
n a
Ġ3 00
ç¤ İ
å¾ ħ
ĠNE W
ĠM ON
lect ion
Ġç³ »
Ġç´ Ħ
èĩ ¨
Y A
Ġé¹¿åħĲ å³¶
åī ²
çĮ «
Ġç´ °
ãģ¾ ãģŁ
æĹ Ń
il le
åİŁ å¸Ĥ
ĠA ward
è¨ ĵ
éł ¼
æģµ åŃĲ
ĠD E
ĠçĻ ¾
Ġ19 39
iv er
ãģ® æ¯į
Ġãģ ĳ
ra d
ĠF I
ãĥŀ ãĤ¹ãĤ¿ãĥ¼
Ġåºĥ å³¶çľĮ
Ġæ¹ ¯
Ġå½¹ åĲį
æļ ®
ĠP ubl
ãĥªãĤª ãĥ³
å¥ı æĽ²
ĠãĤ¢ ãĥĬ
åľ° ä¸ĭ
æĿ± æĹ¥æľ¬
æ£ Ł
ĠS ec
Ñ ģ
ãĤ´ ãĥ¼ãĥ«
åĽ½éļĽ ç©ºæ¸¯
ãĤ¹ ãĤ±
åĶ Ħ
Ġæĥħ åł±
ĠéĿĻå²¡ çľĮ
æģ Ĵ
an o
ç´¹ ä»ĭ
ãģĹ ãģį
ãĥ¯ ãĤ¤ãĥĪ
æ¸ ¬
Ġæ ĬĢ
ĠâĨĲ âĨĲâĨĲ
ãĥĥ ãĤº
ãĥĻ ãĤ¤
çĲĨ åŃ¦
çµĮ æŃ´
Ġ he
ãĢģ ãĢİ
Ġãĥı ãĥ¼ãĥī
ĠM E
ãĥ¼ãĥĪ ãĥ«
ĠâĨĲâĨĲâĨĲ âĨĲ
æ ĩ
Ġv on
ãĥ³ãĥī ãĥ³
å¹´ çĶŁ
Ã ³
Ġ( #
é Ī´
ãĥ¬ ãĥ«
ãĥª ãĤ³
196 4
åįĥ ä»£
å£° åĦª
Ġãģ Ī
U E
ãĥ© ãĥ¼ãĥª
èĩªæ²» ä½ĵ
ĠD av
åĲ «
å¯Ĩ åº¦
Ġèª Ń
ĠãĢ ı
ĠåĬ ©
ãĥ¬ ãĥĥãĤ¯ãĤ¹
å «
ĠA T
ä¾ Ŀ
£ å·¥
ou gh
èĤ ī
Ġç £
ĠæĹ¥ æĽľ
ä¿ĿèĤ² åľĴ
ĠèĬ ¸
Ġ19 30
" ,
é§ Ĵ
Ġæ £
ãģĬ ãģĭ
ĠæĦĽ çŁ¥
ä» Ļåı°
ãĤ¬ ãĥ¼ãĥ«
Ġè§ Ĵå·Ŀ
s ite
ãģ¡ ãĤĩãģĨ
åħ± åĲĮ
ĠS S
op h
åħ± èĳĹ
å¥³ æĢ§
ãģĻ ãģ¿
ĠåŁ¼çİī çľĮ
Ġæ°ı åĲį
Ġç ²
Ġé¦ ĸ
è»Ĭ äººåĵ¡
ãĤ¢ ãĥĥãĥĹ
hi p
çĽ® ãģ®
Ġ Î
äº ¡
ĠãĥĽ ãĥ³ãĥĢ
ç·¨ æĪĲ
æķĻ å¸«
Ġ $
ãĥ³ãĤ ±
ãĤ° ãĥ¬
ãĤ® ãĤ¿ãĥ¼
è£ģ åĪ¤
çµĮ çĶ±
Ġæºĸ æ±ºåĭĿ
ä¼Ĭ èĹ¤
Ġéķ·éĩİ çľĮ
æķĻ ä¼ļ
ĠB R
æľ Ńå¹Į
y pe
ĠãĤ¦ ãĥ«ãĥĪ
u x
Ġæ» Ŀ
ĠæĽ ²
D ER
Ġâ ĪĴ
åĥ ļ
ãģŁãģ¡ ãģ®
ãĥĥ ãĥĨãĤ£
Ġ ä½
éĻ °
ãģĦ ãģĨ
ãĤ¤ ãĥł
j i
å´ ĩ
ĠM ed
å»º è¨Ń
Ġé Ĭ
Ġå±± ä¸ĭ
ĠB ook
Ġé ¬¼
ãĥĹ ãĥ¬ãĤ¤
è² «
ĠS w
ãĤ¹ãĤ¿ ãĤ¸ãĤª
è Ľ
Ġ10 1
æĸ° å®¿
å¹´ ãģ«
å° ī
Ġéĥ½ å¸Ĥ
ĠæŁ ı
OUN D
ĠU S
Ġåħ¬ éĸĭ
ĠR ock
éĻĲå®ļ çĽ¤
Ġä¸Ń åŃ¦æł¡
ãĤ¹ãĥĪ ãĥŃ
en e
A I
em ber
éķ· èª¿
ãĥ³ãĤ ¶
Ġ14 0
Ġ( '''
r it
ãĤ°ãĥ© ãĥ³ãĥĹãĥª
et er
åĨ ĴéĻº
ãģĮ ãĤı
é£Ľ è¡Į
h a
ak a
è¥ ²
Ġp l
Ġp r
ãĥį ãĥŀ
Ġãĥ¡ ãĥ³ãĥĲãĥ¼
Ġå°ı åŃ¦æł¡
Ġå¤§ åŃ¦
196 3
ãĤ³ ãĥ¼ãĥģ
Ġå² ¸
th ãĤ·ãĥ³ãĤ°ãĥ«
Ġçģ« æĽľ
Ġc l
ĠI II
ãģ¯ ãĤī
Ġå°ı èª¬
Ġãĥį ãĥĥãĥĪ
ãĥĬ ãĥł
at ed
ER O
ç´ «
ĠèĹ¤ çĶ°
æĮĩ å°İ
åĮº ç«ĭ
OW N
ãĤ¤ ãĥ¬
our n
Ġåĩºæ¼Ķ èĢħ
Ġãĥī ãĥ©ãĥł
ãģ§ ãģĻ
éĽ» éīĦ
ĠAnn iversary
è§£ èª¬
ĠWOR LD
ĠT r
ãĥĲ ãĥ³ãĤ¯
ãĤ¢ ãĥ©
Ġãĥª ãĥ¼ãĤ°
ãģ® äºº
ĠA ss
Ġ5 00
ãĤ°ãĥ© ãĥł
P C
ãĤĨ ãģ¿
å¿ «
ãģ® æŃĮ
ãĥ¼ãĥł ãĤº
Ġæ°´ æĽľ
Ġs e
n ow
Ġs p
ãģ« åıİéĮ²
ĠD J
æĹ¥ å¹³åĿĩ
ĠG IR
æŁ ĵ
å¥½ ãģį
U n
Ġ x
åĭ ¤
B L
ĠP e
re et
åĬ´ åĥį
åĬł èĹ¤
çī Ľ
Ġå±± æ¢¨
ĠH igh
ãĥķãĤ£ ãĤ·ãĥ£ãĥ«
Ġç Ŀ
è¾² æ¥Ń
Ġç¾¤ é¦¬
ãĤµ ãĥ³ãĥī
ãĤ¨ ãĥĨãĤ£
ĠçŃ ĳ
Ġ ä¿³åĦª
Ġå¿ ĥ
ond on
Ġ å¹¸
IN AL
æĽ ½
ãĥŀ ãĤ¯
ãĥ³ãĥ Ŀ
in n
ãģ« éĸ¢
ãĥŁ ãĥį
çĲ ´
c i
Ġ19 36
ĠU N
² å¾Ĺ
ĠB ro
æ¼ ģ
ĠåĪ ĳäºĭ
1 20
g er
éĸ¢ è¥¿
Ġä¸Ń å³¶
å¤§ æ©ĭ
ĠP re
Ġ1 30
C K
ãģ® æ£®
éĽ £
Ġæµ ģ
ĠãĥĨãĥ¬ãĥĵ æĺłçĶ»
ĠD isc
æĹ¥ ãģ®
ãĥĩãĥ¥ ãĥ¼ãĤ¹
o ot
Ġæĸ° å®¿
o le
Ġè¾ ²
ĠãĥŀãĤ¤ ãĤ±ãĥ«
Ġd i
åĴĮ çĶ°
ãĥŁ ãĤ¹ãĥĨ
ãĥ¬ãĤ¯ ãĤ¿ãĥ¼
IM E
Ġèµ ·
Ġç¯ ł
ir d
åķĨ æ¥Ń
éĿ¢ ç©į
ĠåĪ©çĶ¨ çĬ¶æ³ģ
f ord
ĠãĥĪ ãĥ¨ãĤ¿
ãģ§ ãĤĤ
ãĥİ ãĥ¼
æľĿæĹ¥ æĶ¾éĢģ
Ġå° Ĥ
Ġ en
ãĤ¢ãĥĬ ãĤ¦ãĥ³ãĤµãĥ¼
åħ« å¹¡
ĠåĴĮ æŃĮ
l ine
19 59
èĭ± ç¤¾
ãĤ¨ ãĤ¢
IS O
ãĥķãĤ¡ ãĥ³
Ġ äºĢ
Ġåħµåº« çľĮ
ĠæĽ¸ ç±į
Ġåı ¸
ãĤ¢ ãĥ³ãĥī
ãģĵ ãĤį
ãĤ¸ãĥ¥ ãĥĭãĤ¢
æį ķ
Ġèº« éķ·
ãĤ¹ ãĤŃãĥ¼
Ġå½ ¢
Ġ19 37
èĩª è¡ĽéļĬ
ĠåĨ Ļ
æ¡ Ĥ
ħ æ®º
è£ħ ç½®
10 1
Ġåį ļ
ĠD F
ãĤĮ ãģ¦
å·¥ äºĭ
èĢħ ãģ®
ãģĶ ãģ¨
ä¸Ń ç¶Ļ
ĠãĤ® ãĤ¿ãĥ¼
ãĥģãĥ£ ãĥ³
ç¢ º
ĠC R
åı¯ èĥ½
ãģį æĽ¿ãģĪ
Ġé ³
åĬ¹ æŀľ
ĠçŁ ¥
è£ ı
Ġçµ Ħ
s p
è¦ ĩ
Ġä¸Ń éĩİ
196 2
åĢ ĭ
âĢ ľ
Ġå®¶ æĹı
ãĥĲ ãĥĪãĥ«
Ġæĸ°æ½Ł çľĮ
ãĥī ãĥŃ
D R
ãĥ¢ ãĥª
Ġè¿ĳ çķ¿
ãĤ¿ ãĤ¦ãĥ³
is m
åĭĿ åĪ©
N A
Ġä¸ī èı±
ç§ĳ å¤§åŃ¦
ĠR E
çİĭ åº§
ĠG re
âĢ ł
ãĤ¯ ãĥ©ãĤ¤
Ġãģĭ ãĤī
Ġæ¤ į
Ġå° ±
AC E
ç«ĭ ãģ¡
ãĥİ ãĥ³
aw a
ĠçĻ »
ĠIDOL M
W E
ĠãĥĿ ãĥ¼ãĥ«
ãģ© ãĤĬ
¿ åħ¥
ĠFEST IVAL
ch en
ĠSch ool
åĭķ çī©
ãĥ¼ãĥĭ ãĥ³ãĤ°
çĳ ŀ
çļĦ ãģª
èĢħ æķ°
åĨħ éĸ£
T E
ãĥľ ãĥĥãĥĪ
ĠãĤª ãĥ¼ãĥĹ
ãĥĲ ãĥ¬
ĠèĪª ç©º
ĠC S
an y
b e
ãĥĿ ãĥ¼ãĥ«
Ġå¹´ é½¢
ª ¨
è©¦ é¨ĵ
ãģķãĤĮ ãģ¦ãģĦãĤĭ
å·Ŀ çĶº
Ġãģ ©
æĥĳ æĺŁ
Ġ19 32
D J
ab y
ç¦ ģ
ä¼ļ åł´
ãģĹ ãĤĥ
ĠBl u
åľŁ æĽľ
å¹´ é½¢
ç·¨ åħ¥
ĠæĹ Ń
ĠM C
èĦ ±
ãĥ§ ãĤ¦
Ġåĭ ķ
ĠD o
ĠE v
åºģ èĪİ
ãĥı ãĥ¼ãĥĪ
ĠéĽ ª
åĽŀ æķ°
ãĤ¸ ãĥĥãĥĪ
Ġæ¡ ĥ
Ġæķ Ĺ
å´İ å¸Ĥ
ãĥ¬ ãĤ³ãĥ¼ãĥī
åħ« æ®µ
ep p
åŃ¦ é¤¨
ãĥ³ãĤ ®
ĠãĥĽ ãĥ¼ãĥł
Ġçł Ķ
ĠHe art
Ġä» ¥
ãģĻ ãģĳ
ãģ ½
IS C
Ġ19 35
ĠGu itar
åħŃ æ®µ
éĻ £
ĠæľĢ åĦªç§Ģ
Ġä¹ħ ä¿Ŀ
è ĥĮ
éĻ µ
ãĥĹãĥ¬ãĥŁãĤ¢ ãĥł
ĠãĤª ãĥĸ
æģ ¯
ĠF OR
Ġéĺ¿ éĥ¨
ĠA S
Ð¾ Ð
ãĥ¡ ãĥ¼ãĤ¸
ĠãĥĻ ãĥ¼ãĤ¹
åİŁ é¡Į
Ġç ħ
Ġ19 34
æŃ³ æľªæºĢ
äºĭæ¥Ń æīĢ
ĠåĽ½ ç±į
æĿ± å®Ŀ
ãĥ³ãĥŀ ãĥ³
Ġ19 31
ĠT okyo
ĠéŁ ĵåĽ½
ĠéĿĴ æľ¨
Ġåįĥèĳī çľĮ
æ¥½ æĽ²
u z
ĠM Y
Ġè¦ ª
ãĥ¼ãĥŁ ãĥĬãĥ«
ãģ® åĩºæ¼Ķ
çĶŁ çĶ£
ãĥ¼ãĤ¸ ãĥ§ãĥ³
Ġä» ģ
ç¨² çĶ°
ä¸ Ī
T OKYO
Ġç Ĩ±
æĻº åŃĲ
Ġå®® åŁİçľĮ
Ġå¤§ éĩİ
ĠæĤ ª
Ġç Ĥ
æĹ¥ è¨ĺ
æĺ ĵ
ãĤ¸ãĥ£ ãĥĳãĥ³
P h
Ġ19 33
å·Ŀ é§ħ
Ġé ¡
è© ³
å¤© ä½¿
r ing
ãģ ·
ĠN ational
ĠD on
çı ł
ãģł ãģĦ
è£½ éĢł
èª² ç¨ĭ
ãĥĨãĤ£ ãĥĸ
ĠG P
æĮĩ æı®
ãĥ¼ãĤ· ãĥ§
ãģĺ ãĤĥ
ast er
Ġ19 20
ĠR ep
Ġæ² ¢
ãĥ³ãĥ ¢
ch n
Ġè© ±
æĹ¥ æĽľ
Ġå· ¨
ĠéĿ ŀ
ĠãĤ¨ ãĥ¬
ĠçŁ Ń
ãģĭ ãĤĵ
ãģ® æŃ´åı²
ç¥ŀ å¥Ī
åĢ ĭäºº
éĭ ¼
7 00
Ġ ex
el s
ĠéĽ Ĩ
ãģ¾ ãģĻ
æĻĤ ãģ®
RE AM
Ġè Ģ
od y
ĠL A
o e
Q U
éīĦéģĵ é§ħ
ĠS ing
è ®
ĠSp ecial
ãĥ³ãĥ Į
t he
ĠU P
B M
ãĥ« ãĥĢ
Ġ19 29
Ġæħ ¶
Ġè¿ĳ èĹ¤
èĪŀ åı°
ãĤ¹ãĤ¿ ãĤ¸ãĤ¢ãĥł
c es
å¸¸ çĽ¤
Ġ19 38
Ġç į
å¾ ģ
Ġ Â
ãĥª ãĥ¼ãĥĪ
çĶ° çľŁ
è Ĩ
Ġ ar
å±± é§ħ
Ġw eb
Ġé§ħ æ§ĭéĢł
15 0
½ é¤¨
Ġãĥķ ãĥ¬
è¬Ľ è«ĩç¤¾
ĠC OL
ãĥ« ãĥ¼
ĠM i
c on
èŃ ĺ
é³ ´
Ġæ³ ī
ĠãĤ° ãĥ¬
ä¸ĥ æ®µ
å¾ Ħ
å¤ª éĻ½
ãĤ¸ãĤ§ ãĤ¯ãĥĪ
ãĥ«ãĥĪ ãĥ³
ĠC ont
ãĤ¢ ãĤŃ
ãĥ¼ãĥĨãĤ£ ãĤ¹ãĥĪ
L ive
ãģ¨ ãģª
Ġé³¥ åıĸ
Ñ Ĥ
ãģķ ãģıãĤī
åĦª è³ŀ
ĠR ad
ãĥĽãĥ¼ãĥł ãĥļãĥ¼ãĤ¸
ãĥ¯ ãĥ¼ãĤ¯
ĠåĨĻ çľŁ
ãĥ¼ãĥį ãĥĥãĥĪ
Ġè Ħ
OW ER
Ġä¸ī æµ¦
åĲ¹ æĽ¿
ĠãĤª ãĥ¼ãĤ¹ãĥĪ
Ġ1 12
D E
å Ĺ
èŃ ľ
åĳ¨å¹´ è¨ĺå¿µ
ub e
éĩİ æīĭ
æ°´ æºĸ
ãģ®å¤ī éģ·
æ¡ ĳ
ĠN O
èİ ī
P l
ãĤ¢ ãĥł
ä¸Ń ãģ®
Ġè Ļ
ĠP ark
ãĥŃ ãĥ¼ãĤº
æľ¬ ç¤¾
Ġé§ħ åĳ¨è¾º
Ġå¾Ĺ ç¥¨
é Ĩ
T D
ĠãĥŁ ãĥĭ
Ġ19 28
å®¶ ãģ®
Ġ1 11
ãĤ» ãĤ¤
Ġæł ¹
ĠV ersion
è¡¨ è¨ĺ
ĠO ut
æľ ĭ
çµĲ å©ļ
n y
A V
ãĥŃ ãĤ°
% )
ãģ®ä¸Ģ éĥ¨
ä¸Ĭ ãģ®
ĠåĽ ŀ
Ġå°ı å·Ŀ
ĠC he
ãĥĳ ãĥ¼ãĥĪ
éŃĶ æ³ķ
æ ¦
åĢ ¶
ãĥĸ ãĤµãĤ¤ãĥĪ
åħ į
Ġéļ£ ãģ®é§ħ
Ġç ¹
å·¥ åŃ¦
ãĥ¼ãĤ¸ ãĥ£
èī² ãģ®
å¥³ ãģ®
o ther
ĠåıĤ èĢĥ
Ġ äº¤
AM A
çĭ ©
ur y
æķĻ å®¤
åľ §
ãĥĭ ãĤ¨ãĥ«
ĠåĲį ç§°
ãĤ¯ãĥŃ ãĤ¹
çĽ Ĺ
ãĥŀ ãĥį
us h
èį ·
æĿ± åĮĹ
K Y
ãĥ© ãĥªãĤ¢
Ġâ ĺ
ou p
ãĥ¼ãĥģ ãĤ§
ãĥ³ãĤ° ãĤ¹
ĠAmer ican
ãĤ¨ ãĥł
ä¼ ı
ç§ĺ å¯Ĩ
åķĨ åºĹ
ãĥ© ãĥ³ãĥĢ
Ġãģ¾ ãģŁ
ãģł ãģĳ
ĠD es
è¨Ń è¨Ī
we et
Ġåħ¨ éķ·
ĠçŁ³ äºķ
le x
ç·¨ èĳĹ
æ¡ Ĳ
''' :
Ġ im
çľ ŀ
ãĥ³ãĤ¸ ãĥ£
ĠæĶ¾éĢģ æĻĤéĸĵ
ãĥŁ ãĥ³
æ¢ °
Ġ10 5
Ġè¶ ³
Ġè¶ Ĭ
M ar
ur es
æĹ¥ å¸Ĥ
ĠBl ack
N S
è» Ĵ
Ġ'' ''
æľ¨ æĿĳ
ĠCount y
Ġä¸Ń äº¬
åĥ ķ
ĠC L
çĭ ¼
ĠP S
ĠãĤ¢ ãĥª
Ġæ¥½ æĽ²
Ġå¾Į èĹ¤
ĠN e
åĲĪè¡Ĩ åĽ½
ãĥĢ ãĥ³ãĤ¹
äºķ ä¸Ĭ
ĠE m
ĠH ol
ä¸Ģ éĥ¨
çĽ£ ä¿®
i us
Ġ0 4
ĠA M
um e
æľĢ çµĤ
å¾ ĵ
é ´
éĢ£ éļĬ
ãĥ¼ãĥ¬ ãĥ³
ĠéĤ ¦
ãĥª ãĥĥãĥĹ
ãģ£ ãģ¡
æī ¿
æŃ ¯
T C
Ġ1 15
ãĥķãĤ¡ ãĥ¼
æĸ¹ æ³ķ
1 000
ak i
åĽĽ ä¸ģçĽ®
åŃ¦éĻ¢ å¤§åŃ¦
ãĤ¨ ãĤ¤
Ġæĸ ¹
Ġãĥĩ ãĤ¸ãĤ¿ãĥ«
N ew
è ŀį
åħ¨ éĽĨ
Ġãĥ¨ ãĥ¼ãĥŃãĥĥãĥĳ
ħ ãĤĮ
éĽ Ģ
er ry
if ic
Ġæĸ İ
æ´¥ å¸Ĥ
ĠéŁ³ éŁ¿
ãĥ¬ ãĤ®ãĥ¥ãĥ©ãĥ¼
ä¿ º
ãĥ¯ ãĤ¤ãĥī
Ġ au
ãģŁ ãģĳ
ãĤĴ åıĤçħ§
åħ¨ åĽ½
å°Ĥ çĶ¨
Ġè© ķ
ãĥĥ ãĥı
ãĤ¿ ãĥ¬ãĥ³ãĥĪ
ĠAn g
å ¦Ĥ
Ġå°ı çĶ°
H P
Ġå Ķ
ç¨ Ķ
ãĥ³ãĤŃ ãĥ³ãĤ°
Ġãģ ĺ
Ġå® ¤
Ġå® Ĺ
ãĤ¯ ãĤ¤
ä¼ ´
âĢ ķ
ro p
ĠF W
ĠO R
Ġå²¡ çĶ°
L ove
Ġæ ½
åŃ «
åĨ Ĭ
ĠS un
æĽ¸ ç±į
ĠP ART
ĠæĻ ®éĢļ
åĭķ æĪ¦å£«
ĠA V
è¡Ĩ èŃ°éĻ¢èŃ°åĵ¡
ãĥĲ ãĥ³ãĥī
ĠBl ue
ä¸ ¦
OM E
æ½® ç¤¾
Ġ Ã
19 58
ãģ¾ ãģ¡
Ġ** :
èį Ĵ
ä» ®
ad y
ĠC or
ĠæĶ ¹
ãģļ ãģ¿
ĠæĿĳ ä¸Ĭ
Ġè ¼
æľĪ æĽľ
ãģ¾ ãģķ
Ġè¥¿ æĿĳ
Ġæ¨ª å±±
åĲĮ ä¸Ĭ
ãĥĨ ãĥĥãĥī
æ¢ Ŀ
Ġ10 2
ç ĵ
ĠR EC
ãĤ¹ ãĥŀ
ĠRem ix
ãģĿ ãģĨ
çķª åľ°
¿åħ¥ æŃĮ
ĠãĤµ ãĥ³
ãĤ¸ ãĥ«
Ġåħ¨ æĹ¥æľ¬
ĠãĤ¤ ãĥĻãĥ³ãĥĪ
çİĭ åĽ½
ĠåĿĤ æľ¬
K E
D e
åħĥ ãĥĹãĥŃéĩİçĲĥéģ¸æīĭ
Ġéħį ä¿¡
èĩª çĦ¶
å°Ĩ è»į
ĠN ot
a el
éĸ¢ä¿Ĥ èĢħ
Ġãĥīãĥ©ãĥŀ CD
Ġãģ® ãĤĬãģ°
en a
å³¶ å¸Ĥ
ear s
Ġ ä½¿çĶ¨
ãģĭ ãĤĭ
Ġéģł èĹ¤
ãĤī ãģĹ
iel d
ç·ł å½¹
Ġå İ
ep h
é«ĺéĢŁ éģĵè·¯
G M
æī ±
ãĥ³ãĥģ ãĤ§
m i
ell o
Ġ1 13
èª ķçĶŁ
è¨ĺ äºĭ
Ġçī §
Ġ10 3
16 00
Ġæºĸ ãĢħæ±ºåĭĿ
é· ¹
åħĥ åīį
) ãĢı
Ġãģª ãģ©
CT ION
çī¹ åħ¸
f l
éľ ²
Ġ1 14
ãĤ° ãĥ«
ĠãĤ¹ ãĥĳ
æ»ħ åį±
Ġf t
æĸ° è¨Ń
ãĥ« ãĥĨãĤ£
ãģ¿ ãģ¤
æľŁ å¤§åŃ¦
æ³ķ å¾ĭ
å¢ ĵ
éĸ¢éĢ£ æĽ²
ĠWind ows
å®ļ æľŁ
St ation
åŁº åľ°
K O
B e
æĥ §
ãĥ¢ ãĤ¹
AN CE
ĠãĤ¦ãĤ£ ãĥªãĤ¢ãĥł
åŁ ¼çİī
åģ¥ ä¸Ģ
ç¥Ń ãĤĬ
çĶ± ç¾İ
Ġ0 9
çİ Ħ
çŃ ĭ
Ġåĳ¨ è¾º
ãĥĬ ãĥ³
Ġå¾ ĵ
ãĥ³ãĥķ ãĤ©
æ»ħåį± æĥ§
P A
ĠSU PER
ãĢ Ķ
ãĤĤ ãĤĬ
Ġ2 50
éĩĳ æĽľ
iv al
åĭķ çĶ»
ĠT H
ãĥ« ãĥĲ
ãģ¿ ãĤĦ
bo ard
æĸ° æĽ¸
éīĦéģĵé§ħ ä¸Ģè¦§
L OVE
æ±ºå®ļ æĪ¦
ãĤ¦ ãĥĥãĥī
ĠãĥŃ ãĤ·ãĤ¢
he l
AT E
ĠPro ject
of f
ĠæĿ ¿
ãĥ³ãĥĪ ãĥªãĥ¼
åĲį ãģª
ĠL ondon
Ġä» »
çµĦ ç¹Ķ
ãģ» ãģĭ
C O
ç ĥ
ĠãĤ³ ãĥŃ
äºĶ æ®µ
Ġ1 16
åŁ ·
èŃ· å£«
im a
ĠæľĿ æĹ¥
M B
Ġ19 27
ĠãĤ¸ãĥ£ ãĥĥãĤ¯
Ġé«ĺ çĶ°
ãĥ©ãĤ¤ ãĤº
ĠM od
ĠåŃ Ĺ
è¸ Ĭ
å®® å´İ
åĽ£ æ³ķäºº
Ġè¾ »
ĠR ed
ãĤ³ ãĥ¬ãĤ¯ãĤ·ãĥ§ãĥ³
ãĥ¨ ãĥ³
ãģ«éĸ¢ ãģĻãĤĭ
ãģ¤ ãģĭ
ĠçĿ Ģ
il m
ãģ« ãĤĤ
is ion
ĠéĤ £
éļ »
ãģĪ ãģŁ
Ġsh ift
åĢ¶ æ¥½éĥ¨
åĨħ ãģ®
OR Y
ad a
ĠãĥĨãĥ¬ãĥĵ æĿ±äº¬
æ² ĸç¸Ħ
æ¯ ħ
ãĥľ ãĥ¼ãĤ«ãĥ«
Ġãĥ¬ ãĥ¼ãĥĻãĥ«
Ġéĸ Ģ
Ġåı ĭ
ãĥ¦ ãĥ¼ãĤ¹
ãģª ãģĮ
ĠIn t
H e
ãĥ©ãĤ¤ ãĤ¢ãĥ³
ur g
ãĥ¼ãĥª ãĥ³ãĤ°
æµ ®
Ġ19 25
ä¸» é¡ĮæŃĮ
Ġ. ..
9 00
Ġ0 7
l ing
éĸ¢ æĿ±
è² Ŀ
ĠçĶ £
Ġ12 5
Y ou
Ġæİ ¥
ãĤ¢ ãĥī
éĩİ æĿĳ
ĠãĤ¢ ãĥ¬ãĤ¯
ĠO S
ĠSc i
ĠSy stem
ãĤ¨ ãĥ¬
ãĤ¢ ãĤ¯ãĤ»ãĤ¹
IS S
ĠIn c
ãĤ¯ ãĤµ
æ® ĭ
æĸĻ çĲĨ
Ġæ¡ Ĳ
åİŁ ä½ľ
éİ ®
Ġé£ Ł
ãĥ¼ãĥŀ ãĤ¹
Ġéĩĳ æ²¢
æİ¨ ç§»
it ch
ãĢ ĭ
ãĥ» ãĥ»
ĠæľĢ å¤§
Y S
Ġå²¡ å±±çľĮ
å²¡ å¸Ĥ
å¹³ æ´ĭ
è ½
19 57
Ġ |
ãĥ¼ãĥģ ãĥ£
ãĤ¢ ãĥ¼ãĥĪ
æĻ ĭ
Ġãĥ¯ ãĥ¼ãĥ«ãĥī
æĬķ æīĭ
ãĥľ ãĥ¼
Ġåħ Ī
ä¾ į
Ġç® ¡
! ãĢı
ĠS l
æĸ Ĳ
Ġc on
ĠçĶŁ å¹´
ãĤĦ ãģĭ
C S
æł¡ èĪİ
Ġ0 8
ãĤ¹ ãĥĿ
at o
ĠãĤ¸ãĥ£ ãĥ³
æŁ ı
19 56
ãĤ¯ ãĥªãĤ¹
ĠU SA
è Ŀ
ĠB ack
ĠV ocal
ãĤ¹ ãĥŃ
Ġ0 6
ãĤĨ ãĤĬ
ãĤ· ãĤª
un e
ãĥ« ãĥ³
ãĥŁãĥ¥ ãĥĭ
ĠF L
éĿĴ æĺ¥
( ''
ĠãĤª ãĥı
æĮ¯ èĪĪ
ĠP L
I Z
å² Ĳéĺľ
Ġè¨ Ī
at or
ĠçŁ³ å·ĿçľĮ
ãģĽ ãĤĵ
ãģ® ãĤ«
éĥ¨ å±ĭ
ĠBO X
åºĥ åł´
Ġ1 17
ĳ æĪ¦
åŃ¦ åĮº
Ġé ¨
ĠæĶ¿ æ²»
ä¸Ģ èĪ¬
ãģĪ ãģ¦
er o
åĵ² ä¹Ł
éłĪ è³Ģ
ur al
ĠV ideo
Ġèª ¿
ãĥľ ãĥ³
Ġæł Ħ
ãģį ãģ®
( '''
ĠH D
åı Ī
è¡Ĺ éģĵ
Ġè©± æķ°
ãģĦ ãģĦ
åĮĸ åŃ¦
èı ħ
æĹ ¬
Ġæ ¦
ãĥ¬ ãĥ¼ãĤ¿ãĥ¼
ĠS M
Ġä¼ļ åł´
å·Ŀ æĿĳ
IC E
Ġä¸ ģ
ĠE D
ĠéĿĴ å±±
âĹ İ
ĠãĤ ģ
U RE
ĠH E
ĠãĤ· ãĤ§
åįĶ åĲĮ
éĥ¨ éļĬ
M Hz
Ġæĸ īèĹ¤
Ġé«ĺ æĿ¾
æĿ ı
ãĥ¼ãĤ¸ ãĥ¥
ĠM X
è ľ
è«¸ å³¶
c le
ãĤģ ãĤĭ
ãĥ³ãĤ ¦
çŁ³ å·Ŀ
å¸ ĸ
çµĮ åĸ¶
æ©Ł èĥ½
Ġé ·
å¹´ éłĥ
g ram
ĠãĥĶ ãĤ¢
ãĥĸ ãĥĥãĤ¯
ãĤ¢ ãĥĹãĥª
ãĥ´ãĤ¡ ãĥ³
C L
ĠçŁ³ çĶ°
t y
Ġå ĥ
ãĥ³ ãĥªãĥ¼
A F
ãģ ±
ĠB oy
ri end
ãģ® åĲį
ãģ« ãģªãĤĭ
Ġãĥķãĥ© ãĥ³ãĤ¯
ĠçĶ° æĿĳ
é ª¨
ĠB L
ãĥķãĤ£ ãĤ¢
19 55
ĠA f
æ½ ľ
ĠK ing
çĽ´ æ¨¹
Ġ0 5
ĠãĥĲ ãĥ©
ol a
ä¹ĭ ä»ĭ
ĠTe am
ãĤ¹ ãĥ«
Ġ19 26
ãģ® çĪ¶
ãĥ¼ãĥ Ŀ
çª ĵ
ãĥ¶ ä¸ĺ
Ġãģ®ãģ¡ æĸĩåº«
Ġé¹¿åħĲ å³¶çľĮ
å¸Ĥ å½¹æīĢ
åĪ© çĶ¨
èĭ± éĽĦ
Ġå»ĥ æŃ¢
ãĤĬ ãĤĵ
çĶŁ åĳ½
åĴĮ æŃĮ
ĠãĥĪ ãĥł
ç¯ ¤
ers on
ç® ±
Ġ19 24
AK A
Ġä»®éĿ¢ãĥ©ãĤ¤ ãĥĢ
² è¼ī
æļ ģ
å¥³åĦª è³ŀ
ĠB o
ĠM OV
ĠãĤ¨ ãĥī
Ġå¤§ å¡ļ
12 5
ĠãĤ¤ ãĤ¿ãĥªãĤ¢
ĠG ood
K I
Ġäº¬éĥ½ åºľ
ãĤ¨ ãĥ³ãĤ¿
ãĤ¢ãĥ¡ãĥªãĤ« ãĥ³
åĩºèº« ãģ®äººçī©ä¸Ģè¦§
æķ µ
è¥¿ æĹ¥æľ¬
ãģı ãĤĭ
ĠæĹ ħ
Ġå¯Į å±±
Ġç¬ ł
s ch
he s
Ġå¤ª çĶ°
Ġæ¬ ¡
ĠãĥŃ ãĥĲãĥ¼ãĥĪ
ĠãĥĲ ãĤ¤
è¡Į æľ¬
ç§» è»¢
ĠèĲ ½
æ° ·
è¦ĸ åºģ
ĠJ e
Ġ1 18
Ġ- -
æľĪ ãģ®
Ġãĥĭãĥ¥ ãĥ¼ãĥ¨ãĥ¼ãĤ¯
æķ´ åĤĻ
ãĥģãĥ£ ãĥ¼ãĥī
C C
d ay
Ġéļ£ æİ¥
M O
çĶ· åĦªè³ŀ
Ġå¥³ æĢ§
l ag
ãĥĬãĥ« ãĥī
çľ ¼
ãĤ³ ãĥł
ur ing
am il
å¥Ī èī¯
ãĥ¼ãĥĳ ãĥ¼
AN G
ãĥªãĤ¢ ãĥ«
Ġ am
ĠSt reet
å¦ ĸ
ĠT rans
ĠIn ter
ĠãĤ¨ ãĤ¤
åĢ į
ãĤ¨ ãĥ¼ãĥ«
ç¬¬ ä¸ī
Ġå®ī èĹ¤
Ġé«ĺ çŁ¥
ĠAr ch
Ġæ» ĭ
å£ ģ
Ġç« ľ
å¤§ åĪĨ
ãĥĩ ãĥŁãĥ¼
éĥ½ å®®
æ¢ ģ
Ġãģ Ľ
ĠD ev
ãĥ¼ãĥĪ ãĥ³
ãĤŃ ãĥ³
çĶ° æŃ£
Ġè©³ç´° æĥħåł±
Ġãĥ¡ ãĥĩãĤ£ãĤ¢
ãĤ¤ãĥ« ãĥī
ãĥ¡ ãĥ«
IT E
Ð º
er y
äºĭ æķħ
ãĤ¹ãĤ¿ ãĥ³ãĥĪ
LU E
ãĤ¨ ãĥķ
è¨Ń å®ļ
æ©Ł æ§ĭ
ãģĹ ãģı
ear ch
om an
ĠãĥĪ ãĥª
ĠèŃ °
ãģ¨ ãĤĬ
Ġéķ· è°·å·Ŀ
use um
æľ¬ çĶº
ãĥ¼ãĥ© ãĥ¼
ĠãĤŃ ãĥ³ãĤ°
ĠçłĶ ç©¶
ç¶ ²
M ER
éŁ ĵåĽ½
ãĤ·ãĥ§ ãĥ¼
çı Ń
ãĥŀ ãĤ¸
ĠCl ub
ãĤ¬ ãĥ¼ãĥ«ãĤº
ãĥ¡ ãĥĢãĥ«
äºº æķ°
ĠREC OR
ãĥ¼ãĥķ ãĤ§
S M
åĽ ²
ãĤŃ ãĤµ
ãĢľ (
éĢ² åĩº
å¼ ¦
çĶ£ åħļ
ĠM in
Ġ18 0
çľ ĭèŃ·
IL L
k o
ĠIS O
Ġè» į
ãĤ¤ ãĤ¿ãĥªãĤ¢
re ak
Ġ10 4
t a
ãĥ³ãĤ¬ ãĥ¼
ãĥ´ãĤ£ ãĥĥãĥī
æĹ¥å¹³åĿĩ ä¹Ĺ
ä½ ķ
ĠM ay
çŃ ĳ
Ġ ä»£
è¿ Ķ
ãĥ¬ ãĤª
Ġéĥ µä¾¿
ĠL ittle
å±± å½¢
P ro
Ġãģ ¦
g r
ĠV OL
ĠWill iam
æ» ĭ
Ġãĥŀ ãĥ¼ãĤ¯
ĠãĤ½ ãĥķãĥĪ
ber g
ĠåĨ Ĩ
ãĥ¼ãĥķ ãĤ¡
Ġæ¯ į
åĭķæĪ¦å£« ãĤ¬ãĥ³ãĥĢãĥł
Ġ10 8
åĹ £
Ġç¬¬ ä¸ī
Ġn o
§ å·ŀ
rum s
çĩ ĥ
ãĤĵ ãģ°
çŁŃ æľŁå¤§åŃ¦
or a
å¤§ ä»ĭ
ĠãĤ¸ãĤ§ ãĤ¤
ĠãĤ» ãĥ³ãĥĪ
ãģ® çĶ·
Ġåĸ ľ
ãģĭ ãģĳ
ĠæĶ ¾
èª² éķ·
Ġ10 6
Ġç Ĺ
Ġæ¡ ĳ
ãĥĸ ãĥ¬ãĤ¤
æ¸ ĭè°·
Ġv an
Ġå®Ī åĤĻ
åķĨ åĵģ
Ġ10 9
éĩİ å¸Ĥ
ç³ ¸
ãĤ» ãĥ©
Ġä¸Ń å·Ŀ
æĢ ĸ
ãĤ¦ãĤ§ ãĤ¢
ĠPr es
æ¶ Ļ
ç ¡
N O
ãĥ¼ ãĤ¢
åĲį èªī
ĠST AR
ç£ Ĳ
ĠãĤ» ãĥ«
ãģ® æģĭ
çłĶç©¶ ç§ĳ
ãĥ¡ ãĥ³
å¹¹ ç·ļ
ãĥ¼ãĥŀ ãĥ¼
ç§ĭ çĶ°
Ġåĵ ģ
é¹¿ åħĲ
US E
ãĥĲãĤ¤ ãĥĳãĤ¹
ãĥ¼ãĥľ ãĥ¼ãĥ«
VE N
ĠM ac
A X
er v
èŃ ²
ãģ¾ ãĤĮ
Ġ10 7
éģĵ éĥ¨
åĩº å¼µ
ic o
ãĤŃ ãĥŃ
åŃĺ åľ¨
D F
çī¹ å¾´
ä½ İ
Ġä¸ ĩ
åł´ åĲĪ
ãĥĬ ãĥªãĥĨãĤ£
ĠG R
ãĥļ ãĥ©
ĠG ra
Ġå²©æīĭ çľĮ
Ġå¼ ĺ
Ġéİ Į
Ġæ°ĳ ä¸»åħļ
ĠæĿ¾ çĶ°
ãĢľ '''
ãĥ¼ãĤ« ãĤ¹
æıĲ ä¾Ľ
Ġæĸİ èĹ¤
Ġãĥŀ ãĤ¤ãĤ¯
èĹ Ŀ
or ge
at ive
Ã¼ r
ãĤ¨ ãĥªãĤ¢
Ġä¸ ¹
ĠB i
ĠP RO
ĠA P
ãĤ¯ ãĥ¼ãĥ«
ç· ¯
ãģ® ä¸ĸçķĮ
18 00
ĠçĨĬæľ¬ çľĮ
ĠãĥĹãĥ© ãĥģãĥĬ
ãģŁ ãģ¾
Ġç· ĳ
è¬ ¡
EC IAL
æĻĤä»£ ãģ®
ol ution
ĠDav id
G o
ãĤª ãĥ¼ãĥ«
Ġ å¹ķ
ĠSt ory
ĠãĤ³ ãĤ¹
Ġè ¢
v ent
åģľ çķĻ
ell a
æĸ¹ å¼ı
C R
Ġãĥ¬ ãĥĥãĥī
ãĥ³ãĥķ ãĤ£
æĬ Ĺ
Ġçī ©
ĠD AY
« »
ãĤ·ãĥ§ ãĥĬãĥ«
app y
Ġãĥª ãĥªãĥ¼ãĤ¹
çĶ± ç´Ģ
Ġ19 23
ç¦ı å³¶
è¨ º
Ġå¤§ åĴĮ
ĠH ouse
ãĥª ãĥ¼ãĤ¬
éŁ³ å£°
è§Ĵ å·Ŀ
it ter
ãĥĴ ãĥ«
as hi
s c
ĠãĤ´ ãĥ¼ãĥ«ãĥī
b l
Ġå¸ Ŀ
ãĥĪ ãĥł
ĠT ri
AS H
ĠM il
iet y
Ġæ¯ Ķ
ĠæĢ ª
ç« £å·¥
ĠS ound
éĢ£ éĤ¦
ç¤¾ä¼ļ åħļ
Ġå¤ª éĻ½
ĠT om
ĠçĶ ¨
åĨ ł
ĠE nd
ãĤ¢ ãĤ·
é »
ãĥ³ãĤ¸ ãĤ§
ĠéĢ ±
ĠP o
ãĤª ãĤ¹
Ġãĥŀ ãĥª
ich ael
C OM
æĨ ¶
åĪ ĳ
éĻĦ å±ŀ
æ§ »
i ed
æĽ¸ éĻ¢
ãĥĿ ãĥ¼ãĤ¿ãĥ¼
ĠV al
ãĥ« ãĥŀ
ª çĴ°
æĤ ¦
ĠãĤµ ãĥł
ĠR O
ĠM r
Ġ ro
Ġ ä¿®
Ġé ¤
ãĤĮ ãĤĵ
é£ ¼
ãĥŃ ãĥŀ
åĽ ł
ãĤ·ãĤ¢ ãĤ¿ãĥ¼
ä¿¡ çĶ¨
æĭ ¡
O r
Ġä¸ĭ ãĤĬ
ç·ı éģ¸æĮĻ
è² »
Ġãģ Ķ
Ġcol or
ãģĳ ãĤĵ
ãĥĥãĤ» ãĥ«
ãĥĪãĥª ãĥĥãĤ¯
J PG
Ġä¸Ĭ çĶ°
ãģ® å¦»
ãģ®æĪ¦ ãģĦ
Ġä» ²
ãģĨ ãģŁ
ãĥ¬ ãĤ¹ãĥĪ
Ġ it
ĠåĲĮ å¹´
Ġä»®éĿ¢ãĥ©ãĤ¤ ãĥĢãĥ¼
ĠG ER
ãĥ¡ ãĥĩãĤ£ãĤ¢
Ġè³ ĩ
Ġå ĺ
33 3
Ġéģ Ĭ
Ġéģĭ è¡Į
Ġçı¾ ä»£
è¾ »
( ãĢİ
Ġãĥĸãĥ© ãĥĥãĤ¯
ãĤĮ ãģĦ
Ġå· ¦
ãĥľ ãĥ¼ãĤ¤
æļ Ĺ
Ġåį Ĭ
ĠãĤª ãĥ¼ãĥ«
æĢª çį£
éĽĨ åĲĪ
Ġw h
æ¶² åŀĭ
ãģ® æĹħ
ĠåĲ ĳ
ĠM O
Ġçī Ŀ
Ġãĥĳ ãĥª
éķ· å®ĺ
æĢ¥ è¡Į
m as
Ġãģ ł
åıĸ ç·łå½¹
ont s
Ġåı Į
ãģ«ãĤĪ ãĤĬ
åĩº ãģĹ
çľ ł
ĠéĽ ĳèªĮ
ol f
çµ± éłĺ
ĠH ot
ãģı ãģ¾
Ġæ į
å¸ Ĩ
ãĥ¼ãĥ© ãĤ¹
Ġ ë
å° Ĭ
åħ± çĶ£åħļ
ĠS im
19 54
ãĥĹãĥŃ ãĥķãĤ£ãĥ¼ãĥ«
Ġè¡Į åħĪ
ãĥ¡ ãĥ³ãĤ¿
åıİéĮ² æĽ²
ĠèĹ¤ äºķ
ãĤ¯ ãĤ¿
èĦ ³
ĠPh il
ä¹Ļ å¥³
ãĥ¼ãĥ Ĵ
ro ss
a is
ãĥĲ ãĥĥãĤ¯
ãĤµãĥĥãĤ«ãĥ¼ éģ¸æīĭ
G u
Ġ19 22
y l
ãģ® åĽ½
EC T
ãĥ¼ãĥ Ľ
ãĥĦ ãĤ£
åĢ «
ar m
Ġè»Ĭ ä¸¡
ĠãĥŁãĥ¥ãĥ¼ãĤ¸ ãĥĥãĤ¯
ĠM ark
ĠãĥĪ ãĥŃ
æ¬ ł
çĶŁ çī©
Ġç ĩ
Ġåħ¥ åĽ£
ĠãĥĹãĥ¬ ãĥŁãĤ¢
Ġçħ §
ĠéŃĶ æ³ķ
Ġâ Ķ
ãĤ¤ãĥ¤ ãĥ¼
ãĤī ãĤĮãģŁ
ãĤ¨ ãĥ³ãĤ¸
åĽĽ æ®µ
è»Ĭ åº«
å§ī å¦¹
Ġå²¡ æľ¬
Ġå°ĳ å¹´
åįĶåĲĮ çµĦåĲĪ
Ġ å¹
ãĥİ ãĤ¹
åħĦ å¼Ł
æ¿ Ģ
ĠçĪ Ĩ
ãģ« ãģĹ
Ġæ ı
ãĥ¬ ãĥ©
ĠC O
ãĢį ãĢĤ
Ġå°ı åĢī
åı³ è¡ĽéĸĢ
Ġé Ī´
ãĥ¼ãĥľ ãĥ¼ãĥī
Ġå°ı å±±
æļ ´
D A
t s
Ġä¸Ĭ ãĤĬ
Ġãĥľ ãĥ¼ãĤ«ãĥ«
ĠS uper
Ġä¸Ĭ éĩİ
: (
ĠéĽ ¨
æ± Ĥ
åĪĿ ä»£
Ġè§ Ĵ
ä»¥ å¤ĸ
è¬ Ģ
ãĤ·ãĥ£ ãĥ¼
æŁ Ħ
ĠåĨ ¬
ĠèĲ ©
åħµ åº«
ãĤªãĥª ãĥ³ãĥĶãĥĥãĤ¯
ç¯ ł
à ¤
æ®ºäºº äºĭä»¶
ãĥ³ãĤ ¨
éĢ£ è¼ī
é§ Ĩ
ãĥĸãĥ© ãĥĥãĤ¯
ãĥ¬ ãĥĩãĤ£
ãģĪ ãģį
" ''
AR A
äºĪ å®ļ
ĠæŁ ´çĶ°
ãĥ« ãĥĬ
ĠåĴĮ çĶ°
ĠMOV IE
ãĤ³ ãĥ¼ãĥ«
r and
å¸« åĽ£
ãĤ¨ ãĥª
çĻº éĽ»
w ith
ãģ© ãĤĤ
Ġåī ¯
ä¸ĸå¸¯ æķ°
æĸ° ç¤¾
Ġéĩĳ åŃĲ
ĠE C
I LE
ãģĦãģŁ ãģ¾
ãģķ ãģª
ĠåİŁ çĶ°
ãĤī ãģªãģĦ
ãĥĢ ãĤ¯ãĤ·ãĥ§ãĥ³
IT Y
Ń è¼ī
çĭ Ĥ
ĠãĤ¹ãĥļ ãĤ·ãĥ£ãĥ«
ãĤ´ ãĥª
éĬ ħ
ä»ĺ ãģį
ĠC ON
å° ĭ
Ġæ§ĭ æĪĲ
ä¿Ŀ éĻº
å¥Ī åŃĲ
oc i
èĩªçĶ± æ°ĳä¸»åħļ
ĠéĤ¦ é¡Į
ä»ķ æ§ĺ
ãĥŀ ãĥĥãĤ¯ãĤ¹
å°ı éĩİ
Ġåħ Ĳ
ĠSou th
ĠãĤªãĥ¼ãĥĹ ãĥĭãĥ³ãĤ°
ĠE lect
19 51
ç´ ¢
N N
åįģ åŃĹ
éĻ½ åŃĲ
AN T
éŁ ĵ
ĠGirl s
æĹħ è¡Į
ĠO VA
åľ°ä¸ĭ éīĦ
( #
Ġçļ ĩ
ĠåĢĭäºº æĪĲç¸¾
10 2
ĠåĨħ çĶ°
åº ķ
ãģĭ ãģĹ
éĸĭ éĢļ
å± ¤
10 3
æĺİ æĹ¥
ĠEd ition
ç§» ç±į
ãĥ© ãĥľ
19 50
åı¤ å¢³
ĠAN D
ãĥŁ ãĥĥãĤ¯
Ġå¤§ åŃĹ
ĠçĶ ±
ĠæĹ¥æľ¬ãģ® éīĦéģĵé§ħä¸Ģè¦§
åİŁ çĶº
e el
Ġä¸Ń éĥ¨
ĠãĥĪ ãĤ¥
ãĥŁãĥ¥ãĥ¼ãĤ¸ ãĤ·ãĥ£ãĥ³
ä¸Ń éĩİ
è©ķ ä¾¡
Ġè Ĵ
ãĥŁãĤ¹ãĥĨ ãĥªãĥ¼
M E
ãĤĵ ãģ§
ĠãĤ¢ ãĥ©
ãģķ ãģĭ
ar s
ĠV S
ãģ£ãģ¦ ãģĦãĤĭ
M usic
IF E
ĠãĤµ ãĥ©
ĠW ith
å¤§åŃ¦ éĻ¢
Ġå°ı æĿ¾
er a
ĠR ail
H O
h am
åŁº ç¤İ
å« ģ
Ġç Ĵ°
um b
13 0
ograph y
âĻ ª
éĩį éĩı
Ġè¦ ĭ
Ġå» ¶
ĠåĽĽ åĽ½
P E
V S
æĦĽ ãģ®
ãģį ãģª
C om
ĠL P
ĠãĤŃ ãĥł
ı è¨ª
Ġf onts
æĭ ł
ãĥ³ãĤµ ãĥ¼ãĥĪ
ĠP R
Ġ are
ĠF SW
ĠN orth
èĪ Ł
ãĤı ãĤĮãģŁ
èĭ Ĺ
er man
å·Ŀ å´İ
P r
æ² ĸ
ĠèĳĹ åĲįãģª
R Y
Ġæ°´ æĪ¸
åł ¤
H S
ĠæĹ© å·Ŀ
U P
åĲĳ ãģĳ
1 12
ĠãĤ« ãĥª
å£ Ĭ
Ġfonts ize
on es
Ġåģ ¥
ãģĽ ãģĦ
ĠP aul
ãĥ¼ãĥ ļ
Ġè¡ Ĩ
ĠãĤªãĥª ãĤ³ãĥ³
v el
AM E
ãĥĿ ãĤ¤ãĥ³ãĥĪ
Ġl ove
åı ¢
Ġãĥķ ãĥª
ãģĮ ä¸ĺ
éĿĴ æ£®
éĬĢ æ²³
èª ĺ
ãģ£ãģ ±
ç Ĵ
ãĢģ ''
ãĥī ãĥ³
row n
ãĥĭ ãĤ«
å¯¾è±¡ åľ°åŁŁ
Ġä¼Ĭ åĭ¢
ĠT E
ĠG old
Ġ1 19
Ġå§ ī
Ġé«ĺ æľ¨
æł¹ çľĮ
ãģĤ ãģ£ãģŁ
ĠãĤ¤ ãĥ³ãĥī
ãĥ³ãĥĩãĤ£ãĥ³ãĤ° ãĥĨãĥ¼ãĥŀ
ãĥĥãĥĿ ãĥ³
AR K
ourn al
os h
) /
ĠãĥĬ ãĥ¬ãĥ¼ãĤ·ãĥ§ãĥ³
ĠAl bum
ãĥī ãĥ¼ãĥł
ãĥ¼ ãģ®
Ġãĥĩ ãĥ¥
her e
Ġ å¹»
ãĥŀ ãĤ¬
Ġç¬ ¹
å·ŀ éģĵ
ãģ¹ ãģ¦
Ġç«¹ åĨħ
Ġå±±å½¢ çľĮ
ãĤ¤ãĤ¢ ãĥĥãĥĹ
éĽ» è©±
Ġéķ·å´İ çľĮ
Ġè ĥ½
ĠP ower
ĠM ic
le d
æĿ İ
! '''
ãĤªãĥª ãĤ¸ãĥĬãĥ«
ĠON E
ĠæĬĢ è¡ĵ
éĩĳ æ²¢
åĴĮ åŃĲ
åĪĨ é¡ŀ
è©ķ è«ĸ
èĮ ¨
ãĥ¢ ãĥİ
Ġc m
ãĤī ãĤĮãĤĭ
ä¿ Ĺ
å¤§ ä½¿
OR E
Ġçī¹ å¾´
éĻ¸ä¸Ĭ ç«¶æĬĢ
I ST
Ġ19 21
ãĤ· ãĥ«
ãģĹ ãĤĩãģĨ
é§ ¿
ãĥŁ ãĥĥãĤ¯ãĤ¹
rid ge
ãĥĵ ãĥ¥
AT T
Ġçī Ľ
Ġéĸĭ çĻº
ãĤŃãĤ· ãĤ³
ĠæĶ¾éĢģ å¯¾è±¡åľ°åŁŁ
éĥ ģ
ĠW est
æĶ¯ æīĢ
ãĥģãĥ£ ãĥ³ãĥĶ
è¨Ģ èªŀ
i j
ãĤ« ãĥ³
æĪ ¯
OL D
Ġæº Ĳ
ĠãĤ´ ãĥ¼ãĥ«
æŀ Ĳ
İ ãģ®
ãĥ³ãĥ Ľ
ãģ¾ãģ¤ ãĤĬ
ĠW ay
ĠèĮ¨ åŁİçľĮ
i or
é¡ į
ãĤ¶ ãĤ¤
ãģ¾ ãģĦ
æĶ¿ åºľ
è¬Ľ åº§
ãĥ©ãĤ¤ ãĥķ
? ?
ãĥ³ãĤ ª
åĲį äºº
éģ¸ æĬľ
Ġt ra
ãģ¾ ãĤĵ
ãģĮ å®ĮæĪĲ
ĠãĤ¹ ãĥĶ
ä½ı å±ħ
â ĪĴ
ĠãĤ¨ ãĥª
åĦ Ģ
ĠRad io
ãĥ« ãĥ¢
ãĥ³ãĤ· ãĥ£
æĺ¥ ç§ĭ
00 1
æīĢ åľ¨åľ°
Ġåı į
Ġd el
é¨İ å£«
ç¶ Ń
Ġæ¥ µ
å¸Ĥ éķ·
ãĤµ ãĥ©
ãĥĹ ãĤ¹
ãĥĭ ãĥ£
åĩºå¼µ æīĢ
ãģ® å¤ľ
ĠçĶŁ æ¶¯
19 53
ãģĹ ãĤį
ãĥĳ ãĥ¼
ãģ« æĶ¹ç§°
ãĥ³ãĥĶ ãĥ¥
ãĤ· ãĤ«
æ· µ
Ġãĥĸ ãĥ¬
ãĥĢ ãĥ³
éĹ ĩ
Ġå¸Ĥ å·Ŀ
ĠS ummer
ĠR eg
ec k
Ġ19 19
èĳĹ æĽ¸
åĶ Ĳ
Ġå½ ±
ĠM em
ãĥĬ ãĤ¹
t ra
ãĤ¦ ãĤ¤
10 5
èĹ¤ åİŁ
ãĥĪ ãĥ³ãĥįãĥ«
ãĥĹ ãĥĪ
ãĥĹ ãĥ¼ãĥ«
Ġ12 8
ĠI T
y m
Ġ ä½µ
åĲ« ãĤĢ
ãĥ¡ ãĥŃ
Ġç¦ı çĶ°
ĠD D
æ² ¡
ate g
ãĥ¼ãĥĩ ãĤ¶ãĤ¤ãĥ³
az z
ĠS ol
å²© æīĭ
ĠG reat
ãĤ¹ãĤ¿ ãĥ³
ãģ ´
ãĤ¤ ãĤ®ãĥªãĤ¹
çĲĨ äºĭ
ĠL ight
ãģ« åĩºæ¼Ķ
Ġãĥ© ãĤ¤ãĥĪ
10 4
éĸĵ ãģ®
ĠP RE
ĠåıĹè³ŀ æŃ´
åĲĪ ä½µ
å²¡ å±±
èĲ Į
å¸Ĥ çĶºæĿĳ
''' ãĢı
ãĥ« ãĥ¼ãĥĪ
I EC
T e
Ġb l
Ø §
åĩ ¡
ãĥ¬ãĥĥ ãĤ¸
çŀ ³
U RO
Ġ: |
ĠSU Z
æľ ±
éĩİ çĶº
ãĤ¿ ãĤ«
ãĤ¯ ãĤ½ãĥ³
Ġãĥĩ ãĤ¤
ĠPart y
åĽ º
Ġç´ ħ
ç Ĩ
ãĥĬ ãĥĵ
ĠæĿ± å®Ŀ
ç©º è»į
ĠãĤ¹ãĤ¿ ãĤ¸ãĤª
el f
og le
ãģ® å¨ĺ
ãĤ¯ ãĤ·ãĥ¼
ãĥŁ ãĥ«
ud e
Ġå¤§ æŃ£
ĠP ort
ĠéĿĴæ£® çľĮ
ĠçĽ Ľ
å¤ĸ ç§ĳ
ĠOp en
æĸ° äºº
çĻ¾ åĲĪ
ãģ®åľ° åĲį
ig ital
å¤§ åĴĮ
ĠM et
ĠæĿ± æĹ¥æľ¬
äºº æ°ĳ
ĠRo ad
ĠãĤ¢ãĥ³ãĥī ãĥ¬
y th
åĮ» å¸«
ĠB ra
ãĥ« ãĤ¤ãĤ¹
ãĥ³ãĥģ ãĥ£
ì Ŀ
ĠC r
ĠM art
EN D
ãĤª ãĥ³ãĤº
è¦³ éŁ³
in es
Ġç§ĭçĶ° çľĮ
è© ³ç´°
ĠE p
ãĥĬãĤ¤ ãĥĨãĥĥãĥī
G T
ĠM useum
" )
å· £
ens is
ĠéĿ ¢
ĠRob ert
an ge
ĠB and
Ġof f
k W
ãĤ¦ãĤ§ ãĥĸãĤµãĤ¤ãĥĪ
éļ ł
ĠæĿ¾ äºķ
ĠèªķçĶŁ æĹ¥
è£ķ åŃĲ
çŃ Ĵ
ĠA v
J I
Ġè£ ħ
ĠPar is
ĠL ast
ĠãĤ¢ãĥ¡ãĥªãĤ« ãģ®
ĠSoc iety
ãģ¨ ãģ¯
ĠRECOR DS
ĠéĮ ²
æľĢ å¤§
ãĤħ ãĤĵ
id a
ãĥķãĤ£ ãĥ¼ãĥ«ãĥī
ĠãĤ» ãĥªãĤ¨
ĠãĤ ī
ãĥ³ãĥĩ ãĤ¹
ĠçĲ ĥ
ãĤ¯ãĤ» ãĥ«
rum ental
ĠN C
ĠãĥĲ ãĥ¬
ĠD ISC
ĠãĤµ ãĥĥãĤ«ãĥ¼
ħ åŃĲ
ou st
ĠæĦĽåªĽ çľĮ
or ies
: ãĢİ
ĠC al
ãĤ¹ãĤ¯ ãĥ¯
y e
ãĥŃ ãĥĬ
Ġå¾ ©
D AY
æĿ¾ ç«¹
ç¦ı äºķ
EL L
: ãĢĮ
ãĥª ãĥ«
ãĤ¿ãĤ¤ ãĥĹ
Ġ @
æİ Ľ
ĠNE AT
æ¡Ī åĨħ
Ġç«¶ èµ°
åĬĩåł´ çīĪ
çĻ»åł´ äººçī©
B U
åĪ Ŀãģ®
ĠS F
Ġè¦ ĸ
ĠæĹ¥ ç«ĭ
ĠãĥĶ ãĥ¼ãĤ¿ãĥ¼
æĬ ĺ
Ġçĭ¬ ç«ĭ
ãģ® ãģĭ
ãĤ¸ ãĥ©
å½¢ å¼ı
ãĥı ãĥ«
UM MER
Ġçµ¶ æ»ħåį±æĥ§
ãĥĲ ãĥª
J ohn
ĺ åįĹ
Ġ19 14
10 8
ãĥ¡ ãĥ¼ãĥĪãĥ«
ãĤ¬ ãĤ¤
ĠãĥķãĤ¡ ãĤ¤
7 50
ãĥĸãĥŃ ãĥĥãĤ¯
Ġæ¨ Ļ
z a
éĻ¸ è»į
ä¿ £
æľ¨ æĽľ
ãĤ¢ãĥª ãĥ¼ãĥĬ
ãĥĥ ãĤ½
æŀ ¶
æĴ ®
ãģ¨ åħ±
Ġèı ¯
çĻ» éĮ²
ãĤº ãĤŃ
ĠæŃ¦ èĶµ
Ġæ Ĳ
ãĥĢ ãĥĸãĥ«
å½¢ æħĭ
æ· »
èĳ Ľ
çĤ º
ĠãĤ½ ãĤ¦ãĥ«
å¥ ī
ãĤ¨ ãĥŃ
ãĤŃãĥ£ ãĤ¹ãĥĪ
Ġåı ĸ
ãĤµ ãĥł
æĸ ¬
æĶ¿æ²» å®¶
A ll
ä¹ħ ç¾İåŃĲ
æł ĸ
EX T
è£½ åĵģ
ĠSh ow
ĠåĪĿ ä»£
Ġçł Ĥ
ãĥĨ ãĥĭãĤ¹
Ġ äº¤å·®
éĮ ¦
å®ī åħ¨
æĮ ĳæĪ¦
ber t
éģ ¿
ĠãĤ¢ ãĥķãĥªãĤ«
ĠãĤ¹ãĥļ ãĥ¼ãĤ¹
Ġé«ĺ çŃī
ç¬ĳ ãģĦ
ĠS al
uk i
u el
ãĥª ãĥ¼ãĥł
ãģĭ ãģ¤
è² ·
? )
O n
ĠC ap
Ġãģ« å¯¾
çĶ° ä¸Ģ
ãģ§ ãģįãĤĭ
Ġèī ²
à ¹
ãģ ĥ
ãĤ±ãĥĥãĥĪ ãĥľãĥ¼ãĥ«
Ġä¸īéĩį çľĮ
è· ³
å¤© åłĤ
ãĥ¼ãĥŃ ãĥ¼
æĻ ®éĢļ
Ġçµ ±
Ġç´Ģ åħĥåīį
ĠInst it
ĠãĥĢ ãĤ¤
S F
Ġå ŀ
N Y
Ġéģ¸ æĮĻ
i ra
ãĤ¨ ãĥ©
' m
ĳ ç´Ħ
æĶ¿ çŃĸ
ĠåĮº éĸĵ
ç° ¡
J CT
Ġãģĭ ãģ¤
Ġèĩ ¨
Ġf l
ĠæĿ±äº¬ å¤§åŃ¦
ãģķ ãĤı
ĠåĭĿ åĪ©
æ¸ ĵ
AR Y
ãĥĨ ãĤ¯
ãĥŁãĥ¥ãĥ¼ãĤ¸ ãĥĥãĤ¯
Ġé Ĺ
æĪ¦ éĹĺ
åĲ ¸
ĠçĬ ¬
ĠT im
ãģ¨ ãģĹ
ĠM iss
éģĶ ä¹Ł
éİ Į
f ul
ed ia
æģ Ĳ
æľĪ åł´æīĢ
ãĥ´ ãĤ§ãĥ«
Ġ ac
æľ Ń
ĠBS ãĥĹãĥ¬ãĥŁãĤ¢ãĥł
ĠãĤ¹ãĥļ ãĤ¤ãĥ³
åī ¤
ãĤ¹ ãĥŁãĤ¹
åĪ¥ äººåı£
Ġåĩºæ¼Ķ ä½ľåĵģ
ang u
- (
ãĥķãĤ© ãĥ³
Ġå¤± çĤ¹
ĠãĥĶãĤ¢ ãĥİ
ĠæĿ¾ å±±
éļľ å®³
ãģ¨ãģĹãģ¦ ãģ®
Ġä¸ģ çĽ®
åį Ī
19 45
ãģĻ ãģļ
åĤ ·
éģº çĶ£
å¥ ´
åľ° çĲĥ
è¾ŀ åħ¸
ĠB M
ãĥĭ ãĥĥãĤ¯ãĤ¹
âĢ Ĳ
ãĤī ãģ®
Ġåľ° çĲĥ
Ġä½ĵ éĩį
ĠSe ason
ĠéĮ² éŁ³
is ode
ĠåĲī å·Ŀ
Ġæ ¾
çĳ ł
ç£ ¯
ãĥķ ãĥ©ãĤ¤
ãģĻãĤĭ éģĵè·¯
æĭ ¬
Ġè©ķ ä¾¡
ä¹Ŀ æ®µ
ĠS an
Ġå¯Į å±±çľĮ
æ² ¿éĿ©
t ain
ãĤ± ãĤ¤
è¥¿ åı£
ãģ¨ äººåı£
å±ķ ç¤º
) âĢ»
ãģ® ãĤĬ
ãĤ« ãĥ¯
11 1
æĤ ²
ãĥ¼ãĤ¸ ãĤ§
æ²³ åĨħ
om as
é¡ ķ
S L
æķ° ãģ®
ãĥĻ ãĤ¹
Ġæģ µ
è£ģåĪ¤ æīĢ
ich ard
éī ±
i que
ĠL and
Ġå§ «
Ġãĥĵ ãĥ«
10 7
ĠF R
Ä ģ
ou n
ãĥª ãĥ¼ãĥĬ
ĠéĿ Ļ
ĠçĶŁå¹´ ä¸įæĺİ
ĠB us
éĽ ĳèªĮ
P N
ĠE uro
çī¹ éĽĨ
ĠD ance
ãĥĹ ãĥ«
Ġå¤§ å³¶
éĥ¨ åĪĨ
æ ¦Ĥ
Ġ qu
æĹ¥ æĮĩå®ļ
Ġp er
Ġweb site
ĠãĤ¨ ãĤ¢
D on
ä¹ ¾
ãĤĪ ãģªãĤī
A m
C X
Ġé§ Ĵ
Ġåĥ ķ
ĠæĻĤ éĸĵ
form ation
çĶŁ å¾Ĵ
Ġå¼ µ
ĠãĢ Ĵ
S e
èĦ Ī
ä¸Ń å³¶
ĠãĤ¸ãĥ§ ãĥ¼
çĶ° åĴĮ
Ġéħ Ĵäºķ
Ġè¿ ½
ãĥ¢ ãĥ¼ãĥī
LE CTION
ä¼ ¼
ãĥ¼ãĤ½ ãĥĬãĥªãĥĨãĤ£
ĠãĤŃ ãĥ¥
Ġæ¯İ éĢ±
Ġæ² ¼
Ġ12 6
Ġæİ¥ ç¶ļ
18 0
Ġãĥ´ ãĤ§
è¬ Ŀ
ĠM IN
å¸Ĥ åł´
éĢŁ åº¦
ç´ ĭ
ĠM LB
åŃ ¸
ĠH all
ãĤ³ ãĥŀ
ãģĴ ãĤĭ
ãģª ãģį
Ġèĳ Ľ
Ġãģ² ãĤį
ĠæĹ© ç¨²çĶ°
åĭ ī
åĬĩ åĽ£
AK E
ãĥĬ ãĥŁ
å¾ ªçĴ°
Ġå²Ĳéĺľ çľĮ
10 9
ĠçĢ¬ æĪ¸
ãĥ³ãĥ ĺ
ãĤ¬ ãĤ¤ãĥī
Ġ12 3
å¶ º
æĦĽ çŁ¥
ĠM S
å±± çĶº
Ġä¸ĸå¸¯æķ° ãģ¨äººåı£
ĠãĤ¢ ãĤ«
å¹ķ åĥļ
ãĥŁ ãĥ³ãĤ°
ãĥĵ ãĤ¸ãĥ§ãĥ³
ãĥļ ãĥ«
éģº è·¡
åĲįãģ® çĶ±æĿ¥
å¤« äºº
Ġç ª
ãĤŃãĥ£ ãĥ³ãĥĳãĤ¹
Ġ( :
ãģ® ä¸Ńå¤®
ãĥĳ ãĥª
- ãĢı
Ġm usic
Ġãĥ¤ãĥŀ ãĥı
ĠãĤ¢ ãĤ¯ãĤ»ãĤ¹
Ġp h
V ol
ãĤ¨ ãĤ¹
ãĥ¼ãĥ ¯
Ġåı° æ¹¾
åĪ¥äººåı£ æ§ĭæĪĲ
ĠA UT
ãĥ¼ãĤ· ãĥ¥
ãģ® ãĤ¢
ãĢľ ãĢį
o ch
çĶ° å·Ŀ
19 49
éĺ² è¡Ľ
æ¸ ķ
ãĥĶ ãĥ³
ĠåĮĹ éĻ¸
ãĥŀãĥ© ãĤ½ãĥ³
Ġå¯¾ æĪ¦
ãĥł ãĥĭ
ãĤµ ãĤ¦ãĥ³ãĥī
ĠTe chn
æ¥Ń åĭĻ
Ġå±±åı£ çľĮ
ĠL i
ĠãĤ¿ ãĤ¤ãĤ¢ãĥĥãĥĹ
èĩ ³
ãĤ® ãĥª
éľ §
Ð »
ĠãĥķãĤ§ ãĥ©ãĥ¼ãĥª
ãĤĴ éĸĭå§ĭ
Ġå¡ ļ
ĠL eg
ãĥ¼ãĤ¶ ãĥ¼
Ġ19 18
ag es
ä¿Ŀ èŃ·
Ġè¥¿ æŃ¦
åīį ãģ®
ãģĹ ãĤĩ
Ġ12 2
Ġ: '''
è½ Ħ
è¿ ·
ĠåĶ Ĳ
Ġå»º ç¯ī
åĪĬ è¡Į
ĠK n
ãĥĹ ãĥ©ãĤ¹
å¾Ĵ æŃ©
ãĥį ãĥ³
æĶ» æĴĥ
ĠI TA
åĲį ç§°
æİ ²è¼ī
ä»¤ åĴĮ
) ãĥ»
Ġåĸ ¶
éļ ¼
Ġé¨ İ
ud io
Ġæ¡ľ äºķ
ĠB el
ãĥĹ ãĥ¬ãĤ¹
Ġ12 1
19 52
äº¤ çķª
ĠèıĬ æ±ł
ãĥŁ ãĥª
ãģĮ ãĤĬ
Ġ1 000
ä¸ī éĩį
ĠS il
æ±ł çĶ°
Ġ: ãĢĮ
ãĥ¼ãĥĭ ãĥ£
ãĥ³ãĥĸ ãĥ«
ç¢ ĳ
éĢ ı
ãĥĩãĤ£ ãĥ¬ãĤ¯ãĤ¿ãĥ¼
ĠçĽ £
éģ ħãĤĮ
Ġ19 13
K S
Ġæĸ° äºº
t d
ī çĲĥ
ãĥķ ãĥªãĥ¼
ç¿ »è¨³
ĠA ct
b ox
ĠN TT
iv es
ĠãĤ¨ ãĥ³ãĤ¸ãĥ³
å¼ģ èŃ·å£«
ãĤ¯ ãĤ¤ãĤº
ĠS ide
Ġ äºĪ
äº¤ æµģ
ĠSP ECIAL
ãĤ¦ãĤ£ ãĥªãĤ¢ãĥł
ãĤ¸ ãĥįãĤ¹
çµĤäºĨ æĻĤ
ãģ¿ ãģļ
äºº ç¨®
Ġãĥīãĥ© ãĤ´
ç¥ Ŀ
ãĤ¢ ãĥĭ
è¿ «
ãĤ³ ãĥ«
ĠD ays
C o
ire ct
å°± ä»»
è³ Ĭ
ĠåĢ Ļ
ãĥ¡ ãĤ¬
ĠM at
ĠSH OW
ĠC AN
all y
ãĥĹ ãĥ©ãĤ¤
Ġè Ķ
un t
ãĥĩ ãĥĵãĥ¥ãĥ¼
ä¸Ń åŃ¦
ãĤŃ ãĤ¹
Ġç´ Ļ
Ġéĩİ æĿĳ
op e
Ġæ³ ¢
Ġæ¡ Ĥ
çľŁ çĲĨ
åĩºèº« èĢħ
ãĤī ãĤĵ
ãĢľ ãĢı
ãĥķãĤ© ãĥ«
ãĤ¦ãĤ§ ãĥ«
ĠåĪ º
ĠA C
ĠN et
ãĥĶãĤ¢ ãĥİ
ĠEng ine
P R
D D
Ġæµ· è»į
AC T
ond er
ãĥĹãĥŃ ãĥĩãĥ¥ãĥ¼ãĤ¹
ãģĦ ãĤį
ãĥ¼ãĤ¬ ãĥ³
ãĤģãģĲ ãģ¿
Ġåľ Ĵ
ĠåĢĻ è£ľ
ç§Ģ æ¨¹
ĠæĿ± æ´ĭ
çŁŃ èª¿
ãĥı ãĥ³
éĿ© åĳ½
f or
Ġæĺ¥ æĹ¥
Ġãĥ« ãĤ¤
Ġ ab
å±± å´İ
ãĥ¯ ãĥ¼ãĤ¹
ĠãĤ¯ ãĥ©ãĤ¹
19 48
Ġå°ı å³¶
Ġç¾ ©
åĶ ¯
ĠSci ence
éģ ķ
Ġéģĵ ãģ®é§ħ
ãģĭ ãģļ
in ce
ĠIs land
éĽ» åŃĲ
é£Ł åĵģ
ä¸Ń å±±
Ġãĥģ ãĥ¥
ĠG BR
in ter
å¼ķ éĢĢ
Ġç£ ¯
16 0
ĠZ epp
Ġ12 7
ãĤ¤ãĥ« ãĤº
ĠãĤ¢ ãĤ¤ãĥīãĥ«
Ġç¬ ĳ
ĠST AGE
ãģª ãģı
Ġ up
ĠåĲįåı¤å±ĭ å¸Ĥ
ĠåĲĦ è©±
m in
Ġæķ °
æī ¹
Ġè¥¿ æĹ¥æľ¬
S c
ãĥ³ãĤ¼ ãĥ«ãĤ¹
Ġ16 0
ĠãĤ¤ ãĥ³ãĥĩãĤ£
æ¶Īéĺ² ç½²
çį ²å¾Ĺ
ĠA re
ĠéĻ¸ è»į
w ood
æĶ¾éĢģ å±Ģ
åķĨåºĹ è¡Ĺ
M V
ãĤ¶ ãĥ¼ãĥī
Ġè² ¡
ä» ®éĿ¢ãĥ©ãĤ¤
ĠG K
åĢĻ è£ľ
å» £
d er
Ġç ĳ
ãĤ« ãĤ¦
ĠF ire
Ġå· »
ãģ®ä¸Ńå¤® åĢ¤
ãĤĮ ãģ°
åĽŀ è¡ĨèŃ°éĻ¢èŃ°åĵ¡
ãĥ¡ ãĥĩãĤ£
èĺ ĩ
ĠãĥĢ ãĥĭãĤ¨ãĥ«
ãĤĮ ãģªãģĦ
ãĤ¢ ãĥ³ãĥĪ
ĠèĳĹ ä½ľ
çĶ· æĢ§
ãĥŃ ãĤ·ãĤ¢
éģİ åİ»
r ie
ãĥĬ ãĤ¿
10 6
ç© ´
èĲ ©
ãĥīãĥ© ãĤ´
çĶº é§ħ
Ġæľ Ł
çĭ¬ ç«ĭ
N ET
P B
ĠPro gram
ãģĤ ãģªãģŁ
é¦¬ èº«
ĠG ame
Ġ( +
ĠãĤ« ãĥ©
ãĥĹãĥŃ ãĤ¸ãĤ§ãĤ¯ãĥĪ
æīĵ æĴĥ
pr ess
Ġ19 17
ĠPlay Station
ĠJ ames
P O
Ġãģĵ ãģĨ
Ġãĥīãĥ©ãĥł ãĤ¹
Ġæľ¬ çĶ°
ãĥ¬ãĥ³ãĤ¸ ãĥ£ãĥ¼
Ġä¸ ¡
æ©Ł æ¢°
ãĥ© ãĥ³ãĤŃãĥ³ãĤ°
s v
è ¹
ãĥĿ ãĥª
Ġãĥ¬ ãĤ®ãĥ¥ãĥ©ãĥ¼
- ãĢį
Ġæľ¨ ä¸ĭ
æ³ Ĭ
In st
ib r
åĦĦ åĨĨ
ĠK O
ap s
åĪ¶ å®ļ
æŁ Ķ
o ice
åı ¥
Ġç¶ ¾
ĠM or
æĹ¥æľ¬ ä»£è¡¨
M AN
av en
æ°ĳ é¤¨
ãĥĹãĥŃ ãĥĢãĤ¯ãĤ·ãĥ§ãĥ³
ĠG ener
re w
åĽŀè¡ĨèŃ°éĻ¢èŃ°åĵ¡ ç·ıéģ¸æĮĻ
ãĤ¤ãĤ¢ ãĥ³
è¡¨ ç¤º
é³¥ åıĸ
ĠCl ass
ç§» åĭķ
F or
om b
ãĥĨãĥ¬ãĥĵ æĶ¾éĢģ
I B
éĩĳ åº«
æĢĿ æĥ³
è Ĵ²
ãĥ³ãĥķ ãĤ¡
ãĥ« ãĤ½ãĥ³
ĠF est
Ġé«ĺ éĢŁ
åı¢ æĽ¸
eat h
l ish
ĠãĤ° ãĥ©ãĥ³ãĥī
çĶ° ç·ļ
Ġå¾³ å³¶çľĮ
ĠM ov
æ¸ ī
ain t
é« ª
U ST
å±± ãģ®
att le
ĠL ONE
ãĥį ãĤ¤
it z
å¾ Ģ
å¾ ®
ĠSt r
i ro
n ey
ĠãĤª ãĥķãĤ£ãĤ·ãĥ£ãĥ«
ĠU K
å ¬
ĠL E
ĠC LUB
ä¸Ĭ éĩİ
éĮ² éŁ³
ĠCol lection
èĸ ©
UD IO
ãģĦ ãĤı
Ġé¦Ļ å·ĿçľĮ
ĠCent er
åĪĿ åĽŀ
e in
ãĥĭ ãĤª
ĠF RA
ĠæĹ¥æľ¬ãĥĨãĥ¬ãĥĵ ç³»åĪĹ
ãĤ³ ãĥ¢
Ġé§ Ĳ
ĠM a
æľŁ ãģ®
ĠLONE OS
å¤ĸ ä¼Ŀ
l a
A d
19 47
çģ« æĽľ
ãĤ¢ãĤ« ãĥĩãĥŁãĥ¼
ĠR ac
Ġä»Ĭ äºķ
ãģĪ ãĤĤãĤĵ
ãĤĦ ãģĻ
Ġ19 12
ĠS D
ĠD R
Ġåį Ĵ
Ġå¤§ ä¹ħä¿Ŀ
ĠéĢļ éģİ
Ġ12 4
ĠS u
éģĵ é¤¨
åįģ åµĲ
ĠM AN
ä¼Ĭ åĭ¢
Ġå¤§åĪĨ çľĮ
æĴ ²
w ork
ĠE r
ãĥŀ ãĥªãĤ¢
ãĤ¹ãĥĳ ãĤ¤
ĠAL L
ĠèªŃ å£²
ãĥ¼ãĥ ¤
æĿ± åı£
p or
Ġåı ³
ãĥ¼ãĥĨãĤ£ ãĥ³
ãĥĽ ãĥ³ãĥĢ
Ġãĥŀ ãĤ¸
Ġ( -
äºĶ ä¸ģçĽ®
ãĥĵ ãĥĥãĥĪ
Ġn ot
Ġåĩ ½é¤¨
Ġv ersion
Ġãģķ ãģıãĤī
ĠæĺŁ éĩİ
Ġæ©Ł éĸ¢
ãĤ· ãĤ¹
éł Ĥ
ãĤµ ãĥ«
ãĤ¢ ãĥŀ
ãģĤ ãģķ
ãĤµ ãĤŃ
ip p
Ġç§ ĺ
Ġ äºľ
ãĥŁãĥį ãĥ¼ãĥĪ
Ġäºº éĸĵ
Ħ æ¨©
åĪ¶ åº¦
Ġä¸¸ å±±
ãģ ģ
Ġ13 5
ãĥĨãĤ£ ãĥ³
Ġå¿ ħæ®º
Ġå ´
Ġå²¡ å´İ
ĠB ill
Ġå¦ ĸ
un k
ãĤ¤ ãĥģ
ĠåĽ ³
Ġ'' "
Ġæļ ´
ĠFI FA
ãģ« çĻ»åł´
è¿½ åĬł
ãģĵ ãĤĮ
Ġå¥ ½
ĠF irst
ç©º éĸĵ
Ġåł ´
ĠGr and
G B
ĠCh arl
ĠJ ul
C P
çĶ» å®¶
å¤« å©¦
ĠæŃ¦ çĶ°
E AR
C LUB
v iew
Ġãĥ¢ ãĥı
Ġ**** *
ãĥķãĤ¡ ãĤ¤ãĥ«
æĺłçĶ» ç¥Ń
ĠèĥĮ æĻ¯
ĠSt ate
Ġå²© å´İ
ç®¡ åĮº
D O
æ´ĭ åŃĲ
ç° ¿
AS S
Ġä½µ æ®º
ãĤı ãģĽ
T O
æĸ° çĶ°
åı° æ¹¾
ãĥ¼ãĤ· ãĥ¼
Ġç¹ Ķ
å¡ģ æīĵ
ĠãĢĮ '''
ĠãĤ¢ ãĥī
åħĲ ç«¥
åį ł
ĠF INAL
åĩº åĬĽ
ãĤ¨ ãĥ³
ãĤ³ ãĥŁãĥ¥ãĥĭ
ãĤ¹ãĥĪ ãĥ¼ãĥªãĥ¼
ãĤ¢ ãĤ¿
T ube
id d
ãģŁ ãĤĭ
d uc
ï ¨
è£½ èĸ¬
b it
ĠãĤ¸ ãĥł
14 0
å³¶ çĶº
ĠãĤ¢ãĥ¡ãĥªãĤ« åĲĪè¡ĨåĽ½
ãĤ¤ ãĥ³ãĥī
ãĥĽ ãĥ¯ãĤ¤ãĥĪ
ãĤ· ãĥĥãĤ¯
re l
æĽ ¹
ä½Ĳ ãĢħæľ¨
åıĸ ãĤĬ
çī¹ æ®Ĭ
Ġåı İ
ãĥ³ãĥĶãĥ¥ ãĥ¼ãĤ¿
ĠãĤ®ãĥ£ ãĥ©ãĥªãĥ¼
ĠS ky
re y
Ġ ä¼Ŀ
ãģĮ ãģĦ
AP P
åĭĿ è²ł
Ġå²© æ³¢
ç¸ ®
ãģĿ ãĤĮ
19 36
ĠW ork
an i
äºº çĶŁ
ãĥĹãĥ© ãĤ¶
j a
Ġå®® æľ¬
ãĥ¼ãĥĭ ãĥ¼
T M
W e
å¦ ĥ
ĠèŃ¦ å¯Ł
st ra
Ġç§ ĳ
ç©º ãģ®
ĠN IGHT
ãĤ¨ ãĥ³ãĤ¸ãĥ³
Ġæ °·
Ġ19 15
Ġè ĵ
ĠT er
ul a
ï¨ ĳ
Ġä½Ĳ è³Ģ
å®ļ ç¾©
åĦª åŃĲ
ĠåĽ½ æ°ĳ
ĠæľĿ é®®
of ile
g y
al s
ãģ¯ ãģĺ
å®¶æĹı æķ°
æ©ĭ æľ¬
åĬ© æīĭ
Ġæ¢ ¶
ĠåĽ½ åĨħ
ĠãĤ¦ãĥ«ãĥĪ ãĥ©ãĥŀ
ĠD el
ãĥĩ ãĤ¸ãĤ¿ãĥ«
ĠæĦĽ ãģ®
Ġ* "
ãĤ» ãĥ³ãĥĪ
Ġæ Ħ
Ġé ´
ãģ¨ ãģĦãģĨ
åľ° éľĩ
ãĥı ãĥ©
Ġå± ĭ
F T
and er
o z
è¼¸ éĢģ
Ġ19 10
ãĥī ãĥ¼ãĥ«
ĠH ome
ig inal
ĠWh ite
ĠSer v
ĠæĽ² åĲį
Ġãĥĸ ãĥª
ĠåĮĹ äº¬
3 50
ĠãĥĩãĤ£ãĤ¹ãĤ³ãĤ°ãĥ©ãĥķãĤ£ ãĥ¼
ãĥĸãĥ« ãĤ¯
ãĥ¢ ãĤ¢
åħ¨ åŁŁ
Ġåĺ ī
éĩĮ åŃĲ
Ġ: ||
ĠM ot
ĠE ast
ĠãĥĹãĥŃ ãĥķãĤ£ãĥ¼ãĥ«
ĠEn ter
èĢģ äºº
ãĤ¢ ãĤ¦ãĥĪ
ãĥı ãĥª
Ġå¹³ éĩİ
ãģ¤ ãģı
ãĥĹãĥŃ ãĥ¬ãĤ¹
èĭ±èªŀ çīĪ
ĠãĤ· ãĥ«
Ġ18 89
Ġå¥³ åĦª
æĪ¦ ç¸¾
ĠéĸĭåĤ¬ æĹ¥
ĠåįĴ æ¥Ń
ãĤ³ãĥŁ ãĥĥãĤ¯
A nd
ãĥ¼ãĥ¡ ãĥ³
Ġ19 00
os a
Ġå·Ŀ åı£
ĠãĥĪ ãĥ¬
ep t
Ġè ¤ĩ
äºº åħ¬
Ġèĩª æ²»
ĠãĤ« ãĥ¼ãĥ«
åİŁ é§ħ
ĠæīĢå±ŀ ãĤ¯ãĥ©ãĥĸ
ãĥ³ãĤŃ ãĥ¼
åĭĻ çľģ
ãģ® å®¶
ãĥ¼ãĥ Ķ
ãĥ¼ãĥķ ãĤ£
ĠãĤ¢ ãĤ·
åĨ ·
du ction
æĬ ŀ
Ġåĳ ī
ãĥ¢ãĥ³ ãĤ¹ãĤ¿ãĥ¼
éģ ¥
ĠR AD
Ġåĸ¶ æ¥Ń
S D
ĠãĤ º
æ³¨ éĩĪ
ãĤĴ è¨Ńç½®
m s
ãģĭ ãģ¿
Ġèĸ ¬
A A
å¹´ çīĪ
ĠãĤŃãĥ£ ãĥ©ãĤ¯ãĤ¿ãĥ¼
ãĥ¨ ãĥ¼ãĥŃãĥĥãĥĳ
æĪ¦ è»Ĭ
Ġæ£® çĶ°
ĠN Y
ãĤ½ ãĥŃ
åģ¥ å¤ªéĥİ
ä¿Ŀ åģ¥
am i
Ġèģ ·
éİ ĸ
x x
å³ ¡
æł¡ éķ·
Ġæľ¬ ç¤¾
ãĤ¢ ãĥķãĥªãĤ«
ãĥ«ãĤ» ãĥĩãĤ¹
åĪĿ åĩºåł´
åľ° åĲį
l i
åħ¬ æ°ĳé¤¨
æľĿ é®®
Ġåįĺ è¡Įæľ¬
ĠD REAM
19 40
æŃ´ ä»£
Ġt e
æŃ¦ èĶµ
è¢ «
çĽ£ éĥ¨
Ġåİ ļ
ãĥī ãĤŃ
AK I
ãĥ¦ ãĥĬãĤ¤ãĥĨãĥĥãĥī
AS E
Ġæľ į
ĠOF F
ãĥŀ ãĤ¤ãĥ«
åįģ éĥİ
Ġå¤§ å®®
ĠH ALL
åĮ ł
ĠS L
ĠB EL
æ°´ æĽľ
æ¼ «
Ġéĩİ çĲĥ
Ġèĳ ī
ãģĬ ãģĦ
Ġç´ ł
Ġè Ľ
ing ton
Ġæ· ·
Ġæ²ĸç¸Ħ çľĮ
ĠéĽĨ èĭ±ç¤¾
ãĤ¸ ãĥŃ
ĠåĮĹ æĿĳ
ĠãĤ¢ãĥĭãĥ¡ ãĥ¼ãĤ·ãĥ§ãĥ³
Ġå¾³ å³¶
y le
ĠS ONG
ĠãĤ¸ãĤ§ ãĥ¼ãĥłãĤº
Ġ all
Ġãĥª ãĥģãĥ£ãĥ¼ãĥī
ãģĻ ãģİ
éģ¸æīĭæ¨© å¤§ä¼ļ
éĢĶ ä¸Ń
æ¤į çī©
IV ERS
ä¸Ĭ ãģĴ
çµ ¡
è¿ °
ĠãĥĿ ãĥ«
ĠåĭĿ çĤ¹
ĠæĹ¥ ä»ĺ
å·¦ è¡ĽéĸĢ
ãĤ¶ ãĥ¼ãĤº
Ġãĥģ ãĥ§
ãģĮ ãģĦãĤĭ
ç¸ ģ
åĽ½ èªŀ
Ġåį Ķ
å®¤ åĨħ
f ect
ãĤ¼ ãĥŃ
ãĤ¯ãĥĪ ãĥ«
å¤ı ãģ®
Ġä½ľ çĶ»çĽ£çĿ£
Ġå®Į åħ¨
ĠéĬĢ æ²³
å¤§ éļĬ
å¥ ¨
ãĤĪãģĨ ãģ«
Ġ19 16
ãĤ« ãĥĬ
he m
ard en
ãĥĸãĥ« ãĥ¼
um an
ou d
ĠSou l
ãĥ¼ãĥ´ ãĤ¡
ãĥĭ ãĥ¥ãĥ¼
ict ion
) ===
ĠW al
ãĤ¸ãĥ£ ãĥĥãĤ¯
Ġæłĥæľ¨ çľĮ
oust ic
ãĥ³ãĥĨãĤ£ ãĤ¢
Ġè¡Ģ æ¶²åŀĭ
ãģª ãĤĬ
å®Ł æ¥Ń
ãĥ© ãĤ°
ä¸ĭ ãģ®
ãĥķãĤ¡ ãĥ³ãĤ¿
çŁ¥ åŃĲ
ĠãĤ« ãĥĬãĥĢ
Ġæ ¦Ĥ
éº» è¡£
æŁ ´
ĠãĤªãĥ¼ãĤ¹ãĥĪ ãĥ©ãĥªãĤ¢
ãĥķ ãĤ¸
ãģĨ ãģ¡
ãģ¿ ãģ¡
Ġåľ° æĸ¹
G R
in ess
ĠP at
ĠM er
åģ¥ å¤ª
è£½ä½ľ æīĢ
ĠM oon
ĠãĤ ¾
æĿ¥ æŃ´
æµ© äºĮ
ãĥ¦ ãĤŃ
ãģ® ç¥ŀ
â Ī
ĠP al
W S
åºĹ èĪĹ
ĠJ ãĥªãĥ¼ãĤ°
èªį å®ļ
è«ĸ æĸĩ
Ġä¸ İ
Ġ19 11
ãĤ· ãĤ§ãĥ«
z y
Ġçī¹ æ®Ĭ
ĠD ie
ĠåĨħ å®¹
Ġéĸ ĵ
éĢļ éģİ
ĠGr oup
åħ¥ éĸĢ
r ich
å¥ ª
Ġå¤± çŃĸ
11 5
ĠW EB
ä»£ åŃĲ
ĠãĤ« ãĥĨ
ĠåĽ½ åľŁ
Ġè« ¸
ĠåŁº æľ¬
ç Ģ
æ©Ł åĻ¨
ãĥ¼ãĤ½ ãĥ³ãĤ°
Z E
ĠM ichael
å¤§ éĩİ
ĠE ar
æĶ¹ éĢł
Ġäººåı£ å¯Ĩåº¦
ĠN av
ãĥİ ãĥķ
12 8
åĲĪ è¨Ī
èı ĵ
çĽ¸ æīĭ
ãĥĥãĥĳ ãĥ¼
T w
a ff
ot a
ãĥĲ ãĥ¼ãĤ°
é§Ĳ åľ¨
J apan
ãĤ¦ ãĥŃ
åľ° çįĦ
éŁ¿ æĽ²
é«ĺ æĿ¾
ãĤ¦ ãĥ«ãĥĪ
ĠãĤ¢ ãĥĹãĥª
éĢ² è¡Į
ãĥŀ ãĥŀ
ĠãĥŃ ãĥĥãĤ¯
ĠAng el
r ess
ĠS IL
ĠAss oci
Ġåħ¨ ç±³
Ġãĥ´ ãĤ©
ĠE R
RE E
åĩºæ¼Ķ èĢħ
è¡Į ãģį
ãĤ·ãĥ§ ãĤ¦
Ġ13 2
è¿ĳ ä»£
è»¢ è»Ĭ
ĠS he
ãģ¨ åĲĮ
E d
hi b
è»Į éģĵ
ĠB D
ĠB ass
ãĥĬ ãĥªãĤª
äºĭ åħ¸
ou l
ãĥ³ãĤ» ãĤ¹
Ġé¦Ļ æ¸¯
ãĤĤ ãģĨ
ãĥĺ ãĥ«
ãĥ¶ è°·
å¤§åŃ¦ æķĻæİĪ
F l
ãģµ ãģĺ
Ġå¤§ è°·
éĽ» æ©Ł
éĩ ľ
ĠN ov
ĠæĿ¾ å°¾
20 1
æĹ¥ ãģ«
ãģ£ ãģĵ
Ġæİ Ĵ
11 3
ãĥ´ãĤ¡ ãĥ¼
ä¸ĩ äºº
çĮ Ľ
ĠS ur
ä¸Ń éļĬ
ĠK ey
å±Ģ éķ·
å¤§ ä½ľæĪ¦
ãĥı ãĤ¦
çĭ Ń
Ġå§ī å¦¹
is on
åĽĽ åĽ½
Ġé«ĺ æł¡
ur t
et te
Ġè¡ £
Ġãĥģãĥ£ ãĥ¼ãĥĪ
ee k
åĥ §
Ġãĥ« ãĤ¤ãĤ¹
å®Ŀ å¡ļ
èī¦ éļĬ
éĿĴ å±±
ãĥīãĥª ãĥ¼ãĥī
X S
ãĥ¼ãĥģãĤ§ ãĥ³ãĤ¸
éļ £
Ġãĥī ãĥ©ãĤ¤ãĥĲãĥ¼
ãĤ½ ãĥ«
ç«¶ èµ°
ãĥ¡ ãĤ¤ãĤ¯
ãģ¯ ãģĹ
Ġé¹¿ å³¶
ãģ®ãģĨ ãģŁ
ĠB ig
èĻ ¹
Ġçĩ ĥ
ä½ĵ ãģ®
åįģ ä¸ī
AN A
è³ĩ æł¼
æł ĥæľ¨
Ġä½Ĳ éĩİ
ĠF all
éģĵ åºľ
æĿ± æ´ĭ
Ġåħ« å¹¡
Ġth at
ĠI V
ãĥ¼ãĥĬ ãĥ¡ãĥ³ãĥĪ
ĠD own
å¤§éĺª åºľ
ĠO ver
Ġãĥľ ãĥĸ
ĠãĥĨ ãĥ¼ãĥŀ
Ġæľª æĿ¥
O ne
èĪ ĺ
éĲ ĺ
ãĤ¹ ãĤ¤
amil y
ĠR A
ĠGIR LS
ãģ® æµ·
ĠG al
ãģı ãĤį
en se
ad em
ĠY ear
Ġåī £
èĬ¸ èĥ½
IC K
ap e
æħ Ī
ãģ¯ ãģª
é¨ Ĵ
éĲ µ
Ġ12 9
è¬ İ
ĠS UN
âĸ ł
ĠF ight
ĠãĤ¢ ãĥĭ
ãĤ¸ãĥ§ãĥ¼ ãĥ³ãĤº
16 7
ãģĦ ãģĹ
T Y
Ġåº Ĺ
éį ĭ
A WA
ãĥ¢ ãĥ¼ãĤ¿
ĠãĤ¢ ãĤ¯
Ġæľ «
Ġè² ´
Ġé«ĺ éĩİ
H D
Ġéĩ Į
ir th
ĠComp any
Ġè¦³ åħī
ĠçĶ£ æ¥Ń
Ġè ĥ
ãĥĪ ãĥĬãĥł
Î ±
Ġç¾¤é¦¬ çľĮ
W ind
ãĤ¹ ãĥ©ãĥł
ul ar
çī¹ æĢ¥
åĿ ª
Ġå¤ ķ
r ol
Ġæ® º
å¥ ĳç´Ħ
ĠJ ack
sv g
çĶ° åħī
ãĥĵ ãĥª
ãģ¨ ãģĻãĤĭ
Ġå·¥ èĹ¤
ĠåĲ¹ ãģįæĽ¿ãģĪ
ĠL ab
çĤ Ń
ãĥ¼ãĤ¿ ãĤ¹
çµ± è¨Ī
Ġè¡¨ å½°
N C
p f
Ġ13 3
åı· æ©Ł
P LE
ãĥŃ ãĥľ
Ġä¸Ń çĶ°
Ġãĥŀ ãĥªãĤ¢
ä»¥ åīį
el y
Ġèµ °
Ĭ æĢ¥
11 6
ĠD ec
æĪ Ĵ
æµ Ħ
ĠãĥŃ ãĥ³ãĥīãĥ³
Ġåħ¨ å¹ħ
å¥Ī ãĢħ
åĮ» åŃ¦
c a
æ ª
ĠãĤµ ãĤ¦ãĥ³ãĥī
ĠNew s
ãĥ¬ ãĥĬ
Ġãĥķ ãĥ«
Ġ8 00
ĠAmer ica
Ġä» ı
ut s
è º
''' -
ãĤ» ãĥ³
åģ¥ åº·
U G
å¨ ģ
ĠT ak
ãĥĩãĤ£ ãĥ¼
æĩ ī
14 3
Ġè·¯ç·ļ ãĥĩãĥ¼ãĤ¿
ĠT S
OT O
ãĤŃ ãĥ©
Ġéĥµä¾¿ çķªåı·
. "
ĭ åı£
ç´Ģ åŃĲ
Ġå¿ į
ĠãĤ¨ ãĥķ
ãĤ¢ ãĥ³ãĥĢ
çłĶç©¶ ä¼ļ
ãĥ© ãĤ¦ãĥ³ãĥī
ãĥŃ ãĥĥãĥĪ
æģ ©
ĠR ain
ãĤ¹ãĥļ ãĥ³ãĤ¹
åı¸ ä¼ļ
n et
ĠRec ord
X X
ĠL IFE
c ert
æ¥ ¼
èĳ µ
ãĥ¤ ãĥ¼
nd er
ĠA D
å¤§ åŃ¦æł¡
å¯¾ çŃĸ
ãĤ¤ãĥ¤ ãĥ¢ãĥ³ãĥī
ĠSer ies
ĠF ilm
is ter
E x
ãĥ³ãĤ¸ ãĥ£ãĥ¼
èĭ ĳ
11 4
id er
ãĤ¿ ãĥª
æ©ĭ é§ħ
å± ¯
åŃ¦ ç¿Ĵ
ãĥŁ ãĥªãĥ¼
Ġåħ± åĴĮ
ĠåĪº æ®º
l ess
ĠéĢ£ ç¶ļ
ãĤ¢ ãĤ¯
om en
ãĤĮ ãģ®
è ´
æĻĤ æľŁ
ĠæĶ ¯
p o
ãģ¿ ãĤĨãģį
ãĤ´ ãĥ«ãĥķ
ĠæĿ¾ ç«¹
éĿĴ å¹´
é µ
11 7
åīį çĶ°
ãĥķãĤ£ ãĥ¼
Ġè£ľ æ®º
Ġ19 08
ĠåĮ» çĻĤ
19 41
Ġå®ĪåĤĻ çİĩ
åĤ ĳ
Ġ13 1
æ¼Ķ å¥ı
Ġåł´ æīĢ
Ġ19 07
ĠãģĤ ãĤĬ
£ åĳ³
le g
åĤ ĺ
å¯ ħ
ĠF riend
Ġæµ· å¤ĸ
åĭ¢ èª¿æŁ»
ãĥĨãĤ£ ãĥĥãĤ¯
k ey
ãģĮ ãģ¿
ĠæĪĲ çĶ°
he d
ãģĺ ãĤĩãģĨ
ĠçµĦ ç¹Ķ
èĥ½ åĬĽ
u f
ãĤ°ãĥ© ãĤ¹
ĠB LUE
è¨Ń åĤĻ
ãĤ« ãĤ´
ĠçĴ° å¢ĥ
è¨ Ĥ
å¹¼ å°ĳ
æĦĽ çŁ¥çľĮ
12 4
ãģµ ãĤĭ
ĠåĲī éĩİ
man n
åĩ¦ çĲĨ
èģ´ çİĩ
B B
æĤª éŃĶ
12 6
ĠãĤ° ãĥª
ĠæŃĮ æīĭ
ãģį ãģĶãģ¨
AC H
Ġç´ Ķ
ĠQ U
ãĥĲ ãĥ¼ãĤ¸ãĥ§ãĥ³
çĮ ¿
ãĤ« ãĥŃ
ĠCh amp
ĠçĻ» éĮ²
Bl ack
è£ħ åĤĻ
I t
11 8
å±± ç·ļ
ĠE ver
ãģĹãģ¦ ãģĦãģŁ
1 200
'' "
Ġç¥ Ń
ĠãĤ¢ ãĥ³ãĥĪ
ä½ľ çĶ»çĽ£çĿ£
åįģ äºĮ
åĳ¼ ãģ°
ãĤ· ãĥįãĥŀ
» åĭķ
ä¸į åĭķ
Ġå¢ ĥ
U C
ãĥĦ ãĤ§
ev en
Ġ id
ãĤ¤ ãĥ©ãĤ¹ãĥĪ
ĠãĤ¢ ãĥ³
ĠM IX
or us
ĠW il
Ġ#: (
æĺ ¼
Ġä¸Ń æĹ¥
æ¥½ åľĴ
å®Į åħ¨
ä¸į è©³
ĠPubl ish
æĺŁ ãģ®
å¯ §
ãĥĹãĥŃ ãĤ°ãĥ©ãĥł
è¨¼ åĪ¸
è¨ Ĺ
ä¼ĳ æŃ¢
a it
å¾© æ´»
ä»¥ä¸ĭ ãģ®
2 20
ĠO s
ĠSp ort
ĠãĢ Ī
Ġæº Ģ
ãģĺ ãģ¾
ĠB u
12 1
è¦ı æł¼
m ing
Ġ op
æľĢ å¾Įãģ®
ãĥīãĥ« ãĥķ
ĠãģŁ ãģĭ
ĠèŃ¦ è¦ĸåºģ
19 44
æīĵæĴĥ æĪĲç¸¾
o om
å¤§ åŃĹ
ãĤµ ãĥ³ãĤ¼ãĥ«ãĤ¹
ĠB as
3 20
P L
ãĥ¯ ãĥ¼ãĤº
ãĤ² ãĥ«
ĠQ ue
c ess
æľĢ åĦªç§Ģ
ib le
C on
ĠãĥĨ ãĥ¬
u i
é«ĺ çĶ°
Ġä½Ĳ ä¼¯
ãĥķãĤ£ ãĤ¹
Ġåħ¬ æ¼Ķ
æĸĩåĮĸ ä¼ļé¤¨
ãĥī ãĥŁ
b s
æĮ ¿åħ¥æŃĮ
é¼ ĵ
Ġ13 7
ĠãĤ¢ ãĥ©ãĥ³
çłĶ ä¿®
Ġ''' .
åº ı
ãģĬ ãģĨ
¹ æľ¬
Ġ13 6
æģ¯ åŃĲ
ĠS k
ĠåĮ ĸ
å¤§éĺª å¸Ĥ
ĠN at
æĹ¥å¹³åĿĩä¹Ĺ è»Ĭäººåĵ¡
ãĥ³ãĥľ ãĥ¼ãĥ«
ĠH y
13 5
æĺ¥ æĹ¥
ãĥİ ãĥĻãĥ«
ĠåĽ £
ĠåĪĨ é¡ŀ
èŃ¦ éĥ¨
ãĥ¦ ãĥ¼
ä»ķ äºĭ
Ġ3 60
ãĥ¼ãĤ¹ ãĤ¿
ãģĤ ãĤĦ
åģ¥ äºĮ
Ġç² ¾
Ġå Ĥ
A ST
as y
ĠM ill
ĠL td
AT ER
Ġãĥį ãĤ¤
H ER
åģľ è»Ĭ
U RA
Ġæ¶Ī éĺ²
ĠE SP
æįķ çī©
ãģŁ ãĤĵ
è¡Į äºĭ
æĪ¦ èī¦
Ġç¦ıäºķ çľĮ
åº µ
å°ı çĶ°
Ġç´ «
ç¬ ¦
''' ãĢį
ãĤ¨ ãĥī
ãĤ¹ãĤ³ ãĥĥãĥĪ
ãģĦ åĩº
ĠL aw
ĠåİŁ çĶ»
ES S
Ġ13 4
ĠèĬ ¦
æ· ¡
æ· ·
ãĥ¦ãĥĭ ãĥĥãĥĪ
Ġm ix
æİ ¡
ĠGre en
Ġå¼ ·
ĠDN F
Ã §
ãĤ³ ãĤ¢
Ġn ew
m ar
ĠM ad
å°İ åħ¥
E l
Ġ14 4
çµ± åĲĪ
C ar
ãĥ¬ ãĥ¼ãĥī
è»į åĽ£
ãĥĢ ãĤ¤ãĤ¹
ĠçĶ· æĢ§
C G
ĠJ ournal
ĠéĿ¢ ç©į
ĠL ine
ãĤ· ãĥŀ
æĸ½ è¡Į
or o
åł º
æĿ± åĮº
ãĥĢ ãĥ¤
é¹¿åħĲ å³¶
ç¾İ ç©Ĥ
ãĤ¹ ãģ®
ç¨® é¡ŀ
N TV
Ġè Ĺ
ç¾© å¡¾
ãģĦ ç«ĭãģ¡
Ġ13 8
AD E
Ġéĺ² å¤§
ĠT IME
Ġå¹´ æľĪæĹ¥
1 19
Ġ:: #
ãĥ¯ãĥ¼ãĥ«ãĥī ãĤ«ãĥĥãĥĹ
H A
ãĥŁ ãĤµ
Ġc ont
Ġæ°´ éĩİ
æģĭ ãģ®
ĠãĥķãĤ© ãĥ¼ãĥī
ĠTBS ç³»åĪĹ
ĠãĤ¹ãĤ³ ãĥĥãĥĪ
ĠS am
h r
Ġå®ī çĶ°
ãĥ© ãĥİ
ĠãĤ¢ ãĥ¬ãĥĥãĤ¯ãĤ¹
G L
at ic
é ¯
Ġ" ''
ãĤ± ãĥ³
ãĤ¤ãĥ¤ ãĥ«
ill a
åĪĩ ãĤĬ
Ġæģ Ĳ
æĹ ĭ
Ġæĸ¹ åĲĳ
Ġçħ§ æĺİ
Ġåı ²
å±± æĿĳ
èĳĹ èī²
Ġ ra
ãĥ¡ ãĥ¼ãĥ«
æľŁ çĶŁ
ãĥĭ ãĤ¨
æ¬ ²
æŃ£ ç¾©
ĠS N
ĠåĬĩ åĽ£
ãĢı ãĢİ
é«ĺ åİŁ
ãģĸ ãģį
ä¸ĸçķĮ ãģ®
ãĥ³ ãĤ¹ãĥĪ
åĮĹ åı£
ĠæĿ¾ å²¡
èĹĿ æĺ¥ç§ĭ
ĠJ O
Ġéĩİ çĶ°
å½± éŁ¿
ĠR oy
ord er
ĠåĬĩåł´ ãĤ¢ãĥĭãĥ¡
ĠçĻ½ çŁ³
ĠãģĤ ãģį
ãĤ¹ãĥĨ ãĥ«
Ġå¤§ äºķ
éĤ Ħ
æİ¨ éĢ²
æ©Łéĸ¢ è»Ĭ
Ġç³» åĪĹ
J r
ãĥ´ãĤ£ ãĥ³
ĠK e
ĠåĦª ç§Ģ
ç²¾ ç¥ŀ
ãĥ« ãĥĨ
ãĤ° ãĥªãĥ¼ãĥ³
Ġé«ĺ çŁ¥çľĮ
ĠãĤ° ãĥŃ
Ġãģ¿ ãĤĵãģª
ĠC at
å§Ķåĵ¡ éķ·
æ¨Ļ æºĸ
ãģĪ ãĤĵ
ĠçŁ³ åİŁ
å±± ä¸ĭ
Ġãģ¾ ãģķ
Ġæ¿ Ģ
åĬł åħ¥
ĠèĹ¤ æľ¬
ãģĭ ãģŃ
ãĥĭãĤ¢ å·ŀ
ĠS HI
ĠP et
ãĤ² ãĤ¤
. (
ãĤı ãĤĭ
op le
ĠåİŁ é¡Į
æĿĳ ä¸Ĭ
Ġ13 9
19 43
ĠUn ited
ĠçĪ ¶
ch er
m p
ãĤı ãģŁ
æł ¸
ãĥŃ ãĤ¸ãĥ¼
ãĤ« ãĥ©ãĥ¼
æ©Ł åĭķ
æµ ´
ãĥı ãĥ¼ãĥī
Ġåı¸ ä¼ļ
«» äºķ
åħ± ç·¨
å¹¹ éĥ¨
19 39
ãĥı ãĥ³ãĥī
Ġæ¸ ¯
Ġçµµ ãĤ³ãĥ³ãĥĨ
Ġ19 06
çī Ł
Ġãģķ ãģĦãģŁãģ¾
ateg ory
os hi
ĠL ong
Ġæ¸ ©
ç¾¤ é¦¬
ä½ Ļ
ãĥĥãĤŃ ãĥ³ãĤ°
con om
f in
ãĤ· ãĥ³ãĥĪãĥ³
ĠB aby
ãģ² ãĤī
Ġéł Ń
ĠBook s
ĠéĻ ½
ĠA ust
å¤ľ ãģ®
ian a
ãĥŁ ãĥĬ
ĠãģĤ ãģªãģŁ
ĠAg ain
è ķ
em a
Ġä¹Ĺ åĵ¡
12 3
ĠH O
Ġs er
Ġéļ£æİ¥ ãģĻãĤĭ
ãĥĸãĥ© ãĤ¦ãĥ³
Ġåı¤ å·Ŀ
Ġ ad
ĠãĤŃãĥ£ãĥ©ãĤ¯ãĤ¿ ãĥ¼ãĥĩãĤ¶ãĤ¤ãĥ³
b all
Ġ19 09
ãģĪ ãĤĬ
ut ure
Ġå¿ ł
ĠãĥĪ ãĥĭãĥ¼
Ġãĥ¬ ãĤª
æĹ¥ çĻºè¡Į
ãĤ¹ ãĥĹãĥª
ĠæĿ± èĬĿ
ĠéĢ± åĪĬ
Ġ14 5
å¡ ŀ
ãĤĵ ãģĵ
ãĢį )
Ġä¸ĸçķĮ éģ¸æīĭæ¨©
Ġå®®å´İ çľĮ
æ´ Ĺ
å½¹ åł´
ãģ¼ ãģĨ
ç¬ł åİŁ
Ġæ² ĸ
Ġå³¶ çĶ°
ãĤ·ãĥ¼ãĤºãĥ³ çµĤäºĨæĻĤ
ĠãĥĹãĥŃ åħ¥ãĤĬ
Ġè¡Ĩ èŃ°éĻ¢
æĪ¦ è¨ĺ
æ® ĸ
ãĥŀ ãĥ¼ãĤ¯
ãģĸ ãĤı
ãĤ¹ãĥļ ãĤ¤ãĥ³
Ġæµľ æĿ¾
Ġè¨ Ģ
Ġå±±æ¢¨ çľĮ
ĠæĿ¾ ä¸ĭ
ãģŀ ãģĨ
Ã Ł
çŁ³ äºķ
ãĥ¼ãĥ´ ãĤ£
ĠéĽ» æ°Ĺ
Ġç«¶ æĬĢ
Ġå®Ŀ å¡ļ
å¹´ éĸĵ
Ġéĥ ·
ãģ¿ ãģªãģ¿
ĠåįĹ æµ·
ou ble
17 0
Ġé³ ´
ãĥ« ãĥĩãĤ£
ä¿¡ åı·
ãĤ¸ãĥ§ ãĥ¼ãĤ¸
Ġæĭ ħå½ĵ
Ġæ ª
Ġ17 0
ag o
ãĤŃãĥ£ ãĥ©
19 31
ãĥ¼ãĤ¸ ãĥ£ãĥ¼
ĠH or
è³ŀ åıĹè³ŀ
IS E
ibr ary
ãĤ¢ ãĥªãĥ¼
ãĥ¼ãĥª ãĥ³
éĽ ĳ
ĠH ill
Ġãĥ¢ ãĥĩãĥ«
ĠT ype
19 46
ĠD is
ãĤ¦ãĤ© ãĥĥãĥģ
ãĥ³ãĤ¸ ãĥ¥
Ġç¿ »è¨³
Ġãĥ© ãĥĸ
Ġéģĭ çĶ¨
Ġç ¸
le ge
ĠéŃ ļ
é³ ³
ĠInstit ute
å¤§ å®®
ch o
Ġãĥĺ ãĥ«
ãģ® çĶº
èĩ ´
I ES
ĠS A
at us
ĠL et
å±ĭ æķ·
ãģĬ ãĤĭ
ĠU l
40 6
è¡Ľ æĺŁ
n ess
ri b
ä¸» è¦ģ
å°Ĩ æ£ĭ
æ¤ľ æŁ»
ãĤ³ ãĤ¦
ãĥģãĥ£ ãĥ¼
Ġå£° åĦª
BO X
M an
Ġãĥī ãĤ¥
ĠãĤ¢ ãĤ¤ãĤ¹
ä½¿ ãģĦ
Ġç¾İè¡ĵ çĽ£çĿ£
ĠPubl ic
ĠC P
ãĥģ ãĤ¢
åĲįèªī æķĻæİĪ
ãĥŀ ãĥªãĥ¼
Ġä»ĸ ãģ®
ãģ¿ ãģ©ãĤĬ
çĲĨ è«ĸ
Ġ res
OD Y
ĠãĤ¹ãĥ¼ãĥĳ ãĥ¼
ä¿¡çĶ¨ éĩĳåº«
ag ue
ãĤ¸ ãĤ·ãĥ§ãĥ³
åł ħ
ĠV ir
éĢ ¢
le as
ĠãĤ¤ ãĥ¡ãĥ¼ãĤ¸
Ġé «
ä¸Ń å¿ĥ
ĠæĶ¾éĢģæĹ¥ æĻĤ
ĠV ict
èĬ¸ äºº
åĲĪ åĶ±
ãģª ãĤĵ
çĶ ³
éļĬ éķ·
ĠFest ival
amb ridge
ĠEuro pe
Ġãģ Ń
Ġy our
ĠFran k
æĺĩ æł¼
ĠãĥĲãĥ© ãĤ¨ãĥĨãĤ£
ĠBr it
ĠãĢ Ķ
æ°ĳ ä¸»
D r
ĠãĤ» ãĥ³ãĤ¿ãĥ¼
ãĥŃ ãĥ¼ãĥŀ
24 0
æĲ Ńè¼ī
i ol
Ġå±± åĨħ
ãĤ¹ãĤ« ãĤ¤
æĬķ ç¥¨
i ous
Ġ14 3
çµĮ ç·¯
Ġ15 5
B D
åĮ ħ
ãĤ½ ãĥĭãĥĥãĤ¯
ãĢģ )
ĠD an
ãĥ¼ãĤ¹ ãĥĿãĥ¼ãĥĦ
ent er
ãĥ³ãĤ· ãĥ¥
S O
ãģĵ ãģĵ
ĠSt ates
Ġå¿ «
Ġæ²³ å·Ŀ
æ¼ģ æ¸¯
ãĥī ãĤ¦
éĸ¢ æķ°
ĠéĢļ å¸¸çĽ¤
ĠèĮ Ĥ
ãĥķãĤ£ ãĥ³
Ġä¼Ĭ æĿ±
ç¥ŀ å®®
åįĹ éĥ¨
ĠM al
ãĤ¿ ãĥ¯ãĥ¼
éĩ Ŀ
æ¸ Ľ
ĠçŁ¢ éĩİ
ãģ¦ ãĤĭ
è²¨ çī©
Ġå¤§éĺª å¸Ĥ
ãĤ¾ ãĥ³
Ġãĥĵ ãĥĥãĤ°
ãĥŀ ãĤŃ
ĠF re
é«ĺçŃīåŃ¦æł¡ ä¸Ģè¦§
ãģ¾ãģŁ ãģ¯
Ġçľ ĭèŃ·
äºº å½¢
ĠãĥĪ ãĥĥãĥĹ
ĠãĥĨãĥ¬ãĥĵ çķªçµĦ
å±± æ¢¨
ä½ĵèĤ² å¤§åŃ¦
ãĥ³ãĥĩ ãĥ¬ãĥ©
le v
è¥¿ éĥ¨
f eat
Ġ ä¿º
ãĤ« ãĥ¡ãĥ©
ãĥľ ãĤ¦
æ¯ Ĵ
2 30
å¹´åº¦ ãĤ·ãĥ¼ãĤºãĥ³çµĤäºĨæĻĤ
ç¥ŀ çµĮ
é· ²
åĮĹ åĮº
çŁ¥ äºĭ
åĴĮ ä¹Ł
ric k
d y
Ġç±³ åĽ½
ãģ« ç·¨åħ¥
æµ· å²¸
ãģĳ ãģĦ
ĠåıĤ çħ§
åģľ è»Ĭåł´
Ġäº¤å·® ãģĻãĤĭéģĵè·¯
ĠM ak
ĠãģĤ ãģĦ
ãĥ« ãĥ¼ãĥ«
Ġå¹´åº¦åĪ¥ æīĵæĴĥæĪĲç¸¾
ä¸ĸ ä»£
ĠåľŁ å±ĭ
Ġæľ Ľ
æĶ¿ åħļ
ãģ® ä¼ļ
Ġé į
ion al
æıĲ æĲº
åĴĮ å½¦
è² ¬
ãĥ¼ ãĥ³ãĤº
ĠèĪ Ī
ĠãĢ Ĭ
æĺİ åħļ
L Y
åĿĤ æľ¬
Ġ14 2
è¨ĺ èĢħ
ĠåĽŀ æķ°
åįĹ åı£
Ġæ² ¹
Ġ14 1
Ġä¸ī æľ¨
Ġäº¤éĢļ ãĤ¢ãĤ¯ãĤ»ãĤ¹
Ġä¸Ĭ æµ·
Ġçı¾åľ¨ ãģ®
ãĥ¤ ãĥ³ãĤ°
19 42
æº Ŀ
ãĤ·ãĥ³ãĤ°ãĥ« ãĤ¹
ĠL im
ĠãĤ¢ ãĥŀ
ĠåŃ¦ çĶŁ
ĠCOL LECTION
ãģ£ãģ ½
çĬ¯ ç½ª
Ġãģ ¼
ĠA KB
ĠãĤ¯ ãĥ¬ãĥ¼
Ġè» ½
ĠæĿĳ çĶ°
ãģ© ãĤĵ
g o
g an
Ġæľį éĥ¨
ãĤ¢ ãĥ¼ãĥĨãĤ£ãĤ¹ãĥĪ
ĠãĤ Į
ic on
ĠH ow
ĠçĨĬ è°·
ãģĻ ãģ¹ãģ¦
V er
um i
çĽ¸ æĴ²
ãĥ¼ãĥķ ãĤ©
r or
ãĥĥ ãĤ¹ãĥ«
Ġæĸ° äºķ
è¦ª çİĭ
ãĥ© ãĤ¦
Ġ''' (
12 7
åĳ ī
ä¹ħ éĸĵ
ĠéĸĭåĤ¬ åľ°
è¤ĩ åĮºéĸĵ
ĠãĥĢ ãĥĸãĥ«
ĠæĿī å±±
ãģ® åıĭ
ĠL ov
Ġå°ı åŃ¦é¤¨
Ġè¥¿ å·Ŀ
Ġãģª ãģĬ
ãģ® å®Ł
ãĥŃ ãĥķ
IT H
ä¸ŃåŃ¦æł¡ ãģ®
ĠRAD IO
æĸĩ èĬ¸
æ¨ ½
çĻº è¦ĭ
Ġ** '''
kg ç´ļ
æĶ¯ éĥ¨
ĠJ an
ç«¶ é¦¬
Ġæ¬ §å·ŀ
ãģ¤ ãģ¿
Ġç©º æ¸¯
P ar
M M
el d
ĠãĤ¹ ãĤ«
ur s
Ġå¤§ ä½Ĳ
Ġcom p
æĸ° å¹¹ç·ļ
13 3
ĠS W
ãĤµ ãĤ¤ãĥī
ĠãĥĶ ãĥ³ãĤ¯
ĠãĥĴ ãĥŃ
Ġç§ģ ç«ĭ
ĠéĢļéģİ ãģĻãĤĭ
æĺ §
èĢ ¶
è«¸ åħĥ
Ð ²
æ³ķå¾ĭ ç¬¬
ãĥĲ ãĤ¹ãĤ¿
å¥³ åŃ¦æł¡
è¡Į ãģı
if ul
ĠèĮ ¶
Ġåīµ ç«ĭ
ãģ® æīĭ
Ġç´ ĭ
è¨ĵ ç·´
ĠT own
ç£ ģ
çĶ° ä¿¡
èĹ į
Ġ19 05
Ġd o
Ñ ĥ
ãĥ© ãĤ¸
Ġä¸ī äºķ
ãĥ« ãĤ¤
å°ı æĿ¾
ĠStud io
ãĤª ãĤ±
14 00
Ġç¦ı å±±
D ie
ãĥĶ ãĥ¼
G C
Ġ âĢĵ
ĠãĥĪ ãĥ¼ãĥŀãĤ¹
ãĥ¼ãĥĨãĤ£ ãĥ¼
æĹ¥ çĽ®
èĴ ¼
èĬ ½
é§Ĳåľ¨ æīĢ
ĠL ike
åį ¿
Ġå¾³ å·Ŀ
ĠTh omas
M Y
ãĥ¡ ãĥª
y u
æľĪ çĻºå£²
ĠãĤ°ãĥ© ãĥ³ãĥĹãĥª
Ġm i
ĠAN N
ãĤµ ãĤ¹ãĥļãĥ³ãĤ¹
Ġãģ¨ ãĤĤ
ãĥ« ãĤŃ
ĠR ichard
ãĥ¼ãĥĬ ãĤ¹
åĴĮ å¤«
Ġ16 2
ç¥ŀå¥Ī å·ĿçľĮ
Ġâĺ Ĩ
Ġ art
20 5
UM P
ĠGe orge
éĢ ¸
å¤§ è°·
é«ĺ çŁ¥
ĠãģĹ ãĤĵ
ĠGo ogle
ãĤ¤ãĤ¢ ãĥ³ãĥĦ
Ġ äºĭæ¥Ń
ãĥĵ ãĥĥãĤ°
SU PER
Ġç ¢
Ġæļ Ĺ
ĠéĤ¦é¡Į åİŁé¡Į
Ġ6 00
it er
æĺłçĶ» è³ŀ
Ġæµ¦ åĴĮ
åı¸ä»¤ éĥ¨
m on
ĠRac ing
ĠC amp
åĵ² åĵī
Ġç¥ŀå¥Ī å·Ŀ
ãĥĵ ãĥĥãĥī
äº «
ĠæĹ¥ çĶ£
ĠæŃ ©
è¬Ľ å¸«
ãĤ¸ãĥ£ ãĥ³
å·ŀ å¸Ĥ
ĠP iano
éģĭ åĸ¶
Ġãĥĵ ãĥĩãĤª
å¤§ çµ±éłĺ
éĤ ¸
ãĥĪ ãĥĥãĥĹ
O O
ĠB éĿ¢
ic hi
ãĥ¼ãĤ¿ ãĤ¤
ĠS UMMER
Ġé«ĺ å±±
Ġèĩª çĦ¶
éļ Ī
Ġ15 2
ĠãģĤ ãĤĭ
å¹´ æ³ķå¾ĭç¬¬
12 2
ic le
Ġ15 1
ãĤ¤ ãĥ³ãĤ°
ĠG all
ĠæŃ» åİ»
ãĥ¡ãĥ³ãĤ¿ ãĥªãĥ¼
ãĥ³ãĥ Ĵ
ĠB en
ĠãĤ¢ ãĥ¬
éģĵ åħ·
ĠãĤ¸ãĤ§ ãĥķ
ĠRes earch
ãĥĸ ãĤ¹
ãģĵ ãģĿ
ĠDN Q
åĨħ ç§ĳ
ĠDN S
ãĤ¦ ãĥ³ãĥĪ
ãģį ãĤĬ
Ġm ed
Ġæ¥ ł
è¨Ģ èĳī
ãĥĲ ãĤ«
Ġãĥ¬ ãĥ¼ãĤ¹
ãģ® éĥ¨
ãĥŀ ãĥĥãĥģ
ĠH and
ĠT RI
ĠéĽ» åŃĲ
E n
Ġæķ ĳ
Ġè ħ
ãĥĸãĥ« ãĥ¼ãĤ¹
au gh
ãģ¿ ãģª
Ġãģ¯ ãĤĭ
ĠéĿĴ æĺ¥
Ġç¨® çĽ®
ãĤī ãģ°
2 10
æ¥ ł
id s
ç¬ ¹
AM P
ãĥ© ãĥ¼ãĤº
åħ¬ ç¤¾
ä¹Ĺ ãĤĬ
ãĤŃãĥ¥ ãĤ¢
ãĥĨ ãĤ¹ãĥĪ
ĠãĤĪ ãģĹ
ĠJ GP
ä¸Ń æŃ¢
ãĤ¹ãĤ¿ ãĤ¤ãĥ«
ĠãĤ¨ ãĥªãĥĥãĤ¯
ãĤ´ ãĥ¼ãĥ«ãĥī
Ġè¿ ·
al a
ĠO per
Ġç·¨ æĪĲ
ĠãģĿãģ® å¾Į
çĻºéĽ» æīĢ
ãĥĪ ãĥ¼ãĤ¯
Ġé»Ĵ çĶ°
ãĤ¬ ãĥ¼ãĤ¹
å²¡ çĶ°
ĠãĥŁ ãĥ¥
ond a
ãĥ¼ãĥĨãĤ£ ãĥ³ãĤ°
èģ· åĵ¡
ãĥĳ ãĤ¤
ãĥĴ ãĥ¥
ĠF rom
å¤© çİĭ
ãĤ¹ãĥ¼ãĥĳ ãĥ¼
ç¡ ¬
Ġå¤ª å¹³æ´ĭ
ĠæľŁ éĸĵ
è» ¸
ĠJ ust
Ġä½ľåĵģ åĲį
ĠãĤ¨ ãĥĩãĤ£
æ¤ İ
åįļ ä¹ĭ
aut iful
Ġç©º ä¸Ń
30 1
ãĤĴ æĮģ
ãĥĩ ãĥ¼
3 60
§ è·¯
ĠA ug
Ġçķ °
ãģ» ãģĨ
² å½ĵ
Ġå¼ ¥
ãĥŀ ãĤ°
ĠR uss
Ġå®ĩ éĥ½å®®
ĠM ax
æ°´ éĩı
uk e
è¨ĺ æĨ¶
19 0
ĠãĤ¹ãĤ³ ãĤ¢
Ġåĩº çīĪ
ãĥ³ãĤ¹ ãĤŃãĥ¼
Ġæ©Ł åĭķæĪ¦å£«ãĤ¬ãĥ³ãĥĢãĥł
éĢ Ĳ
åĭ Ł
ãĥĢ ãĤ¦
ãĥ¼ãĤª ãĥķ
ãĥĬ ãĥĬ
ĠH on
ĠW r
çĶ° åĮº
å¿ ħ
éĽĨ åĽ£
Ġè ĺ
ãĥ© ãĥĨãĥ³
ĠC ast
ãģĳ ãģ®
ri ed
ãĥĺ ãĤ¤
ĠD iv
çģ¯ åı°
å°ı åŃ¦
Ġãĥĳ ãĥ©
Ġ: (
ãģ²ãĤį ãģĹ
Ġ15 6
æĶ¯ ç¤¾
H Y
r ont
x ford
ĠP eter
19 30
ä¸Ń å·Ŀ
ĠæĿ¾ æµ¦
æ¯İ æĹ¥æĶ¾éĢģ
ãĤĴ è¦ĭ
ĠD ark
ĠP op
å ¢¨
ĠJ A
ãĥ« ãĥ«
å¬ ¢
ri pt
èĿ ¶
Ġç§ĭ å±±
æ¼«çĶ» å®¶
ĠæĪ ĳ
ĠæĢ Ŀ
19 37
OW OW
ĠP ri
åŁº æºĸ
å Ĵ
è¥¿ æĿĳ
çª ª
UK I
n o
ãģ® ãģ¡
æ¹ Ĭ
AT A
ĠæĹ¥æľ¬ åħ±çĶ£åħļ
ãĤ¹ãĥĨ ãĥ¼ãĤ·ãĥ§ãĥ³
14 4
ãĥľ ãĥ«
å¥Ī ç¾İ
AR E
å£ ®
b a
éģ ©
åĪ º
ĠGIR L
le ment
çĢ¬ æĪ¸
å¤§ å³¶
Ġå¾Ĺç¥¨ æķ°
Ġ14 7
ãģª ãģĬ
Ġ15 4
ãģ®ãģŁãĤģ ãģ®
13 6
22 2
éĢļ ç®Ĺ
ĠM el
æĦĽ åªĽ
Ġæ¾ ¤
ĠD ist
æĸĩåĮĸ æĶ¾éĢģ
Ġé£¯ çĶ°
ãĥ©ãĤ¤ ãĥĢãĥ¼
ãĤĵ ãģı
åĲįåı¤å±ĭ å¸Ĥ
æı ļ
ãĤ° ãĥ¬ãĤ¤
Ġå®® åŁİ
ĠElect ric
ĠçĮ ª
ãĥ³ãĥŃ ãĥ¼ãĥī
ĠéĽ ²
19 38
Ġä¸Ń åİŁ
Ī ãĤĬ
Ġæ²³ éĩİ
åĵ² éĥİ
ĠãĤ Ģ
ik o
Ġå¿ ľ
ĠçľĮ éģĵ
ãĥĹ ãĤ¿ãĥ¼
Ġè© ©
åıĸ å¼ķ
ĠHist or
è£ Ĥ
IS H
Ġãģĵ ãģĵ
. '''
ĠA ut
æĸĩ é¤¨
ãĥ©ãĤ¤ ãĥī
Ġä¸»ãģª åĩºæ¼Ķ
ĠéĮ ¦
r s
åįĶ å¥ıæĽ²
é¢¨ ãģ®
on a
äº¬ åŃĲ
OR N
ĠO rd
ĠT ur
ãĥķãĤ¡ãĤ¤ ãĥĬãĥ«
ç·ļ ãģ®
16 6
ä½ľæĽ² å®¶
Ġå¼ ģ
ĠO UT
ĠA lex
Ġre c
ãĤ¤ãĥ« ãĥ©ãĥ³ãĥī
Ġæ² ¿
ĠçĽĽ å²¡
L es
P P
ĠæĹ©ç¨²çĶ° å¤§åŃ¦
ãĥ¡ ãĥ¢
26 0
um p
ĠéĢ Ĩ
ãĥŀãĤ¬ ãĤ¸ãĥ³
å¯ ®
ut er
ĠG od
Ġå¤§ æ©ĭ
Ġ14 6
ãĤ¹ãĤ¿ ãĥ«
ãĥģ ãĥ³
ãĥĥ ãĥļ
ĠN ED
ĠB Y
Ġèį Ĵå·Ŀ
ãĥ¼ãĤŃ ãĥĥãĥĪ
ä»ĺ è¿ĳ
Ġãģĵ ãĤĮ
èªŃ å£²
ãĥ¼ãĤ¼ ãĥ«
OU L
Ġãĥĭãĥ¥ ãĥ¼ãĤ¹
ant s
ãĥ³ãĤ· ãĥ¼
Ġå¥Īèī¯ çľĮ
S R
Ġè¥¿ çĶ°
ãĤ¦ ãĥª
éĽĦ ä¸Ģ
Ã¼ n
ĠM o
æİ¨ çĲĨ
Ġãģ ¸
çħ§ æĺİ
ĠG L
åĽ½ åĨħ
ĠD i
ĠA US
ĠãĤ· ãĤ«ãĤ´
ĠT D
ãģĲ ãģ¡
ãĤ¦ãĤ£ ãĥ³
g l
ãĤ¿ ãĥ¼ãĤº
ç¨ į
ĠS o
ãĥĥãĥĹ ãĥ«
Ġå¹³ åĿĩ
å¤ª çĶ°
å¸Ĥ å·Ŀ
28 6
åŁº æľ¬
ĠBE AT
ãģª ãģİ
ãĥ¬ãĤ¤ ãĤ¯
ĠçĻ»åł´ ä½ľåĵģ
ãģı ãģ®
! ''
éĤ ĳ
ãĥ¼ãĤŃ ãĥ£
å°ı å·Ŀ
ĠåĨ ¨
ĠE conom
Ġæ´ ĭ
Ġ <
ãĥĭ ãĥ¼ãĤº
Ġon e
ĠTE AM
AR S
ĠTh is
ãĥĥãĥĶ ãĥ³ãĤ°
Ġå¤§ å±±
Ġå¤§ æ£®
ãĥ³ãĤ¿ ãĥ«
ĠçĶŁ ãģĦç«ĭãģ¡
rag on
ĠH en
éĽ»æ°Ĺ éīĦéģĵ
ãĥ¬ ãĥ¼ãĥ«
åĲĪ æĪ¦
Ġæ»ĭ è³ĢçľĮ
å±ķ éĸĭ
çī Ļ
æ°¸ éģł
Ġè±Ĭ çĶ°
Ġå° Ĩ
ra ft
Ġp art
åĲ¹ ãģįæĽ¿ãģĪ
ãģ® ç§ĺå¯Ĩ
A BC
éĢ£ çµ¡
ĠãĤ® ãĥª
éģ £
OS HI
é´ ¨
ãĥĵ ãĤ¨
ãĤ³ ãĥķ
ĠSU G
ç´ ³
ĠT op
ot s
Ġé³¥åıĸ çľĮ
åīį é§ħ
ãĥŀ ãĤ·
ãģ¦ ãĤĵ
ãĥŃ ãĥĲ
ĠãĤª ãĥ©ãĥ³ãĥĢ
ĠãĤ¤ ãĥ©ãĤ¹ãĥĪ
g en
ãĤ« ãĤ¿
ãĤµ ãĤ¦
ĠSt and
åįĹ å¸Ĥ
å°ıèª¬ å®¶
Ġç¶ ļ
ĠD em
éģĵåºľ çľĮ
ĠéĢļéģİãģĻãĤĭ èĩªæ²»ä½ĵ
Ġ19 01
ĠM ur
ĠéĻ ³
L i
Q u
Ġ14 9
æĿ¾ å±±
u ff
ãĤ¦ãĤ§ ãĥ¼
èĮ ī
Ġg u
ãĥŁ ãĥĥãĥĪ
Ġ ä¼ĳ
Wind ows
G e
: (-
ãĤī ãĤĮ
ĠJ os
Ġ15 3
Ġ av
Ġè² ©å£²
Ġéĺ² è¡Ľ
æ¬¡ åħĥ
ĠA éĿ¢
Ġâĸ ł
å¿ ĺ
Ġæ ĵ
28 0
ĠåĬ ´
b urg
ĠU FC
ãĥĨãĥ¬ãĥĵ ãĥīãĥ©ãĥŀ
ĠèĮ¨ åŁİ
ĠJ r
çĶ¨ èªŀ
ĠãĥķãĤ£ ãĥªãĥĥãĥĹ
Ġæ¹ ĸ
ãĥĢ ãĥ«ãĥĪ
ON D
ĠJ PN
åħ¼ ä»»
ãĥĩãĤ£ ãĤª
æĹ¥ éģħãĤĮ
èª °
æµ© åı¸
ĠYou ng
ĠæĴ®å½± çĽ£çĿ£
æ²³ åİŁ
Ġéħ Ĵ
ĠB RA
æĹ¥æľ¬ æĶ¾éĢģ
ĠèĴ ¼
ĠçĶŁ æ´»
ãĥłãĥĭ ãĥĲãĤ¹
v ol
ĠL in
Ġ; ;
Ġãĥŀ ãĥĥãĤ¯ãĤ¹
ãĥ¼ãĥŀ ãĥĥãĥĪ
ĠçĶ° è¾º
20 4
éĿĴ æľ¨
ãģł ãģĹ
Ġå¸ ĥ
ãĥģãĥ§ ãĤ¦
Ġ14 8
ãģ¨ãģª ãģ£ãģŁ
ãģĤ ãĤĨãģ¿
ãĥ¼ãĥ© ãĥ³
ĠM AG
ãģª ãģ®
le ase
_ _
ĠG EN
å¯Į å±±
ãĥĵãĥ¼ ç´ļ
ĠãĥķãĤ¸ãĥĨãĥ¬ãĥĵ ç³»åĪĹ
ãĢģ ãĢģ
èĤ ¥
ãĥª ãĥ¥ãĥ¼
ĠComm un
ãĥ¬ ãĤ¤ãĥ³
Ġåº Ħ
Ġå£° ãģ®åĩºæ¼Ķ
ĠM k
ĠBM W
ĠãĤªãĥª ãĥ³ãĥĶãĥĥãĤ¯
ãĥ³ãĥ¡ ãĥ³ãĥĪ
ä¼ İ
m b
el op
Ġh ist
ãĤ½ ãĤ¦ãĥ«
ĠNEW S
Ġè¢ «
ĠãĥķãĤ¡ãĤ¤ ãĥĬãĥ«
æ» ĳ
t t
ãĥĬ ãĥ¬ãĥ¼ãĤ·ãĥ§ãĥ³
åĪ ·
ãĥ© ãĥī
ãĤ·ãĥ§ ãĥĥãĥĹ
angu age
ãģ« å¯¾
çĶŁ ãģį
20 2
ãĥŃ ãĥ«
ĠåĭĿ çİĩ
ãĤ¤ ãĥ³ãĥģ
ĠM ont
çĲĨ æģµ
çĴ ĥ
ãĥª ãĤµ
éĩĳ æĽľæĹ¥
ãĥª ãĤ¦ãĤ¹
ĠN ag
åįĺ ä½į
ãģ®ãģĨ ãģ¡
ãĥª ãĥ¼ãĥī
çĽ´ äºº
ĠMan ag
ĠéĢ£ è¼ī
ãģĭ ãģŁ
13 4
ĠãĤ¹ ãĥĿ
ĠSm ith
ãĥ³ãĥĸ ãĥ«ãĤ¯
ãĥ¡ ãĥĥãĤ»
ãĥŁ ãĥ©ãĥ¼
ĠV ERS
å¯© æŁ»
C F
ãĥł ãĤ·
ĠãĥŃ ãĥ¼ãĥŀ
ãĥĲ ãĥ¼ãĤ¹
Ġå¤§ è¥¿
å§ ĵ
ubl ic
ãĤª ãĥ¼ãĤ¹ãĥĪ
ãģ¨ãģ® éĸ¢ä¿Ĥ
åŁİ å¸Ĥ
ãĥĴ ãĥĪ
ãĤĦ ãģĹ
é¢¨ æĻ¯
um ent
ãģ¾ ãģ¾
Re f
av a
ĠæľĪ åĪĬ
Ġ15 7
. -
å¤ļ æĳ©
ãĤ¸ãĥ§ ãĥ³ãĤ½ãĥ³
ic es
æĮģ ãģ¡
ãģ®ä¸Ń ãģ®
çĶŁ ãģ¾ãĤĮ
OD E
ä¸ĸ ä¿Ŀ
ĠãĤ¦ãĥ«ãĥĪ ãĥ©
Ġm od
Ġs c
ãĥĶ ãĤ¯ãĤ»ãĥ«
ãĤ³ãĥŁ ãĥĥãĤ¯ãĤ¹
ĠL ibrary
% '''
s y
ĠS ay
åħ± è¨³
Ġg o
æ³ £
Ġãĥĸ ãĥ©ãĤ¤ãĤ¢ãĥ³
Ġéĺª æĢ¥
cm CD
u a
ĠTh at
æĹ¥ ä»ĺ
ran ge
åı² è·¡
æł¼ éĹĺ
æ²¢ å¸Ĥ
Ġãĥ Į
èŃ° å¸Ń
Ġèµ· çĤ¹
ãĤĨ ãģı
å¤ļ æķ°
C ol
ãĥĲ ãĥ¼ãĤµ
ãĤį ãģĹ
Ġãģ§ ãģįãģĶãģ¨
çľŁ å®Ł
æµľ æĿ¾
èĥ ŀ
Ġm an
Ġéĸ¢æĿ± åºĥåŁŁåľı
ãĤ¢ ãĤµ
åİŁ æŃ£
æĿ¡ ä»¶
ĠS weet
ãģĨ ãĤī
æĶ¾éĢģ æĹ¥
Ġä¸ī å®ħ
ãĥ¡ ãĤ«
é§ħ è¥¿åı£
ĠãĥŃ ãĤµãĥ³ãĤ¼ãĥ«ãĤ¹
ĠAir port
19 35
ãĥľ ãĤ¹
ik i
ĠAssoci ation
Ġ19 03
ra w
ä¸» åĤ¬
A s
AR I
ĠCol lege
ĠåıĤåĬł ãĥŁãĥ¥ãĥ¼ãĤ¸ãĤ·ãĥ£ãĥ³
Ġp ol
ãĥ¡ ãĥī
Ġåľ° ä¸ĭ
Ġãĥģãĥ¼ãĥł åĲį
um ber
ran g
ãĥĲãĥ© ãĤ¨ãĥĨãĤ£
ĠéĢ Ł
ĠèĳĹåĲįãģª åĩºèº«èĢħ
ãĥ³ãĥ Ł
Ġåħ± èĳĹ
ãĥ¼ãĤ Ĵ
æĽ¸ é¤¨
å° ¼
Ġs ite
Y LE
ãĥĲ ãĥ¼ãĥ³
ãĤ§ ãĥ³
ãĤŃ ãĥ«
end er
00 7
Ġ15 8
ĠãģĬ ãĤĪãģ³
å¹³ åĴĮ
ĠéĢ£ éĤ¦
ãĥ« ãĤ¿ãĥ¼
ĠB eat
ĠG N
ãĤ® ãĤ¢
ãģ®åŃĲ ä¾Ľ
ĠC ry
ĠR un
ĠãĤ¢ ãĥ¼ãĥĨãĤ£ãĤ¹ãĥĪ
ĠåıĤèĢĥ è³ĩæĸĻ
Ġè¿ĳ éīĦ
ç´ ĺ
ãģ° ãĤĵ
ãĥķãĤ© ãĥ¼ãĥł
Ġ18 90
æ© ĺ
ĠJapan ese
Ġâĺ ħ
ä¸ī æµ¦
ĠãĤ¹ãĥĨãĤ£ ãĥ¼ãĥ´
in y
æĿ± éĥ¨
ĠãĤ¤ãĥ³ãĤ¿ ãĥ¼ãĥįãĥĥãĥĪ
è³ Ľ
n ing
ĠæĪ¦ éĹĺ
Ġå¢Ĺ çĶ°
R T
å·Ŀ åı£
ĠæľĢ å¾Įãģ®
Ġè¨ ³
Ġçı¾ å½¹
g in
os ition
20 3
17 6
ĠæĽ ½
Ġåħī æĸĩç¤¾
Ġãĥª ãĥ¥
ãĥĲãĥ¬ ãĥ¼ãĥľãĥ¼ãĥ«
å°ı åĢī
Ġãĥŀ ãĥªãĤª
Ġæ Ĩ
ãĥĳ ãĥĥãĤ¯
ãĥ¼ãĤ« ãĤ¤ãĥĸ
Ġåł º
Ġæį ķ
ĠãĥĽ ãĥĨãĥ«
ç¨ ¿
m R
k t
ĠS oft
18 2
ãģ¾ ãģį
æ² Ī
15 5
ĠãĥķãĤ¡ ãĥ³
å±ĭ ãģ®
åı¤ å·Ŀ
ĠèįĴ æľ¨
ĠP H
ĠãĥĹ ãĥ¬ãĤ¤
iv ing
ĠåıİéĮ² ãĤ¢ãĥ«ãĥĲãĥł
ãĥ ²
ĠåĲįåı¤å±ĭ å¸Ĥç«ĭ
ĠSec ret
Ġãĥ¡ ãĤŃãĤ·ãĤ³
ĠåĨħ èĹ¤
ou ld
27 0
çĽ¸ è«ĩ
ĠåĨħ éĸ£
ĠEngine er
ĠãĤ± ãĤ¤
Ġæĸ° æ½®ç¤¾
Ġæ°¸ äºķ
ĠA FC
ĠK iss
ä» ®éĿ¢
p m
Ġãĥĩ ãĥ´ãĤ£ãĥĥãĥī
M ON
å¤§ å¡ļ
ãģĤ ãĤĵ
ĠåĢĻè£ľ èĢħ
å®Ł é¨ĵ
ä¸Ģ çķª
ĠR el
æĲ į
ãģ¨ ãģĿãģ®
ĠãĥĲ ãĥĪãĥ«
Ġl ink
ãģĳ ãģŁ
ãĥĪ ãĤ¦
æĦı ãģ®
ãĥª ãĤ¯
Ġçµ ¹æľ¬
ãĤ¹ ãĥ¯
ĠH a
ãĥ³ãĥī ãĥ©
Ġåĭ ĩ
Ġéĩ ľ
é» Ļ
ãĥĿ ãĤ±ãĥĥãĥĪ
ut t
Ġ19 04
Ġå±± éĻ½
æĢĿ èŃ°
Ġæµ ª
éĬ ĺ
Ġéĩĳ æĽľæĹ¥
ou ch
ãĥ¼ãĤ¸ ãĥ¼
ç´Ķ ä¸Ģ
id ge
Ġå¹³ çĶ°
Ġæ¹ ĺåįĹ
ãĤ¿ ãĥ¼ãĥŁãĥĬãĥ«
ight s
Ġå½ ¼
W OR
ĠF A
ãĤĨ ãģĭãĤĬ
ĠS ant
ĠAward s
12 9
ĠG ar
ãĥ¯ãĤ¤ãĥī åĬĩåł´
Ġç ½
ãĤ° ãĥªãĥ¼
ãģ« å¤īæĽ´
ãĥĥ ãĤ·ãĥ£ãĥ¼
ĠF ree
åĽ½ å®¶
ĠD irect
ĠL ou
ĠãĤ¹ ãĤ¯
éģĭ çĶ¨
ãĥĺ ãĥĥãĥī
å¾Į èĹ¤
ĠYou Tube
åģľçķĻ æīĢ
çĨ Ł
ç¾ Ĭ
éł ģ
Ġ*** ''(
ĠæĽ¸ èªĮ
y r
çĹ ´
æŁ ±
ãĥ¼ãĤŃ ãĥ¼
ĠãĤ¢ ãĤ¦
ãĥĭ ãĥĥãĥĿãĥ³
ĠM en
Ġèį »
Ġå·Ŀ ä¸Ĭ
ĠJR æĿ±æĹ¥æľ¬
L et
f ield
å° ģ
16 5
G S
15 8
Ġæ¯İ æĹ¥
ãĤŃ ãĤ¢
çĴ° çĬ¶
ãĥĸ ãĥĥãĤ¯ãĤ¹
ĠåĬ© æ¼Ķ
ãĥ³ãĤ· ãĥ§ãĥ³
ĠT re
ãĤŃãĤµ ãĤ¹
ĠH UN
éĽĨ èĭ±ç¤¾
ç¢ ģ
3 10
ãĥĵ ãĤ¹
å² ¬
ãĥīãĥª ãĥ¼ãĥł
æĸ ī
ä½į ä¸ĭ
ç¬ Ľ
ãĢĤ (
æİ¥ ç¶ļ
Ġè« ĸ
æ½ľ æ°´
ãĥ³ãĥĵ ãĤ¢
ĠB all
å·¥ åŃ¦éĥ¨
çµµ ãĤ³ãĥ³ãĥĨ
ĠWh at
ãĥĲ ãĥ¼ãĥī
çħ Ļ
äº Ĵ
ç·ı æĮĩæı®
æĭ Ľ
æ²³ å·Ŀ
r as
ç¸ ¦
ĠS WE
é¼ »
ri an
Ġå® ĺ
ĠJ o
åĩº åħ¥åı£
æĬ ±
19 21
AS A
ãģį ãĤĵ
çı į
v is
15 6
ĠæĹ¥ éĩİ
ol o
Ġp re
ĠS OUND
ĠçĹ ħ
ä¸ŃåŃ¦æł¡ãģ® åŃ¦åĮº
ãĥ³ãĥģ ãĥ£ãĥ¼
40 9
Ġãĥ¡ ãĥ«
æºĸ æ±ºåĭĿ
ãĥİ ãĤ¤
è¡Ľ çĶŁ
èŃ¦ åĤĻ
ãģĲ ãĤĮ
Ġé«ĺçŃī åŃ¦æł¡
ĠãĥĿãĥ« ãĤ·ãĤ§
ãĥ¼ãĤ¬ ãĥ¼
u le
ãĤ¸ãĥ£ ãĥ³ãĥĹ
ä¿Ĭ ä»ĭ
çĵ ¶
å¯ Ĵ
ãĥı ãĥ³ãĤ¿ãĥ¼
if f
ĠC AT
Ġ18 97
ĠK ING
èĬ ¦
åħį è¨±
Ġå ¨
ä¾ ¯
AY A
ĠBer lin
4 50
åİļ çĶŁ
åĽŀ éģ¿
èħ ķ
ĠçŃĳ æ³¢
b ack
æĹ¥ æĽľæĹ¥
AN GE
ĠA cc
ãĥĲãĤ¹ åģľ
ãĥ¡ ãĥ¼ãĤ«ãĥ¼
ĠTra ck
ĠãĢį (
ãĤĴ å»ĥæŃ¢
Ġ18 96
ãĥĻ ãĥĥãĥĪ
çĲĥ åł´
ĠS O
14 5
åĽŀ è»¢
Ġä¸Ń èı¯
ãĥĻ ãĥ¼ãĥ«
éģĭ è¼¸
ĠæŁ ´
ĠL ist
éħĴ éĢł
" .
åĪĨ æŀĲ
Ġp ar
ãĥįãĥ« ãĤ®ãĥ¼
B EST
Ġå³¶ æł¹çľĮ
ros oft
ĠåĴĮæŃĮ å±±çľĮ
L INE
ãĥ© ãĥ³ãĥĪ
Ġf Ã¼r
ĠAn t
Ġin t
Ħ Ń
Ġæ¤ İ
ĠG erman
ãĤ¬ ãĥª
ĠäºĶ åįģåµĲ
åĪĿ çīĪ
ãĥ¼ãĤ² ãĥ³
è® ĥ
B ER
æľ¬ æľ¨
ĠST UDIO
Ġæ¯ Ľ
æ¶¼ åŃĲ
A c
ãĤ¤ ãĤ«
OV A
ĠåĪĿåĽŀ éĻĲå®ļçĽ¤
åĽ °
Ġw orld
ãĤ¯ãĥĪ ãĥªãĥ¼
Ġoff icial
ä»®éĿ¢ãĥ©ãĤ¤ ãĥĢãĥ¼
ĠãĤ¯ ãĤ¤
15 4
æ· ĳ
ĠRe al
æĶ¾ æĺł
ĠPART Y
Ġè£½ éĢł
ç¦ Ħ
Ġ19 02
ĠChrist mas
UN K
ĠçĻºå£² åħĥ
2 11
AM I
å ĤĻèĢĥ
Ġ16 5
Ġå·Ŀ å³¶
IN D
çĥ Ī
N e
ĠO l
ãĥĨãĤ£ ãĥ³ãĤ°
çµĲ æĪĲ
åĽ³ éĳĳ
Ġãģ¾ãģŁ ãģ¯
å°ı è·¯
i h
re en
Ġ15 9
ä»ĺ å±ŀ
éĩĳ èŀį
å®Ī åĤĻ
è¾¼ ãģ¿
æĹ¥ çĶº
ãĥĪ ãĥ¼ãĥĬãĥ¡ãĥ³ãĥĪ
ĠG I
ãĥŁ ãĥĦ
åıĤ èĢĥ
APP Y
R ob
Ġèıħ åİŁ
s ide
Ġä» ķ
af e
aj or
Ġãģ«å¯¾ ãģĹãģ¦
æĩī ç¾©å¡¾
Ġãģĭ ãģļ
ãĥ¬ ãĥ³ãĤ¹
æĸİ èĹ¤
ĠM V
çµ Ĩ
å¿ľ æı´
Ġå®Ł æ¥Ń
ãĥŃ ãĥ¼ãĥ«
éĻ Ģ
m ix
èŃ ļ
Ġ ÃĹ
ãģ® å£°
ãĥī ãĥĭãĥ¼
ãĤ« ãĥĬãĥĢ
ãĥĿ ãĥ³
p p
ĠP an
ĠL ee
ĠçĲĥ åĽ£
20 8
ĠçŁŃ ç·¨
æĸ īèĹ¤
ãĥĨ ãĥł
ãģķãĤĮ ãģ¦
åĪĹ ä¼Ŀ
Ã³ n
ãĥĥ ãĤ·ãĥ§
Ġt rans
è¨ İ
ĠSt age
æĺŁ äºº
æ½ Ķ
âĹĭ âĹĭ
om a
ĠãĥŁãĥ¥ãĥ¼ãĤ¸ ãĤ«ãĥ«
ãĥ³ãĤŃ ãĥ£
17 5
æ°´ æ³³
ä½ĵ é¨ĵ
èı ©
ãģŁ ãģı
é¡ĺ ãģĦ
m W
ãĥŀ ãĥĦ
ãĥĵ ãĤ¸ãĥįãĤ¹
ell ow
æĹ¥æľ¬èªŀ åĲ¹æĽ¿
ĠG arden
å¯¾ æ±º
ĠC B
ç¬¬ åĽĽ
RO CK
åŃ£ ç¯Ģ
15 1
ä¿Ĭ å½¦
èªŃ ãģ¿
Ġå¤§ åİŁ
Ġèĩª åĭķè»Ĭ
Ġåħ ¼
ĠãĤ¹ ãĥª
å¹¸ åŃĲ
ĠæĿ ¥
éģ¸ åĩº
3 30
ãģĭ ãģĬãĤĬ
ãĥİ ãĥĥãĥĪ
Ġv ar
å¤© æ°Ĺ
ĠVol ume
çĶ ĺ
ot e
Ġä» Ļ
ĠãĤ¢ãĥĹãĥª ãĥªãĤ¢
ãĥģ ãĤ«
ĠB y
ç·ı åĭĻ
åºŃ åľĴ
ĠG ro
Ġc an
ĠAc adem
19 34
Ġ3 50
æ´¥ å·Ŀ
Ġãĥĸãĥ© ãĤ¸ãĥ«
19 20
ãĥ³ãĤ¬ ãĥĿãĥ¼ãĥ«
éĺ¿ éĥ¨
Ġç¬¬ åĽĽ
Ġå¾Ĺç¥¨ çİĩ
åį ´
ov a
M USIC
15 2
çķĻ ç±³
ç¥ŀå¥Ī å·Ŀ
Ġm in
åħ« éĥİ
ãģ® æİ¨ç§»
ĠãģĬ ãģĬ
ĠãĤªãĥªãĤ³ãĥ³ æľĢé«ĺ
el le
Ġ16 1
çĻº è¶³
ĠãĥĽ ãĤ»
ãĤ¼ ãĥ«
Bl ue
åĭ² ç«ł
ĠDes ign
åĮĹ æ²¢
ĠH appy
åħī å¯º
Ġç ¦
æ°´ æĪ¸
Ġå· ŀ
ĠçĶ¨ èªŀ
ãĥ¢ ãĥĪ
Ġ- (
Ġå¯ ©
ĠåĲĮ æĻĤ
ä¼ļ åĵ¡
æ¥½ åĻ¨
ãģ² ãģĵ
Ġç ĸ
Ġè¥¿ éĥ¨
Ġæµľ çĶ°
ĠéĻ¸ä¸Ĭ èĩªè¡ĽéļĬ
ĠéŁ³éŁ¿ çĽ£çĿ£
è¨º çĻĤ
Gu itar
åıĸ å¾Ĺ
ãĤ¯ ãĥ«ãĥĪ
èĢ ³
ãĤĤ ãĤĤ
ãĤ¸ãĥ£ ãĤ¤ãĤ¢ãĥ³ãĥĦ
ĠO ld
ãĥĿ ãĥªãĤ¹
éĩĳ ãģ®
ãĥĴ ãĥ¼ãĥŃãĥ¼
ĠP OR
25 6
æīĢ åľ¨
Ġd ie
ĠãĤ· ãĤ¹ãĥĨãĥł
ĠåĲį æİ¢åģµ
æĻĤ è¨Ī
ãĤ½ ãĤ¦
ĠEng lish
å¦Ļ ãģª
ĠãĤ¨ ãĥ³ãĥĩãĤ£ãĥ³ãĤ°ãĥĨãĥ¼ãĥŀ
IC A
æºĸ åĦªåĭĿ
ĠéĹ ĩ
æ°ĳ åĽ½
Ñ ı
éŃĶ å¥³
å³¶ ãģ®
Pl ay
R ed
u es
å¤§ éĻ¸
ĠD O
ãĤŃãĥ¥ ãĥ¡ãĥ³ãĤ¿ãĥªãĥ¼
åı² ä¸Ĭ
ãģĪ ãĤį
Ġç¥ŀ çĶ°
ãĢı ãĢģ
ãĥ³ãĤ· ãĤ¢
ĠãĤ¢ãĥ¬ãĤ¯ ãĤµãĥ³ãĥī
al t
our ce
Ġç³ ¸
c us
ãĥī ãĥ©ãĥł
Ġåħ±åĴĮ åħļ
IC S
ĠR h
ĠF ly
ĠMA STER
or ia
ĠD ep
æĹħ åĽ£
ãĤ¹ ãĥª
ãĤ³ ãĥ³ãĤµãĥ¼ãĥĪ
ĠãģĬ ãĤĤ
Ġæµ· ä¸Ĭ
Ġ17 5
J O
ãĥĭ ãĤªãĥ³
Ġéļ ľ
Ġåºĥ çĢ¬
Ġå» £
ãĥīãĥ© ãĤ´ãĥ³
å³¶ æĿĳ
ĠSP OR
ãĥ¼ãĥĩãĤ£ ãĥ³ãĤ°
D C
F E
ĠW A
ed er
ĠM ount
ãĤ« ãĥ¼ãĥ«
ãĥĭ ãĥ¼ãĥ«
Ġåı Ĺ
T B
è¿ĳ èĹ¤
Ġw as
ãĥĲãĤ¹ãĤ¿ ãĥ¼ãĥŁãĥĬãĥ«
ĠåĮĹ ä¹Ŀå·ŀ
ãĥ¨ ãĤ·
ĠãĤŃ ãĥ¼ãĥľãĥ¼ãĥī
ĠçµĤ çĤ¹
ãĤ« ãĥķãĤ§
isc he
ĠåĽ º
ĠCh ild
æĪĲ ç«ĭ
æ²» éĥİ
Ġin ter
åįĥèĳī çľĮ
éľ ŀ
Ġçĳ ŀ
ä¼ļ è¨Ī
éĩİ é§ħ
Ġæ© ĺ
ãĤªãĥ¼ãĥĹ ãĥĭãĥ³ãĤ°
ä¸ĸçķĮ å¤§æĪ¦
up port
ãĤª ãĥķãĤ£ãĤ·ãĥ£ãĥ«
ĠDe ad
ĠâĨ Ĵ
Ġæİ ¨
ãĤı ãĤī
i os
æļ® ãĤīãģĹ
éĻį äººåĵ¡
ĠOn line
âĢ Ķ
ãģµ ãģı
66 7
ãĤ¨ ãĥ³ãĥī
è« ĭ
Ġå°ĳ ä½Ĳ
ĠãĤ¹ãĥĨãĤ£ ãĥ¼ãĥĸ
ĠåĴĮæŃĮ å±±
F O
å¸Ĥ åĸ¶
end o
ĸ æĺ§
Ġ* ;
çŃ Ķ
åįģ ä¸Ģ
åħµ åĻ¨
Ġè² ¨
ĠæĹ©å·Ŀ æĽ¸æĪ¿
ãĤŃ ãĥĥãĤ¯
17 8
Ġ ä¼ģæ¥Ń
ä¸ī èı±
æĬķæīĭ æĪĲç¸¾
ãģ¨ æĶ¹ç§°
G Hz
© çĪ¶
ãĥł ãĥ©
ãĤ« ãĥŁ
ĠVERS ION
Ġ18 99
th ers
ĠU s
V I
é¦Ļ å·ĿçľĮ
æľī éĻĲ
ãĥĩãĥ¼ãĤ¿ ãĥĻãĥ¼ãĤ¹
R S
ãģł ãģ£ãģŁ
Ġè« ıè¨ª
Ġè¿ĳ ä»£
ãĤ¦ãĤ§ ãĥ¼ãĥĩãĥ³
ĠæĽ¸èªĮ æĥħåł±
ãģ¥ ãģį
13 8
ãģķãĤĵ ãģ®
ĠãĤ¸ãĥ§ ãĥĭãĥ¼
ãĥŃ ãĥĵ
åĩ Ĩ
ãĥ© ãĥķ
ãĥĨãĤ£ ãĥ¼
F ran
ä¸Ń éĥ¨
èĸ ĩ
éº ¦
æŃ» åİ»
æĹ¥ æ´»
''' âĹİ
Ġ: ãĢİ
ĠB ad
ann a
ĠA W
Ġæ¸¡ éĤ
ĠåķĨ åĵģ
S m
ãģĦ ãģĺ
çĶŁ æ¶¯
ãĥİ ãĥĸ
ĠDev elop
Ġæ ĳ
ĠC G
ĠG RE
ãģĶ ãģĨ
20 7
ç«ĭ å¤§åŃ¦
ĠL ev
Ġs ur
16 3
ãģ® éĩĮ
Ġç§ Ģ
ç«¶æĬĢ åł´
f ter
19 33
åķĨ å·¥
ĠãĤ³ ãĥ¼ãĥģ
19 32
Ġå²© çĶ°
ĠSp ac
Ġåįļ å¤ļ
Ġç´ĭ ç«ł
ãĥ© ãĥ©
å¯ Ŀ
15 3
å¿ ħæ®º
ĠåĬ ī
Ġåįĥ ä»£
ç«¶ é¦¬åł´
ĠãĤ¢ ãĤµ
ãĤ¹ãĥĶ ãĥ¼ãĥī
ãĥŃ ãĤ¤
ãĤ¹ãĥĪ ãĥªãĥ¼ãĥĪ
Z Y
çĶ° è°·
ãĤ¿ãĥ¼ ãĥ³
ä¿Ĭ ä¸Ģ
Ġãĥ© ãĤ¦ãĥ³ãĥī
w a
ä¸ ŀ
ĠL uc
30 3
ãĥ© ãĥĥãĤ¯
ãĥŃ ãĥ¡
ĠG i
ãĥªãĤ¢ ãĤ¹
ãĤ² ãĥ³
å¤§ å°Ĩ
æ¬¡ ä¸ĸçķĮå¤§æĪ¦
Ġå½¢ å¼ı
) "
å½¼ å¥³
I RE
ç± ł
ãģ ĩ
00 2
Ġãĥı ãĥª
Ġ:# *
ĠãģĿ ãĤĮ
ãģ® å¤¢
æı ı
ãĥ³ãĤ¬ ãĥªãĥ¼
K T
ĠD A
Ġåł ±
ãĥ© ãĥ´
åŃ¦ è¡ĵ
25 7
æ¿ ±
ãĤ¹ ãĥ³
åĬ ±
ĠåĨĻçľŁ éĽĨ
v s
Ġ::* *
æĭĵ ä¹Ł
ãĤ¿ ãĤŃ
30 9
æ±º æĪ¦
ç«¶æĬĢ å¤§ä¼ļ
Ġ à¸
ãĥł ãĥ¼ãĥĵãĥ¼
åĵ² åŃ¦
ect ion
ãĤģ ãģį
ĠM AR
Ġäººåı£ åĭķ
è® Ĳ
é§ħ æĿ±åı£
åł± åĳĬ
L C
ĠH el
ãģĮ ãģĹ
Ġé· ¹
u th
èĩª åĭķ
ãĥĲãĤ¤ ãĤª
ou th
Ġå°ı æ³ī
ĠCh ina
ãĥģãĥ£ ãĥ¼ãĥĪ
Ġå½ ©
ãĥ¢ ãĥ¼ãĥ«
çĦ¡ ãģĹ
it ies
Ġãĥİ ãĥ¼ãĤ¹
æ°´ çĶ£
æŃĮ è¬¡
ãģ²ãģ¨ ãģ¿
åħļ æ´¾
ãĤ¸ãĤ§ ãĥĥãĥĪ
çĸ ĳ
Ġæ §
ãĥľ ãĥĥãĤ¯ãĤ¹
ãĥ«ãĥĪ ãĤ¬ãĥ«
ĠB attle
è© °
ãĥ³ãĤ¯ ãĤ¹
ç¦ı å¯º
Ġæģĭ ãģ®
ĠChamp ions
ĠãĤ¢ ãĥ³ãĤ½
Ġå¹³ äºķ
é»Ħ éĸĢ
åĽŀ æĹ¥æľ¬
Ġåı¤ ä»£
èĳ ¬
ãĤģ ãģŁ
Ġç´Ļ æľ¬
åĩ¡ ç¤¾
) ãĢĮ
ãĤµ ãĥĿãĥ¼ãĥĪ
Ġæİ ¢
ãĥĪ ãĥ©ãĤ¤
ãĤ¢ ãĥ¬
ĠãĤ«ãĥ« ãĥŃãĤ¹
Ġè°· åı£
Ġä»£è¡¨ æŃ´
Ġé ®
ĠC ir
ĠãĤ¯ ãĥ©ãĤ¤
è³ĩæĸĻ é¤¨
ãĥ¼ãĤ² ãĥ¼ãĥł
13 2
Ġãĥķ ãĤ§ãĥ«
ãĤ» ãĤ¹
ĠæĶ¾éĢģ æľŁéĸĵ
è³¢ ä¸Ģ
ĠWh o
å¼ķ ãģį
Ġæ¤ ľ
ĠG U
Ġãĥģãĥ£ ãĥ¼ãĥ«ãĤº
Ġçį ²å¾Ĺ
13 9
Ġ16 4
30 8
Ġå°± ä»»
ä¼ı è¦ĭ
) |
Ġå¼ķ éĢĢ
Ġåı ¯
å·¥ åŃ¦ç§ĳ
ãģ¨ ãĤĵ
å¥³åŃĲ å¤§åŃ¦
ĠSP A
ãĥī ãĥ©ãĤ¤ãĥĲãĥ¼
Ġå¹ ²
ĠéĽ Ħ
ä¸Ńå¤® åĮº
Ġæ§ĭ éĢł
al es
æľ¬ åĲį
ãĤµ ãĥĸ
ãĤĴ éĸĭè¨Ń
çļ ®
ĠéİĮ åĢī
Inst rumental
åĲ İ
Ġå§īå¦¹ éĥ½å¸Ĥ
ĠM as
ĠL O
ĠèĬ ³
äºĭä»¶ ç°¿
Ġæµħ éĩİ
am m
ãĤŃãĥ£ ãĤ¹ãĤ¿ãĥ¼
CH O
ãģ® çİĭ
Ġ19 0
ĠTw o
ãĥ´ãĤ£ ãĤ¹
æ½® æĸĩåº«
Ġå¸ Į
å¿ĥ çĲĨåŃ¦
ĠD S
åĨį éĸĭ
Ġé¦Ļ å·Ŀ
ãĤ« ãĥĲãĥ¼
ãģ¾ ãģĪ
ist s
èĪŀ ä¼İ
ãĢį '''
è¨ĺå¿µ é¤¨
åĳ½ ãģ®
ĠEN D
å¾Į æľŁ
èģĸ åŃĲ
ĠãĤ¢ãĤ· ãĤ¹ãĤ¿ãĥ³ãĥĪ
Ġæľ¬ äºº
ĠåĽ½ åĭ¢èª¿æŁ»
a o
ĠèĢ ģ
ĠD rums
ãĤµ ãĥ³ãĥĢãĥ¼
25 3
Ġå¥ ĩ
åģľè»Ĭåł´ ç·ļ
æĪ¦ åĽ½
ãĤ¢ãĥĭãĥ¡ ãĥ¼ãĤ·ãĥ§ãĥ³
ç¤¾ åĵ¡
ä¸ĭ è»Ĭ
Ġå¾ Ĵ
AK B
ĠJ un
æŃ£ äºº
ĠW alk
14 9
Ġ18 98
çŁ³ çĶ°
âĢ» )
å²© æ³¢
æ´ĭ ä¸Ģ
Ġse ason
20 6
Ġéĩİ åı£
Ġæ£ Ħæ¨©
ãģ¡ ãĤĩ
ãĥİ ãĥ¼ãĥ«
ok a
éĬ Ń
ãĤ¬ ãĥ¼ãĥī
ä¿Ŀ åŃĺ
Ġç§ ¦
ĠæĤª éŃĶ
ĠD oc
åŁ¼çİī çľĮ
æ¼Ķ åĬĩ
IT S
ĠCharl es
Ġåº §
Ġ16 3
Ġæ· ¡
23 1
èĹ¤ äºķ
Ġå¹³ æĹ¥
ĠãĥŃ ãĥĻãĥ«ãĥĪ
éŁ³ éŁ¿
qu es
r ation
Ġå ¶
ãĤĴ è¨Ńç«ĭ
Ġå°ı è¥¿
IN K
Ġèµ¤ ãģĦ
d en
é¡ §
é£ ²
ãģ¨ ãģ¿
ĠF U
ãģ® éģĵ
15 7
ä¸Ńç¶Ļ å±Ģ
åĩº æĽ¸æĪ¿
æµ· ä¸Ĭ
Ġãĥ¬ ãĥķãĥĪ
Ġå¤ĸ éĩİæīĭ
Ġãģĭãģ¤ ãģ¦
15 9
ar g
ĠãĥĻ ãĤ¤
ĠçŁ³ æ©ĭ
¸ æ°Ĺ
ãĥ³ãĤ Ĵ
ãĥĦ ãĤ¡
æ´¥ é§ħ
ĠæĪ¸ çĶ°
Ã© e
ãĥ¼ãĥł ãĤ¹
ĠB IG
ãĤµ ãĤ¤ãĤº
ie f
Ġå¸ °
è¼ ©
ĠServ ice
cl op
å°ı çī§
ä¾Ľ çĶ¨
Ġ2 40
åĢ Ĵ
Ġãĥŀ ãĥ©
å¤ª æľĹ
å³ ¯
ãĥķãĤ¡ãĥ³ãĤ¿ ãĤ¸ãĥ¼
ĠS ON
ãĥŀ ãĥīãĥªãĥ¼ãĥī
ãĥĵ ãĥĥãĥģ
13 7
ãĤ¯ ãĤ½
ĠW ood
Ġåľ° ä¸Ĭ
ãĥĬ ãĤ¦
ãĥ¯ ãĥ¼ãĤ¯ãĤ¹
ãĤ¶ ãĥ³
ãĤ² ãĥ¼ãĥĪ
äº¤éĢļ çľģ
oy a
æĮĻ è¡Į
ĠãĤ«ãĥĨ ãĤ´ãĥª
37 5
ĠIn formation
å°ı æĥĳæĺŁ
ĠC arl
å¼ı åħ¸
ãĥķãĤ¡ ãĤ¤ãĥĪ
J A
T r
æī ī
ãģĵ ãĤĵ
Ġæĸ° çĶ°
å·¥æ¥Ń å¤§åŃ¦
H ar
æĤ £
éĬĢ åº§
14 8
Ġc o
ãĤ· ãĤ¨
19 28
ing le
åĪĨ éĩİ
Ġä½Ĳ è³ĢçľĮ
ãģ® æľ¨
ĠãĤ¹ ãĥŀ
ä¿¡ è¶Ĭ
Ġè£ ı
ç´Ħ æĿŁ
ĠèĪ¹ æ©ĭ
èº į
Ġé ĭ
ĠãĤ» ãĤ¬
Ġåħ« æľ¨
Ġãĥĺ ãĥ³ãĥªãĥ¼
ãģĤ ãģŁãĤĬ
æĶ¹ éĿ©
ĠãĥŃ ãĥ¼ãĥī
åħ¥ åŃ¦
Ġåĸ Ħ
Ġãĥ¡ ãĤ¬
id ent
ĠãĤ« ãĤ¿
G ood
ç® ĩ
ä¹ĥ æľ¨
Ġéģĭ åĭķ
ĠC OUN
18 5
ĠPl an
ä¿Ŀ å®ī
Ġæ´ »åĭķ
ç´Ķ åŃĲ
Ġ ag
çĸ ¾
ĠSp ace
ĠæķĹ æĪ¦
Ġ Ø
ĠR iver
Ġãĥŀ ãĤ°
ob ile
ĠB rown
ĭ èĹ¤
ãĥ¬ ãĥ³ãĥĢãĥ¼
ĠMA X
ĠG en
æŃ© åħµ
u y
19 29
åİŁ æ¡Ī
Ġ18 95
em b
ĠæŁ ¿
Ġå·¨ äºº
16 8
48 0
ĠãĤ¹ ãĤ«ãĤ¤
Ġæĸ Ļ
ĠB ut
OL L
ĠåĲĮ ä¸Ĭ
ãĥ¼ãĤ¦ ãĤ£
ĠS on
ãĤ³ ãĥ³ãĥĪ
æľĪ ãģ«
ĠA G
ãĥįãĥĥãĥĪ ãĥ¯ãĥ¼ãĤ¯
Ġç®¡ çĲĨ
om o
åħ¨ ç·ļ
ãĥĳ ãĥ«
Ġå¤© ä½¿
Ġ( ãĢİ
æľ¬ åºĹ
åįļ å¤ļ
M BS
æ°ĳ åħļ
OV ER
ä¼¯ çĪµ
Ġå°¾ å´İ
it o
ãĤ¢ ãĤ¤ãĤ¹
ĠãĤ¤ ãĤª
ãĤĴ ãĥªãĥªãĥ¼ãĤ¹
åį± æ©Ł
ĠS ite
ãĥĩãĤ£ ãĥ³ãĤ°
ãĤ´ ãĥ¼
å¾Į ãģ«
åįģ åħŃ
æ²Ļ ç¹Ķ
Ġ ä½įç½®
Ġt ime
ãĥĩãĤ£ ãĤ¹
14 1
ĠåĲī å²¡
æī¹ è©ķ
ĠP V
èĹ¤ çĶ°
ãĥ³ãĥī ãĥ¼
Å ¡
èĸ¬ åĵģ
ãĥ¡ ãĤ¹
æ©Ł ç¨®
ãĤµãĥĥãĤ«ãĥ¼ éĥ¨
ĠF ar
ĠN ow
Ġ16 7
åįģ åħ«
t en
Ġèª į
ãĥį ãĤ·ãĤ¢
Ġãĥĳ ãĥ¼ãĥĪ
æĬ ¼
ev e
çĽ¸ æ¨¡
18 8
Ġ16 8
åľ° çĲĨ
Ġå¹´ éĸĵ
ãĥ³ãĥĩ ãĥ¼
åıĸ æī±
48 6
ĠÂ £
B r
å®¤ åĵ²åĵī
Ġç ĥ
R ock
Ġå£ ²
ĠäºĪéģ¸ æķĹéĢĢ
äºĭ éłħ
è¨Ī ç®Ĺ
Ġé§Ĳ è»Ĭåł´
ãģ® å»ĥæŃ¢
25 5
ĠæŁ Ķ
æĺłçĶ» çĽ£çĿ£
ĠæĿī æľ¬
Ġè· ĿéĽ¢
ãĤ®ãĥ¥ ãĥ©
ĠWeb site
ĸæĺ§ ãģķ
ĠçĽ¸ æ¨¡
åĽ½ ä¼ļ
ro ad
æ°Ĺ è±¡
30 4
ĠPr inc
ĠMart in
v a
ĠA B
ä¸Ģ æľĹ
ĠG et
çķ ¥æŃ´
ĠãĤŃãĥ£ãĥ©ãĤ¯ãĤ¿ ãĥ¼ãĤ½ãĥ³ãĤ°
u ya
æĿ¥ ãģŁ
Ġçķ Ļ
Ġèª ŀ
åħµåº« çľĮ
A b
ãĥĨ ãĥį
ãģĹ ãģİ
ãĤµ ãĥĥãĤ«
Ġãĥı ãĥŃ
d a
åħ¬ è«ĸ
åĲī å·Ŀ
å¹¸ éĽĦ
ĠEnter tain
æĻ ®
åŀ Ĥ
ĠçĶŁ å¾Ĵ
ãĤ¹ãĤ¯ ãĥ¼ãĥ«
ĠY OUR
ĠéĻ į
M G
Ġæĺİ çŁ³
ĠæľĢçµĤ è©±
åŃ¦ éķ·
Ġv ocal
å¥½ ä¼ļ
Ġ {
Ġå±± ä¸Ń
ĸæĺ§ãģķ åĽŀéģ¿
å¤ª å¹³æ´ĭ
ĠMov ie
éĸ ²
13 1
ãĥŃ ãĥ¯
B est
C V
ĠPol it
ãĥ³ãĥ ¯
ãģ¾ãģ§ ãģ®
ãĤµ ãĥŀ
16 1
å²¡ æľ¬
ĠçĽ Ĺ
æ¯İ æĹ¥
Ġ2 10
å® ´
ĠãĥŃ ãĥĥãĥĨ
è¡¨ å½°
Ġåħ¬ åħ±
åľ° åĽ³
P art
o id
åĳ ª
ĠæľĿ åĢī
ĠM ach
ãĤ¨ ãĤ¹ãĥĳ
ad o
00 3
ãĥ¡ ãĥĥãĥĪ
ru ct
Ġæı Ĳ
Ġå¯¾æĪ¦ çĽ¸æīĭ
ãĤ¦ãĤ£ãĥªãĤ¢ãĥł ãĤº
4 10
29 0
Ġãĥī ãĥ³
æŃ¦ åĻ¨
ç¢º èªį
ĠB ell
éģ¸ æĬŀ
å¾Į ç·¨
Ġåħ± åĲĮ
and y
ĠãĤª ãĥ«
ov ern
åħ¬ åı¸
Ġè¶ £åĳ³
M on
ç¦ ħ
gr ound
ay a
k in
ĠãĤ° ãĥªãĥ¼
P er
ãĥ´ãĤ£ ãĥ«
å® °
ĠA BC
çĶ± é¦Ļ
ãĥ¼ãĥª ãĥ¼ãĤ°
ç°¡ æĺĵ
è² ¢
ãĥĸãĥ© ãĥ³ãĥī
çĲ ¢
æįľæŁ» å®ĺ
ãģĭ ãģı
éĩĮ å¥Ī
ĠEp isode
ä½ĵ éĩį
å¥³ çİĭ
Ġs y
ãĤ³ãĥŁãĥ¥ãĥĭ ãĥĨãĤ£
æ¢ ¶
åģľ æŃ¢
ĠL ady
ĠE URO
æĢ Ĵ
Ġãĥĳ ãĥĬ
Ġé¦¬ åł´
ãģĦ ãģ¯
éĽ ¶
Ġin c
Ã ľ
å¤§ ä½Ĳ
åĨ ¨
Ù Ħ
æİ Ĵ
30 6
Ġæ¿ ±
ĠL u
æĸ¹ è¨Ģ
æĭ Ŀ
ĠãĥĽ ãĥ¯ãĤ¤ãĥĪ
ãĤ³ ãĥĬãĥ³
åİŁ çĶ°
å¹³æĪĲ åħĥå¹´
ãģĿãģ®ä»ĸ ãģ®
ãĥ³ãĤ² ãĥ³
å¤§ åľ°
éģł èĹ¤
ãĥŀ ãĥī
ãĥ¼ãĥŃ ãĥ³
S il
ãĥĲ ãĥĪ
ãĤª ãĥ©
è¼ ĥ
Ġä¸Ń è¥¿
åºĥ åĳĬ
Ġå¤§éĺª å¸Ĥç«ĭ
æŃ¦ éģĵé¤¨
ĠãģĦ ãĤı
âĪ ŀ
å¹ ½
ĠP ict
48 8
å¥ĩ å¦Ļãģª
ãĥ¢ ãĥı
ĠãĤµ ãĥ³ãĤ¿
Ġ [
åĲĮ çĽŁ
ĠE ãĥĨãĥ¬
Ġå»º è¨Ń
Ġå¹´åº¦åĪ¥ æĬķæīĭæĪĲç¸¾
d ition
ĠãĤ»ãĥªãĤ¨ A
ãĥ³ãĥ ´
ãĥĻ ãĥ³
åĮ»çĻĤ æ©Łéĸ¢
Ġãģĳ ãĤĵ
Ġèī² å½©
ä¾ ł
ãĥĥãĥĪ ãĥľãĥ¼ãĥ«
ãĤ¤ ãĤ§
2 25
w are
ãĤ¿ ãĤ¯ãĤ·ãĥ¼
å¤§ä½¿ é¤¨
Ġèĵ ®
IVERS ARY
at ing
Ġãĥŀ ãĥĦ
ĠOff ice
I nt
ãĤ¢ ãĤ¦
Ġ2 20
AT SU
çīĪ ãģ®
å¤© åĽ½
ãĥ¼ãĤ·ãĥ£ ãĥ«
ãĥ©ãĥŀ ãĥ³
ãĤ¤ãĥ³ãĤ¿ ãĥ¼ãĥģãĤ§ãĥ³ãĤ¸
Ġ# "
ç·ļ éĽ»åĬĽ
k en
ä¾ µ
ĠF ac
Ġãĥŀ ãĥĥãĥĪ
as c
å²¡ å´İ
çĪ ª
ãĤ¯ãĥ© ãĥ¼ãĥ¬ãĥ³
ãģ® çľĮéģĵ
IC IAL
Ġãĥŀ ãĥĭ
å¹¼å°ĳ æľŁ
åįĹ çĶº
23 5
äºĪ åł±
Ġè¨Ń è¨Ī
ãĥ¡ ãĥĪãĥŃ
24 6
æ¬¡ å®ĺ
Ġå¯Į çĶ°
éĢĲ èī¦
éļ ·
Wh at
è¾²æ¥Ń åįĶåĲĮçµĦåĲĪ
çĥ ı
ĠãĤ½ ãĥŃ
16 4
Ġè© ¦
R OM
ãĤµ ãĥ¼
ãĤ¯ãĥªãĤ¹ ãĥŀãĤ¹
27 3
æ´¥ åŃĲ
fer ence
Ġä»» å¤©åłĤ
) âĨĴ
Ġå µĲ
å¤§ æ¨¹
ãģĻ ãģĭ
ãĥ¼ãĤ¯ ãĥ«
ãĥķãĤ£ ãĥĥãĤ¯
Ġå¤§ åŀĭ
16 9
22 6
M r
Ġåº ľ
Ġå·Ŀ æĿĳ
ä¸Ń åĩºãģĹ
ĠH i
5 50
æĿ ľ
ãĥ³ãĥĢ ãĤ¤
ĠA K
ãĥĹ ãĥĨãĥ³
Ġæ¨ ĭåı£
Ġ18 73
æµ· ãģ®
OR S
14 2
éĩĳ å±ŀ
ãģ®çľĮéģĵ ä¸Ģè¦§
ĠS ub
Ġåģ ľ
ä¸Ģ ãģ®
14 7
Ġãĥķ ãĤ¸
ãĤ° ãĤ¼
ĠæĹ¥ é«ĺ
ãĥĲãĤ¹ ãĤ±ãĥĥãĥĪãĥľãĥ¼ãĥ«
ĠãĤ» ãĥĥãĥĪ
ãĥ³ãĥ İ
âĻ ¥
Ġ16 9
ĠB ox
Ġãģ¨ ãģªãĤĭ
16 2
éļ ħ
ĠAf ric
30 5
Ġãĥ¢ ãĥ³
ĠãĤ¯ãĥªãĤ¹ ãĥĨãĤ£
ĠAug ust
47 0
å·¨ äºº
è¨ĺ åı·
Ġèī¦ æŃ´
ä¸ī ä¸ĸ
G l
J e
Ġé ½
Ġè¥¿ å±±
ä»Ĭ äºķ
åĳ¼ ãģ¶
ãĥ« ãĥ¼ãĥł
ãĥŁ ãĤ«
åİŁ åŃĲ
ãĤ» ãĥĸãĥ³
æķĻ åĵ¡
Ġéģ º
Ķ èĸĩ
ãĢ Ĭ
Ġéļ İ
14 6
ä½Ĳ è³Ģ
éģ¸æĮĻ åĮº
Ġæ¦ İ
ĠD ANCE
ãĥ¼ãĥĭ ãĥ¥
ãĤµãĤ¦ãĥ³ãĥī ãĥĪãĥ©ãĥĥãĤ¯
ãĥĥãĤ» ãĤ¤
U FC
é¦Ļ æ¸¯
Ġãĥľ ãĥ«
ĠS hi
ãģĭ ãģĽ
Ġæ²³ åĨħ
ç¢ §
Ġ/ /
ob al
ãĥĹãĥ¬ ãĤ¼
æ°´ éģĵ
AL K
Ġçķ ĳ
ĠçĲ īçĲĥ
ĠEntertain ment
b ar
ĠãĥĻ ãĥĪãĥĬãĥł
Ġãĥĭ ãĥĥãĤ¯
R çµĤäºĨ
ĠAn im
Ġãģ ¶
Ġç©ºä¸Ń ç·ļéĽ»åĬĽ
çĻ¾ ç§ĳ
ãģ²ãģ¨ ãĤĬ
ĠãĥŁ ãĥīãĥ«
RE AK
ant e
èĭ± æ¨¹
ĠæĮ ¿åħ¥æŃĮ
Ġçł ´
å³¶ é§ħ
ãĥĢãĥĸãĥ« ãĤ¹
å°ı åŃ¦é¤¨
Ġãĥ© ãĤ¹ãĥĪ
ãĥ³ãĥĩ ãĥ«
å¿ĥ çĲĨ
ĠANN IVERSARY
ãĥļ ãĥĥãĥĪ
ĠC ITY
ä»£ çĲĨ
æĺİ åŃĲ
Ġãĥĸ ãĥŃ
ĠC A
ç¾İ éĩĮ
çĻº çĶŁ
ãĥ´ãĤ£ ãĥĥãĥģ
D X
k s
Ġ icon
Ġå¤§ æĹ¥æľ¬
ĠæĿ¾ åİŁ
ĠO xford
ãĥ³ãĥŀ ãĥ¼ãĤ¯
ãģĦ ãģª
ãĤª ãĥķ
ä¸Ĭ ãĤĬ
Ġç§ĳ åŃ¦
ĠB ay
3 40
å¹³ éĩİ
ãģł ãģ¡
åħŃ ä¸ģçĽ®
ãĤ¿ãĤ¤ ãĤ¬ãĥ¼ãĤ¹
ĠBL ACK
çĽ´ åŃĲ
eb ook
Ġéľ §
ĠI P
Ġæ¥ Ń
éķ· è°·å·Ŀ
Ġ17 2
Ġå®Ł æĸ½
æ² ¿
åĮĹ ä¹Ŀå·ŀ
ãģĺ ãĤĵ
ĠãĥĢ ãĥ¼ãĤ¯
èĪĪ æ¥Ń
ĠåĲī æĿĳ
ĠJe an
m en
è¡ Ŀ
ãģĲ ãĤĭ
ãĥģãĥ£ ãĥ¬ãĥ³ãĤ¸
å§ ¦
ãĥ³ãĥĬ ãĥ¼
p ect
UM I
£ ãĤĬ
Ġãĥĳ ãĥģ
ãģ¤ ãģ°
ãĥĸãĥ© ãĤ¶ãĥ¼ãĤº
ãģ¯ ãģĦ
ĠV an
çĿ ¦
ĠãĤ´ãĥ¼ãĥ« ãĥĩ
ĠF amily
Ġé¨İ æīĭ
ä»² éĸĵ
el t
Ġåľ° çįĦ
op s
ĠãĥĿ ãĤ¸ãĤ·ãĥ§ãĥ³
Ġé£¯ å¡ļ
ĠãĤ¢ãĥĭãĥ¡ãĥ¼ãĤ·ãĥ§ãĥ³ åĪ¶ä½ľ
Ġ à
ãĤ¸ ãĥł
Ġw e
ãĥ¬ ãĤ¢
ĠC ult
Ġå¤§ çŁ³
æ¥½ åĽ£
Ġ18 91
æ´ĭ èī¦
ãĥ¬ ãĤªãĥ³
åĨį æĶ¾éĢģ
èı© èĸ©
ä¸Ń èı¯
Ġãĥı ãĥªãĥ¼
Ġå¤© çļĩ
ĠAN IM
ãĥĥ ãĥĴ
ĠãĥĴ ãĥ¥
Ġè§Ĵå·Ŀ æĽ¸åºĹ
ãĥ¼ãĥ© ãĤ¤
ãĥķãĤ§ ãĤ¹
ç§ĺ æĽ¸
å®£ è¨Ģ
ãĥĻ ãĥŃ
ãĥķãĤ£ ãĥ«ãĥł
ãĥī ãĥ©ãĤ¤ãĥĸ
ĠB ur
ãĤª ãĥ¼ãĥĪ
ro id
ãĤ³ ãĥ¼
ĠãĤ¢ ãĥĢãĥ«ãĥĪ
ĠW ild
iv il
ĠJ u
Ġ16 6
ĠD C
ãĥģ ãĤ§ãĥ«
ãĥĻ ãĥªãĥ¼
ĠB C
è¥¿ æŃ¦
ãĤĦ ãģį
ĠçĶ° åı£
Å į
18 3
ĠT or
Ġåĭ ²
in ing
ãģ¯ ãģ¾
ãĥ³ãĥŀ ãĥ¼
Ġçİ Ħ
ĠPres ents
19 11
ãĥĲ ãĤ¤ãĥ«
æ´¥ çĶº
ãĥ« ãĥİãĥ¼
ãĤ¤ ãĥ¡ãĥ¼ãĤ¸
in st
is chen
ãĥİ ãĤ¢
äº ¨
æķ´ çĲĨ
ãĤ¯ãĤ· ãĥ³ãĤ°
ĠPublish ing
r ough
''' âĢĵ
es ch
g ar
19 26
ĠV is
è¿ İ
Ġè¦ ģ
Ġå½¢ æħĭ
p ro
Ġå¾Ĵ æŃ©
ãĤº ãĥ«
Ġåľ° åĽ³
Ġä¹ħä¿Ŀ çĶ°
3 000
u o
éģ ¼
ĠR os
30 2
ĠLe ague
æĭ¡ å¤§
ĠRail way
ĠåĮĹ å·Ŀ
ĠãĤĪ ãģĨ
è³ ĥ
å®® åŁİ
çĭ Ĺ
ãĤ¯ ãĥªãĤ¨
æ³¢ æķ°
è²´ åŃĲ
M IX
çľŁ ä¸Ģ
èµ¤ ãģĦ
ãĥ¼ãĥ© ãĥł
K K
ĠS R
åĵ Ģ
S EN
ãĥ³ãĥĹ ãĥŃ
Ġæł¡ èĪİ
ĠæĢ§ èĥ½
ĠåĲĦè©± ãĥªãĤ¹ãĥĪ
ãĥĩ ãĤ¶ãĤ¤
Ġç· ´
ĠT em
ĠZ e
SH OW
ãģ« ç§»è»¢
åĲĪ æĪĲ
ĠæĪĲ ç¸¾
D U
19 27
Ġç¯ł åİŁ
ĠRoy al
D P
ĠãĤ¹ ãĤºãĤŃ
åħ¬ åħ±
ãĥĹãĥª ãĥ³ãĤ¹
ĠèĬ¸ è¡ĵ
ĸ åĥı
ĠM aster
äº¤éĢļ å±Ģ
Ġéĸ ī
ãĥ© ãĤ¶
ãĥĦ ãĤ¤
ĠCh ar
cy clop
ãĥŃ ãĤ±
ãĤĴ åĲ«ãĤĢ
èŃ° éķ·
åħĥ æ°Ĺ
B ass
T RA
Ġ18 93
ı æ³¢
ãĥ´ãĤ¡ ãĥ«
Ġå¾³ éĸĵ
æ·³ ä¸Ģ
æĻĤ çĤ¹
åįĶ å®ļ
ãĥ³ãĥĲ ãĤ¹
ĠCon cert
Ġç® ±
ãģĹ ãģªãģĦ
ä½³ åŃĲ
Ġè³ ŀ
æľ¬éĥ¨ ãģ¯
ĠåľŁæĽľ ãĥ¯ãĤ¤ãĥīåĬĩåł´
P H
ãĥ¼ãĤ° ãĥ«
Ġä½ľåĵģ è³ŀ
Ġæ «»äºķ
æĹ¥ éĸĵ
ãĤ´ãĥ¼ãĥ« ãĥĩãĥ³
éĢ ĥ
ãģĬ ãĤĵ
i y
ãĥŁ ãĤ¯
D N
ãĥİ ãĤ³
åİ ³
ãĤ¹ãĥĨãĤ£ ãĥĲãĥ«
ãĤ¿ ãĥŀ
ĠãĤª ãĤª
Ġç«ĭ èĬ±
F U
ĠF un
ĠãĤ¯ ãĥı
ãģ® éķ·
éŁ¿æĽ² ç¬¬
ãģ® ä½įç½®
ãĥ´ãĤ£ ãĤ¢
ãĤ¨ãĥ³ãĤ¸ ãĥĭãĤ¢
ĠãĤ¹ ãĤ¿ãĥ¼
è¦ģ æĸĩåĮĸè²¡
èĤ ĩ
St ar
T ra
åĪ Ī
ãĥİ ãĥ¼ãĥĪ
çĶŁ æĶ¾éĢģ
ĠU nder
'' ãĢı
åľŁ æĽľæĹ¥
ãĥ³ãĥ¢ ãĥ¼ãĥ«
ãĥª ãĥ¼ãĥĢãĥ¼
ãģ¾ ãĤıãĤĬ
ĠD igital
æĸĩ æĽ¸
Ġ18 86
æŁĶ éģĵ
Ġé« Ļ
ãĥİ ãĥŁãĥįãĥ¼ãĥĪ
ĠU SS
çĮ ª
ĠAR T
L L
çŁ³ æ²¹
éĽħ å½¦
2 12
ob e
ĠåĪ¶ä½ľ åįĶåĬĽ
ãĤ¤ ãĥ³ãĥĩãĤ£
ãĤ¨ ãĥ¼ãĤ¹
ãĥ³ãĥĪ ãĤ¹
Ġæ´¥ çĶ°
ãĥŁãĤµ ãĤ¤ãĥ«
M e
19 25
çŀ ¬
ĠHE ART
c er
Ð ´
ãĤ¤ ãĥ©
ãĤ« ãĥ¡
Ġåľ ĭ
ãĤ¦ãĤ© ãĥ¼ãĤº
ĠåºĹ èĪĹ
ĠãĥĲãĤ¹ è·¯ç·ļ
åĪĿ æľŁ
Ġ ep
åĲī éĩİ
Ġå¸ ¯
ãĤ¢ ãĥ¼ãĤº
17 1
Ġèĩªæ²» ä½ĵ
ãģ® è¡Ĺ
19 00
éĸĭ æł¡
ĠãĤ¢ãĥ« ãĥķãĤ¡
ãĥŁ ãĥ¼ãĥ«
ãĤĴ éĸĭåĤ¬
Ġè¾² æ¥Ń
Ġéł Ĩ
ç¥Ĳ ä¸Ģ
J ECT
Ġ18 92
ĠåĪĿ çĻ»åł´
å±¯ åľ°
ĠMag ic
ĠL es
ĠG ames
å¥ĩ è·¡
æĹ¥ åĲĳ
ãģ® ãģĤ
ãĥª ãĥĢ
äºº æ°Ĺ
40 4
ĠãĤ¹ãĥĨ ãĥ¼ãĤ¸
Ġåħ¬éĸĭ å¹´
or ial
ĠD eath
ang er
ĠãĥĨãĥ¬ãĥĵæľĿæĹ¥ ç³»åĪĹ
ĠãĤ¨ãĥķ ãĤ¨ãĥł
Ġ18 75
ãĥĻ ãĥ©
Ġfeat uring
Ġ ä¹Ļ
Ġè Ĵ²
ER ATION
w ell
ĠR d
ãĥ¼ãĥĢ ãĥ³
Ġ us
ãĤ¢ ãĥ¼ãĤ«ãĤ¤ãĥĸ
èĢ Ĳ
éĺª ç¥ŀ
ãĥ¢ ãĥ¼ãĤ·ãĥ§ãĥ³
Ġæ²³ åĲĪ
IDE O
åĲį ä½ľ
çĶ» åĥı
board s
ĠN OR
ĠW onder
ãĤ» ãĥ³ãĤ¹
åĮ ¹
ãĤª ãĥ¬
25 4
Ġå²¡ éĥ¨
Z O
ãĤ² ãĤ¹
ãģµ ãģ¿
å§ ¿
Ġ17 7
åĵ² å¤«
our t
Ġé¦ĸ éĥ½
Ġæĵ į
23 3
Ġ:# :
ãĥŃ ãĥľãĥĥãĥĪ
ä½į æ±ºå®ļæĪ¦
ĠW ii
ãĥĳ ãĥ¯ãĥ¼
ãĥĨãĥ¬ãĥĵ å°ıèª¬
åĪ¶ å¾¡
Ã ł
18 1
P M
ãģ® ãĤĬãģ°
ãĥ³ãĥĻ ãĥ«ãĤ¯
çķ ł
åįĥ éĩĮ
ĠåĴĮ æ³ī
ãĤŃ ãĥł
Ġv al
Ġãĥģãĥ£ ãĥ³ãĥįãĥ«
æľĪ æĽľæĹ¥
çī ¡
ĠN EXT
ing er
å®¶ åºŃ
Ġed ition
ãģ® ä½ı
ãĤª ãĥļãĥ©
åĭĻ å¤§èĩ£
æīĵ ãģ¡
ç º
Ġæľª å®Łæĸ½
å®Ĺ æķĻ
ĠS a
æĿ¾ çĶ°
æ¥½ ç«ł
ĠW oman
æľª åħ¬éĸĭ
ãĥª ãĥ¤
ĠãĥĹãĥŃ ãĥĩãĥ¥ãĥ¼ãĤ¹
Ġåı° åĮĹ
æŃ£ æĺİ
å¾Ĺ ç¥¨
Ġ18 87
ĠåĪĿ åĩºåł´
I AN
ĠJ azz
ãģ° ãĤī
lo ad
åĮº åĪĨ
ãĥķãĤ§ ãĥ«
ĠãģĹ ãĤĩãģĨ
Ġå°ĳ å¥³
éķ·éĩİ çľĮ
ĠæºĸãĢħæ±ºåĭĿ æķĹéĢĢ
Ġä¼Ĭ éģĶ
u it
ãĥĥ ãĥ©
ãģŁãģĭ ãģĹ
20 9
AN B
èĽ ĩ
ĠOrd er
ĠM ind
ãģĹ ãģ¿
æĶ¿ å¤§åŃ¦
et a
ĠãĤ¹ ãĥĪãĥª
éĽĨ ç·¨
Ġæ¨ ©
ãĥ¬ ãĤº
ãĥį ãĤ³
ãĥ¬ ãĥł
éİĮ åĢī
ãĥª ãĥĴ
Ġåħ ļ
ãĥĨ ãĥĥãĤ¯
30 7
Ġæĺİ æĹ¥
27 6
ãģ® ä¸Ĭ
ãĥ³ãĤ» ãĥ³
ĠãĤ«ãĥª ãĥķãĤ©ãĥ«
ra ct
Ġãĥĩ ãĤ¶ãĤ¤ãĥ³
ĠãĥķãĤ© ãĥ¼ãĥŀãĥĥãĥĪ
Ġcl ass
ĠF ant
Ġãĥ¯ ãĤ·ãĥ³ãĥĪãĥ³
ãĥª ãĥĥãĤ¸
ãĤ¿ ãĥĥãĤ°
èĩ ĵ
Ġéĥ¨ æ´»åĭķ
ĠSpac ew
en z
åģ ī
ãģ¯ ä»¥ä¸ĭãģ®
é«ĺ éĩİ
æĦı åĳ³
Ġåŀ ĭ
l or
u h
ãĤ¦ ãĥ©
ĠF ound
çĦ¡ ç·ļ
ĠãĤ³ãĤ¹ ãĥ¢ãĤ¹
ĠC y
ĠçĶº çĶ°
ĠãĥŃ ãĥ¼ãĥ©
åħ¨ æĹ¥æľ¬
ĠT K
éļ ı
22 7
ãģĴ ãĤĵ
az ine
t im
å¹´ éĳĳ
æ³ ¥
ç«ĭ ãģ¤
Ġç ¡
17 7
Ġæ½ ®
ĠM us
å£ ±
ĠåĬ© çĽ£çĿ£
ĠæĿ± æŃ¦
æĭł çĤ¹
at ure
ĠL ap
ãĤ¸ãĤ§ ãĤ¤
åģľçķĻ åł´
ãĤĴæĮģ ãģ¤
åĭ ĺ
ĠO ct
Ã© s
ãģ® èĢģäºº
èĥĮ æĻ¯
W ill
19 5
17 9
Ġå¯ ¿
ist a
åĸĦ è©¦åĲĪ
Ġçķª åľ°
ĠEX ILE
äº¬éĥ½ åºľ
å¡ģ æīĭ
ä½ĵ æĵį
ĠSpacew atch
ĠF in
Ġ17 1
Ġåĳ ¼
ãĤ« ãĥ³ãĥī
Ġ18 84
çĽ® çļĦ
Ġt our
ãĥ³ãĤ· ãĥ§
èģ· æ¥Ń
ĠTim es
Ġ17 3
4 40
V OL
è¨ ´
23 8
ĠæľĢé«ĺ ä½į
T o
ĠV I
åĪĨ æł¡
is hi
Ġãĥı ãĥ¼ãĥĪ
ãĤª ãĥĪ
ãĥ³ãĤ¬ ãĥł
Ġãĥŀãĥ« ãĤ³
ĠæĶ¾éĢģå±Ģ åĲį
å¤ĸ åĽ½
ĠæĹ¥æľ¬èªŀ åĲ¹æĽ¿
æīĢ èĶµ
ãĥ¼ãĤ¹ ãĤ¿ãĥ¼
æĮ¯èĪĪ å±Ģ
å¸ĤçĶºæĿĳ ä¸Ģè¦§
D ream
ãģ® çłĶç©¶
äº ĺ
ĠãĤ¢ ãĥĪãĥ©
ãģı ãģ«
ĠSe a
æĹ¥ çı¾åľ¨
ãĥĭ ãĤ¹ãĥĪ
çİĭ èĢħ
ik a
éĢ± åĪĬ
ãĥ¥ ãĥ©
èı Į
ĠR S
éĥ½å¸Ĥ åľı
ak er
Ġãĥĳ ãĥ¼ãĤ½ãĥĬãĥªãĥĨãĤ£
çĶ° è£ķ
ãĤĴ çĻºå£²
æľĢ å¼·
ãģ® ä¸»
ãģĦ ãģĵ
ãĥĵ ãĥ¼ãĥģ
ãģĿ ãģ°
ĠåĽ½åľŁ äº¤éĢļçľģ
F S
Ġp f
æŃ¯ ç§ĳ
ãĥ¡ ãĤ¿ãĥ«
37 0
ĠP OP
ãĤ¨ ãĤ´
ãĥĨãĤ£ ãĤ¹
26 5
Ġ17 6
27 5
Ä «
ĠçĶ ĺ
æĸ° çĶº
åįĹ åĮº
ĠæĬ ¼
ĠSing le
ĠG Hz
25 8
Ġæľ ´
å¢Ĺ åĪĬ
ãĥ¼ãĤ¤ ãĥ³ãĤ°
ĠNet work
å²¡ å±±çľĮ
L P
ĠãĤ¢ ãĥ¼ãĥĪ
åħī ãģ®
ĠOFF ICIAL
Ġå± ķ
ĠãĤ¯ ãĥªãĤ¹ãĥĪ
ĠãĤ¢ ãĤ¹
ĠN ak
ãĥĨãĤ¤ ãĥ³ãĥ¡ãĥ³ãĥĪ
ãĥª ãĤºãĥł
çĲĨ åŃĲ
éĸĭ å±Ģ
æµ© ä¸Ģ
åºĥ åł±
ãĥ¼ãĤŃ ãĥ³ãĤ°
ĠåķĨ æ¥Ń
Ġc ategory
ĠIn v
ĠæĪ¦ åĽ½
çİ² åŃĲ
åŃĲ åľĴ
Ġn e
å¤© æĸĩ
« éľ²
ĠãĤ¹ ãĤ¤ãĤ¹
Ġè©¦åĲĪ æķ°
ĠG AME
ä¸Ĭ çĶ°
Ġä¸Ģ éĥ¨
os oph
ãĤ¹ãĥĳ ãĥĭãĥĥãĤ¯
Ġ''' ãĢĮ
ĠS K
ãĥĳ ãĥĳ
éłĺ åŁŁ
ãģ¯ ãĤĦ
ãĥ¼ãĥĭ ãĥ§
Ġèĭ± åĽ½
ãĤ¢ ãĥĪ
ãģĦ ãģı
æģµ ç¾İ
éĢļ å¸¸
åķĨ äºĭ
ãĥķãĤ§ ãĥ©ãĥ¼ãĥª
å®ĩ éĥ½å®®
ãĤ¢ãĤ¤ãĥīãĥ« ãĥŀãĤ¹ãĤ¿ãĥ¼
! )
ĠS V
ãĥľ ãĥ¬ãĥ¼
å½ĵ æĻĤ
ĠEar th
Ġåį °
Ġ ä¾ĭ
ĠP A
åĮĹ éĥ¨
Ġæľ ±
ãĤµ ãĥ³ãĥĹ
Ġd ay
29 1
ĠæĬ ĺ
ãĤ± ãĥ¼ãĥĪ
ãĥĥãĥĶ ãĥ¼
ãĥĬ ãĤ¬
ãĤµ ãĥ³ãĤ¿
è°· æĿĳ
Ġæł¡ æŃĮ
ĠåŃ¦ åľĴ
19 2
åĨĻçľŁ éĽĨ
åŁºç¤İ ãĥĩãĥ¼ãĤ¿
ãĥŁ ãĥİ
ãĥ¤ ãĥ³
Ġå¯ Ľ
49 0
SP R
å¹ ¾
æī ĩ
26 7
ce pt
åł± éģĵ
ãĥĹãĥª ãĥ³ãĤ»ãĤ¹
orn ing
Ð ¹
ãĥŀ ãĥ³ãĥī
Ġçķª ç·ļ
Ġs ub
Ġ ê
æĽ ĸæĺ§ãģķåĽŀéģ¿
ãĥī ãĤ¢
38 0
Ġãĥĸãĥ© ãĥĥãĥī
Ġç¿ Į
ãĥĬ ãĥ¼ãĤº
IG H
ĠæĪ¦ ç¸¾
Ġ** #
ãĥªãĥ¼ ãĤ¯
ĠAust ral
ĠF orm
ãĤ¾ ãĥ¼ãĥ³
ä»Ĭ æĹ¥
ãĤµ ãĥ¼ãĤŃãĥĥãĥĪ
ĠãĤªãĥ¼ãĤ¹ãĥĪ ãĥªãĤ¢
Ġd a
å·¡ æ´ĭèī¦
ĠB on
id o
Ġãĥª ãĤª
å®Ł ç¸¾
Ġç§ĭ èĳī
åŁ· è¡Į
ãĤº ãĥŀ
Ġè¶³ ç«ĭ
om i
è©ķè«ĸ å®¶
ĠH al
æĢ§ åĪ¥
ãĤ³ ãĥ¼ãĥ©ãĤ¹
ĠV IC
å´ ©
ĠåįĹ éĥ¨
ãĥ¶ å´İ
ãĤ¹ãĥĪ ãĤ¢
ãĥ³ãĥģ ãĥ³
ç¾İ äºº
è¡¨ çı¾
ric t
: "
ãĥ Ĥ
ãĥ¬ ãĤ³
ĠM ore
Ġ18 5
ĠéĻ ¤
Ġå²©æ³¢ æĽ¸åºĹ
) ;
§ åĽ°
ĠN PB
Z A
Ġg r
ãĥ¯ ãĥ¼ãĥ«
çķª åı°
æ¨ªæµľ å¸Ĥ
D o
æľī æ¨©
éłĨ åŃĲ
ĠãĤ¢ ãĥ³ãĥĩãĤ£
Ġè·¯ç·ļ çĬ¶æ³ģ
17 4
Ġ17 8
ãĤ°ãĥ© ãĥ³ãĥī
ĠéĻ Ĳ
è©© äºº
ĠSong s
åĩ ½é¤¨
âĶģâĶģ âĶģâĶģ
ãĢį ãĢģãĢĮ
ãĥŁ ãĥĥãĥī
æµ¦ åĴĮ
ĠFor ce
ãĥĵ ãĤ¢ãĥ³
åł´ ãģ®
ĠE y
èī¯ åŃĲ
Ġå¯¾ å¿ľ
ãģ¯ ãĤĵ
B ar
S ch
ãĥ¡ ãĥ¼ãĥ©
ä½Ĳ éĩİ
Ġçīĩ å²¡
ĠI C
Ġs ong
ĠST YLE
y p
ç¶ļ è·ĿéĽ¢
ãĥķãĤ¡ãĤ¤ ãĤ¿ãĥ¼
å¸Į æľĽ
ĠK ar
Ġå¤© éĩİ
ãĤĮãĤĵ åĿĬ
ãĥ«ãĥ¢ ãĤ°ãĥ©ãĥķãĤ£
00 5
ĠãĤ¢ ãĥ³ãĥĬ
åĲĮ å±ħ
èī¦ èīĩ
å¼ı éĩİçĲĥ
æģĭ æĦĽ
il ity
è©¦åĲĪ çµĲæŀľ
ç¦ıå²¡ çľĮ
Ġåį ĵ
ãĥ¬ ãĥ¼ãĥĻãĥ«
ĠS at
Ġåį ±
æ¨ª å±±
ãĤª ãĥ¼
Ġ17 4
æĿ¾ äºķ
Ġä¸Ĭ åİŁ
Ġ ?
å¹´ è¡¨
çĶŁ ãģ®
Ġè·¯ç·ļ ãĥĲãĤ¹
ĠæĹ¥ åĲĳ
ĠSPOR TS
åŃĲ ä¾Ľ
AS ON
ãģ«ãģª ãģ£ãģŁ
ap er
ãĥª ãĥĥãĥģ
ãģĹ ãģĬ
æµģ ãĤĮ
ãĤ¨ ãĥĥãĥĪ
ç¤¾ åĽ£æ³ķäºº
Ġ18 3
éĩį å·¥
èªł ä¸Ģ
''( ''
ĠT RA
ĠP AR
ãģĪ ãģªãģĦ
å·¥ æĪ¿
ãĤ³ ãĥ³ãĤ¯
æ¡ľ äºķ
ĠLA ST
iss ion
25 1
ãĤ¹ãĤ¿ ãĥ¼ãĥĪ
ĠãĥĬ ãĤ¤
Ġå® £
æµ· å¤ĸ
ĠãĥĻ ãĥ³
Ġå½ĵ èĲ½
ãģŁ ãĤįãģĨ
ãĥ¢ ãĥ³ãĥĪ
ĠãĤ¨ ãĥ³ãĤ¿
èĲ½ èªŀ
i as
æľ¨ çĶº
æ· «
Ġæ² Ļ
æĽ´ æĸ°
ĠåĬ´ åĥį
ãĤ° ãĥŀ
Ġç· Ĵ
ĠçĮ ¿
ļ åŃĲ
ĠBlu es
Ġd own
Ġæµ ®
ãĤ·ãĥ¥ ãĥ¼
Ġæ£® ä¸ĭ
ĠæľĽ æľĪ
F R
ãģ« æĶ¹
W W
ãĥĿ ãĥŃ
ãĥĪ ãĥ¨ãĤ¿
ãģ¯ ãģ¤
ĠJ FL
åĲį ãģ¯
ĠåĨħ éĩİæīĭ
B I
Ġå¤§ å·Ŀ
17 3
ãĥģ ãĥ«
ĠSt e
Ġãĥ¢ ãĥ³ãĥĨ
Ġãĥ¦ ãĥĢãĥ¤
Ġå½¹ èģ·
Ġæ¸¡ éĥ¨
Ġåħ¬ æĺİåħļ
ĠC all
ĠF oot
å°ı å±±
æ°ĳ ä¿Ĺ
Ġéĸĭ æ¥Ń
Wh ite
Ġæ¨ª éłĪè³Ģ
ãģ² ãģķ
ãģµ ãģŁ
ĠãĤ¤ ãĥ³ãĤ°
åĲĮ ãģĺ
ĠçĻº è¡Į
ĠåıİéĮ² ä½ľåĵģ
ãĥŀãĥį ãĥ¼ãĤ¸ãĥ£ãĥ¼
2 14
Ġ2 60
ĠæĻ º
èª ķ
ĠS KY
éĿĴ ãģĦ
ãģ® ãĥĨãĥ¼ãĥŀ
ãĤ¨ ãĤ¯ãĤ¹
åİŁ æĿĳ
ä¾ ĳ
ĠS qu
Ġser ies
ãģ¡ ãģ®
ĠçĶŁ å¹´æľĪæĹ¥
ãģ» ãĤĵ
åĴĮæŃĮ å±±
æ°Ĺ çŃĴ
ĠéŁ³ å£°
al th
ãĥĢ ãĤ¦ãĥ³
iz ation
ä¹ĭ åĨħ
m ark
u j
Ġè ľ
åĪĨ ãģ®
ãĥĺ ãĥĵãĥ¼ç´ļ
å®Į äºĨ
Ġ- )
ig er
40 5
ãĥŁ ãĥ©
ãĤ¶ ãĥĻãĤ¹
ãĤ«ãĥ© ãĤªãĤ±
éĻ¤ ãģı
å¹´ ç¬¬
ĠæĹ¥æľ¬ ç¤¾ä¼ļåħļ
ĠæĶ¾éĢģ åĮºåŁŁ
ãģķ ãĤĦãģĭ
A t
ãĤ· ãĤªãĥ³
ĠTw itter
ãĥĥãĤ· ãĥ³ãĤ°
ĠãĤŃ ãĥı
ç² §
äºº çĽ®
at her
AS HI
ĠF inal
ĠåĨ ·
H F
am s
ãĥ¼ãĥŀ ãĥªãĤª
40 2
17 2
ur ch
æĬ «éľ²
H i
US H
ãĥ³ãĤ· ãĤ¹ãĤ³
ãģ¸ãģ® éģĵ
æ©ĭ æ¢ģ
éĿĻå²¡ çľĮ
ĠGener al
W orld
Ġ Ï
è³ĩ æľ¬
åı¸ä»¤ å®ĺ
è¡Į åĭķ
00 4
ĠT W
R em
al y
ä¼ į
ãĥ¼ãĤ¿ ãĤ¦ãĥ³
ãĤ¸ãĥ£ ãĥ¼ãĥĬ
IT ION
èĲ ¬
p ng
ãģ® å³¶
Ġ19 2
ĠSec ond
24 7
æ²³ ãĥīãĥ©ãĥŀ
CM ãĤ½ãĥ³ãĤ°
èª ĵ
åĽŀ åħ¬æ¼Ķ
ãģĽ ãĤĭ
çĻ½ ãģĦ
åįĵ çĲĥ
ĠåŁº ç¤İ
ĠèĬ¸ èĥ½
ĠC ambridge
ĠD og
Ġ18 1
24 5
ĠãĤ· ãĤ¢
Ġ16 00
èĮ ľ
æķ¦ åŃĲ
ãģŁ ãģ«
Ġå±± éĻ°
ç³ ĸ
éĢł èĪ¹
ĠH ard
Ġæĸ° æĹ§
Ġéĸ¢éĢ£ åķĨåĵģ
ãĤ¤ãĤ¢ ãĥŁ
åıį å¿ľ
è¸ ı
Ġ over
Ġãĥī ãĥªãĥ¼ãĥł
ĠãĤ¹ãĥĳ ãĤ¤
æģĲ æĢĸ
A p
é¨İ æīĭ
ãĤ¤ãĥ³ãĤ¿ ãĥĵãĥ¥ãĥ¼
ĠC up
ãĤ¨ ãĥĩãĤ£
Ġå®® çĶ°
s en
ä¼ĳ ãģ¿
ĠãĥĿ ãĥ¼ãĥ©ãĥ³ãĥī
ĠãĤ¯ãĥ¬ ãĤ¸ãĥĥãĥĪ
O p
ãĥĥãĥĹ ãĤ¹
ãĤŃ ãĥĥãĥī
ãĥŁ ãĥ«ãĥĪãĥ³
ãĤī ãģİ
IC HI
ĠãĤ²ãĤ¹ãĥĪ åĩºæ¼Ķ
ãģ£ãģ ·
Ġ15 00
ãĤ± ãĥ¼ãĥĸãĥ«
ĠãĥĲ ãĥĥãĤ¯
ĠçµĮ åĸ¶
ĠçĲ ´
Ġ Â°
ĠR EM
èĹ© ä¸»
ĠéĢ² æ°´
ĠR oll
Ġå¦ Ļ
40 1
ä¸ĩ æŀļ
Ġmed al
19 24
18 4
ab e
Ġãĥľ ãĤ¹ãĥĪãĥ³
çµĤ çĤ¹
Ġäººåı£åĭķ æħĭ
ãĤ³ ãĥĪ
27 8
ãģļ ãĤĮ
æ©Ł åĭķæĪ¦å£«ãĤ¬ãĥ³ãĥĢãĥł
å®® æľ¬
a us
o i
å¤§åŃ¦ åĲįèªīæķĻæİĪ
å±ĭ çĶº
ĠãĥĲ ãĥ«
ĠæŃ¦ è£ħ
Ġéļ ł
é«ĺéĢŁ åº¦
é§Ĳ å±¯åľ°
ĠLeg end
19 1
ãģ§ ãĤĵ
22 9
åĵ¡ æķ°
åįģ ä¹Ŀ
Ġåħ¬å¼ı ãĥĸãĥŃãĤ°
ãĥ³ãĥĺ ãĥ³
Ġ Å
NE W
IN T
ĠæĿ±æµ· å¤§åŃ¦
å¤§ ç³»
ãģĬ ãģ°
Ġåĳ ½
4 30
ĠC ra
âĸ ³
Ġæ»ĭ è³Ģ
ãģĦ ãģªãģĦ
ãģĨ ãģĪ
ĠEx press
w in
ĠH OC
æ¬¡ ãģ®
ĠãĥĢ ãĤ¤ãĥ¤ãĥ¢ãĥ³ãĥī
ĠSim on
ak u
ĠæĿĳ å±±
Ġé¤ Ĭ
å¥ī è¡Į
èĭ± äºĮ
ĠåıĤåĬł ä½ľåĵģ
6 50
Ġåį Ī
ĠéĢļ å¸¸
ãĥĨãĤ¤ ãĥ©ãĥ¼
ĠBus iness
ĠN or
ç´ ¡
æŀľ ãģ¦
ĠM I
ĠãĤ¸ãĥ¥ ãĥĭãĤ¢
ĠB ank
ĠW all
æŃ£ æ¨¹
b ow
åı¤ ä»£
19 23
æĢ§ ãģ®
ĠãĥĬ ãĥı
3 13
ãĤı ãĤĮãĤĭ
äºľ ç¾İ
è©© éĽĨ
ãĤ« ãĥĦ
Ġåı Ĭ
P OP
v an
ĠåŃ¦ åĮº
ĠPl at
ĠçĮ «
æģŃ åŃĲ
ãĥĶ ãĥ¥
Ġä¸»ãģªåĩºæ¼Ķ ä½ľåĵģ
o is
ãģĹ ãĤĤ
çĻ½ çŁ³
ĠO ther
Ġãĥĵ ãĥªãĥ¼
G Y
Ġåı £
æ©ĭ å¸Ĥ
ĠãĥŃ ãĥ¼ãĤ¿ãĤ¹
57 5
C ER
Ù Ĩ
ãĥ¼ãĥ ĺ
Ġå® ¿
ĠæĿ¾ æ°¸
Ġæ¨ªæµľ å¸Ĥ
Ġãĥ¬ ãĤ¢ãĥ«
ĠD a
ç§ ¦
ay er
ç³» éĽ»è»Ĭ
ĠTR M
Ġæİ¥ç¶ļ è·¯ç·ļ
W eb
ãĥ¼ãĤ ®
ĠH OT
åº¦ çĽ®
Ġè¼ ¸
ĠéĽ £
ĠåŃ «
ãĥĩ ãĥ©
ãģĬ ãĤĤ
æľĪ æľŁ
ãĥĪ ãĥ¼ãĥŀãĤ¹
æĸĩ åłĤ
çĶŁ ãģįãĤĭ
ĠK now
æ½ľæ°´ èī¦
00 6
ãģķ ãĤĪãģªãĤī
D ata
ãĤª ãĥŃ
åĩ ½
Ġéħį çµ¦
26 3
ãĤ¼ ãĥ³
í ķ
äºº æļ®ãĤīãģĹ
Ġéĥ½ éģĵåºľçľĮ
z er
Ġãĥĩ ãĥ¼ãĤ¿
Ġè¡ Ľ
Ġå¼ ¦
ä»ĺ ãģĳ
ĠCol l
Ġä» ®
ĠçĽ Ĭ
S HI
Ġæįķ æīĭ
ãģĽ ãģļ
ĠN ever
25 2
ĠåĬł è³Ģ
ĠæĹ¥æľ¬ åĽ½
ãĥŃ ãĤ±ãĥĥãĥĪ
Ġåħ± æ¼Ķ
Ġãĥĳ ãĥĪãĥªãĥĥãĤ¯
æĳ© æĽ¸æĪ¿
ĠçĽ£ ä¿®
å· Į
or row
ĠæĢ ¥
in er
26 2
ä¸» ä»»
ĠO K
Ġ18 6
Ġk W
ĠãĤªãĥ¼ãĥĹãĥĭãĥ³ãĤ° ãĥĨãĥ¼ãĥŀ
T W
æĻ ©
Ĭ åİŁ
22 1
Ġå°ı æ±ł
éĢļ å¸¸çĽ¤
Ġéķ· å²¡
æİĪ æ¥Ń
Ġåħµ è£ħ
ãĥı ãĥ¤
Ġåº ·
å±± åŁİ
ĠPe ople
l ight
ãĥĩ ãĥ³ãĥĪ
å¼ ±
åĨħ ãģ¯
åħ¥ ãĤĮ
å® ľ
Ġåħ¨ æĪ¦
Ġç¨² èĳī
Ġ** (
ãĥĻ ãĥª
Ġéĸ¢éĢ£ æĽ¸ç±į
our s
ãĤĬ ãĤħãģĨ
Ġãĥĩ ãĥĭãĤ¹
ãĥĥãĥĪ ãĥŀãĥ³
ĠæŃ¦ è±Ĭ
ĠAs ia
ĠãĤ¤ ãĥ³ãĥĨ
é¦Ļ ç¹Ķ
n ight
ĠãĤª ãĥ¬
éĤ¦ å½¦
Ġåħ¬å¼ı ãĤ¦ãĤ§ãĥĸãĤµãĤ¤ãĥĪ
ĠJos eph
ç¦ı çĶ°
ĠéĢĢ ä»»
Ġ out
çĻĤ æ³ķ
ãĥŁãĥ¥ãĥ¼ãĤ¸ ãĤ«ãĥ«
ĠC HI
ST AR
åıĤ è¬Ģ
Ġéĺ¿ ä¹ħ
2 13
ãĤ» ãĥ¬
26 6
ç¥ŀ è©±
Ġ::: :
Ġp e
è£ħ çĶ²
RO SS
å±± éĻ½
ãĥ©ãĥĨãĥ³ ç³»
n ew
Ġm on
ĠãĤ½ ãĥĭãĥ¼
å¹´ éĩĳ
Ġ18 94
æĸ° æ½®ç¤¾
ĠãĤª ãĥ³
Ġè¦ĸ èģ´çİĩ
Ġ app
ĠB ACK
ĠéĬ Ń
è© ł
Ġt r
O X
ĠJ AM
æ³ķ åŃ¦éĥ¨
ĠC IN
ãĤ³ ãĥª
éļ Ķ
ä¼ĳ æĹ¥
ãĤ± ãĤ¢
ĠãĤ¨ ãĤ¯
AB Y
Ġãĥªãĥªãĥ¼ãĤ¹ æĹ¥
Ġ18 85
èªŀ ãģ®
Ġå®Ĺ æķĻ
åŁİ éĥ¡
ĠM B
ãĤ¿ ãĤ¹
æŁ ´çĶ°
ãĥ¢ãĥ¼ãĤ¿ ãĥ¼ãĤ¹ãĥĿãĥ¼ãĥĦ
ĠC ur
24 1
Ġ äºĭæ¥ŃæīĢ
ĠPre m
ĠåĽ½åĭ¢èª¿æŁ» ãģ«ãĤĪãĤĭ
18 6
26 9
å¸« ç¯Ħ
Ġé´ ¨
Ġä¸ ¦
25 9
ĠãĤ¸ ãĥŁãĥ¼
Ġãģķ ãĤĪãģªãĤī
éĩİ çľŁ
ãĥ¼ãĤ± ãĥĥãĥĪ
Ġåģ¥ åº·
ĠM Hz
Ġé«ĺ å³¶
45 8
ĠãĥĬ ãĤ¤ãĥĪ
Ġ18 2
ĠåĿĤ åı£
Ã º
ãĥī ãĥ¼
ãģį ãĤĩãģĨ
40 8
çĻºå£² ãģķãĤĮãģŁ
åĩºçīĪ ä¼ļ
Ġæ¼ ¢
ãĥĳãĥ© ãĥĢãĤ¤ãĤ¹
A mer
Ġãĥŀ ãĥ«ãĤ¯
è« ıè¨ª
ãĥĥ ãĥª
ĠG OLD
å¿į èĢħ
åįģ äºĶ
ah n
ĠAd vent
äº¬ åĮº
Ġãĥķ ãĥ©ãĤ¤
Ġå¦ »
ĠManag ement
ĠF S
ãĤ´ ãĥ«
ĠSp ring
éĻ ¶
ĠæĹ¥ ç¨ĭ
ä¸ŃåŃ¦æł¡ ä¸Ģè¦§
æĢª è«ĩ
ãĤ¬ ãĥ©
ãĥķãĤ§ ãĤ¢
åīµ è¨Ń
ĠæĿ±æĹ¥æľ¬ æĹħå®¢éīĦéģĵ
ĠC SS
ãģ® è¬İ
éħ Ķ
Ġåħ« çİĭåŃĲ
G irl
Ġ es
Ġ18 80
ĠãĤ« ãĥ¼ãĥī
ĠãĤ¯ ãĥ¬ãĤ¤
å¤© ç¥ŀ
ĠãĤ°ãĥ©ãĥ³ãĥī ãĤ¹ãĥ©ãĥł
ãĥĦ ãĤŃ
ĠæĢ§ åĪ¥
ĠåĢĻè£ľèĢħ åĲį
Ġ18 88
ç´Ģ è¡Į
ĠåĿ ª
ĠL B
ĠY EAR
I s
ãĥª ãĥ¬ãĥ¼
èĩ ¼
Ġå¹² æĶ¯
ãĤ¹ ãĤ«ãĥ«
ãĥ¼ãĥ´ ãĤ§
ãĥķãĥ© ãĥ³ãĤ¯
ĠRep ort
ĠN A
åīµ æ¥Ń
ĠãĤĨ ãģį
ãĥģãĥ¥ ãĤ¢
IEC E
è Ł
ãĤ¤ãĥŃ ãĥĥãĥĪ
ĠF e
Ġãĥ¢ ãĤ¹ãĤ¯ãĥ¯
ain s
á ĥ
æ§ĭæĪĲ äººæķ°
ĠD ON
Ġãĥ¬ ãĤ¹
ĠåĢī æķ·
Ġæľ¬ å¤ļ
ĠT X
at re
ĠHe ad
ãĤ³ ãĥĸ
ĠF er
27 4
M ac
t ime
Ġå¤§ æĿĳ
ãģķ ãģİ
å» ·
åįĶ èŃ°ä¼ļ
ĠDevelop ment
ĠJ RA
Ġæħ¶ æĩīç¾©å¡¾
ãĤ¯ ãĥ¬ãĤ¤
ãĥķãĤ© ãĥ¼ãĤ¹
èº« ä¸ĸå¸¯
Ġè¨Ń ç½®
ĠMed ia
ãģ§ ãģį
Ġå® ¢
Ġãĥª ãĥĪãĥ«
ĠL ost
18 9
ãĥľ ãĥ¼ãĥ³
åħ± ç·¨èĳĹ
ãģªãģĦ ãģ§
Ġå·Ŀ çĶ°
24 2
23 4
ãģ® ãģĵãģ¨
Ġä¸» äººåħ¬
æ¥ ĵ
24 9
ĠæĶ »
ĠãĤ» ãĤ¤
ãĥ³ãĥķ ãĥ©
ãĥ«ãĥĪ ãĤ¥
Ġ20 2
Ġä½ľ å®¶
å¹´é½¢ åĪ¥äººåı£æ§ĭæĪĲ
ĠHO USE
ĠS ING
çī© çĲĨ
ĠãĤ» ãĤ°
ãĤ¯ãĤµ ãĥ¼
äººç¨® åĪ¥äººåı£æ§ĭæĪĲ
å¸Ĥ ãģ®
ãĤ¤ãĤª ãĥªãĥ³
ãĥ©ãĤ¤ ãĥ´
æĹ© å·Ŀ
00 9
ãĥı ãĥŀ
ãĤ¯ãĥ© ãĥ¼ãĤ¯
olog ical
v ille
ãĤ¢ãĤ¤ ãĥ©ãĥ³ãĥī
KE Y
ãĥ»ãĥ» ãĥ»
F X
22 8
ĠF uture
æ°ĳ æĹı
Ġt w
26 4
åĤĺ ä¸ĭ
il es
ãĤ°ãĥ© ãĥķ
ãĥ©ãĤ¯ ãĥ«
Ġåĵģ å·Ŀ
Ġ18 9
ag a
ä¸į åıĤåĬł
Ġåĭķ çī©
ãĥĭ ãĥ§
ãĤĬ ãģŁãģĦ
æ¯İ éĢ±
19 3
ĠT oy
ĠãĤ« ãĥ¯
ãĥ« ãĥİ
ãĥģ ãĥĥãĤ¯
ĠW ater
æĸ° äºķ
åĨħ çĶ°
OR I
çĪ ¾
Ġçļ Ĩ
ed a
æĪ »
æĺ ¯
ãģ© ãģĭ
MA X
' re
Ġé«ĺ å´İ
ç² ī
ĠGu ide
k er
il a
Ġ17 9
å¯º é§ħ
ä¹ħ åŃĲ
duc ed
E ver
è§£ æķ£
ĠR ED
åĲĮ å¥½ä¼ļ
it or
Ġh is
Ġå°± å½¹
T om
23 2
26 1
èĭ¥ æĿ¾
ãģ®å»ĥæŃ¢ å¸ĤçĶºæĿĳä¸Ģè¦§
ĠãĥĨ ãĤŃãĤµãĤ¹
å®¶æĹı ä¸ĸå¸¯
Ġéľ Ĭ
ĠS IDE
ä» °
Ġ; ãĢİ
48 9
Ġæĸĩ èĹĿæĺ¥ç§ĭ
Ġå¸Ĥ ç«ĭ
ĠC am
èĩªçĶ± åħļ
çĶ° è¾º
èĻ ļ
æŃ³ä»¥ä¸Ĭ ãģ®èĢģäºº
ãĤ» ãĥķ
ĠãĥĢ ãĥ³ãĤ¹
ĠãĤ» ãĥĲãĤ¹
ĠãĥķãĤ£ ãĥª
19 22
ĠDe f
Ġ# ãĢĮ
åĮĹ éĻ¸
Ġ2 30
ç¶¾ åŃĲ
å¿« éĢŁ
ĠæĶ¾ æĺł
ic ation
ãĤı ãĤĮ
ĠãģĤ ãĤĦ
Ġå®® å·Ŀ
æŃ³æľªæºĢ ãģ®åŃĲä¾Ľ
åĩºæĽ¸æĪ¿ æĸ°ç¤¾
) ãĢĪ
èĬ± ãģ®
Ġãģª ãģĭ
ç¬¦ åı·
ĠéĽ ĳ
Ġæ°ĳ ä¸»
ar o
23 7
28 8
36 5
é«ĺçŃī å¥³åŃ¦æł¡
he im
ĠE Y
el a
è£ ³
Ġs ec
ãģ¸ ãģĦ
è§ ¦
æĸ°äºº è³ŀ
çĶ± ç¾İåŃĲ
ãĤ¯ãĥĪ ãĥªãĤ¢
ĠP OWER
Ġèī ¯
æŃ³æľªæºĢãģ®åŃĲä¾Ľ ãģĮãģĦãĤĭ
4 29
Ġç ı
å¹³ æĹ¥
ĠBl ood
C an
è« Ń
ĠãĥĬ ãĥ¬ãĥ¼ãĤ¿ãĥ¼
AK U
ĠèĲ½ åĲĪ
Ġç´° å·Ŀ
å¹ķåĥļ çĽ£éĥ¨
åĲĮå±ħ ãģĹãģ¦ãģĦãĤĭ
ãĤ¢ ãĥŃ
ĠN a
ãĥģ ãĤ³
åĢī æķ·
ç¿Ķ å¤ª
çĢ §
ĠB a
å¯º éĻ¢
ĠTHE ATER
ĠãĤĤ ãģĨ
ĠãĤ³ ãĥ¼ãĥĬãĥ¼
ç·ı äººåı£
Ġåľ° åĮº
èį »
ç«¹ åĨħ
ĠéĬ ħ
ãĤ¯ãĥ©ãĤ¤ ãĥĬ
çĬ¶ æħĭ
ĠåıĮ èĳī
å° ¿
åĪĨ éĽ¢
AT O
ĠãĥĢ ãĤ¦
Ġç¥ŀ è°·
TD OWN
18 7
Ġéĸ¢éĢ£ æĸĩçĮ®
ãĥ³ å·ŀ
T X
« åĪ»
ãĤ« ãĥł
ä¸Ģ å¤«
Ġç§ĭ åħĥ
E ED
ãĤ½ ãĥ¼
å¤§åŃ¦ ãģ®äººçī©ä¸Ģè¦§
ãĥľ ãĥ¼ãĥī
19 01
Ġç§ »
ĠTechn ology
é£Ł ãģ¹
28 5
Ġãĥª ãĥ¼
èĶ Ń
ĠåĽ£ ä½ĵ
24 3
28 1
è°· å¸Ĥ
ĠãĤµ ãĤ¯ãĥ©
ãĥŀãĤ¤ ãĤ±ãĥ«
ĠS and
ç§Ģ ä¸Ģ
Ġè²¨ çī©
Ġ18 4
ãĥĢ ãĥ¼ãĤ¯
æĬ Ħ
ãĤ¨ ãĥįãĥ«ãĤ®ãĥ¼
åīį ç·¨
Ġä¸Ńäº¬ åºĥåŁŁåľı
ãģ® æľ¬
26 8
ĠæľĪ æĽľæĹ¥
ĠJ ones
ĠK ill
ĠæİĴ æ°´éĩı
ĠãĥĹ ãĥ¼ãĥ«
Ġæķ ´
Ġåħ« æĪ¸
ä»¥å¤ĸ ãģ®
ãĤ¢ ãĥ¯ãĥ¼
ãĤĬ ãģĭ
24 4
å»º éĢł
å¸Į åŃĲ
ĠRev iew
ĠæĦ Ł
ĠStud ies
åĲĪè¡Ĩ åĽ½ãģ®
ĠçĶº ä¸ģ
ĠArt s
ãĤª ãĤ¦
éĸ² è¦§
å¹ ²
åŃ¦ çłĶç©¶ç§ĳ
Ġä½Ĳ ä¹ħéĸĵ
f rom
Ġ3 20
ĠA F
Ġå· ¡
Ġl ife
ãĤĪãģĨ ãģª
ãĥľãĥ¼ ãĤ¤ãĤº
. :
22 3
23 6
ĠãĤ¯ ãĤ¤ãĤº
Ġå¸Ĥ æ°ĳ
è¦³ æ¸¬
Ġèµ¤ åĿĤ
åĲĮå±ħãģĹãģ¦ãģĦãĤĭ å¤«å©¦
åºĥ å³¶çľĮ
Ġåįģ äºĮ
J ust
åľ¨ ä½į
ãĤ¢ ãĥªãĤ¹
ä¸ī åĽ½
ãĥį ãĤº
éĸ¢è¥¿ ãĥĨãĥ¬ãĥĵ
i ec
éģ¸ æĽ¸
æ³¢ åł¤
ĠåĢ ĭ
kg ä»¥ä¸ĭ
ĠO h
ãĥ¢ ãĥ³ãĥĨ
äºĪéģ¸ æķĹéĢĢ
2 17
æĺİ çŁ³
en ing
ĠL y
Ġãĥŀ ãĤ¯ãĥ©ãĥ¼ãĥ¬ãĥ³
28 9
Ġãĥĸãĥ« ãĥ¼ãĤ¹
W ar
æİ ĥ
æ±ł è¢ĭ
ĠèĮ ħ
ãģ®ä¸Ń ãģ§
es tern
ĠH ERO
æł¡ çĶŁ
ĠK BS
åħ« çİĭåŃĲ
Ġè© ²å½ĵ
Ġè¦ª åĸĦè©¦åĲĪ
æĹ¥ ç«ĭ
ãĥª ãĥĥãĥĦ
ĠãĤ° ãĥĥãĥī
Ġåıİ åħ¥
Ġ20 5
è² ©
P ol
RA G
åĪ¶ä½ľ å±Ģ
b or
ãģ® æĦĽ
ãĥª ãĥĬ
ĠãĤ³ ãĥ¼ãĥ©ãĤ¹
åįģ åĽĽ
Ġab out
K ING
ĠW omen
ĠãĥŁ ãĤ«
çĽ´ ç¾İ
å¸Ĥæ°ĳ ä¼ļé¤¨
Ġçī§ éĩİ
ĠFran c
ĠAcadem y
æĶ¾éĢģ æĻĤéĸĵ
ãĥķãĤ¡ ãĤ¯ãĥĪãĥªãĥ¼
Ġéº» çĶŁ
é«ĺ æľ¨
ĠãĤ³ ãĥŁãĥĥãĤ¯
ãģ® æĽ²
åŃ ¤
ãĥĲ ãĤ¯
å¤ª å¤«
Ġãĥ¤ ãĥ³
yn am
ĠãĤ ĭ
Ġ3 000
ĠãĤ¢ ãĥªãĤ¹
Ġpr ofile
éļ¼ äºº
Ġè ¸
aw n
ç½ ł
Ã ±
ãģ º
åľ° ãģ®
ĠB irth
ãģ£ ãģı
åı¤ åħ¸
Ġãĥ¡ ãĤ¤ãĥ³
ĠFran ce
Ġãģ ³
ĠB reak
un a
Ġãģ® ãģ¨ãģį
ãĤ¹ãĤ³ ãĤ¢
A ng
ĠS om
è£ ¸
ri p
ãĥ³ãĥĳ ãĥĭãĥ¼
Ġ18 00
å» Ĭ
ard s
å¾³ å³¶
ãĥĵ ãĥ¼ãĥĪ
24 8
int endo
ĠåıĹè³ŀ èĢħ
Ġè¨Ģ èªŀ
ãĥŀ ãĥĪ
ie ve
å°ıåŃ¦æł¡ ä¸Ģè¦§
Ġæ¼Ķ å¥ı
und er
å¤§åŃ¦ å¤§åŃ¦éĻ¢
ãģ¤ ãģĵ
ãĤ¤ãĥ« ãĤ¹
ĠãĥįãĥĥãĥĪ å±Ģ
ãģį ãĤī
ãĥľ ãĥŃ
Ġs ch
B LE
le ep
ä¸¸ å±±
å µ
äºº äºĭ
ãģĦ ãģļãģ¿
ãĤªãĥ³ ãĥ©ãĤ¤ãĥ³
Ġè¿ĳçķ¿ åºĥåŁŁåľı
åĮ» ç§ĳå¤§åŃ¦
åĵģ å·Ŀ
ac ific
æħ §
ãģŃ ãģĵ
ĠAc oustic
ĠèĻ ¹
ãģ® åĨħ
ãĤ¯ ãĥģãĥ£
19 4
ãĤ¨ ãĥ´ãĤ¡
OU T
ĠY ears
Ġä¸ĸçķĮ ãģ®
åĩº æĿ¥
ĠèĹ¤ æ²¢
ĠVer lag
Ġè¨Ń ç«ĭ
ãĥŃ ãĤ¤ãĥī
ãĤŃ ãĥŁ
Ġl es
Ġãģ¿ ãģļ
å©¦ äºº
ä¿ĿèĤ² æīĢ
Ġåĸľ å¤ļ
2 16
O ff
50 1
ĠãĤ³ ãĥ¼ãĥī
ãĥ³ãĤ¸ ãĤ§ãĥ«
ĠãĤ» ãĥĥãĤ¿ãĥ¼
çĶ² åºľ
Ġå§ Ķåĵ¡
v ed
åĽ½ åĪĨ
ç·ı æķ°
ãĥ¼ãĥī ãĥ³
ĠãĥĲ ãĥ«ãĤ»
Ġçīĩ å±±
ĠGO OD
èĥ ¸
3 14
ãģĪ ãģ°
Ġæ°´ è°·
Ġè» ¢
ãĥĭãĥ¥ ãĥ¼ãĥ¨ãĥ¼ãĤ¯
Ġå¤ļ æĳ©
ãģĦ ãģ¾
æ¬ §å·ŀ
æģĭ äºº
ĠC ross
ĠæĿ¾ å¹³
Ġåĩºèº« åľ°
ãĤ° ãĥĥãĥī
ĠæĿ± æĢ¥
çĳ Ľ
ç¶ ¬
ĠPro t
å¤§ æ´¥
ãĤ³ ãĥ©
Ġæľ¨ æĽľæĹ¥
ĠçĻº è¦ĭ
ĠãģĦ ãģ¡
K e
« å®ļ
ĠCent ury
ãĤ½ ãĥĬãĤ¿
éĩĳ åŃĲ
ãĥŁ ãĤº
æĽ² çĽ®
éģĵ åł´
Ġèµ· å·¥
åĮ ĸéĥ¨
è©± åĩºæ¼Ķ
35 6
art ment
Ġ4 06
29 6
ãĥŀ ãĥ¼ãĥ«
Ġä¹Ĺ è»Ĭäººåĵ¡
ĠA pr
æ· Ģ
å¤ī åĮĸ
æĽ½ æł¹
K i
æľĪ åĪĬ
ãĥį ãĤ¿
æĻº ä¹ĭ
ãĤ¹ãĥļ ãĥ¼ãĤ¹
ãĤ¨ ãĥ³ãĥĩãĤ£ãĥ³ãĤ°ãĥĨãĥ¼ãĥŀ
ĠãĤ¬ ãĥ³ãĥĢãĥł
ĠãĥĲãĥ«ãĤ» ãĥŃãĥĬ
ãģ® å±±
ãĥī ãĥĬãĥ«ãĥī
ĠçĻ½ äºķ
æ± ½
è² ¸
ä»ģ ç¾İ
ig e
Ġãģ« ãĤĪ
Ġåĵ ²
ĠS OL
çĶ° ç¾İ
ĠçĽ£çĿ£ è³ŀ
L ife
ĠM ass
ĠãĥĨãĤ£ ãĥł
ATT RO
ä»¤åĴĮ åħĥå¹´
å¤§ è¾ŀåħ¸
35 3
é³ ©
ĠH uman
35 7
æł¡ æŃĮ
ĠIntern et
Ð¾Ð ²
æİ¡ çĶ¨
ãģ£ ãģ¡ãĤĥ
ãĥĬ å·ŀ
ãĥ¼ãĥĹ ãĥ«
Ġ20 21
ĠL o
ĠF IGHT
ä½ľåĵģ è³ŀ
che stra
ly wood
Ġä»¥ ä¸ĭ
Ġæ²¿ ç·ļ
S un
æĥ³ ãģĦ
le ar
28 4
èĩª è»¢è»Ĭ
éĺ² æ³¢åł¤
éħį ç½®
Ġæ¼Ķ åĬĩ
å¸Ĥ è¡Ĺ
ĠL AC
ĠèĶ µ
ä¿¡ å¤«
éĤ ª
å¹³åĿĩ æ§ĭæĪĲäººæķ°
å¹´é½¢ ãģ®ä¸Ńå¤®åĢ¤
ãģ® æģ¯åŃĲ
ĠT s
ĠãĤ¢ ãĥĢãĥł
RE SS
Ġn ight
åŃ¦ ãģ®
ç· ĬæĢ¥
ĠI d
è°· é§ħ
ãĥ¼ãĥª ãĤ¹
çĢ¬ å·Ŀ
UR N
ĠèĪª ç¶ļè·ĿéĽ¢
: ''
ãĥ¢ ãĥ¼ãĥĭãĥ³ãĤ°
ĠK im
åĨħ ä¸ĸå¸¯æķ°
24 00
èĲ½ æĪĲ
ĠæĹ¥æľ¬ éĥµä¾¿
ãģ© ãģĵ
v es
ãĥ©ãĤ¤ ãĤªãĥ³ãĤº
Ġc enter
Ã© t
æĿ¡ ç´Ħ
ãĥ¼ãĤ± ãĥ¼ãĥī
ãĢ ĩ
Ġåł Ĥ
19 18
ĠW ITH
åĲĪ åĲĮ
ä¸ī æľ¨
3 11
aw ai
åįĺ èº«ä¸ĸå¸¯
S uper
ĠM P
ãĤª ãĤª
ĠY am
n am
ãĥĩ ãĥ¼ãĥĪ
æīĭ ç´Ļ
æ²¢ å·Ŀ
éĻ½ ä¸Ģ
ĠæĹŃ å·Ŀ
ç¾İ å¥³
çĶ· å¥³
é ¶
Ġãģ °
ãĤ·ãĥ¥ ãĤ¿
ĠãĤ« ãĤ¤
ãĤĮ ãģĤãģĦ
ĠåĪ Ĺ
èĪª è·¯
Ġå®Ł æ³ģ
ĠçĿĢ éłĨ
ãĥĨãĥĭãĤ¹ éĥ¨
Ġãĥı ãĥ«
ãĥ³ãĥĦ ãĤ§
ä¹ĥæľ¨ åĿĤ
ĠN EC
H R
28 2
çĹħéĻ¢ åīį
ĠãĥĻãĥ« ãĥªãĥ³
çĽĽ å²¡
ãĥŁ ãĥ¤
ãĥĮ ãĤ¹
B ill
28 3
èĭ± æĺİ
ãĥ³ãĤ· ãĥĥãĥĹ
id es
ĠæīĢå±ŀ åħļæ´¾
ãĥ¢ ãĤ¹ãĤ¯ãĥ¯
ĠãĤª ãĥłãĥĭãĥĲãĤ¹
Ħ æĥ³
Ġ2 12
åĭ¤ åĭĻ
å¤§ ä¹ħä¿Ŀ
ãģĬ ç¬ĳãģĦ
ä½ıå±ħ æķ°
M ag
ĠéĢļ ä¿¡
ĠèıĬ åľ°
ic us
Ġ18 7
ian s
éº» ç¾İ
ãĥª ãĥĥãĥĪ
ĠâĢ Ĳ
w ays
ãģ® æĸ°
UT O
ĠBrit ish
Ù Ī
ĠB ird
ĠæĮ ģ
æīĢ æľī
AT S
ãĥ¼ãĥª ãĤ¢
Ġå¿Ĺ æĿĳ
ãĤ®ãĥ£ ãĥ©ãĥªãĥ¼
ãģĤ ãģļ
29 3
éĢ£åĲĪ ä¼ļ
çĶŁçĶ£ éĻĲå®ļçĽ¤
åħ Ĩ
ãģ¾ ãĤĮãĤĭ
å®® å¸Ĥ
çļĩ å¸Ŀ
ĠMar ch
ĠãĤ« ãĥĥãĥĹ
ĠãĤ· ãĥ³ãĥĩãĥ¬ãĥ©
éĽħ ä¹ĭ
Ġæ¥ Ĭ
ãĥ« ãĥĺ
å¯¾ æĬĹ
çĹ Ľ
UL L
He art
ĠãĤ¹ãĥļãĥ¼ãĤ¹ ãĤ¦ãĤ©ãĥĥãĥģ
C B
ĠB ob
ĠR om
ãĤĴ è¡Į
äºº ãģĤãģŁãĤĬ
ãģĭ ãĤĬãģ®
äº¬éĥ½ å¸Ĥ
99 9
çī¹åĪ¥ è³ŀ
G old
ĠK h
éģĶ éĥİ
å§« è·¯
Ġå§« è·¯
ĠãĤ¹ ãĤŃ
27 9
çļ Ĩ
éĿŀ å®¶æĹıä¸ĸå¸¯
i Ä
00 8
al og
ĠãĤµ ãĥŀ
è¦§ ä¼ļ
Ã £
23 9
åĳ¼ãģ° ãĤĮãĤĭ
ĠæĶ¾éĢģåĮºåŁŁ åĨħä¸ĸå¸¯æķ°
D isc
ãĥģ ãĥ¼ãĥķ
è»Ĭ ç·ļ
ĠæĿ¾ æĿĳ
ĠPr of
S ec
å¤§ æĺł
è¿ĳ çķ¿
åĴ² ãģı
éħĴ äºķ
ãĥĻ ãĥ³ãĥģãĥ£ãĥ¼
æ³ķ åīĩ
åĩ Ľ
ĠP ass
is hed
Ġãĥĭ ãĥ¥ãĥ¼ãĤ¸
éĽħ åŃĲ
Ġè§Ĵå·Ŀ æĸĩåº«
ä½ıå±ħ å¯Ĩåº¦
39 0
ãĥ³ãĥĦ ãĤ¡
ĠIN D
ãģĽ ãĤĪ
å© Ĩ
Ġè¾ °
ĠW E
Ġè©¦åĲĪ çµĲæŀľ
æµ´ åł´
K iss
29 4
æ¬ §
Ġãĥ¡ ãĤ«
ĠBO Y
Ġæ¶ Ļ
åĮ»çĻĤ ãĤ»ãĥ³ãĤ¿ãĥ¼
Ġé£Ľ è¡Į
Ġé¤ ¨
G r
ãĥīãĥŁ ãĥ³ãĥĪãĥ³
M ed
Ñ Į
ĠCon s
2 15
æ¯Ķ è¼ĥ
ĠåłĢ åĨħ
ĠãĥŁãĥ¥ãĥ¼ãĤ¸ãĥĥãĤ¯ ãĥĵãĥĩãĤª
M L
ç¥ŀ ãģ®
å± ¥æŃ´
36 4
Ġãģ¨ ãģĦãģĨ
çį ħåŃĲ
å¤¢ ãģ®
è²¡ åĽ£
35 5
æĭ ħ
ĠMic rosoft
ãĤ¹ãĥĪ ãĥ¼ãĥ³
ãĤĴ ãģ¤
ãĥª ãĥĪãĥ«
Ġæŀ ł
ãĥ© ãĥ³ãĤ¹
ĠG un
ad t
æĿ¾ æµ¦
ĠAr m
æ²¢ æĿĳ
ĠçĻ½ äºº
èıĬ æ±ł
ar u
Ġæµ· èĢģ
ãģ® ãģ¯
Ġ est
ãģĹ ãģĵ
Bl u
ĠMod el
Ġå¯© æŁ»
v al
ãģ® ä¸ĭ
Ġå±± å·Ŀ
åĬł çĽŁ
ãĥ¤ãĥŀ ãĥĪ
è²¬ ä»»
ãĤ¯ ãĥ¯
ĠD I
ãģĮ ãģ¨ãģĨ
it ary
Ġãĥ© ãĤ°
Ġãģ¯ ãģĺ
Ġ978 4
ĠCent ral
ĠæĹ¥æľ¬ å¤§åŃ¦
ĠSer ver
Ġ ä½³
ĠãĤ¹ ãĥĹãĥª
çĤ ī
é¡§ åķı
Ġé«ĺ å²¡
ap t
Ġèª ł
JR æĿ±æĹ¥æľ¬
ĠSoc ial
ĠãĤ· ãĥľãĥ¬ãĥ¼
ĠQue en
ãĥª ãĥĲ
st ein
ãĥŀãĤ¸ ãĥĥãĤ¯
Ġ5 000
ãģ¿ ãĤĵãģª
ãĥĳ ãĥ¼ãĥ«
ãĤĪ ãģĦ
Ġä¸Ĭ ãģ®
NHK ç·ıåĲĪ
ĠA k
ĠD er
è¡¨ ãģĻ
Ġ25 6
æ¤ ¿
ĠçĻ½ ãģĦ
ĠçĽ® æ¬¡
ãģ¿ ãģĵ
§åĽ° ç·ļ
å³¶ æł¹çľĮ
Ġå¤© ç¥ŀ
ãĥ ħ
ãĤ¢ ãĥĭãĤ¢
ĠB ud
äºĮ äºº
28 7
Ġå¥¥ çĶ°
çµ± ä¸Ģ
Ñģ Ðº
Ġå¤§ çĶ°
o ir
ãģ® å°ı
ãĤµ ãĤ®
Ġè¿ĳ æ±Ł
ãĤ« ãĤ¹
ĠI ll
ãģ¤ ãģĺ
40 3
åĺ ĺ
b ook
ĠãĤĬ ãĤĩãģĨ
( ãĢĮ
Ġãĥ´ ãĤ§ãĥ«
B UM
N Z
ĠP ost
ob er
ĠãĥĴ ãĥ¥ãĥ¼
å®ļ æķ°
38 5
å¾© å¸°
ĠWA VE
Ġ2 25
ad er
åħ« æľ¨
ok e
Ġãĥ¯ ãĤ¤ãĥ«ãĥī
æ¤ľ äºĭ
Ð ¼
å¡ Ĺ
19 19
ĠãĤ»ãĤ° ãĥ³ãĥĢ
ol i
ĠS EC
ĠS OUL
æ£ ļ
i ent
ãĥ« ãĤ°
ĠL Q
Ġåĩº éĽ²
Ġp age
äºĪ åĤĻ
ĠPh ys
WA VE
ĠRev olution
Ġé ĦŃ
45 5
åı «
ãģ²ãĤį ãģ¿
Ġå¯º çĶ°
æ «
Ġ19 1
ch i
ãģł ãģ¾
Ġ28 0
Å «
ĠD ata
ãĥł ãĥ¼ãĥ³
Ġåħ Ħ
ãĥªãĤ¹ãĥĪ æķĻ
b an
åīį æľŁ
Ġå·Ŀ è¶Ĭ
ĠâĢ ķ
Ġéĩį éĩı
Ġ19 3
ĠJ im
Ġb ook
ĠQU ATTRO
åŃ¦ å°ĤæĶ»
27 1
å®ī çĶ°
§åĽ°ç·ļ ä»¥ä¸ĭ
ãĥı ãĥĬ
èŃ¦ è¦ĸåºģ
ĠãĤ± ãĥ³
Ġ**** **
ĠçĶ² æĸĲ
éĢĨ è¥²
ãĤ¨ãĥ³ãĤ¸ ãĤ§ãĥ«
Ġ20 3
åĽ½ éīĦ
Ġ18 8
IN O
Ġéķ· è°·
Ġè² ŀ
ĠBO YS
ĠER P
Ġ18 82
æ¤ľ å®ļ
ĠãĤĦ ãģ¾
ĠOn ly
ãĥ« ãĤ¦ãĤ§ãĥ¼
33 6
Ġæµħ èįī
ĠãĤ¼ ãĥŃ
ãĤ¢ ãĥĢãĥł
ãĥ¡ ãĤ¤ãĥĪ
çģ ĺ
åĽŀ ãĤĬ
ãĤı ãģĮ
ç·´ ç¿Ĵ
ãĤĴ çĻºè¡¨
æĻĤä»£ åĬĩ
UT AYA
ĠãģŁ ãģĳ
ĠJ ac
ĠCh orus
Japan ese
ä¸Ń å°Ĩ
27 7
ĠãĤ¨ ãĥŀ
ãĥ³ãĥĢ ãĥ«
Ġéĭ ¼
ãģ® é¢¨
Ġ20 4
åģ¥ åı¸
¿ æĺĵ
ãĥ¡ ãĤ¤ãĥ³
æİ ĺ
ãĤı ãģĭ
ãĤģ ãĤĵ
æ´ĭ ä»ĭ
ud a
Ġäº¬éĥ½ å¸Ĥ
Ġé ı¡
ĠM id
29 5
ãĥķãĤ¡ ãĤ¤ãĤ¢
ĠãĥķãĤ§ ãĥª
Ġä½ı åıĭ
M ic
ãģ¨ å®¶
he ad
ĠåłĢ æ±Ł
ãģ£ãģ± ãģĦ
Ġå¶ ĭ
ĠR ay
ãĥ¼ãĥ¬ ãĥ³ãĤ¹
åīµ éĢł
Ġçĭ¬ åĶ±
ãĥī ãĤ³ãĥ¢
ãĤ³ ãĥĲ
ĠF ort
v ers
ĠO k
Ġãģ¤ ãĤĵãģı
Ġãĥīãĥ© ãģĪãĤĤãĤĵ
ĠAt t
Ġè¨Ī çĶ»
åĮ ¡
æĪ¦ æķĹéĢĢ
äººãģĤãģŁãĤĬ åıİåħ¥
çī Ŀ
ĠãĥįãĤ¤ ãĥĨãĤ£ãĥĸ
åĬ ª
ĠãĤ¹ ãĥŃ
ess ion
ãĤµ ãĤ¹
ĠW inter
Ġç« £å·¥
ãĥ¦ ãĤ¦
åĦ Ł
ĠF act
45 9
3 15
ĠãĤĪ ãĤĬ
ä¸Ĭ æĺł
ap ter
L ittle
ãģĦ ãģį
ãģ« å°±ä»»
Ġåħ¬å¼ı ãĥĹãĥŃãĥķãĤ£ãĥ¼ãĥ«
kgä»¥ä¸ĭ ç´ļ
ĠR X
å·Ŀ ä¸Ĭ
ĠãĥĲ ãĤ¤ãĤª
éĽĦ äºĮ
å¦Ĥ æĿ¥
ĠèĲ© åİŁ
ĠHen ry
ĠåĲĮæĻĤ ãĥįãĥĥãĥĪ
ç¾İ ç´Ģ
Ġå¨ ĺ
è¨Ģ å®Ĺ
p et
èĢħ ãģŁãģ¡
ãĥ¯ ãĥ³ãĥĢ
åħĥ ç¤¾
æ¯Ķ å¯¿
Ġè°· å·Ŀ
ĠS ony
ãĤ´ ãĥªãĥ¼
ĠéĢļ åŃ¦
Ġåħ« ä»£
ãĥĳãĥ³ ä¸īä¸ĸ
ãĥªãĥ¥ ãĤ¦
S weet
å·Ŀ ç·ļ
è¡ĵ å¸«
è¦ı æ¨¡
Ġæĸ° èģŀ
ãģµ ãģŁãĤĬ
ĠéŁ ĵ
ãĤĴ æĭħå½ĵ
8 50
V ocal
ĠT an
ãĥĲ ãĤ¿
ãģ® ãģªãģĦ
33 4
åįģ ä¸ĥ
D av
J APAN
ä¸į å®ļæľŁ
Ġg l
æĢª äºº
Ġç Ģ
æ²» çĻĤ
è£ħ çīĪ
ĠFriend s
ĠC RA
æ¸ ļ
Ġä¸»è¦ģ äººçī©
åĬĽ å£«
çī§ åł´
ãģĦ ãģĳ
Ġé§ħ åĲį
ĠçµĲ å©ļ
ip s
ĠProgram ming
ãĢĤ )
ãģĹ ãĤħ
åħ¬ ä¼ļ
æİ §
Ġä¸»æ¼Ķ çĶ·åĦªè³ŀ
3 12
3 21
ãģª ãģ¹
48 7
Ġæ°´ ä¸Ĭ
é£¯ çĶ°
ãĥı ãĥŃ
åīį ç·ļ
ãĥĵ ãĤª
Ġ18 72
40 7
ĠæľĢ å¤ļ
èī¦ éķ·
ãģŁãģĳ ãģĹ
H ow
U F
ãĥ©ãĤ¤ ãĤ¹
29 9
ãĥ¡ ãĥ«ãĤ»ãĥĩãĤ¹
Ġæĺ ĩ
d om
ĠãĥĲãĤ¹ ãĤ±ãĥĥãĥĪãĥľãĥ¼ãĥ«
æĿĳ ç«ĭ
EA ST
Ġè¬Ľè«ĩç¤¾ æĸĩåº«
ĠãĥĪãĥ© ãĥ³ãĤ¹
du ct
Ġèī²å½© è¨Ńè¨Ī
Ġb order
Ġç³» çµ±
Ġç§ĺ å¯Ĩ
Ġ2 11
ãģ« åıĤåĬł
ĠèĦ ĩ
ĠSystem s
ãģĦ ãĤĵ
ĠV iew
Ġå°ı æ²¢
ur ity
åįĬ å³¶
å¾Ģ å¾©
ĠãĥŁ ãĤ¹
Ġå¼ ĵ
éŃĶ çİĭ
ĠæĽ ´
Ġèį Ĵäºķ
åįĺ çĻº
å¹» æĥ³
3 18
ĠçľŁ çĶ°
Ġåı¤ è³Ģ
ãĤ¸ ãĥ³ãĤ°
åı° åĮĹ
ãĥ¼ãĥ¬ ãĤ¹
Ġæ´ ¾
c ome
çµµ æľ¬
ãĤĮãĤĵåĿĬ å°Ĩè»į
P K
ãĥ©ãĤ¤ ãĤ¯
åĭķ æ©Ł
ĠS BS
ĠT OM
å» »
od a
ãĥĳ ãĥ³ãĥģ
ãģ® ä¾ĭ
âĻ ¡
ĠåħĲ ç«¥
ãģĤãģį ãĤī
æĶ¯æı´ åŃ¦æł¡
Ġè¶ Ļ
Ġæģĭ æĦĽ
ĠT OC
ĠH onda
ĠãģĤ ãģķ
ĠB ul
æĻĤ åı°
ãĥĽ ãĤ¤
36 6
Ġæľī é¦¬
äººæ°ĳ åħ±åĴĮåĽ½
Ãľ R
ãģ¨ ãĤģ
Ġå¯ Ĩ
ç¨ĭ å¼ı
ĠåĿĤ çĶ°
ĠEd uc
ĠãĥĹãĥª ãĥ¡ãĥ¼ãĥ©
N R
s k
Ġå®® ä¸ĭ
ãĤ¹ãĥĨãĤ£ ãĥ³
ĠçµĲ åŁİ
èĵ ĭ
æĦŁ è¬Ŀ
ãģ¯ãĤĭ ãģĭ
ãĤ·ãĥ§ ãĥ¼ãĥĪ
åĲ ¦
Ġd en
ĠæŃ ¯
ãģ®æģĭ äºº
f ore
æĪ¦ ãģĦ
è¶Ĭ åīį
ĠãĥĬ ãĥ³ãĥĲ
åĨ¬ èĪİ
åĳ¨å¹´è¨ĺå¿µ å¼ıåħ¸
Ġæ¨Ļ é«ĺ
e h
ãĥ© ãĥĪ
ĠåĽ½ éīĦ
ä¹Ŀ éĥİ
ãĤ¸ãĥ¥ ãĤ¢ãĥ«
åĸľ å¤ļ
åĪ ĥ
éŁ³ ãĥŁãĤ¯
Ġæ±ł è¢ĭ
ĠPRO JECT
W D
æĿ µ
ãĥ¼ãĥĸ ãĤ¹
ãĤªãĥ¼ãĤ¹ãĥĪ ãĥ©ãĥªãĤ¢
27 2
â ī
Ġãĥ¡ ãĥ«ãĤ»ãĥĩãĤ¹
ãĥĲãĤ¹ ãĤ»ãĥ³ãĤ¿ãĥ¼
ãĥĹãĥª ãĤŃãĥ¥ãĤ¢
Ġé µ
ĠãĥĴ ãĤ¹ãĥĳãĥĭãĥĥãĤ¯
Ġâĸ ³
ãģĺãĤĥ ãģªãģĦ
åİŁ ç·ļ
ãĤ´ ãĤ¹
33 8
ãĤ¸ãĥ£ ãĥ¼ãĤ¹
åĪĨ å¸ĥ
EL LA
ãģĮ ãĤĭ
Ġè¥¿ å°¾
äº® å¤ª
0 10
N G
ãĥŀ ãĤµ
Ġãĥĸ ãĥ¬ãĤ¤
Ã ´
ĠM ary
Ġä¼Ĭ è±Ĩ
Ġãĥį ãĤª
ç¨² èį·
Ġä¸Ń ä½Ĳ
U B
ĠF our
æĪĲ çĶ°
æĹ¥æľ¬ äºº
éļĨ ä¸Ģ
ra b
ãĥĴ ãĥ¡
ä¸įåĭķ çĶ£
ĠãĤ¢ ãĥĸ
åĮº çĶ»
å¤§åŃ¦ éĻĦå±ŀ
ĠCOUN TDOWN
ĠM ess
ãĤ¬ ãĥ¼ãĥĩãĥ³
ĠãĤ· ãĥīãĥĭãĥ¼
Ġ20 7
Ġp our
ĠåĲį ç¾©
Ġ el
ãĥł ãĥ¼ãĤ¢
ãģĤ ãĤī
æľŁ éĻĲ
Ġè» Į
ĠçĽ® é»Ĵ
ĠW H
ĠãĥĢ ãĥ³
ĠV IDEO
æĽ¸ ãģį
Ġin d
T ime
Ġ äºĭä»¶
ĠãĤª ãĥ¼ãĤ¯
ĠæģĲ æĢĸ
ĠS EA
ãĥĸãĥ© ãĥĥãĥī
ĠåľŁ ä½Ĳ
ãģĦ ãģ£
è¡Į åĪĹ
Ġãĥĩ ãĥĵãĥĥãĥī
ĠThe ory
ç¥Ĳ ä»ĭ
T K
Ġæĸ°æĹ§ åĪ¥
35 4
Ġå¹³ åĴĮ
éĮ ¬
åĿ Ĳ
ĠQ F
Ġåįĺ èĳĹ
ĠãĤ¤ ãĥ³
ir it
Ġ ä½ĵèĤ²é¤¨
ãĥĬ ãĥ©
Ġä» ĺ
åºĥå³¶ å¸Ĥ
BU YA
ãģĦ ãģ¨
al ys
ãĥ³ãĥī ãĥ«
Ġr ight
Ġãģ¤ ãģı
Ġçĥ ı
ĠæĢ§èĥ½ è«¸åħĥ
ĠB B
ĠO w
å·¥ èĬ¸
ãĤĨ ãĤģ
Ġæ» ĳ
ãĤ¹ãĤ± ãĥ¼ãĥĪ
ãģ® ç´ł
Ġ19 4
ä¸Ĭ æµ·
èĪ ¶
2 18
P e
ãģ® ä¼Ŀèª¬
é«ĺ å±±
åĸ °
u ary
ħ çĽ®
Ġ7 00
å·Ŀ éĥ¡
ĠçĶŁ çī©
ĠAb out
åºľ ä¸Ń
ãĥ¼ãĥģ ãĥ£ãĥ¼
Ġæ·· è¡Ģ
ãĥĲ ãĤ¦
ãĥŃ ãĥīãĥª
æĦĽ åŃĲ
Ġä¸»ãģª ä½ľåĵģ
ãĥ¼ãĥ ¦
ãģ« æĶ¾éĢģ
Ġå± ŀ
ĠéĽ ·
ãĥķ ãĤ¿
åħĭ å½¦
çĪĨ å¼¾
ãĥģãĥ£ãĥ³ãĥĶ ãĤªãĥ³
m es
ĠçĶ° å³¶
ãĥĭ ãĤ¯
ĠG A
è£ķ ä¹ĭ
RA D
çĭ© ãĤĬ
4 20
ãģ® åİŁ
ç¨ ¼
45 6
ĠãĤ¢ ãĥ³ãĤ¸ãĤ§
ãĥ³ãĤ´ ãĥ«
ĠH is
è»Ĭ ç¨®
ĠãĥķãĤ¡ ãĥ³ãĤ¿
SEN TS
V R
åĨį çĶŁ
che s
ãģ®ãģŁãĤģ ãģ«
ĠLim ited
æĺ¥ æĸĩåº«
åĮ» åŃ¦éĥ¨
IR ST
åıİåħ¥ ãģ®ä¸Ńå¤®åĢ¤
ãĤ¸ ãĥĹãĥĪ
çĲĨ çĶ±
60 1
ĠãĤ¢ãĥ¡ãĥªãĤ« åĽ½éģĵ
EM I
çĻº å°Ħ
o or
ä½ľ çĶ¨
Ġãĥŀ ãĤ¯
ĠEd ward
è²¨ åºĹ
æī¹è©ķ å®¶
ãĤ¿ ãĤ±
ãĥĨãĤ£ ãĤ¢
æµľ çĶº
ĠæĮ ¯
æŀļ çµĦ
ãģŁ ãĤī
ĠG h
ĠæŃ¦ èĹ¤
IN A
åĽ½éļĽ æĺłçĶ»ç¥Ń
Ġç£ Ĳ
C r
ãģ® ç©º
ãĥīãĥ©ãĥŀ CD
ãĥ³ãĤ³ ãĥ¼ãĥ«
ä¸Ģ èĩ´
éĻ ³
ĠPar ad
Ġå¤§åŃ¦ éĸ¢ä¿ĤèĢħ
å½¢ æĸĩåĮĸè²¡
ç¿ ł
å°ĳ å°Ĩ
ĠæŃ© åħµ
X box
19 10
ĠO H
ãĥ©ãĤ¤ ãĤªãĥ³
id th
AS Y
P aul
Ġ::: *
ãģ¨å®¶ è¨Ī
åŃ¦ ç´ļ
ar ia
ĠæĤ ²
ĠãĤ¢ãĤ¸ãĤ¢ äºº
æŁ ¿
ĠéĻ Ħ
ĠãĤªãĥª ãĥĥãĤ¯ãĤ¹
ãĥĲãĥ¼ãĤµ ãĥ«
ĠC F
Ġ18 68
ãĤ± ãĥ¼ãĤ·ãĥ§ãĥ³
ĠæĶ¾éĢģæĹ¥ ç¨ĭ
Ġæ¦Ĥ èª¬
Ġç·Ĵ æĸ¹
ä¸Ń çŃī
èĬ± çģ«
çĦ¡ åıĮ
ç§ģ ç«ĭ
ĠSw itch
ĠV HS
ç§Ģ å¤«
2 24
ãĥİ ãĤŃ
èĪ Į
æĶ¿ åĭĻ
II é¡ŀ
ĥ æ°´
è»Ĭ è¼
od es
èº« éķ·
s et
æľĪ çĻºè¡Į
ãģ® æĺŁ
ĠãĤ° ãĥ¬ãĤ¤
å°Ĥ ä¿®
ãģ® åł´åĲĪ
ĠãĤ·ãĥ§ ãĥ¼ãĥĪ
.... ..
0 50
å±± èĦĪ
ĠãĤ¢ ãĥł
Ġä¸Ń å°¾
Ġç«¶ é¦¬åł´
29 2
Ñ ĭ
ç¥ŀ çĶ°
ĠåĪ ¤
33 7
if orn
Ġç¤¾ éķ·
éº Ł
åĭŁ éĽĨ
« å°ıçī§
ĠS Y
åĩº åı£
è· µ
ãĥĩãĤ£ ãĥ³ãĤ°ãĤ¹
Ġåħ¨ é«ĺ
å¹¸ çĶ·
å®ĺ æĪ¿
ç¦ İ
åıİåħ¥ ãģ¨å®¶è¨Ī
çłĶç©¶ ãĤ»ãĥ³ãĤ¿ãĥ¼
uss ion
è»į äºº
èĸ ¦
å¹´ãģ® éŁ³æ¥½
ĠéłĪ èĹ¤
èĨ ³
Ġ20 6
Ġ18 79
Ġç«ĭ å·Ŀ
t or
Ġåĵģ çķª
ak es
ãĥ¼ãĥĨ ãĤ¤
y d
Ġç °
Ġéģ Ķ
35 1
Ġ ob
åį ³
æ¼ ł
Ġçł ²
ĠOr iginal
çªĵ ä¼ļ
ãĤ¨ãĥķ ãĤ¨ãĥł
ĠS n
Ġ; ãĢĮ
oc ol
æĸĻ éĩĳ
Ġéĸ¢ æł¹
ĠBr idge
ĠEn cyclop
Ġå¿« éĢŁ
ä¼ ½
re g
ãģį ãģĹ
ç¬¬ äºĶ
Ġæ°´ æĽľæĹ¥
ĠåĿĤ äºķ
å¹´ çĶ£
ĠB BC
çĽ® æ¨Ļ
et her
Ġ ä¹¾
ĠãĥŁ ãĥį
ĠãĥĨãĥ¬ãĥĵ ãĤ·ãĥªãĥ¼ãĤº
å®ī èĹ¤
ãĥ¬ ãĥĥãĤ¯
ãģĮ ãģŁ
Ġ18 76
æĿ¾ å°¾
Ġãĥī ãĥŃ
åįĥ å°ĭ
èħ ¹
ãĥ¬ ãĤ·
é¤Ĭ æĪĲ
ĠÃ ī
æĿ± å°ıåŃ¦æł¡
é£Ł åłĤ
Ġãģį ãĤĩãģĨ
3 25
F i
ãģ® æŃ»
ĠçµĤ äºĨ
Ġæĸ° æĹ¥æľ¬
åħ± éĢļ
Ġä½ľåĵģ ãĥªãĤ¹ãĥĪ
EE P
æľīæ¨© èĢħæķ°
ãĥŃ ãĥĲãĥ¼ãĥĪ
ID S
éį µ
D rums
Ġå¤ «
ĠãĢİ ''
Ġ18 83
ãĥĥ ãĤ·ãĥ¼
å¤§ å±±
ãģĦ ãģ¤
å¯¾ äººåı£
ãĤ¾ ãĥ¼ãĥĪ
Ġé· ²
ä¸ ²
ĠP E
44 4
åĽĽ éĩį
ATT LE
ĠThe ater
æĸĩåĮĸ ãĤ»ãĥ³ãĤ¿ãĥ¼
ĠSc ott
Ġå §ĭ
ãĥĪ ãĤ·
æĪ¦ çķ¥
é§Ĳ è»Ĭåł´
è«¸å³¶ ç³»
ãĥ¼ ãģ¨
å¹ £
ĠH P
ĠV AL
ä¸ĭ ãĤĬ
ĠãĤ« ãĥĲãĥ¼
ãģĳ ãģ¦
ĠåľŁ äºķ
Ġæ¤İ åĲį
Ġ ä¼Ŀèª¬
ac y
Ġæī ¹
OV ERS
K ing
Ġ2 15
ãĥķãĤ© ãĥ¼
èĥ ¡
S w
ãģ® çī©èªŀ
è¥¿ åĮº
æ°´ æĽľæĹ¥
æĶ¯ éħį
æĹ¥ åĪĿçīĪ
ãĤ¤ãĥĪ ãĥ³
å²¡ æĿĳ
ĠUEFA ãĤ«ãĥĥãĥĹ
Ġ2 22
ãĥģ ãĤª
åī Ĭ
é«ĺ å´İ
Ġçķ ł
L o
''' ãĢĤ
ĠF red
ä»ı æķĻ
ed s
ç·ĳ åľ°
ĠP IECE
M F
v en
ãģĹ ãĤī
ĠW in
ĠW ant
æĸ¹ ç¨ĭå¼ı
çľŁ å¼ĵ
ĠGe org
Ġæľ¨ éĢł
ãģ«ãĤĪãĤĭ è©¦åĲĪçµĲæŀľ
ãĤ¢ãĥ³ãĥĢ ãĥ¼ãĤ½ãĥ³
8 02
57 1
ĠPh ot
Ġæ¢ħ çĶ°
j o
Ġ end
Ġ==== ==
æĸĩ åŃ¦éĥ¨
èĤ ¡
ĠãĤ¢ãĥķãĥªãĤ« ãĥ³
ĠA IR
ãģı ãģł
ĠåŃ Ŀ
ĠåĬ ¹
34 4
ãĥĴ ãĥĥãĥĪ
éĨ Ĵ
ãĥĹ ãĤ³ãĥ³
Ġä¸ī å³¶
Ġw ay
6 25
Ġ18 78
om p
åĩºèº« ãģ®
ĠG B
ãĥļ ãĤ¤
n i
ãĥ³ãĤ· ãĤ¹
Ġæ¸© æ³ī
is a
çĭ Ļ
ĠçĻ½ é³¥
Ġå²¡ æĿĳ
ãĥªãĤª ãĥ¼ãĥ«
ãĥĵ ãĥ³ãĤ°
å¦Ļ åŃĲ
ĠAf ter
ĠãĤ¸ãĤ§ãĤ¤ ãĤ½ãĥ³
å¦ĸ æĢª
Ġãĥ¬ ãĤ®ãĥ¥ãĥ©
ĠéĤ£ è¦ĩ
3 16
3 17
ĠåĲ ĥæ°´
ĠãĤ¦ ãĤ§ãĥ«
ãĥ¼ãĤ« ãĥĥãĤ·ãĥ§ãĥ³
Ġäº¤ éŁ¿æĽ²ç¬¬
äº¤ æıĽ
Ġãĥĸ ãĥŃãĥĥãĤ¯
Ġç¶ ²
ĠOr ch
ĠéĢĢ èģ·
c ol
m g
ĠS ept
ĠT A
ãĥĨ ãĥ¼ãĤ·ãĥ§ãĥ³
ãĥī ãĥĥãĤ°
ä¸į æĢĿèŃ°
Ġèĭ¥ æŀĹ
ĠAt l
æĭ¡ å¼µ
Ġ o
ãģ¤ ãĤĭ
Ġåīį ç·¨
Ġä½¿çĶ¨ è»Ĭä¸¡
B ank
E m
ä¸Ń åİŁ
Ġãĥ¤ ãĥ³ãĤ°
Ġé£¯ å³¶
Ġ20 8
çģ« æĽľæĹ¥
ĠF air
Ġå¤§ æ´¥
ĠæĻĤ ä»£
idd le
Ġå¤§ æ²¢
ĠãĥĶ ãĤ¨ãĥ¼ãĥ«
åĳ½ é¤¨
é¹¿ å³¶
ĠOr gan
ĠåľĴ çĶ°
M D
ãĥ¼ãĥĲ ãĥ«
ãģ® ãģĤãĤĭ
ãĥ¢ ãĥ«
Ġãģ¨ ãģį
ĠComp uter
ãģ«ãĤĤ å¥ĩå¦Ļãģª
ä¸ĸçķĮ éģ¸æīĭæ¨©
Ġå°¾ å¼µ
Ġå¼ķ åĪĨ
åĮĹ äº¬
33 9
ren ch
ri k
ãģĶ ãĤį
ĠBro thers
ãĥł ãĤ¹
ĠãĤ¯ ãĥ«
Ġåĩºèº« èĢħ
çĲĨäºĭ éķ·
9 50
I l
çľŁ äºº
Ġg irl
ĠåŃ¦ ç¿Ĵ
Ġåĳ ³
ãĤ¢ãĥ¡ãĥªãĤ« åĲĪè¡ĨåĽ½
ĠéĢĢ å½¹
Â ·
ãĤŃ ãĥª
ãĥ©ãĤ¤ ãĥĬãĥ¼
ãĥ¼ãĤ· ãĥªãĥ¼ãĤº
éģĬ è¨ĺ
ãģĭ ãģªãĤĭ
æ¼ģ æ¥Ń
Ġ ent
åºģ æīĢåľ¨åľ°
Ġæ©Ł æ¢°
Ġä½ Ļ
æįķçī© å¸³
è±Ĭ çĶ°
å¤§ æ£®
ĠI BM
ãģĻãĤĭ ãģĵãģ¨
èĭ± å¤«
ĠSport s
ãĥŃ ãĥ³ãĤ°
ãĥĳ ãĥģ
ĠãĤµ ãĤ¦ãĤ¹
ĠLin ux
ĠC AR
Ġéģ ħãĤĮ
op p
Ġæ¨ªæµľ å¸Ĥç«ĭ
Ġ27 0
Ġä¸Ń äºķ
å¯¾ å®¶æĹıæķ°
ĠS now
åĩº éĽ²
ãĤ¢ ãĥ¯ãĥ¼ãĥī
Ġãĥ© ãĥªãĥ¼
é¦ĸ çĽ¸
é§Ĩ éĢĲèī¦
5 000
Ã ¢
ãĥŀ ãĥ³ãĤ¬
çĶº ä¸Ģä¸ģçĽ®
çĶ· çĪµ
Ġãĥģ ãĥ¼ãĥķ
Ġåľ° åĲį
ãģĸ ãĤĭ
ĠMod ern
ãĥīãĥ©ãĤ´ ãĥ³ãĤº
åı ī
Ġ2 16
ãģ¨ åħ±åĲĮ
èĭ ¦
ãĤ¯ãĥ© ãĤ·ãĥĥãĤ¯
ĠéĿĴ ãģĦ
Ġæĸĩ åŃ¦
çĦ¡ æĸĻ
47 9
ãĥ¯ ãĥ³ãĥŀ
çı Ĥ
Ġæª Ģ
ĠV en
29 7
ãĤ°ãĥ© ãĤ¦ãĥ³ãĥī
æĶ¯ ç·ļ
å¹´ ãģ¾ãģ§
ĠN ET
ãģ§ ãģĤãģ£ãģŁ
29 8
38 6
Ġé³ ³
Ġé ī
åģ ½
ĠST ORY
ĠåħĲ çİī
Ġæİ¢ åģµ
Ġ ä¼ļç¤¾
ĠãĤ¨ ãĥ¼ãĥ«
Ġä¼ļ æ´¥
ãĤ³ãĤ¹ ãĥ¯ãĥ¼ãĤ¹
ãĤ¹ãĥĿ ãĥĥãĥĪ
R ad
ãģĮ éĸĭæ¥Ń
Ġç¾½ çĶ°
çĦ¼ ãģį
ĠãĤªãĥķãĤ£ãĤ·ãĥ£ãĥ« ãĤµãĤ¤ãĥĪ
T P
ãģ« ãĤĥ
ĠG er
ãģł ãĤĪ
ĠãĥĬ ãĤ·ãĥ§ãĥĬãĥ«
Ġãĥľ ãĥ¼ãĤ¤ãĥ³ãĤ°
åīµ ç«ĭ
n es
ĠW olf
ĠPRE SENTS
ãĤ¼ ãĥ³ãĥģãĥ³
Ù Ĭ
um a
Ġä¸ī å¥½
ĠB et
ãģ¿ ãĤĭ
ĠãĥĨ ãĥĭãĤ¹
id ae
æŃĮ åĬĩåĽ£
ãģ¡ãĤĥãĤĵ ãģ®
IR C
Ġæ³ķ æĶ¿å¤§åŃ¦
Ġèıħ éĩİ
ĠãĤ¤ãĤ®ãĥªãĤ¹ ãģ®
ĠæĮĩ å®ļ
ä½ı åıĭ
ĠçĶŁ çĶ£
èª¿ æķ´
' ll
äºº ç§°
Ġä¸Ģ è¦§
ãĥ³ãĥĳ ãĤ¤ãĤ¢
ĠãĤ°ãĥ«ãĥ¼ãĥĹ ãĥªãĥ¼ãĤ°
åĽ½æ°ĳ å°ıåŃ¦
æī ķ
ĠD ET
45 7
ãģĤ ãĤıãģĽ
Ġéĩį è¤ĩåĮºéĸĵ
ĠãĤĤ ãĤĤ
æķĳ æĢ¥
ĠVocal s
hem at
ic ago
ĠãĤ· ãĥĬãĥªãĤª
ĠãĥĿ ãĤ±ãĥĥãĥĪ
èŃ°ä¼ļ èŃ°åĵ¡
j e
Ġéĥ¨ éĸĢ
P V
ãģ® ç¨®é¡ŀ
æľ¨ åł´
ĠèĬ ¹
ant ic
ĠåĪĿ æľŁ
ĠåįĶ åĬĽ
ĠM att
è¨ »
it ect
çķ ľ
Ġæīĭ å¡ļ
, "
ç¾İ æĻºåŃĲ
ãĥİ ãĥ¯
ĠãĤ· ãĥ³ãĤ¬ãĥĿãĥ¼ãĥ«
ĠMO ON
Ġæ² »
H appy
at i
Ġçķ ¥
ĠOS AKA
ä¿¡åı· åł´
ĠHol lywood
Ġãĥı ãĥ¤
ãĤ¢ãĤ· ãĤ¹ãĤ¿ãĥ³ãĥĪ
ãĥŃ ãĥļ
Ġæ® ĭ
åŃ¦ å¹´
ãĥŃ ãĥ¼ãĤ°
éĩİ çĶ°
æķ° åŃ¦
è¦ĭ ãģŁ
Ġæ½ ľ
ĠåĮĸ åŃ¦
G G
éħį çµ¦
å¼¦ æ¥½
å°ı å³¶
Ġ &
ĠK N
åĬł èĮĤ
ĠãĥķãĤ£ ãĥ«
éłĨ ä¸Ģ
èĬ¸è¡ĵ åĬĩåł´
Ġæ°Ĺ åĢĻ
Ġå¼ĺ åīį
Ġçī© çĲĨ
ä¹ĭ ä¸ŀ
ãĤ¸ãĥ£ ãĤ¯ãĤ½ãĥ³
åľŁ æľ¨
æĶ¯ å±Ģ
ĠæľŃå¹Į å¸Ĥ
ĠH I
Ġå¤§ ç«¹
ro duction
ĠãĥĭãĤ³ ãĥĭãĤ³
ĠGEN ERATION
Ġ2 14
å¾Į åįĬ
ag ram
è£ħ é£¾
IL D
Ø ±
æ´ĭ å¹³
Ġä¸»æ¼Ķ å¥³åĦªè³ŀ
é ŀ
å¤§ ç¤¾
ãĤª ãĥĬ
å®® åŁİçľĮ
ç´° èĥŀ
çĹĩ åĢĻ
ĩ Ĵ
as a
ãĢľ )
Ġãĥĩ ãĤ¹
å¿Ĺ éĥİ
ãĥ¬ãĥ¼ãĤ· ãĤ¢
ĠèĤ ¥
æĸ ľ
47 7
LE SS
Ġä¸į åĭķ
æķĻ é¤Ĭ
åħĭ å·±
M i
~ ãĢį
ãĥŃ ãĥĥãĥĨ
and a
å¹¸ ãģĽ
ãĥ¼ãĥĵ ãĥ³
ĠPo int
å¾³ å·Ŀ
ãĤ¤ãĤ¯ ãĥ«
ĠHe aven
ash ington
yth m
æĽ¸ è¨ĺ
ĠåĪĿ æĪ¦æķĹéĢĢ
ĠãĥĩãĤ£ ãĥ¬ãĤ¯ãĤ¿ãĥ¼
ion e
Ġå°ı ç¬łåİŁ
ĠãĤ¤ ãĤ§
ãģ° ãĤĬ
èıĵ åŃĲ
ãĥ¬ ãĥķ
éķ· å²¡
ãĥĲ ãĥ¬ãĥ¼
ĠãĤ¢ ãĤ¦ãĥĪ
ĠW at
ĠOR IG
ĠãĤ¢ãĥ¬ãĤ¯ãĤµãĥ³ãĥī ãĥ«
ĠP age
ãĥĩãĤ£ ãĥ´ãĤ£
Ġåīį æ©ĭ
ĠãģĨ ãģŁ
c il
ĠãĥŃ ãĤ¸ãĥ£ãĥ¼
Ġèĩª åĭķ
ãĥ¼ãĤ¶ ãĥ³
ĠREM IX
ãĥŁ ãĤª
ĠãĥŃ ãĤ¤
èĮ ħ
ãģĭ æľĪ
æľ¨ ä¸ĭ
ĠV oice
ãģ¤ ãĤĦ
ãĥĶ ãĥ³ãĤ¯
F EA
Z Z
w er
ãĥ¬ ãĥĻãĥ«
Ġ18 71
ĠV R
ĠU r
ĠTh ree
ĠåĪ¥ åºľ
å¹´ ä»¥éĻį
in ation
ãĤª ãĥ©ãĥ³ãĥĢ
ĠK l
78 0
ĠæĻ ¯
ĠãĤ¯ãĥªãĤ¹ ãĥŀãĤ¹
ãĤ¿ ãĤ¦
ĠE ss
Ġãĥª ãĤµ
ãģ«å¯¾ ãģĻãĤĭ
K ey
è¾ ±
ãĥ¼ãĥŀ ãĥĭãĤ¢
åįĥ ç§ĭ
ãĥĬ ãĤµãĥ³
ç«ĭ åĥı
ãĥ³ãĥĪ ãĥª
ast ic
Ġçµ¶æ»ħåį±æĥ§ IIé¡ŀ
Ã ī
æľ¬ çĶ°
é§ħ ä¼Ŀ
åįĹ æµ·
åł± ç¤¾
ĠæŃ¦ åĻ¨
ãģ«ãĤĤå¥ĩå¦Ļãģª çī©èªŀ
ĠP ER
ãĥĸ ãĥĪ
'''' ''
h o
ĠãĤ¯ ãĥŃãĤ¹
Ġl ive
ĠãģĿãģ®ä»ĸãģ® äººç¨®
ãģ¨åħ± æ¼Ķ
äºķ çĶº
ãģı ãģĺ
ãĥļ ãĥ³
Ġé »
36 7
çµĮ è·¯
ĠèĻ İ
ãĥŃãĥŀ ãĥ³ãĤ¹
3 24
ãģ® è©©
ãĤ¨ ãĤ¯
Ġãĥ¡ ãĥª
ãģ® åĨĴéĻº
ĠL og
ãĥł ãĤ³
Ġæ¸ Ľ
ãĥ³ãĤ« ãĥ¼
Ġå° ¼
ãģĤ ãģ¾
c ript
g u
ãĥ« ãĥĻ
Ġå¤§ æĿ±
åľ¨ ç±į
è§Ĵå·Ŀ æĽ¸åºĹ
m o
Ù ħ
ff ect
ĠBO OK
Ġå®¶ åºŃ
ĩ åľĴ
Ġå½ĵ æĹ¥
ãĥİãĥĻãĥ« ãĤ¹
Ĥ ¬
ãģ® ãĥĳ
åħ¸ åŃĲ
ĠéĻĲ å®ļ
è ¤
Ġ2 13
ĠO b
ĠãĥŁ ãĥı
ãĥķãĤ§ ãĥªãĥ¼
Ġå¸Ĥ çĶºæĿĳ
åŃ Ķ
ĠA ge
ãĥĬ ãĥĥãĤ¯
Ġåĩº åĬĽ
å£° ãģ®åĩºæ¼Ķ
ĠPr ofile
éĥ½å¸Ĥ è¨ĪçĶ»
åįĶä¼ļ è³ŀ
è¿· å®®
Ġæ¸ ĭ
ĠPr ince
Ġãĥģãĥ£ ãĥ³ãĥĶ
Ġæ²¹ å½©
H L
çĶº çĶ°
æ® »
åĪ¶ éĻĲ
å·® åĪ¥
ĠåĮĹæµ·éģĵ éģĵ
ĠLou is
38 7
ç¾İ å¥ĪåŃĲ
Ġ20 9
Ġ18 74
å§ Ķ
ãģ¸ ç§»åĭķ
Ġè¸ Ĭ
ãĤ» ãĥŁ
ĠãĥĲ ãĥ³ãĥī
ey ond
3 23
ãģ® æĻĤä»£
æľ¬ éĥ·
Ġç¹Ķ çĶ°
å°ı å±ĭ
35 8
èį Ĵå·Ŀ
ĠD om
ĠN L
15 00
33 2
S N
T okyo
os p
éģĭåĭķ åħ¬åľĴ
çĶ° ä½³
ãĥ¡ ãĥ³ãĥĨ
åº· å¤«
ãĥ©ãĤ° ãĥĵãĥ¼
éĥ Ń
ãĥĬ ãĥ³ãĥī
æµ· æ´ĭ
B o
æľ¨ æĽľæĹ¥
ãĤ¤ãĥĬ ãĥĥãĥĹãĥ«
ĠæĸĩåĮĸ è²¡
èĮ¨ åŁİçľĮ
ãģ® ä¸ī
ĠåĨį æĶ¾éĢģ
D er
ĠT ake
ĠãĤ¨ ãĥ³ãĥĩãĤ£ãĥ³ãĤ°
19 17
Ġç¿ ¼
ãģı ãģ¡
55 6
ãģĹ ãģĭ
ãģ« ãģ¡
éĽħ äºº
ãĥģãĥ£ãĥ³ãĥĶ ãĤªãĥ³ãĤº
ãĥľ ãĥª
çī¹ çķª
ãĥ©ãĤ¤ ãĤ¿ãĥ¼
ä¾ Ĩ
ĠåĮĹ æĿ¡
Ġæ£® å±±
ĠEx t
æĸ°æ½Ł çľĮ
Ġç¦ ģ
éĩį å·¥æ¥Ń
èµ¤ åĿĤ
Ġãģ İ
åįĥ æŃ³
Ġãĥľ ãĥĵãĥ¼
ĠSh ad
ç§ģ ãģ®
ĠG III
ãģ§ ãģĤãĤĬ
åı£ é§ħ
æµ· æ°´
ãĤ« ãĥĨ
ĠD ragon
ãģĮ ãĤĮ
ç¾İ å°ĳå¥³
2 19
çĶº ãģ®
ich te
Ġãĥ¤ ãĤ¯ãĥ«ãĥĪ
ĠStar s
ãĤ· ãĥ¢
ĠE L
ä¼Ĭ è±Ĩ
æ£® æŀĹ
ãģ² ãģĭãĤĬ
ç§Ģ è¡Į
æ®º ãģĹ
ãĤ·ãĤ¢ ãĤ¿
Ġè³ Ģ
ãĥª ãĥ£
å¤ĸ ç·¨
ĠãĥķãĤ£ ãĥ³
ãĥĨãĤ¯ ãĥİ
iforn ia
R OW
un es
alys is
ĠS ex
åįĹ å°ıåŃ¦æł¡
èĸ Ķèĸĩ
Ġæº Ŀ
ãĥł ãĥĵãĤ¢
æ°´ ç¤¾
Ġæµ Ħ
ĠãĥĪãĥ¨ãĤ¿ èĩªåĭķè»Ĭ
ãĥĬ ãĤ®
å¿ĥ ãģ®
å¿ľ çĶ¨
ĠãĤı ãģŁ
ãĤĴ åıĹ
çĹĩåĢĻ ç¾¤
Ġ2 17
ãĥŀ ãĥĥãĥĹ
ãĥĭ ãĥ³
Ġäº¬ çİĭ
B ack
ãĤ· ãĥŃ
Ġw idth
ãĤ¦ ãĥī
é§ħ åĮĹåı£
ãĤĪ ãģ¿
æºĲ æ°ı
c ul
y an
åľ° èĶµ
ĠèĹ¤ å²¡
Ã£ o
E Y
ç¾İ åĴĮ
æ¬ £
ãĥ³ãĥģ ãĥ§ãĤ¦
ãĤ¸ãĤ§ ãĥį
æĹ© èĭĹ
åĭķçī© åľĴ
4 15
Ã ª
ĠM AL
ä¼ļ æ´¥
æĴ®å½± æīĢ
ãĢģ '''
ĠT Y
le te
Ġèªį å®ļ
z il
''' ãĢı(
ãĤª ãĥķãĤ£ãĤ¹
ãĤ¬ ãĤ¿
åįĵ ä¹Ł
M X
ĠãĤ¹ ãĤ¤
çĲ īçĲĥ
ĠåĪĨ å¸ĥ
ãģ¯ãģĺ ãĤģ
ĠANIM ATION
ĠçĦ ¼
uk u
ãĥĽãĥ¼ãĥł ãĤº
ĠA st
è¨¼ æĺİ
å± Ĭ
æ£® çĶ°
Ġæĭ ĵ
overn ment
ãĥĬ ãĥ³ãĥĪ
ä¸į äºĮ
é ¬
Ġre l
ãĤ¤ãĥ¬ ãĥĸãĥ³
ç« Ļ
ur i
on na
ãĥĢ ãĤ¹
ap on
ãģ² ãĤģ
æĨ Ĥ
ĠãĥĻãĥ« ãĤ®ãĥ¼
ä»ĺãģį ç§»ç±į
ç¾İ é¦Ļ
æĸ¹ åĲĳ
ĠWar s
æ¢ħ çĶ°
ãĤ¤ãĥ³ãĤ¿ ãĥ¼ãĥįãĥĥãĥĪ
ç¶Ń æĸ°
tim ate
Ġç¬¬ äºĶ
47 6
Ġãĥģãĥ£ ãĥ¼ãĥªãĥ¼
åħ¬å¼ı æĪ¦
å²Ĳéĺľ çľĮ
Ġæļ´ ãĤĮãĤĵåĿĬå°Ĩè»į
Ġéĩ §è·¯
ç¦ı å±±
ãĥķãĤ© ãĥ¼ãĥŀãĥ¼
ãĥķãĤ§ ãĤ¹ãĥĨãĤ£ãĥĲãĥ«
Ġåºĥå³¶ å¸Ĥ
leas ed
å³¶ çĶ°
ãĤĦ ãģı
ãĥķãĤ£ ãĥ«
åĲĮ æĻĤ
Ġæ°´ å³¶
ç±³ åĽ½
ãĥŃ ãĥ¼ãĥ©
ĠæĿ¾ æ±Ł
Ġ act
ĠB AND
ĠãģŁ ãģ¾
Ġæ°¸ éģł
ãĥĲ ãĥ³ãĤ¹
ĠåĲī æľ¬
Ġæ£® æľ¬
ç¤º ãģĻ
ĠM ats
ãĥĥ ãĥģãĥ£
ĠãĤ¢ãĥ³ãĤ½ ãĥĭãĥ¼
OK O
AD Y
è³ĩ æºĲ
Ġåł ¤
5 40
G K
ĠF ield
æŃ£ å¹¸
ãĥ¼ãĤ· ãĤ¢
34 2
æ¡ĥ åŃĲ
by e
H igh
åºĹ åĵ¡
åħ¨ åĵ¡
37 9
å£² ä¸Ĭ
ĠåĽ½ å®¶
34 1
çī¹åĪ¥ çķªçµĦ
Amer ican
è¿ĳ éīĦ
ãĥĲ ãĥĬ
Ġ18 81
éĸī éİĸ
in us
è¸Ĭ ãĤĬ
th ur
Ġä¸ī çĶ°
æľĢ å¤ļ
OS S
Ġå¤§ä¼ļ åĲį
Ġå¦ĸ æĢª
ãĥĲ ãĥĥãĥı
è¥¿ ç·ļ
ĠãĤ¸ãĥ§ãĥ¼ãĤ¸ ãĤ¢
æĸ° çīĪ
éļĨ ä¹ĭ
P T
æĹ¥ åĩº
æĸĩ æĺİ
çĶº å½¹åł´
ç§» æ¤į
Ġth is
èģĸ æĽ¸
å¼¥ çĶŁ
Ġå ©
æ¸¯ åĮº
Ġst ar
éĢ± éĸĵ
è§Ĵå·Ŀ æĸĩåº«
ĠC ivil
æĺ Ķ
ãĥ³ãĥĩãĤ¹ ãĥªãĥ¼ãĤ¬
å¥ı æ¥½éĥ¨
æĨ² æ³ķ
c el
39 9
ä½ı åĲī
Ã© d
ĠHer o
ĠS RC
ĠR ose
Ġå° Ħ
Ġæľ¬ éĥ·
åıĭ æĥħ
å¹´ æ³ķ
ãģ® åīį
ĠD OWN
æĿ¾ åİŁ
éĤ£ è¦ĩ
ĠGl obal
ĠK en
ãĥĻ ãĥ¼ãĥĪ
ĠæĲ º
Ġçĩĥ æĸĻ
ĠEy es
ãĥª ãĥķ
Ġ: ''
ĠM OT
ĠãĥķãĤ¡ ãĥ¼ãĤ¹ãĥĪ
led ge
Ġçµ¹æľ¬ èĳĹèī²
ãĤ¬ ãĥ©ãĤ¹
ĠãĥĨ ãĤ¯
ĠãĤ³ ãĥ³ãĤµãĥ¼ãĥĪ
æ´» èºį
Ġãĥ¯ ãĥ³ãĥŀãĥ³
Ġè£½ä½ľ ç·ıæĮĩæı®
AR U
Ġãĥ© ãĤ¤ãĤ¢ãĥ³
57 7
è¦ı å®ļ
Ġç«¶èµ° åĲį
ĠL ar
ĠD OME
ãĤ½ ãĥĥãĤ¯ãĤ¹
ann el
ic y
ãĤµ ãĥ³ãĥĢ
ç·ı çĲĨ
åĭĩ æ°Ĺ
é® İ
on i
Ġc ar
ãĤ¤ ãĥ©ãĥ¼
ĠA way
à¸ ²
ãĥĪãĥª ãĤ¨
ãĥŃãĥīãĥª ãĤ²ãĤ¹
æĻĤ ç©º
ãĤ± ãĥ¢ãĥ³
Ġçĭ ©
Ġh a
å®ĪåĤĻ æĪĲç¸¾
B LUE
Ġãĥı ãĥ¼ãĥ¬
ĠãĤ° ãĥ«
ĠåĦªåĭĿ èĢħ
Ġal bum
ĠD en
çª Ł
çľŁçĲĨ åŃĲ
ç¾İ æ¨¹
è¡Į éĢ²
å¸Ĥç«ĭ å¤§
è¢« å®³
ĠéĽ ħ
åħ« æĪ¸
ĠAL BUM
47 5
Ġè£½ åĵģ
ĠO ur
è¥¿ å·Ŀ
F OR
å¹´ ãģĭãĤī
åĮĹ æĿĳ
RE D
é«ĺæł¡ åīį
t v
Î ¼
Ġéĸ¢éĢ£ ä½ľåĵģ
ç¦ı å³¶çľĮ
ä¾¡ æł¼
é¨Ĵ åĭķ
æĹ¥ ãĥĨãĥ¬
ĠãĤ¢ ãĤŃ
ãģķ ãĤī
åį° åĪ·
ĠN ÃľR
Ġå¹´åº¦åĪ¥ å®ĪåĤĻæĪĲç¸¾
ĠéĻ¸ä¸Ĭ ç«¶æĬĢ
ãĥ¤ãĥŀ ãĥı
MV P
3 19
Ġä»ĸ åĩºæ¼Ķ
Ġæĺłåĥı ä½ľåĵģ
è¦ģ å¡ŀ
ĠçĶ° ä»£
f ly
c raft
ĠéĤ£ éłĪ
Ġå¸¯ åºĥ
ãģ® ãģ¶
Ġk n
éº» éĽĢ
uch i
ĠãĥŁãĥĭ ãĤ¢ãĥ«ãĥĲãĥł
p a
ĠF eel
ç¾İ åĴ²
Ġãĥŀ ãĥŀ
59 2
ĠãĤĦ ãģĻ
ĠCont rol
ë ¦
ãĤ¿ ãĥĥãĤ¯
ãģĦ ãģĻ
ĠãĤ¢ ãĥ¼ãĤµãĥ¼
ĠæĶ¿æ²» å®¶
µ æĶ¿
ãĥģ ãĥ¼ãĥ«
éĢ£ æĲº
ãģĲ ãĤī
Ġæ£® å·Ŀ
Ã¶ r
m H
æĪĲ ç¤¾
ĠæĿ± å±±
58 0
ĠãĥĹãĥŃåħ¥ãĤĬ åīį
Ġ å¹¼
ãģ® åħĥ
Ġéģĭ è»¢
Ġéļ£æİ¥ãģĻãĤĭ éĥ¡
ĠPl ot
ãĥĬ ãĤ³
æķ° ãģ¯
ĠãĥĪ ãĥ©ãĤ¤
Ġä»Ĭ æĿĳ
ĠãĥķãĤ£ ãĥ«ãĥ¢ãĤ°ãĥ©ãĥķãĤ£
Ġãĥļ ãĥ«
3 46
ä½ľ çĶ»
çģ °
Ġ á
åĮ» éĻ¢
ĠæĬķ ç¥¨
Th is
ĠR ou
ãĥĬ ãĥ¢
Ã© n
ĠEx pl
Ġçį²å¾Ĺ ãĤ¿ãĤ¤ãĥĪãĥ«
ä¸Ń äº¬
35 2
ãģ© ãĤĤãģ®
æĻ¶ åŃĲ
Ġè¼ Ŀ
æ¬¡ äºĪéģ¸
æŃ¦ å£«
Ġèĩª å·±
ç¦ģ æŃ¢
ĠåĽº æľī
å¤§ è·¯
ĠF E
ĠF ES
ed d
é§ħ åįĹåı£
ä¿¡ ä¸Ģ
éĻĲå®ļ çīĪ
Ġå¤ĸ åĽ½
ãĥıãĤ¤ ãĥł
m it
ãĥ¢ ãĥĭ
Ġç§ģ çĶŁæ´»
äºĪ åĳĬ
ç² Ĵ
ãĤ¢ ãĥ¼ãĥ«
å·Ŀ åĨħ
Ġå¤§ å°ī
IK E
4 12
åĴĮ ä¹ħ
æĿ¾ ä¸ĭ
r at
Ġ >
ĠE st
ãģ¾ ãĤĮãģŁ
ed y
Ġm ag
ĠäºĶ æľĪ
ĠCor por
ĠãĥĲãĤ¤ ãĤ¨ãĥ«
åĭĿ å½¦
æ§ĭ åĨħ
è²Ŀ å¡ļ
ĠW IN
Ġ18 77
ĠæĹ¥ æ´»
è¡Į ãģĵãģĨ
ãģĵ ãģĵãĤį
AT H
æĶ¹ ä¿®
ĠçŃ ī
J ST
ĠãĥĹãĥ¬ ãĥ¼ãĤªãĥķ
Ġhist ory
36 1
éº ¿
Ġäº¬ æĪĲ
ãĤĴ åıİéĮ²
Ġãĥķ ãĤ¢ãĥ³
Ġç¥ŀ å´İ
ĠçĶ° åİŁ
Ġæĺ¥ ãģ®
3 26
ĠAr my
å°ı æ³ī
Ġd em
ãĤĪ ãģĵ
Ġäººåı£ ãģ®å¤īéģ·
B ig
at ab
35 9
ãĤ¢ãĤ«ãĥĩãĥŁãĥ¼ è³ŀ
ĠB ern
ãĥľ ãĥ©
çĴ°çĬ¶ ç·ļ
u v
ãģ® åĲĮ
ãĤ¦ ãĤ¿
éĩİ ç·ļ
38 9
æŃ¦ å°Ĩ
en b
ãĥį ãĥ¼ãĥł
ç·ı çĽ£éĥ¨
P D
ãģŁ ãģĻ
Ġãĥŀ ãĥ¼ãĥĨãĤ£ãĥ³
Ġç¨® é¡ŀ
ĠãĥĲãĥ¬ ãĥ¼ãĥľãĥ¼ãĥ«
Ġ ge
åĮĹ çĶº
éĽ» åĻ¨
IT A
èĲ½ ãģ¡
èĮ¶ å±ĭ
æľ¬ æĿ¾
ĠãĥĹ ãĥ©ãĤ¤
36 8
èĩ£ èĶµ
ãĥŃ ãĥ³ãĥīãĥ³
éģķ ãģĦ
å¹´ éĢĶä¸Ń
ĠK EN
Ġãĥī ãĥŁãĥĭ
çµĮæ¸Ī åŃ¦
ĠéŁ³éŁ¿ åĬ¹æŀľ
ãĥ³ãĥĹãĥŃ ãĥĩãĥ¥ãĥ¼ãĤµãĥ¼
ãģ¯ä»¥ä¸ĭãģ® éĢļãĤĬ
H ist
ãĥ¼ãĤ¸ ãĥ§
å²© å´İ
èľ Ĥ
Ar t
ĠGold en
ĠãĤ¢ãĥĪãĥ© ãĥ³ãĤ¿
ĠT ex
ä½ľ æ¥Ń
is ing
ãĢĮ '''
ot ion
ĠåĮĹ éĥ¨
æķı å¤«
ĠHistor ical
Ġéļľ å®³
ä¼Ĭ æĿ±
Ġå¾Į ç·¨
ĠDN P
ç´¹ä»ĭ ãĥļãĥ¼ãĤ¸
h ard
è¦ĭ ãĤĭ
19 14
ãĥ³ãĤ¯ ãĤ¨ãĤ¹ãĥĪ
Ġm ar
ç´Ģ å¹´æ³ķ
æĶ¹ èī¯
Ġãģķ ãĤĵ
å¶ ½
æĹ© ç¨²çĶ°
Ġæ£ ĭ
ĠVir gin
r ia
ĠãĤµ ãĥ³ãĥĢ
08 0
æĨ² ä¸Ģ
ron ic
Ġ978 48
ĠçĽ¸ æ£Ĵ
enn y
æĺİ ãģĳ
ãĥ¼ãĥĲ ãĥ¼ãĥī
Ġç¾½ çĶŁ
åŃ¦ æľŁ
ãĥŃ ãĥ¼ãĥĸ
ĠC ase
ĠéĢ ł
37 3
ĠãĤ¦ãĤ£ãĥªãĤ¢ãĥł ãĤº
19 13
ãĤ· ãĥ¼ãĥ³
F lag
ĠP a
ãĥĻ ãĥĥãĤ¯
ĠSE ASON
ãĤ´ãĥ¼ãĥ« ãĥĩ
W AY
Ġin to
ãģ¶ ãĤĭ
we en
ãģ® ãĥŀ
en ed
ãģĮ ãģı
Ġp o
ãĤ® ãĥ«
ãĥķãĤ¡ ãĥŁãĥªãĥ¼
ãĥ¼ãĥ¢ ãĥ³
Ġå½ĵæĹ¥ æľīæ¨©èĢħæķ°
i od
ãĥĵ ãĥ¼ãĥ«
ãĤ¬ ãĥªãĤ¢
èĤ ĸåĥı
ä¿® ä¸Ģ
ãĥĬ ãĤ¤ãĥ³
st al
ãģł ãĤī
ä¿Ĭ ä¹ĭ
å¿Ĺ ç¤¾
åĩ Į
Ġst ation
ĠCount ry
hi ro
ĠåĨħ å±±
ĠçĻ»åł´ ãĤŃãĥ£ãĥ©ãĤ¯ãĤ¿ãĥ¼
9 11
ãĤ¤ ãĥ¼ãĤ¹ãĥĪ
æ¨ «
æŃĮ èĪŀä¼İ
Ġä»£è¡¨ åıĸç·łå½¹
æľĭ åŃĲ
ĠL anguage
ĠD ou
âĢ ²
Ġç¥ŀ å®®
ãĥ³ãĤ³ ãĤ¯
Ġçµ¶ å¯¾
Dav id
ãģ£ãģ¦ ãģįãģŁ
åĳĬ çĻ½
Ġèĩª è»¢è»Ĭ
ĠåľŁ æĽľæĹ¥
Ġèĩ¨ åºĬ
3 22
ĠæĿ± éĥ¨
ç¾© éĽĦ
Ġãģĭ ãģª
èµ· çĤ¹
3 45
98 0
M R
Ġé»Ĵ å·Ŀ
ãĥŀãĥ« ãĥĨãĤ£
Te am
åĬ± è³ŀ
Ġ4 04
Ġãĥĸ ãĥ¼ãĤ¹
Ġåħ¬ åľĴ
38 1
Ġfor m
åĬ© æ¼Ķ
ĠãĤ¦ãĤ§ ãĤ¹ãĥĪ
çŁŃ ç·¨
æĹ¥ åı·
ĠC a
Ġãĥŀ ãĤŃãĤ·
ĠãĥĲ ãĥ¼ãĤ¸ãĥ§ãĥ³
ãĥĹãĥŃ éĩİçĲĥ
ç´Ģ åħĥ
ãģŃ ãĤĭ
Ġ4 50
æĢ ľ
ä¸ĸ ãģ®
Ġéĩĳ çĶ°
Ġè¨ ±
å¹¹ äºĭ
ĠãĤ·ãĥ§ ãĥ¼ãĥ³
P RO
ãĥ³ãĥ ¤
Ġèĭ¥ æĿ¾
Ġå®ļ æľŁ
s er
ãĢį -
åĨħ æµ·
ãģ® ãĤ³
ell i
ãģĲ ãĤĬ
iam ond
Ġèª¿ æŁ»
ĠãĥĢ ãĥĭãĥ¼
Ġæľ¬ åĲį
ĠSp e
ãĤ¦ãĤ£ ãĥ«ãĤ½ãĥ³
èĪ¹ æ©ĭ
ĠTra in
ãĥ¼ãĥĬ ãĤ·ãĥ§ãĥĬãĥ«
åħ« éĩį
LE S
IT T
ĠéĬĢ åº§
ĠãĥĨ ãĤ¤ãĥ«ãĤº
f ace
z o
ãĤ¤ ãĤ¶ãĥ¼
ĠC AP
ĠM ISS
æĿĳ çĶ°
ãĥĩãĤ£ ãĤ¹ãĤ¯
ãĥ³ãĥľ ãĥ¼
ãĥ¡ ãĤ¤ãĥī
éĩĳ äºķ
æµľ çĶ°
ãĥ³ãĥĹ ãĤ½ãĥ³
Ġå¹³ å±±
Ġæ²¢ çĶ°
. ),
åĪ °
åĬł è³Ģ
çĳŀ ç©Ĥ
ĠNag oya
ãĥŃ ãĥª
ĠR B
ãĥ©ãĤ¤ ãĥĸãĥ©
55 5
ĠæĹ Ĺ
Ġçª ª
Ń ç£¨
ãĤº ãĥĭ
ãĥļ ãĤ¢
ĠéĽ ¢
Ġè¡ Ĺ
ĠãĤ² ãĤ¤
çļĦ ãģ«
ä½Ĳ ä¼¯
Ġå¤ı ãģ®
ĠåŃ¦æł¡ æ³ķäºº
ĠéĻ¤ ç±į
å¤ª åŃĲ
ent e
Ġå¸ «
ãĤ·ãĥ§ ãĥĥãĥĪ
ĠBR H
ĠåĬ¹ æŀľ
ä¸Ģ å®¶
ãģķ ãģı
ãģ¿ ãģĭ
ç¥ŀæĪ¸ å¸Ĥ
ĠC X
Ġ- >
ãģĹãģ® ãģ¶
Ġå ĤĻ
ĠR a
æĪĲ åĬŁ
ĠãĤµ ãĥ¼ãĥĵãĤ¹
ãģ» ãģ©
ãĥ³ãĥģãĤ§ ãĤ¹ãĤ¿ãĥ¼
4 60
ãĥŁ ãĥĥãĤ·ãĥ§ãĥ³
åı° é§ħ
Ġåįģ ä¸Ģ
ãģ¥ ãģıãĤĬ
Ġçģ« æĽľæĹ¥
ãĤµãĤ¦ ãĥ«ãĤ¹
V O
Ġè² §åĽ°ç·ļä»¥ä¸ĭ
Ġä»ĸãģ® ç´Ģå¹´æ³ķ
5 60
ãĤ¦ãĤ© ãĥ¼ãĤ«ãĥ¼
ax y
Ġé½ ĭèĹ¤
åĨħ ãģ«
æĥ £
Ġãĥª ãĥ³ãĤ¯
ãĤ¹ãĥĨ ãĥ¼ãĤ¯ãĤ¹
ãĥī ãĤ½ãĥ³
ãĥı ãĥŁãĥ«ãĥĪãĥ³
æĮĩ ä»¤
ãĥĽãĥ¼ãĥ« ãĥĩãĤ£ãĥ³ãĤ°ãĤ¹
çĻ¾ è²¨åºĹ
Ġå°ĳ å°Ĩ
ĠçĲĨ äºĭ
ĠChe m
Ġãĥ¯ãĥ¼ãĥ«ãĥī ãĤ«ãĥĥãĥĹ
æ¼Ķ æĬĢ
æįľæŁ» ä¸Ģ
ãģ¡ ãĤī
ĠãĤ³ ãĥ³
Ġé¢¨ ãģ®
ĠæĲº å¸¯
çĶ° éĥ¡
ãĤ» ãĥ³ãĥģ
Ġãģ¨ ãģĹãģ¦
ãĤ¸ãĥ¥ ãĥ¼ãĥ«
æĮĩå®ļ æĸĩåĮĸè²¡
ãģ® æ°´
ĠC i
ãĥİ å®®
ĠãĤª ãĥ¼ãĥĪ
ãĥĳ ãĤ¤ãĥĬãĥĥãĥĹãĥ«
AR et
ĠJ am
ãĥ¢ ãĥ©
ow ers
åħ¨ ä½ĵ
Ġå¤© çĲĨ
ĠFl or
B i
ä¸Ģ æĪĲ
39 6
ĠãĤ¢ãĥ³ãĥī ãĥªãĥ¥ãĥ¼
ãĤ»ãĥ© ãĥĨãĤ£
ãĥ¯ãĥ³ãĥŀ ãĥĥãĥģ
ĠB IR
ri es
ãĥģãĥ¥ ãĥ¯
ĠãĥĪãĥ© ãĥĥãĤ¯
åŃ¦ èĬ¸
ãĥĸ ãĥ©ãĤ¤
ãĥį ãĤª
å¤ª é¼ĵ
åĸ «
ĠãĤµãĤ¦ãĥ³ãĥī ãĥĪãĥ©ãĥĥãĤ¯
ĠR od
as aki
ç«¶ è¼ª
æĭĽ å¾ħ
ãģ® ãĤ¢ãĥ«ãĥĲãĥł
ãĥ³ãĥ ł
å·Ŀ è¶Ĭ
ãĥĬ ãĤ«
åľ° ä¸Ĭ
ä¸ĸ çµµ
Ġç¦ı æ°¸
ãĥĻãĥ« ãĤ¯
çĩĥ æĸĻ
S ummer
å¼ĺ åŃĲ
Ġçķª åı·
, ''
ãĤ· ãĥĬãĥªãĤª
éĩİ å·Ŀ
ãĤ½ ãĤ¿
äººåı£ ãģ®æİ¨ç§»
ĠãģĿ ãģĨ
Ġå¥½ ãģįãģª
æľ¨ éĢł
ãĥ³ãĤ¸ ãĥ¼
Ġå£ «
ĠPl ace
Ġå¤ļ çĶ°
Ġçİĭ åŃĲ
Ñģ ÑĤ
ĠS ir
Ġãĥģ ãĤ§ãĥ«
ĠéĪ´ é¹¿
è¹ ´
å· ´
ãĥ¼ãĤ« ãĥĥãĥĹ
ĠãĥĹãĥŃ ãĥ¬ãĤ¹
OC AL
Ġä½ı åĲī
ĠãĤ¨ãĥ¬ ãĤ¯ãĥĪ
ĠNot e
C AN
ãģĮ ãĤĦ
ä¹ħ ç¾İ
ãĥ¼ãĥŃ ãĥľãĥĥãĥĪ
ãĥĲãĥ« ãĤ»
ĠSm ile
ãĥŃ ãĥĭ
äºº å¦»
el come
ĠK y
ãĤĤ ãģĤãĤĭ
ĠåĮĹ éĩİ
çģ½ å®³
ĠH ello
ãģĮ ãģį
ĠãĥĽ ãĤ¤
ãĥ³ãĥĳ ãĤ¯ãĥĪ
ĠçĬ ¯
s elf
ãĥª ãĥł
ĠH ans
A g
ãĥĩ ãĤ¢
ĠJ oh
æ²¢ é§ħ
ãĤ¦ãĤ§ ãĤ¹ãĥĪ
ãĥīãĥ©ãĥŀ ãĤ¹ãĥļãĤ·ãĥ£ãĥ«
ĠãĤ¦ãĤ£ ãĥ«
ĠI r
è¾ Ľ
Ġå°Ĥ éĸĢ
ĠOs aka
3 29
ĠL ake
Ġs ign
N ight
ãģĮ ãĤĵ
Ġãĥ¢ ãĥ³ãĥĪ
Ġå¯Įå£« è¦ĭ
ãĥª ãĥ©
ãĥķ ãĥ¥
ãĤ³ ãĥ¼ãĥ©
it es
ãĥı ãĥªãĤ¹
ãģĵ ãģ©ãĤĤ
åħ¨ ãģ¦
ĠZ one
au x
æŃ» ãģ®
Ġä½ ķ
ĠãĤ¢ãĥ³ãĥīãĥ¬ ãĤ¢
ĠS up
ãĥ¯ ãĥ«ãĥĦ
ĠTh ing
åĭĩ èĢħ
G et
Ġå¯ Ħ
ãĤŃãĥ¥ ãĥ¡ãĥ³ãĥĪ
ãĥ¼ãĥŁ ãĥ¥ãĥ©
çŁ³ åİŁ
37 1
Ġéł ħçĽ®
æķĻèĤ² å§Ķåĵ¡ä¼ļ
ĠApr il
ãģ¿ ãģį
ĠãĤ¹ ãĤ¦ãĤ§ãĥ¼ãĥĩãĥ³
ãĥ¢ ãĤ¶
ãĥ¼ãĤ± ãĤ¹ãĥĪãĥ©
ĠAp ple
ĠçĽĹ å¡ģ
ĠS aint
Ġãĥı ãĥ³ãĤ¹
36 9
æĹ¥ çĶ£
Ġåħ ¶
ĠãĤ± ãĥĵãĥ³
ĠæłĹ åİŁ
ĠC oun
ĠW eek
Ġçī¹ æĢ¥
OS E
Ġåĭķ çĶ»
ĠæĹ¥æľ¬ æŃ¦éģĵé¤¨
ãĤ± ãĤ¹
æ°´ è·¯
ãĤ¯ãĥ¬ ãĤ¸ãĥĥãĥĪ
39 3
ãĥĸãĥ© ãĤ¸ãĥ«
æŃ» äº¡
Ġåı° é¢¨
Ġæľ¬ éĸĵ
Ġre g
Ġæ¶ ¼
~ )
Ġb ut
ĠåŁ ·
ĠæĻ ´
eg a
ãĥĩãĤ¶ãĤ¤ ãĥĬãĥ¼
ĠD est
ĠCom e
uk a
N T
ãĥľ ãĥĩãĤ£
ãĥ³ãĥĦ ãĤ©
ĠMag azine
7 20
ãĥĦ ãĥ¼ãĥ«
ãĥ³ãĤ·ãĥ£ ãĤ¤ãĥ³
S l
ãģ® å¾Į
äºĭåĭĻ å±Ģ
ĠAp pl
Ġæ°´æĪ¸ é»ĦéĸĢ
é³¥åıĸ çľĮ
é«ĺ è·³
ãĥļ ãĤ¹ãĥĪ
Ġä¸į å®ļæľŁ
ĠãĤ»ãĥĲãĤ¹ ãĥģãĥ£ãĥ³
äº¬ å¹³
çľŁ çĶ±ç¾İ
Ġéļ Ĩ
è£ľ ä½Ĳ
Ġ ä½ĵèĤ²
Ġ2 18
è¨ĺå¿µ æĹ¥
ĠæķĻ æİĪ
ãĤº ãĥĭãĥ¼
çĩ Ī
Ġæ±ŁæĪ¸ å·Ŀ
ãĤĬ ãģĵ
ĠãģĤ ãĤĵ
ãģĹãģŁ ãĤĤãģ®
é»Ĵ ãģĦ
å®¢ éģĭ
ĠèĦ ³
ĠæĨ ²
ãģĭ ãģ®
åħ« ä»£
M in
ãĤ³ ãĥ¡ãĥĩãĤ£
ĠH Y
ãĥĢ ãĥ©
ãģĻ ãģª
çĶ² åŃĲåľĴ
Ġçį £
ĠæĲ Ńè¼ī
ĠåĪĿçĻ»åł´ åĽŀ
v ey
Ġ2 26
æĪ¦ ç·ļ
Ġd oc
48 5
ãĥ´ãĤ¡ ãĤ¤
D B
M T
å¤§ å°ī
ĠH om
ãĤº ãĥ©
Ġä¸ĭ åĮĹæ²¢
è¡£ è£ħ
3 28
ãĤĬ ãĤĩãģĨ
éĥ¡ åĮº
6 30
Ġ2 24
ĠM ain
w an
ãĥĪ ãĥ¼
IN Y
æ´¥ çĶ°
æłĦ é¤Ĭ
ĠãĤı ãģĮ
ĠWork s
Ġåİļ çĶŁ
p os
ãĥ« ãĥį
ãĥĪ ãĤŃ
Ġ2 21
Ġãģ ·
å· §
ĠãĤ¤ ãĤªãĥ³
ĠãĤŃ ãĥª
Ġçī¹ å®ļ
æĦ ģ
Ġéģ¸æīĭ ãĥĩãĥ¼ãĤ¿
ien ces
Ġä»¥ ä¸ĭãģ®
S EX
ãģª ãģª
Ġè¡Ģ çµ±
Ġæºĸæ±ºåĭĿ æķĹéĢĢ
ãģļãĤĮ ãĤĤ
5 20
Ġãĥī ãĤŃãĥ¥ãĥ¡ãĥ³ãĤ¿ãĥªãĥ¼
ãĥŁãĥ¥ãĥ¼ãĤ¸ ãĤ¢ãĥł
ĠCOM PLE
ãĤ³ ãĤ¤
ĠK ids
èĪªç©º éļĬ
ĠãĤ¤ãĥ³ãĤ° ãĥ©ãĥ³ãĥī
3 31
Ġãĥ©ãĤ¸ãĤª ãĥīãĥ©ãĥŀ
R ING
Ġ ä¾Ŀ
ãĤ¢ ãĤ¤ãĥ«ãĥ©ãĥ³ãĥī
et e
å½¹ åĵ¡
Ġéĩĳ èŀį
æľį éĥ¨
Ġåľ¨ ä½į
Ġå± ħ
æ¤ľ ç´¢
ĠãĥĹãĥ¬ãĥŁãĤ¢ ãĥªãĥ¼ãĤ°
ãĤ³ ãĥ¼ãĥĪ
Ġå¤§ çµ±éłĺ
ĠSt eph
æĹ ¦
Ġm ore
enn is
Ã¡ n
Ġãĥ¡ãĤ¤ ãĥ³ãĤŃãĥ£
ãĥĪ ãĥ¢
ãĥĥ ãĤ¹
ĠäºĮ å®®
ĠãĤ¢ãĥ¡ãĥªãĤ« ãĥ³
Ġval ue
RAG ON
4 25
ãĥŃ ãĤ¢
ĠD ear
å¤© çĦ¶
ĠAn ton
K C
Ġæģĭ ãģĻãĤĭ
æķ£ æŃ©
Ġç¯ ī
ĠG ot
iv ate
Ġè± ª
ĠRe f
Ġéĩį åĬĽ
ĠåĲį éīĦ
ĠåįĹ è¥¿
ä¸Ĭ åł´
Ġçī¹ éĽĨ
ĠçĶ² åºľ
3 35
ãĤ· ãĥĬ
Ġ4 09
ãģĦ ãģ¨ãģĨ
è² ¿æĺĵ
Ġåįĵ çĲĥ
3 27
èĢħ ãģªãģĹ
åºģ éķ·å®ĺ
ĠA CT
ĠãĤĬ ãĤħãģĨ
ĠãĤ¢ãĥĬ ãĥŃãĤ°
ãĤ¸ãĤ§ ãĥ³ãĥī
ĠãĤ·ãĥªãĥ¼ãĤº æ§ĭæĪĲ
Ġw ork
å¯¾ æĪ¦
åķĵ ä»ĭ
éµ ¬
ãĤ¯ ãĥŀ
Ġ2 23
æĿ¾ æ±Ł
ĠZ ERO
ãģĦãģŁ ãģĦ
ock et
Ġç¿ Ķ
A åŀĭ
Ġm it
OH C
Ġå¤¢ ãģ®
for man
Ġ er
çĶ ļ
ãĤ« ãĥĥãĥĪ
åĴĮ æ³ī
Ġãģ© ãģĨ
Ġsy stem
æĹ¥ é«ĺ
ãĥĥ ãĥĨãĥ«
ãĥĲ ãĥªãĥ¼
ĠH IGH
ãģ§ãģĻ ãģĭ
ĠãĤ¨ãĥª ãĤ¶ãĥĻãĤ¹
å¹³ æ¬¡
Ġãĥĭ ãĥĥãĥĿãĥ³
é¾į ä¸Ģ
æį ·
å± Ī
ãĤ» ãĥĥãĤ¯ãĤ¹
åĮº å½¹æīĢ
ĠF ish
æĸ° ç¯ī
å½¼ æĸ¹
BL ACK
Ġèĺ ĩ
ĠåĽ½åĭ¢èª¿æŁ»ãģ«ãĤĪãĤĭ äººåı£ãģ®æİ¨ç§»
ĠR og
ĠN OT
36 2
Ġl b
ãģ² ãģĭãĤĭ
Ġãģĳ ãģĦ
ãĤ¢ãĥĹãĥª ãĥªãĤ¢
ãĥĲãĥ«ãĤ» ãĥŃãĥĬ
ĠS ee
ä¸Ģ å½¦
å¾© è®Ĳ
ĠRo om
æĹ¥ ãĢħ
èªŀ ãĤĭ
AN K
Ġãĥı ãĥ³ãĤ¬ãĥªãĥ¼
æ¸ħ å¼µ
Ġè³ĩ æľ¬
ĠC ore
th ing
34 3
ĠãĤ« ãĥ¬ãĥ³ãĥĢãĥ¼
Ġå¸Ĥ å½¹æīĢ
èĩ¨ åºĬ
ĠãĤ¢ãĥ« ãĥĲ
çŁ¢ éĩİ
Ġç§ģ ãģ®
åĽĽ åŃ£
ãĤ¢ ãĥĸ
æ¥Ń å¼ı
B IG
H C
ãĥ© ãĥĥãĤ·ãĥ¥
ãĤ¯ ãĤ¤ãĥ³
ĠæĹ¥ çµĮ
Ġb i
æ°¸ äºķ
Ġæµħ äºķ
ĠFC æĿ±äº¬
S K
çĶº äºĮä¸ģçĽ®
å°ĭ å¸¸
Ġçļĩ ç´Ģ
ĠAfric a
f red
ãĤ¿ ãĥªãĥ¼
éļĨ åı¸
Ġç±³ åŃĲ
Ġç· ĬæĢ¥
ĠæĽ ¹
æ§ĺ ãģ®
ĠãĤ¦ãĤ§ ãĥĸãĤµãĤ¤ãĥĪ
æ£ĭ å£«
ãĤ§ ãĤ¤
Ġäºº çĶŁ
ile d
Ġå®® åĨħ
ĠåİŁ åŃĲ
å¹ħ åĵ¡
Ġç¨² åŀ£
Ġçª ģ
ĠP rom
å¯ ¸
ãĤ² ãĥ¼ãĤ¿ãĥ¼
Ġæ· «
ĠMar ia
ãĤŃ ãĥĥãĤº
ãĥı ãĤ¶ãĥ¼ãĥī
å½¢ éĽ»è»Ĭ
S im
ĠSt an
æŃ¦ çĶ°
Ġç¾ ħ
ãĥ³ãĥĶ ãĥ¬ãĥ¼ãĤ·ãĥ§ãĥ³
ĠT a
ĠãĤ¢ ãĤ¯ãĤ·ãĥ§ãĥ³
ĠãĥŃ ãĥŀ
Ġåħ¬ ç«ĭ
ĠãĥĩãĤ£ ãĥĵãĤ¸ãĥ§ãĥ³
ĠDan iel
ãĥĬ ãĥ¬ãĥ¼ãĤ¿ãĥ¼
ãĥ¯ ãĤ¤ãĥ«ãĥī
å¤ª ä¸Ģ
åºĥ çĢ¬
Ġè£ ģ
Ġè¡¨ ç´Ļ
ĠBoy s
ĠèŃ° ä¼ļ
D ance
éģĶ äºº
è³¢ æ²»
al i
åĸ ¬
ĠT alk
38 4
Ġç¦ıå²¡ å¸Ĥ
ĠæĤ ł
Ġ00 7
éĸī åºĹ
ĠãĤ¢ãĥ³ãĥĪ ãĥĭãĤª
Ġãĥ¦ãĥĢãĥ¤ æļ¦
ãģ® ãģį
ĠW ashington
re m
æĦĽ ãĤĴ
Ġéļİ ç´ļ
19 08
å¼ Ĳ
os c
ak ing
åıĤ æĪ¦
ĠãĤ´ ãĥ«ãĥķ
å« Į
æĺ Ĩ
ãĤ« ãĥĨãĤ£
it an
Ġd igital
ãĥĩãĤ£ ãĥ¼ãĥ³
48 1
æĤ¦ åŃĲ
æĸĩ å½¦
ä¸ī äºķ
æ¨ª ç¶±
éĸĭå§ĭ æĹ¥
Ġb ack
ãģ³ å¤ª
Ġç« ¥
ãĥĥãĤ« ãĥ¼ãĤº
åľ°æĸ¹ ãģ®
ãĤ²ãĤ¹ãĥĪ åĩºæ¼Ķ
19 12
5 10
ĠR AC
Ġéĸ¢ åı£
Ġãĥª ãĥĥãĥģ
ãĤŃãĥ£ ãĥ³ãĥĹ
DER ELLA
ãĥĸãĥ¬ãĤ¤ ãĤ¯
ĠãĤ¹ãĥĶ ãĥ¼ãĥī
ĠæŁĶ éģĵ
op er
æ²Ļ åŃĲ
ĠChrist ian
ãĥ¼ãĤ ¾
ĠD eb
é¾į å¤ªéĥİ
èªŃå£² ãĥĨãĥ¬ãĥĵ
47 1
Ġæ³ °
ĠCar ol
ãĥ© ãĥ³ãĥĹ
ĠP HP
ĠãĤ¢ ãĥ³ãĥĢ
AR UTO
é»Ħ éĩĳ
og ether
ĠBe autiful
z en
ãĤĴ è¿½
æ°´ éĩİ
IC T
Ġãĥĳ ãĤ¯
Ġä¸Ĭ è¨ĺ
ç·ıåĲĪ ãĥĨãĥ¬ãĥĵ
yth ing
Ä į
æĹ¥ ç¨ĭ
ra in
iz er
Ġåģ ½
éĿĻ é¦Ļ
ãĥŀ ãĤ¹ãĤ¿ãĥ¼ãĤº
åįĥ ç©Ĥ
åĤ µ
19 16
ĠE ll
ãĥı ãĥį
ãĤ¬ ãĤ·
æĦĽ ãģ¨
åĻ ´
å¾³ éĸĵ
æķĳ åĳ½
ãĥ³ãĤ¬ ãĥ³
aw ay
ĠFIFA ãĥ¯ãĥ¼ãĥ«ãĥīãĤ«ãĥĥãĥĹ
ãĥ³ãĤ·ãĥ¥ ãĤ¿
ãĥı ãĤ·
Ġæ°´ æľ¨
ãĥĸãĥª ãĥĥãĤ¸
18 81
ĠæĹ¥æľ¬ ä»£è¡¨
Ġãĥİ ãĥŁãĥįãĥ¼ãĥĪ
lect ric
J AM
å¹³ æĸ¹
ĠH APPY
åľŃ ä»ĭ
Y U
ãĥŀ ãĥ¼ãĥĨãĤ£ãĥ³
ãĤ¹ãĥĪ ãĥª
æ°´ ä¸Ĭ
un ch
çĶ¨ å¿ĥ
ĠãĤ¿ ãĤ«
æ¬ł çķª
Ġ** ''
ĠF ried
åľ° å¸¯
am in
ãĤ± ãĥ¼ãĤ¹
Ġãģ« ãģĬ
ãĥĥãĤ» ãĥ³
ĠF AN
ãĥĬ ãĤª
çĦ¡ æīĢå±ŀ
ãĥĸ ãĥ©ãĤ¤ãĤ¢ãĥ³
ĠN ext
ãĥ¡ ãĥĢ
iv a
ĠåĽ½ åĪĨ
ãĤĤãģ® ãģĮ
Ġæĺİæ²» å¤§åŃ¦
S UN
ãĥĬ ãĥ³ãĥĲãĥ¼
ĠæĹ¥æľ¬ æĺłçĶ»
50 5
Ġãĥ¢ ãĥ¼ãĥĭãĥ³ãĤ°
Z ERO
Ġãģµ ãģŁ
ank s
Ġé¦ĸ éķ·
ãĥ¡ãĥŃ ãĥĩãĤ£
ãģµãĤĭ ãģķãģ¨
Ġdown load
æ± Ĳ
ãĥĽ ãĥ³
ourn ey
ĠEduc ation
A nt
ä» Ķ
ãĤ³ãĥ³ãĥĨ ãĥ³ãĥĦ
åħ¬è«ĸ ç¤¾
en ge
éŁĵ æ°ĳåĽ½
7 37
ãĥ« ãĥŁ
ãĥĢ ãĤ¤ãĥ¤
Ġ*# *
à¸ Ļ
u ji
ãģĤ ãģĬ
æĿ¾ å¹³
ĠãĤ³ ãĥ³ãĥĶãĥ¥ãĥ¼ãĤ¿
ĠS ax
å¤§ å¯º
è»į äºĭ
åįļ æĸĩ
Ġè«ĸ æĸĩ
D ear
Ġä½Ĳ ä¸ĸä¿Ŀ
Ġa fter
ãĤ¦ ãĤ¨
æ¬ ½
ãĥķãĥ¬ ãĥ³ãĥī
on ia
æĭ ¾
ĠFoot ball
ãĥŃ ãĥŃ
ãĥ³ãĥķ ãĤ§
ĠPhil osoph
0 11
ãĥĢ ãĤ¤ãĤ¢
èĤ Į
è²´ ä¹ĭ
ĠãĥĭãĤ³ ãĥ©ãĤ¹
ãĥ¬ãĤ¹ãĥĪ ãĥ©ãĥ³
m ond
ãģ® æĪĲç¸¾
ãĥĩ ãĥªãĥĥãĤ¯
çĽ® é»Ĵ
é§ Ħ
åħ± æ¼Ķ
å°ĳ ä½Ĳ
QU ARE
ãĢ Ĵ
å¼ §
æĤ ©
ĠèĹ į
R PG
ãģĪ ãģĦ
å¤ļ éĩİ
ĠæĦĽ ç§°
å¾¡ æ®¿
ãĥĪãĥŃ ãĤ¤ãĥĪ
ĠÎ ¼
ĠO VER
Ġåĩº åı£
57 0
B AL
ãĥ¼ãĤ¿ ãĥ«
ä»» æĦıãģ®
çī¹åĪ¥ ç·¨
ãĥ¬ãĥĥ ãĤº
æħİ åĲ¾
ĠãĥĶãĥ³ãĤ¯ ãĥĳãĤ¤ãĥĬãĥĥãĥĹãĥ«
ãģĭ ãĤĮãģŁ
ĠãĥŃ ãĥŀãĥ³
ĠãĥŁ ãĥ«
ĠåķĨåĵģ åĲį
ãĤ¢ ãĥ¬ãĥ³ãĤ¸
åĪ¥ åĨĬ
Ã© r
ãĤ«ãĥ« ãĥī
sc ape
W OWOW
Ġé ¯
ĠãĤ± ãĥ´ãĤ£ãĥ³
ãĥĮ ãĤ¨ãĥ«
Ġé¶´ è¦ĭ
ĠEver y
ĠæĹ¥æľ¬ ãĥıãĥł
39 7
ãĥ¼ãĥĨ ãĥ«
) ...
å® ĭ
å£ ½
Ġä¸ī ä¸Ĭ
38 8
Ġèĩª è¡ĽéļĬ
ĠãĤĬ ãĤĵ
ĠãĥĭãĤ³ ãĥ©
ific ation
? ''
ãĥ© ãĥ¼ãĥī
Ġæ¨Ļ æºĸ
Ġãĥĩ ãĥĵãĥ¥ãĥ¼
Ġæ² Ī
Ġå¹³ å®ī
ãĥ³ãĤ· ãĥ³ãĤ°
ĠãĤ¦ãĤ§ ãĥĸ
ĠâĢĲ âĢĲ
åı· è»Ĭ
45 1
37 7
æĴ °
ãģİ ãĤĬ
ãģ® ãģ¾
ĠH ell
Ġè¥¿ éīĦ
ä¼Ĭ éģĶ
è¦ĭ æ²¢
Ġåºĥ åĳĬ
06 7
isc o
ãĥĦãĤ£ ãĤª
åıĸå¼ķ æīĢ
3 48
Ġå Ļ
ãĥľ ãĤ¯ãĤµãĥ¼
ãĥķãĤ¡ ãĤ¨ãĥ«
ãĥ¨ ãĤ¦
æī± ãģĦ
ĠDAY S
5 12
å¹´ æĺ¥
ãģ¨ ãģĹãģŁ
ãĤ¦ ãĥ«ãĥķ
å¹³ çĶ°
è¨ĺ è¼ī
ãĥ¼ãĥĵ ãĥ«
ĠWeb ãĤ¢ãĥĭãĥ¡
ĠPL AY
C ity
port s
ĠE TC
ĠKey boards
ãĤ¨ãĤ¯ãĤ¹ ãĥĹãĥ¬ãĤ¹
ãģª ãģ¤
re a
ãĥı ãĥ¼ãĥķ
ãģĽ ãģ¦
åħ¬ä¼ļ åłĤ
4 16
b ps
c ussion
ĠT od
Ġæķ ¦
ID ER
èĻ Ĳ
g a
ãģ® çµĮç·¯
èĢħ çĶ¨
èĢĥ ãģĪãĤĭ
åı² éĥİ
éŁ³ æºĲ
ĠãĤŃãĥ£ ãĥªãĤ¢
Ġçī¹ æĴ®
åŃ¦åľĴ é«ĺçŃīåŃ¦æł¡
Ġæ²³ åĩºæĽ¸æĪ¿æĸ°ç¤¾
è³¢ äºĮ
3 49
ĠS i
åĨħ èĹ¤
50 6
å¥Ī ç·Ĵ
ĠBe ach
ãģ£ åŃĲ
ĠChampions hip
t r
ãģĹ ãģ°
ãĤ¹ãĤ¿ ãĥ¼ãĤ²ãĥ¼ãĥł
Ã °
ãģ® çİĭåŃĲ
ĠD anc
em e
Ġãĥĳ ãĥ¯
Ġå³ °
ĠJe ff
39 5
ĠãĥĿ ãĥ«ãĥĪãĤ¬ãĥ«
ĠAn th
ĠãĥŃ ãĥ¼ãĤº
Ġåįĺ çĭ¬
ELL OW
iction ary
ĠãĥĪ ãĥ«ãĤ³
å½¢ æĪĲ
Ġãĥ« ãĥİãĥ¼
é»Ĵ çĶ°
ä¸ŃåĽ½ èªŀ
ãĥĴãĥŃ ãĤ¤ãĥ³
ãĤ¢ ãĥ³ãĤ½
ãĢį ãĢģ
ĠU L
åĪ¥ åºľ
æ¥ Ĭ
æĺŁ éĩİ
ãĥ³ãĥĲ ãĥ¼ãĤ°
éĺ¿ å¼¥
ãĥĳ ãĥ¼ãĤ½ãĥĬãĥªãĥĨãĤ£
ig o
ac he
ile y
LO OD
ãĤ¢ãĤ¿ ãĥĥãĤ¯
ĠV O
Ġãĥ¬ ãĤ³
36 3
åģ¥ æ²»
ĠæĢ Ĵ
ĠF ull
ĠW AR
ãĤĴ éĻ¤ãģı
å¤ª åŃĹ
Ġãĥª ãĥĥãĤ¯
æľĽ ãģ®
ĠEurope an
ĠGall ery
æľ ĥ
Ġ( "
19 15
ãĥŃ ãĥ¼ãĥł
ĠæĿ± æµ·éģĵ
ĠãĤ« ãĥ¡
Ġæł ¼
ĠCOM E
ĠVIC L
S I
ĠK ob
P o
k ins
çµĦ æĽ²
Ġl ong
ìĿ ´
Z epp
v ir
ä¸Ń çĶ°
åı· ç³»çµ±
ãĥİ ãĥª
ãĥ³ãĤ½ ãĥ¼
ĠèĦ ±
Ġ ann
19 05
ãĤĴ æİ¢
ĠãĤ· ãĥŃ
æ¹ ĺåįĹ
ĠãĤ¢ãĥ« ãĥĻãĥ«ãĥĪ
. ãĢİ
Ġå½ ¦
è£½ ç´Ļ
ĠSh in
Ã¨ re
ĠãĤ½ãĥķãĥĪ ãĥĲãĥ³ãĤ¯
ĠC E
ãģ¨ ãģĬ
ãĥĶ ãĥ¼ãĥĪ
99 0
è²´ æĹı
èĩªçĶ± å½¢
J K
ĠP ier
åĲį åīį
ĠæĿ± æĸ¹
æµ· å³¡
ãĥ³ãĤ¿ ãĤ¦ãĥ³
ĠãģĬ ãģĭ
ĠCon st
pr ise
ãĤģãģĲ ãĤĬ
è»Į è·¡
èĩ¨ æĻĤ
Ġæł¹ å²¸
æĸ¬ ãĤĭ
ĠW AY
ãĥĥãĥĪ ãĥ³
Ġs upport
ç©º æīĭ
çĻ½ æĽ¸
ĠçĽ¸ é¦¬
b on
e z
ãĥ¼ãĥ« ãĤ¹
ãĥİ ãĥ¼ãĤ¹
ĠãĥĪ ãĤ¤ãĥ¬
ĠåĬ Ľ
ĠæĦ ı
G H
s o
åĽ ļ
éĥ¨ ãģ®
O h
O ut
¼ ¶
çī© ãģ®
ãĥ¼ãĥĹ ãĥ¬ãĥ¼ãĥĪ
Ġh ave
èªĺ æĥĳ
n ie
v o
ãĥŀ ãĥĭ
ç¨ ľ
ĠçŁ³ å¡ļ
ãĥīãĤ¤ãĥĦ èªŀ
æłĥæľ¨ çľĮ
ĠEngineer ing
ãĤ« ãĥ³ãĥĳãĥĭãĥ¼
ĠæĿ¾ å³¶
æĺłçĶ» æī¹è©ķå®¶
Ġç·ı åĭĻ
èµ¤ åįģåŃĹ
æľŁéĻĲ ä»ĺãģįç§»ç±į
ç§Ģ éĽĦ
æĳ Ĥ
ãĤ¹ãĤŃãĥ¼ åł´
ĠéĽ£ æ³¢
v in
æĹ¥ éħįä¿¡
ãĤ« ãĥ¼ãĥĪ
èī¯ ä¸Ģ
çĭ Ĳ
ãĤ¿ãĤ¤ ãĥ¤
ell y
Ġé»Ĵ æľ¨
Ġæ¡Ĳ çĶŁ
ĠArch ive
æĺİæĹ¥ é¦Ļ
äºĶ åįģ
ãĥ¶ å²³
ĠAd v
ay ashi
çĶ· ãģ®
ãĢģ (
ãĥĽ ãĥķ
ãĤ½ ãĥª
ĠãĤªãĥªãĤ¸ãĥĬãĥ« ãĥĵãĥĩãĤª
å£ ĩ
çķª ãģ®ãĤĬãģ°
ãģ² ãģª
ĠéĽ» æĴĥ
ĠM ir
Ġs m
Ġçī¹ æĬĢ
eth od
C he
Ġ2 19
åŁ ¹
å¤ĸ å±Ģ
4 33
ĠW OWOW
æĶ¹ è¨Ĥ
é¨ ¨
ond o
ĠM D
ãĥĩ ãĤ¹ãĤ¯
åĲį æİ¢åģµ
ãĤ¢ãĥ« ãĥĲ
å°¾ å¸Ĥ
æĺİ ç¾İ
ãĤ± ãĥ©
ä¸ĩ éĩĮ
! !
Ñ ĩ
Ĺ æĺŁ
ä¸Ģ æ¨¹
ä¸Ģ æĹı
Ġå¤§ æľ¨
ä¹ħ çķĻç±³
Ġãĥĳ ãĥĳ
Ġãģ¿ ãģª
ĠPe ace
Ph il
ĠCIN DERELLA
åĬ© æķĻæİĪ
Ġre mix
ç´Ķ æĥħ
Ġå®ļ ç¾©
m ph
ĠK A
Ġçİī å·Ŀ
esch ichte
ĠãĤ³ ãĥŁãĥ¥ãĥĭ
Ġãĥĵ ãĥ¥
M c
ĠãĥķãĤ¡ ãĥŁãĥª
OR T
46 5
ĠDiv ision
ä¸Ģ äºº
Ġ25 5
ãģĲ ãģ¿
ĠCl ip
ĠJ oe
ä¼¸ ä¸Ģ
ãģ®å¥³ çİĭ
Ġãĥ¦ãĥĭ ãĤªãĥ³
ãĤ¢ãĥī ãĥĻãĥ³ãĥģãĥ£ãĥ¼
Ġ u
é«ĺ åº¦
ãĥ¯ ãĥ«
Ġs o
èª¬ æĺİ
ãĥĪ ãĥªãĥ¼
ĠH ere
ãĥ³ãĥĨãĤ£ ãĤ¹
Ġè¼ ª
4 38
ig a
æŃ³ ãģ®
å¢ĥ çķĮ
anc ed
ãģ¸ç§»åĭķ ãģĻãĤĭ
ĠC as
ĠB eg
åĬ ī
æį ¨
ĠâĶ £
Ġæ¨ ¹
åĸ¶ ãĥĲãĤ¹
æĦŁ æŁĵ
Ġæ°Ĺ è±¡
å¤§ è¥¿
æ¢ ĵ
ĠSp ec
ly mp
68 0
ãĥ© ãĥĩãĥ«
AN N
ãģĺ ãĤħãĤĵ
çł² åħµ
ãĥ³ãĥĻ ãĥ«
es c
ãģķ ãģ®
ãĥį ãĥĩãĤ£
è£ķ ä»ĭ
ĠH am
æĶ¿ æ¨©
Ġç«¶ æ³³
L M
ĠS av
ĠæĹ¥ æĻĤ
L AND
ĠF eat
ĠåĲ ¾
60 3
ç¸ Ľ
p ar
ãĥĵ ãĥŃ
ç¾© äºº
Ġæ©Ł ç¨®
Ġå¼ģ èŃ·å£«
Ġé ¼
ĠS ign
ĠB ATTLE
éīĦ è·¯
Ġèĸ Ħ
Ġè Ŀ
ĠK ir
Ġ25 2
39 4
è£ķ ç¾İ
ĠSHI BUYA
E ng
Ġ2 35
ãĥı ãĥģ
éĢģ ä¿¡
ĠãĤŃ ãĥŁ
ãĥ³ãĥĩãĤ£ ãĥ¼
ĠãĤ¹ãĥĨ ãĥķãĤ¡ãĥ³
R o
ãĤ¿ ãĤ¯
Ġæĺ ¼
Ġç© Ĥ
å·¡ çĽ®
ĠãĢı (
ĠDist rict
å± ı
ãĥģãĥ¥ ãĤ¦
ĠæĮĩ å°İ
é´ »
Rob ert
ic ations
st r
ä¸ī æĿ¡
ãģ» ãĤĬ
atab ase
ĠL at
ãĤª ãĥ³ãĤ·ãĥĥãĥĹ
å³¶ ç·ļ
è£ľ çµ¦
60 5
46 2
Ġäº¬éĥ½ å¤§åŃ¦
ãĥª ãĥ¼ãĥŀãĥ³
çĽ£çĿ£ è³ŀ
ãģ¶ ãĤĵ
ç«ľ ä¹Ł
èĲ½ åĲĪ
Ġ ev
or f
ãĤ« ãĥ¬
æĪ¸ çĶ°
ãĥĵãĤ¨ ãĥĪ
å¹´ åīį
ãĥ© ãĥ¼ãĥ¡ãĥ³
ĠM R
ĠæĪĲ åĬŁ
éĥ· åľŁ
I nd
åı Ļ
ãĤ¢ ãĥ³ãĥĬ
ãĥŀ ãĤ¤ãĤ¯
ĠãĤ¸ãĥ§ ãĥĬãĤµãĥ³
ĠF ate
Ġæĸĩ çĮ®
Å Ĥ
Ġ2 28
ãĥĲ ãĥ«ãĥĪ
ĠSt one
æĺ¥ ãģ®
èªŃ ãĤĢ
ĠæŃ´ä»£ åĦªåĭĿ
ĠCal ifornia
Ġå «
ãĤ¹ ãĤ¤ãĤ¹
ãĤ¢ ãĥĻ
ĠB re
ãĤ¹ãĥĳ ãĥ¼
U BE
Ġæ ĩ
ãĥ³ãĤ ¾
ĠD et
ĠSt yle
ĠãģĬ ç¬ĳãģĦ
ãģ«ãģĬ ãģĦãģ¦
¨ æĪĴ
ä¿Ĭ å¤«
ĠãĤ¨ãĥī ãĥ¯ãĥ¼ãĥī
C BC
å±± åĨħ
Ġãĥķ ãĥªãĥ¼
Ġm ini
Ġä¸Ĭ æĿĳ
Ġå²© æľ¬
éĥ· æĿĳ
Ġè¨ĺ å¿µ
åıĮ èĳī
G ER
ãĥĪ ãĥŁãĥ¼
on ic
ĠT en
åı· é¤¨
ãĥ¬ãĥĵ ãĥ¥ãĥ¼
Ġä¸Ń å°Ĩ
ĠãĤŃ ãĥ©
49 9
ĠIn f
æĽ² éĽĨ
Ġ2 27
Ġå¤§ å´İ
çŃī éĻ¸
77 0
ç®ĩ æīĢ
å°ı ãģķãģª
ĠTOC T
M ay
ãĥª ãĤ¿
ĠP ack
25 00
il y
ãĤ¬ ãĥĭ
ãĥĨãĥ¬ãĥĵ çķªçµĦ
æ´¥ æĿĳ
ĠæľĢ å¼·
ĠBu ild
Ġ3 05
ĠA ff
æĥ ł
Ġæ°´ æ²¢
ĠåĽ³ æĽ¸é¤¨
Ġ2 31
ãĤ· ãĥİ
ĠP O
ç§ĳ åŃ¦éĥ¨
RO OM
Ġå¤ªå¹³æ´ĭ è«¸å³¶ç³»
S er
19 07
ay lor
æīĢå±ŀ éģ¸æīĭ
ĠæĿ±äº¬éĥ½ ç«ĭ
ĠBr and
è¤ĩ ç·ļ
C I
Ġ18 70
rs g
" (
Ġãģ Ĳ
ãĤ¦ ãĤŃ
ãĥŁ ãĤ³
ç¾İ äº¬å¹³
ĠåĽĽ æĹ¥å¸Ĥ
H ello
ãĤ¬ ãĥ¡
åĪ¶ä½ľ åįĶåĬĽ
A ir
Ġ2 45
è¡Į æĸ¹
Ġw ill
ĠIn n
æ¸¯ ç·ļ
éĢ² åŃ¦
æİ¢ æ¤ľ
è¿ĳ æ±Ł
ĠBirth day
æĻĤ ãģ«
çĶ» æķ´çĲĨ
ãĥľ ãĥĸ
èĮĤ æ¨¹
forman ce
h u
ĠI SU
ĠUn ion
èª² å¾Į
ĠãĤ¯ãĥªãĤ¹ ãĥģãĥ£ãĥ³
Ġæ¥½ å¤©
æµħ èįī
å¦ĸ ç²¾
ĠFound ation
Ġ( ãĢĮ
Ġ4 58
ĠL MP
Ġå°ı åŀĭ
ĠãĤ° ãĥªãĥ¼ãĥ³
ĠéĻ °
ĠãĤ¸ãĥ£ ãĥĥãĤŃãĥ¼
ĠçŁ¢ å³¶
ãģ¥ ãģ¿
F N
ĠãĤ¢ ãĥĨãĥį
ĠJ ud
37 2
Ġéķ· ç·¨
åĽ½éļĽ å¤§åŃ¦
çģ« å±±
Ġé»Ĵ ãģĦ
ÑĢ Ð°
çĵ ¦
ĠæĹ¥æľ¬ ä½ĵèĤ²å¤§åŃ¦
è² ¯
ä½ĵ åĪ¶
37 6
Ġè² ł
à¸ £
4 17
ãĤµ ãĤ¯ãĥ©
ãĤĨ ãĤĭ
ãĥ¬ ãĤ¸ãĥĥãĥĪ
ĠC OC
éĽĨ èĲ½
Ġè¥¿ éĩİ
Ġå¤© çİĭ
ç¾¤é¦¬ çľĮ
Play Station
ãĤ¹ ãĥŁ
éĸĭ åºĹ
æŃ¦ è£ħ
Ġä½ İ
å° º
at ory
ãĤ¦ ãĥŀ
èĹ¤ æľ¬
Ġéĸ¢éĢ£ äººçī©
hi ps
Ġz ur
C ap
ãģ® ãĤª
Ġæ±ł ä¸Ĭ
ĠVal ley
H MS
M AR
åı ¬
å±± ä¸Ń
ãĥĲ ãĥ¼ãĤº
ĠF IRST
ĠãģĬ ãģ¯
ãĥķãĤ© ãĥ¼ãĥ©ãĥł
ĠæĹ ¢
ru th
Ġä»Ļåı° å¸Ĥ
Ġãĥŀ ãĥį
å·¥æ¥Ń é«ĺçŃīåŃ¦æł¡
Ġæ»Ŀ æ²¢
ĠãĥĬ ãĥĵ
æĮ¯ ä»ĺ
5 30
æĺ ı
ãĤ« ãĥ¼ãĥĹ
ãĥĬ ãĥ«ãĥĪ
æ´ ª
ãĤ° ãĤ¢
50 2
é¦ĸ éĥ½
3 47
æĽ ĩ
ãĤ¿ ãĥ©
ãĥĩ ãĤ¤ãĤº
il s
äºľ ç´Ģ
æ¤ľ å¯Ł
aut y
ĠSol o
å¹´åº¦ åĪ¥
ãĥĪãĥ© ãĥ³ãĤ¹
ãģķ ãģĦãģŁãģ¾
æ± ģ
Ġ23 2
åįĺ çĭ¬
æĹ¥ èªĮ
ĠCol or
CER T
c ast
æĹ¥æľ¬ åĽ½
èª¿ æķĻå¸«
ç´ł æķ°
éĻº ãģª
ãĥ³ãĥĭ ãĥ³ãĤ°
B aby
Ġãĥı ãĥł
çĩ ķ
åį ¯
ãģĹãģ¦ ãĤĭ
ç¥¥ å¯º
é¶ ı
b r
ĠP ers
Ġãģ¾ ãĤĵ
ãĥģãĥ§ ãĤ³
å®£ ä¼Ŀ
Ġå°Ĥ ä¿®
Ġå¿ħæ®º æĬĢ
å¤ĸå±Ģ çķª
å·¥ ç§ĳå¤§åŃ¦
ok o
Ġé¢¨ éĸĵ
æļĹ æ®º
Ġag ain
ãĤĴ åıĹè³ŀ
ãĥ¼ãĤ· ãĥ³ãĤ°
èµ° ãĤĭ
x F
å¤§ åĬĩåł´
ar ch
æĿĳ æŃ£
ĠJ une
æĻĤ åĪ¶
ri x
ĠJohn son
Ġå¹ ½
50 8
æĭ į
åģµ å¯Ł
ĠãĥģãĤ§ ãĤ³
ĠJul y
å¹½ éľĬ
çº Ĥ
Ġ2 29
ur us
å¤© çĭĹ
âĹ Ĩ
Ġç·ı å»¶éķ·
åħ ģ
18 71
çµ± æĭ¬
ä¸Ńå¤® é§ħ
åĪ¤ äºĭ
ĠéĢ£ç¶ļ ãĥĨãĥ¬ãĥĵå°ıèª¬
M en
è¡ ¡
ãĤµ ãĥ³ãĥĩãĥ¼
ãĤŃ ãĥ¼ãĥľãĥ¼ãĥī
åŁ ¼
50 4
ĠSt ore
Ġæĸĩ åŃĹ
IM IT
Ġ em
ãĤ· ãĥķãĤ£ãĥĥãĤ¯
éĢļ ç§°
ĠThe atre
Ġé§ ¿
Ġst ats
ĠãĤ¢ ãĥ¡
ĠSept ember
ãģĦ ãģ«
è¥¿ å°ıåŃ¦æł¡
Ġè ķ
ĠS B
åį µ
ãĥĩ ãĤ«
Ġå¤§ æĺł
09 0
Ġè£ ķ
ç¯Ħ åĽ²
Ġå¹´è¡¨ ä¸Ģè¦§
CHO OL
ĠK ore
éĿ ´
ãĤ» ãĤ¬
ãĤ·ãĥ¼ãĤºãĥ³ ç¬¬
Un ivers
ĠY e
+ +
ĠB A
ãģĹ ãģļ
Ġå¤§ åıĭ
ro t
æŃĮ åĶ±
ãĥĺ ãĥ³
èħ Ĳ
Ġ ever
Ġãģ ´
Ġç«¹ çĶ°
æĹ¥ éĩİ
ãģ® æķ°
ãģĹ ãĤĪãģĨ
am ber
æĿ¾ å²¡
åıĭ ä¼ļ
ãĤ¯ãĥŃ ãĤ¦
Ġæ¢ ģ
ãĤ¢ãĤŃ ãĥ©
ãĤ¢ ãĥģãĤ¢
ĠM ake
ãģ¾ ãģ¿
Ġãģ§ ãģĤãĤĬ
éģĬ ãģ³
Ġåĵ Ģ
ãĥĥãĤ± ãĥ¼ãĤ¸
ĠM om
ĠæľĢ é«ĺéĢŁåº¦
ĠAn other
ĠãĤ¬ ãĥ³ãĥĲ
ãĥ«ãĥī ãĥ³
æ¶Ī ãģĪãģŁ
ĠéĸĭåĤ¬ å¹´
èĴ ¸æ°Ĺ
ãĥ¼ãĥĴ ãĥ¼
ãģ® å¢ĵ
ĠO T
ãģĻ ãģĲ
æĺİ å¤«
ell er
è²¡ åĽ£æ³ķäºº
50 7
ĠãĤ¤ ãĤ¹ãĥ©
48 4
çŁ¥ èŃĺ
ĠåĲį æīĢ
å¼ĺ åīį
Ġh er
ĠSH OWER
MI UM
ãĥ©ãĥĩãĥ« ãĥķãĤ£ãĤ¢
Ġå Ĵ²
Ġ23 4
ãĥ³ãĥģ ãĥ§
Ġæ¬ ł
ĠA sh
ãĤ¦ ãĤ¨ãĤ¹ãĥĪ
ãĥĢ ãĥ¼ãĥĵãĥ¼
Ġå°ı åĿĤ
ir t
Ġãĥª ãĥ¼ãĥī
ç·ıåĲĪ çĹħéĻ¢
Ġç¨® åĪ¥
Ġä¸ī åĽ½
ĠãĥŁ ãĤ·
LE T
ãĥĸãĥ© ãĤ¦
Ġè² Ŀ
æ·³ åŃĲ
çīĿ é¦¬
ĠM EM
ĠL os
ãĤ» ãĤŃ
Ġãĥ« ãĤ«
åľ°æĸ¹ éģĵ
Ġç²¾ ç¥ŀ
Ġin st
é¦Ļ å·Ŀ
ĠTh ere
ãģ¯ ãģªãģĦ
and o
ĠéĢ ĥ
èģĸ åłĤ
ë ĭ
ãĤ¤ ãĥ³ãĤ¿ãĥ¼
ĠF eb
ĠãĤª ãĥ¼ãĥĲ
Ġãĥª ãĥ¼ãĤ¬
em an
ĠST ATION
éĻį æł¼
Ġè¨Ń å®ļ
ãĥ³ãĥļ ãĥĥãĥĪ
ĠMat hemat
ĠUl timate
C HE
ãģ® åĩº
ĠãĤ¢ ãĥĪãĥ¬
éĩİ ãģ®
Ġ25 1
çĲĥ åĽ£
Ġå¦ ¹
ĠåŃĲ ä¾Ľ
7 14
ľ å±±
ãĥĥãĥĪ ãĥ¼
å¥³ ç¥ŀ
åĩºçīĪ éĥ¨
Ġä½ı æīĢ
ç½ °
åĭĻ åĵ¡
çĿĢ é¦¬
ãĤ¯ãĤ¤ ãĥ¼ãĥ³
ĠåĲįæİ¢åģµ ãĤ³ãĥĬãĥ³
z i
æľ Ŀãģ®
ĠB al
ĠB urn
ãĥ³ãĥĨ ãĥ³ãĥīãĥ¼
åįĪ å¾Į
s ki
ãĤ« ãĥ¬ãĥĥãĤ¸
Ġãģµ ãĤĭ
Ġãĥīãĥ©ãĤ´ ãĥ³ãĥľãĥ¼ãĥ«
Ġè¥¿æĹ¥æľ¬ æĹħå®¢éīĦéģĵ
4 35
C Y
ĠæĹ¥ æ¯Ķ
Ġåīį å·Ŀ
ãģĸ ãģ¾
Ġæ°¸ çĶ°
ĠRail road
ĠãĤ¢ ãĥĵ
åĭĿ ãģ¡
Ġ18 69
ãģ° ãĤĦãģĹ
ãĤ°ãĥ© ãĥŁãĥ³ãĤ°
Ġèª ĺ
âĹ ĩ
ãģŀ ãģ¿
ĠåıĬ å·Ŀ
ãĤ¹ ãĥ¡
æľ¬ å¡ģæīĵ
ãģĦ ãģ§
éĩİ åı£
æĸĩ éĽĦ
ĠãĤ³ ãĥ«
Ġãĥª ãĥĿãĥ¼ãĤ¿ãĥ¼
å±ķ æľĽ
Ġæ¤ ¿
ĠMach ine
Ġ3 30
ãģĭ ãĤĮ
ĠW i
om y
ãĥĨ ãĥŃ
ãĤ« ãĥ¼ãĤº
éĮ ł
Ġé«ĺ çĢ¬
éļİ åłĤ
Ġç® ķ
Ph one
ĠéĹ ĺ
ĠåĦªç§Ģ è³ŀ
4 78
¶ æ¡ĳ
ãĤµ ãĥªãĥ³
æ³¨ æĦı
ĠåĮĹ åİŁ
ãĥ¼ãĤ· ãĥ¼ãĤºãĥ³
åĽ² ç¢ģ
ĠãĥĹãĥ¬ãĥŁãĤ¢ ãĥł
W R
éĸ ĥ
ĠI l
ĠK Y
ä¸ī å³¶
ĠãĤ¤ ãĥ¼ãĤ¹ãĥĪ
ĠSh ort
Ġç¸ Ħ
Ġä½ľ çĶ»
Ġä¸Ńå¤® å¤§åŃ¦
ĠSoft ware
Ġ2 47
å® ķ
ãģĭ ãģĴ
ĠãĤª ãĥ¬ãĥ³ãĤ¸
ats u
ĠM atch
è»Ĭ ä½ĵ
Ġæĸ° ãģĹãģĦ
Ġãĥĩ ãĥ³ãĥŀãĥ¼ãĤ¯
åĢī åº«
ãģ®äºº ãĢħ
Ġå¯©æŁ» åĵ¡
? ãĢį
ãģ® è©±
ãĥľ ãĤ¯ãĤ·ãĥ³ãĤ°
US A
ĠComp lete
Ġé¡ Į
é °
ãĥª ãĥģãĥ£ãĥ¼ãĥī
00 00
ĠN ame
å´İ çĶº
èªŀ ãĤĬ
37 4
ãĥķãĤ© ãĥ¼ãĥŀ
ĠCorpor ation
ĠM orning
äº¤ éŁ¿
HE L
ãĤ³ãĥ³ãĤ¯ ãĥ¼ãĥ«
ĠM obile
Ġãĥľ ãĤ¹
Ġç¨® æĹı
ĠWilliam s
e le
á »
ĠS um
ĠV i
ĠãĤ¤ ãĤ¢ãĥ³
Ġãĥĸ ãĥ³ãĥĩãĤ¹ãĥªãĥ¼ãĤ¬
æĮĩå°İ èĢħ
ĠPlan et
ãģ£ ãģıãĤĬ
ãĤ¶ ãĥ¼ãĤ¹
ĠPl us
å®Łæ¥Ń å®¶
ãĥª ãĤ£
ãĤª ãĤ¤
ĠN intendo
im ent
åħ¨ éķ·
ãĤ·ãĥ§ ãĥĥãĥĶãĥ³ãĤ°
ãĤ¢ ãĥ¼ãĥĦ
Ġ4 10
OK A
æĪ¦éĹĺ æ©Ł
ĠH o
çĽ¸ é¦¬
ÃŃ a
ĠéĿĻ æħĭ
ĠS ar
ĠC IRC
Ġk e
Ġ23 8
Ġèª ²
77 7
ip e
ãĥĹãĥ© ç¤¾
Ġä¿Ŀ åģ¥
ĠMc C
ĠãĥĬãĥ³ãĥĲ ãĥ¼ãĥĹãĥ¬ãĥ¼ãĥĪ
Ġãģĺ ãĤħãĤĵ
H er
M a
ä¸Ģ å®®
ĠG II
ãĥĿ ãĤ¹ãĥĪ
ĠåĮĹ è¥¿
nt hes
èĪªç©º æ©Ł
é ŀį
ĠA KI
ãģ¾ ãģĹãģŁ
æħ ¢
ãĤ¤ãĥī ãĥªãĥ³ãĤ°
OK I
ĠArt ist
M ENT
çĶº ç·ļ
il i
ãģ« åĩº
ER RY
æ²³ åĲĪ
æµ·æ°´ æµ´åł´
M el
ãģ² ãģ§
ãĤ¹ãĥĨãĤ£ ãĥ³ãĤ°
Ġåºľ ä¸Ń
D ISC
Ġæľ Ĺ
èĤ² æĪĲ
AD A
è§£ æĶ¾
çµĮæ¸Ī å¤§åŃ¦
ãĤ¨ ãĥĵ
Ġè¨ º
æľĿæĹ¥ ãĥĨãĥ¬ãĥĵ
cl ud
ķ æĪĲç¤¾
ãĥŃ ãĤ´
ĠB ALL
ĠG AL
Ġãĥŀ ãĥ¼ãĥģ
ĠãĤ³ ãĥĳ
æļ ¢
ãĤ¯ ãĥĨãĤ£ãĥĸ
æĹ¥æľ¬ åľ°åĲį
ç·ı éķ·
Ġç¥ Ŀ
çĽ¸ å½ĵ
èĦ Ĥ
ç² Ł
Ġå®ĩ éĩİ
Ġéº Ĺ
éķ·å´İ çľĮ
åħ«å¹¡ å®®
ãĥŃ ãĥĩãĤ£
ĠH EA
ĠAnd rew
iÄ ĩ
æ°ĳ ä¼ļé¤¨
Ġ24 2
ud i
å°Ħ ç·ļ
ãĥ³ãĤ¶ ãĤ¹
ĠçĤ ¹
ĠD un
ĠãĤ¹ ãĤ±
ĠY es
Ġå¹³ å¡ļ
Ġè¬ İãģ®
ĠDep artment
ĠT AK
Ġå¤§ ãĥĽãĥ¼ãĥ«
ãĥ¢ ãĥŃ
ãĥ³ãĤŃ ãĥ¼ãĤ¹
F I
Y OU
åº ¸
åľ ĵ
æīĢ éķ·
ãĥĽ ãĥ¼ãĤ¯ãĤ¹
ĠæĿī çĶ°
åľŃ ä¸Ģ
æ¶Īéĺ² æľ¬éĥ¨
ĠæĹ¥æľ¬èªŀ çīĪ
ĠãĤ®ãĥª ãĤ·ãĥ£
G ra
ãĤ¢ ãĥ³ãĤ¹
æŃ£ éĽĦ
Ġèĩ ¼
ãĥ¼ãĥ¬ ãĥĥãĥĪ
ĠEd it
Ġä¿¡ æ¿ĥ
æľŃå¹Į å¸Ĥ
Ġçķł å±±
G i
å¹³ å®ī
ãĤ¨ ãĥĬ
EN CE
Ġå¹´ ãģ®ä¸Ģè¦§
ãĢı -
éģĵ å¤«
çłĶç©¶ å®¤
ug ar
ĠRob in
èī ¶
th y
IT Z
ç¢º çİĩ
Ġå¤§ åĢī
ãĥĢ ãĥĭãĤ¨ãĥ«
OR A
æ´¾ éģ£
é£Ľ é³¥
Ġå®Į çµĲ
ĠBra zil
ĠC V
ĠG S
Ġd isc
Ġå°ı åİŁ
çµĦ ãģ¿
éŁ³ éłŃ
å°¾ å´İ
è£ķ äºĮ
az on
Ch arl
Ġè¶³ åĪ©
G U
ĠM ike
åĲĪ ãĤıãģĽ
æ°Ĺ éĩı
59 0
Ġãģ¾ ãģ¤
OT A
çĨĬ è°·
Ġå¸Ŀ åĽ½
Ġè Ł
ĠM ap
ĠãĤ³ ãĥ³ãĤ¹ãĥĪ
ĠãĥĿ ãĥ¼ãĥĪ
Ġæļ ģ
umb ia
l ich
ãĥĪ ãĥªãĤª
Ġ4 08
çĽ Ĩ
Ġ:* :
ãģĪ ãģ¿
im o
æ¬¡ éķ·
38 2
ãģ³ ãģį
ç§» è¡Į
Ġå¤§éĺªåºľ ç«ĭ
ĠBi ography
Ġå½± å±±
ĠéłŃ æķ°
ãĤ¤ ãĥİ
Ġäºº å¦»
Ġä½ı å±ħ
ãģķ ãģ¨ãģĨ
ĠæĹ¥ æĽľæĹ¥
as k
æ§ į
Ġè¼¸ éĢģ
S o
c ia
ĠC ong
çĶ± ä½³
æĴ ¤
Will iam
Ġè¥¿ æļ¦
ãĥĥãĥĦ ãĤ£
ç¬ĳ é¡Ķ
åĬŁ åĬ´
åŁ ĭ
ãĥĢ ãĥļãĤ¹ãĥĪ
Ġãĥ¢ ãĥİ
éĻ½ ä»ĭ
è§£ ä½ĵ
ram a
èľ ľ
Ġåŀ Ĥ
E p
am ura
ãģı ãĤĮ
ut o
Ġçī¹ åĳ½
Ġä¸ĭ éĸ¢
ãĤ¦ãĤ£ ãĥĥãĥģ
åĩ ±
æħ¶ åŃĲ
Ġéĥ¡ åºģæīĢåľ¨åľ°
Ġ2 33
å±± åħ¬åľĴ
é«ĺ çĶŁ
um n
èªį åı¯
Ġèĸ ©
ĠM ex
ãĤ¿ ãĥ³ãĤ¯
Ġé«ĺ éĽĦ
ĠãĥĳãĥĬ ãĤ½ãĥĭãĥĥãĤ¯
4 34
V II
46 7
ĠæŁı æľ¨
å·Ŀ ãģ®
46 3
ran ce
éĢ² åĮĸ
ä¿Ĭ è¼Ķ
ĠSec urity
4 14
Ġå¤§ æ²³ãĥīãĥ©ãĥŀ
æĭ Ĳ
! ãĢľ
6 10
M AS
ĠP acific
ĠãĤ¸ãĥ§ ãĤ·ãĥ¥
åĲĽ ãģ®
çı¾åľ¨ ãģ®
ĠBill board
M od
c ed
Ġ3 11
ĠãĤ¢ ãĤ¤ãĥ«ãĥ©ãĥ³ãĥī
åłĤ åĩºçīĪ
ĠSP ACE
G EN
M iss
ĠR on
ãĥĬ ãĥ¼ãĥ«
ĠãĥĨ ãĥªãĥ¼
ot al
ãĤŃãĥ£ ãĥ©ãĤ¯ãĤ¿
ĠãĥĦ ãĤ¤
åĿĲ åĥı
åŃĲ å½¹
ãĤ³ ãĥ³ãĥĵ
Ġçī¹ åħ¸
ĠEm p
39 1
AG UE
Ġç¥ŀæĪ¸ å¸Ĥ
çŃĳ æ³¢
ĠãĤµãĥĥãĤ«ãĥ¼ éģ¸æīĭ
ä¸īéĩį çľĮ
B T
Ġç ŀ
ĠC BS
ĠD X
ĠD u
ãĥĳ ãĥĸãĥª
æĹ¥æľ¬ ç¤¾ä¼ļåħļ
ĠãĥŁ ãĤ·ãĤ§ãĥ«
ç´Ģ åħĥåīį
OM O
Ġ its
å½ «åĪ»
ãĤŃ ãĥİ
ĠæĹ¥ ãĥĨãĥ¬
tern ational
å¼· åĮĸ
MI LE
çİ² å¥Ī
ĠèªŃ ãģ¿
ĠED ITION
ĠãĤ¹ãĥŀ ãĥ¼ãĥĪ
ĠS en
å¸ ½
ãĥŀ ãĥŃ
ãĥŀ ãĤ·ãĥ³
ĠH old
ĠSt op
Ġn on
çĿĢ èī²
ĠçĨĬ éĩİ
è¦ı åīĩ
ãģ¥ ãģı
ĠæĻ®éĢļ ç§ĳ
Ġãģ Ĵ
ĠM IL
Ġ4 88
ĠR ight
ĠR oman
ĠJ T
éĥ¡ ãģ®ä½įç½®
éĺª æĢ¥
åħµ éļĬ
ĠãĤ¹ãĥ¼ãĥĳ ãĥ¼ãĥŀãĥªãĤª
èĦ± åĩº
Ġæ´¾ çĶŁ
Ġ''' -'''
éĢ£ è£ħ
Ġãĥ¬ ãĥĻãĥ«
å¤ĸ åĽ½èªŀ
ãģ® å¤ı
ãĤ³ ãĥ¬
ãĤ¨ ãĤ¹ãĥĨ
æĹ¥æľ¬ ç¤¾
ĠãĤ¨ ãĤ°ãĤ¼
ĠSt at
Ġå¸Ĥ å¤ĸå±Ģçķª
ah r
- .
ãĥ« ãĥŀãĥ³
åĴĮ çĶ·
ãĥ³ãĤ¹ ãĤ¯
ĠåŃ ¤
Ġç¾İ æ¿ĥ
inn ing
æ¦ ®
ä¸ī è§Ĵ
æº ¶
Ġre t
ĠL ie
ĠF a
ãģ§ ãģĹãģĵ
ãĤ» ãĥŃ
Ġäº¬ éĺª
BO OK
ĠCent re
ĠãĤ»ãĥ« ãĤ²ãĤ¤
ĠSil ver
al is
ãĤª ãĥ¬ãĥ³ãĤ¸
Ġç¥ ¥
éŃ ħ
Ġ29 0
Ġãĥ¯ ãĥ³ãĥĢ
ĠãĥĦ ãĤ¢ãĥ¼
L ast
ãĥŀ ãĥĭãĤ¢
ĠJ on
ĠãĤ¿ ãĥ¬ãĥ³ãĥĪ
å¤© æīį
éĺ² çģ½
Ġcom m
J U
ãģĦ ãģĭ
ĠãĥĪ ãĥŁãĥ¼
Ġäºº å½¢
ĠRet urn
Ġle ft
Ġ 000
ãĥŀ ãĥ¼ãĥģ
çµ ¹
Ġè¡Ģçµ± è¡¨
æĹ¥ åĪ¶
ĠB AR
ä¿Ŀ éļľ
ĠX X
ĠEncyclop edia
R h
ãĥ© ãĥ«ãĥī
ãĤ¶ ãĥ¼ãĥ«
ĠãĥŃ ãĥ³
Ġãĥ¯ ãĥ«
éľĩ çģ½
AZ Z
Ġãĥģãĥ¥ ãĥ¼ãĥª
ĠR eb
Ġ; *
æ¯į éŁ³
ĠæŃ¦èĶµ éĩİ
Ġä»ı æ»ħ
ĠçĢ §
ãĥĻ ãĤ¢
50 3
éĩį è¤ĩåĮºéĸĵ
07 1
éĽħ ç¾İ
è¢ ĸ
ĠéĿĻæħĭ å±ķç¤º
ãĤ· ãĥ³ãĤ°
ĠçĶŁ æħĭ
G OLD
Ġf irst
å®ı ä¸Ģ
ãĤ¸ ãĥŀ
ãĥĬ ãĥĦ
çµ ¢
Ġåľ° åĲįãģ®çĶ±æĿ¥
Ġãĥĭ ãĥ¥ãĥ¼
Ġå·¥ æ¥Ń
N EXT
æµ· è³Ĭ
ãĥĴ ãĥ£
ĠæĿī æµ¦
Ġåł± éģĵ
C al
ãĥŀ ãĥ¼ãĥ¬
å¸Ĥ åĨħ
ãĥĹ ãĤ·ãĥ§ãĥ³
ĠæĹ¥ åħī
60 6
ĠâĹ İ
èĸ¬ å¸«
ãĤ¢ ãĤ¯ãĤ·ãĥ§ãĥ³
Ġä¸» åĤ¬
39 8
å¤ī æıĽ
Ġåĳ ª
Ġå³¶ æł¹
åĮ»å¸« ä¼ļ
Ġå° ļ
ãģı ãĤı
ãĤĤ ãģ¡
ãĥĿ ãĥ³ãĥĹ
æİ Į
Ġå¹³ åĩ¡ç¤¾
Ġæ²³ æĿĳ
Ġãģĵãģĵ ãģ§
P ower
ĠT ree
ĠåİŁ æ¡Ī
åľŃ åŃĲ
ĠBro ad
ãĥŃ ãĤ¸
ãģĺ ãģĦ
åľŁ ä½Ĳ
ĠçĻº æ³¨
Ġæĸĩ èĬ¸
çł´ å£Ĭ
ĠWil son
ãĥ¡ãĥĥãĤ» ãĥ¼ãĤ¸
R ev
ãģ¨ ãĤĪ
ãĥĲ ãĥ¼ãĤ¯
ä¸Ĭ ä¸ĭ
ĠV ill
æĥħ çĨ±
ĠãĥķãĤ§ãĥ« ãĥĬãĥ³ãĥī
C AT
ãĥĢ ãĤ¤ãĥĬ
å¤© æºĢ
ãģ© ãģį
å¯Į çĶ°
ãģ¶ ãģį
ãĤ¯ ãĤ¹ãĥĪ
éłĺ äºĭ
ãĥ¼ãĥķãĤ¡ ãĥ¼
Ġ24 6
Ġä½Ĳ åĢī
46 9
oy s
äºľ ç§ĳ
ah oo
ĠJohn ny
ath an
Ġåľ¨ ä»»
è¨º æĸŃ
Ġãĥĸãĥ¼ãĤ¹ æķ°
M o
ĠãĤª ãĥ¼ãĥĩãĤ£
éĿĴ èĳī
æºĸ ãĢħæ±ºåĭĿ
ĠãĤ¢ãĥ¡ãĥªãĤ« åĲĪè¡ĨåĽ½ãģ®
ug g
ãĥ¼ãĥķãĤ§ ãĤ¯ãĥĪ
ãģ® å¼Ł
ãģ® çĻ»åł´äººçī©
å¤§ åŀĭ
ãĥĳ ãĥĬ
ra it
Ġèª °
åĪĬè¡Į ä¼ļ
hib uya
ãĤ³ ãĥį
el o
ãĥĽ ãĥ¼ãĤ¯
ãĤ¸ãĥ£ ãĤº
Ġéĩİ ä¸Ń
ĠTS UTAYA
ãĥĪ ãĤ¹
ĠK i
Ġæĺ Į
ãģĺ ãģķãĤĵ
ep end
ãĤ· ãĥĥãĥĹ
ĠM BC
ãĥĭ ãĥĨãĤ£
ĠèĤ ²
Ġç¬ł åİŁ
S ide
é§ħéĸĵ ãģĮ
ãĥģãĥ¥ãĥ¯ ãĥ¼ãĥĪ
å±± å²³
ĠW as
åĪĿ æģĭ
ãĥĸãĥª ãĤ¨ãĥ«
ãģ²ãģ¨ ãģ¤
3 78
J o
c an
ãĤ« ãĥ³ãĥĪãĥªãĥ¼
ĠL AB
äºķ æ²¢
Ġå°ı ãģķãģª
åĪ¶ æĸ½è¡Į
ĠM Ã¼n
ĠæĹ¥ ä¸ĭ
æ®¿ åłĤ
ĠTR UE
è¨ĺäºĭ éłħ
æĦŁè¬Ŀ ç¥Ń
æĹ¥ ãģĭãĤī
us ion
ĠãĥŁ ãĤº
ç§Ģ æĺİ
å¤ī éģ·
ĠSing les
çī¹åħ¸ CD
ĠéĬŃ å½¢
ĠãĥķãĤ£ãĥª ãĥĶãĥ³
ãģ¨ ãģı
é«ĺ ç´ļ
Ġå³¶ æ´¥
ãĤ¹ãĥĹãĥª ãĥ³ãĥĪ
al o
ĠR C
âĨ ĳ
æ¨ª éłĪè³Ģ
à ¥
ãĥķãĤ£ ãĥªãĥĥãĥĹ
Ġãĥĸ ãĥ©ãĥ³ãĥī
åĲī æľ¬
Ġãĥļ ãĥīãĥŃ
Ġä»ıæ»ħ ç´Ģåħĥ
ãĥ¼ãĤ¯ ãĥ¬ãĥĥãĥĪ
æľĢ å¯Ħ
ãĥ¨ãĥ¼ãĥŃãĥĥãĥĳ ãĥªãĥ¼ãĤ°
ãĤ¢ ãĥĵ
ĠS ER
ĠF ive
é«ĺ è¦ıæł¼
ãĥ¼ãĥī ãĥ«
Ġãĥĳ ãĥ«
é»Ĵ ãģ®
è¸Ĭ ãĤĭ
Ġæ¦ ĬåİŁ
ĠTex as
4 39
G I
ãĢı ãĢģãĢİ
Ġä¼Ĭ è³Ģ
Ġå®ĩ ä½Ĳ
ãĤ¯ãĥª ãĥĭãĥĥãĤ¯
å¯© åĪ¤
ĠæĿ¿ æ©ĭ
æĹ¥æľ¬åľ°åĲį å¤§è¾ŀåħ¸
. ):
ãĥĹ ãĥ©ãĥ³
ĠãĥŁ ãĥĥãĥī
ãĥ¦ ãĥª
ä¸ĩ çŁ³
Ġè¡£ è£ħ
D an
N ot
ãĥĭãĥ¥ ãĥ¼ãĤ¿ãĤ¦ãĥ³
èĮ¨ åŁİ
å¹´ ä»¥åīį
ĠH it
ãģ¡ ãĤĵ
ĠæĿ±äº¬ é§ħ
ãĥ¶ åİŁ
ĠãĥĪãĥŃ ãĥ³ãĥĪ
U CK
å¸Ĥ é§ħ
Ġãĥķ ãĥ¬ãĥĥãĥī
Ġå±± æĿĳ
å·¥ èĹ¤
åŁİ è·¡
Ġæĸĩ éĥ¨
ĠCon n
ãĤ¦ãĥ«ãĥĪ ãĥ©
ĠãĤµ ãĥ³ãĥĩãĤ£
ãģ³ ãģ®
çĻ½ é³¥
IG N
ãģĸ ãĤĵ
ãĥªãĥ¥ ãĥ¼ãĤ·ãĥ§ãĥ³
Ġç¬¬äºĮ æ¬¡ä¸ĸçķĮå¤§æĪ¦
Ġè¾² æŀĹ
ĠãĥŀãĤ¸ ãĥĥãĤ¯
Ġåľ°ä¸ĭ éīĦ
ãĥ« ãĤ®
he t
ãĥĶ ãĤ¨ãĥ¼ãĥ«
éº» éĩĮ
æłĦ ä¸Ģ
é¶´ è¦ĭ
éĢĨ è»¢
è´ Ī
ç¶ ¿
Al bum
OH O
ĠWr est
æĹ¥ åĴĮ
ãĥĬ ãĥ¼ãĥī
Ġ23 9
å±ŀ æĢ§
38 3
ĠåĭĿ ãģ¡
Ġæ¯İ æĹ¥æĶ¾éĢģ
ĠP os
ran e
b ird
ãĤª ãĥ¼ãĥĩãĤ£
ĠR ap
Ġæĸ° æ½®æĸĩåº«
å£« èĪĺ
ĠåıĤ èŃ°éĻ¢
F ly
æĹ¥ æ·±å¤ľ
ãģ® çĻº
ĠS Q
å¾© èĪĪ
è¦ĸ èģ´çİĩ
ãĤ¿ãĥĥãĤ° çİĭåº§
Ġ2 36
ĠC C
ĠåŁ¼çİī çľĮéģĵ
ãĤ¬ãĥ« ãĤ·ãĤ¢
8 60
b ol
ãĤ« ãĤª
çłĶç©¶ ç¤¾
çµµ çĶ»
ĠOct ober
åĮĹ å·Ŀ
ĠåĮĹ æĿ±
ĠãĥĹãĥŃ ãĤ¸ãĤ§ãĤ¯ãĥĪ
ĠåĬł èĮĤ
Ġãĥ©ãĤ¤ ãĥķ
ç¶Ļ æī¿
åİŁåŃĲ åĬĽ
ĠS ak
ãĤŃ ãĤ¹ãĤ¿ãĥ³
ĠãĤ» ãĥ¬
äºĭæ¥Ń èĢħ
Ġéĥ¡ å±±
ãĥĢãĤ¦ ãĥ³ãĥŃãĥ¼ãĥī
ĠAlex ander
Z X
ãĤ¢ ãĥ¼ãĤ¹
åİŁ å¸Ĥç«ĭ
ĠæĹ¥æľ¬ åħ¨åŁŁ
ĠãĤŃãĥ£ ãĥĹãĥĨãĥ³
Ġh igh
45 2
Ġç· ¯
Ġå¥¥ æĿĳ
Ġå¹¸ ãģĽ
Ġç¥Ń ç¥ŀ
Ġgu itar
Ġæĳ Ĥ
ãģ® ãģ§
å®¶ ä½ıå®ħ
ãĤ´ ãĤ¸ãĥ©
éĽħ åı²
ĠæĺłçĶ» çĽ£çĿ£
ĠIN C
Ġæĸ°æ½Ł å¸Ĥ
Ġãĥĺ ãĤ¤
ĠInd ust
Ġèģ· æ¥Ń
ĠCast le
ĠJ SL
ĠV o
çķª æĺŁ
ãĥĽ ãĥª
Ġæ® ¿
ĠåĮ» å¸«
6 40
ãĥª ãĥĥãĤ·ãĥ¥
ãĤ¿ ãĥĬ
è³ Ń
ä¸ĭ éĸ¢
åĮĸ ç²§
m èĩªçĶ±å½¢
ãģ® ãĤ·
ãģĤ ãģĭ
ĠãĥŃ ãĥ³ãĤ°
åĽ£ éķ·
ĠâĢ» ãĢĮ
ãģ¨ ãģĵ
ä¸Ń åĮº
ed om
ãĥĦ ãĥĲ
ãĤ½ãĥķãĥĪ ãĤ¦ãĤ§ãĤ¢
ãĥ» ãĢĮ
ãģµ ãĤĮãģĤãģĦ
åĩºçīĪ å±Ģ
D es
en ue
ĠJ UN
ãĤ± ä¸ĺ
ãģĿ ãģĹãģ¦
Ġãĥĸãĥ« ãĥ¼ãĥİ
Ġå¤§ å²¡
çĪ º
è¾² æŀĹ
æĿī å±±
Ġè»Ĭ ä½ĵ
6 60
ĠK o
Ch ild
éģĬ æĪ¯
ç¦ıå²¡ å¸Ĥ
Ġãģ¤ãģı ãģ°
å¤ı åŃĲ
Ch rist
ĠçŃĳæ³¢ å¤§åŃ¦
çŃīéĻ¸ ä½Ĳ
ĠT on
åĪĨ ãģĳ
ãģĻãĤĭ ãģ¨
07 0
ĠC RE
çŁ³ æ©ĭ
46 1
ãĥ³ãĤ· ãĥªãĥ¼ãĤº
éģĵè·¯ ä¸Ģè¦§
ĠçŃ Ĵ
D ay
ãĥī ãĥ¬ãĤ¹
åīį åįĬ
ãĤ³ãĥŃ ãĥłãĥĵãĤ¢
ãĤ¨ ãĤ³
è¦ģ ç´ł
Ġåºĥ åł±
ç®¡ è½Ħ
é¡ĺ å¯º
æĿ± æĸ¹
ĠãĤ´ ãĤ¸ãĥ©
ru ction
ĠJack son
P a
ãģ® æ¦Ĥè¦ģ
id en
æ²³ éĩİ
çī¹åĪ¥ åĩºæ¼Ķ
BO Y
å¿ħ è¦ģ
x E
éĩ §è·¯
ãĤ³ ãĥ¼ãĥĿ
èª ¤
it te
äºĮ çŃī
ãĥ¥ãĥ¼ãĤ¸ ãĥĥãĤ¯
Ġäºķ åı£
ãģ® éĸĵ
ĠJ ava
ist ics
46 4
ãĥ¨ ãĤ³
ãĥĻãĥ« ãĥªãĥ³
Ġå®Ł éĮ²
Sp ecial
Ġ2 48
çĶ° å°ıåŃ¦æł¡
å³ ¨
ãģ¾ ãģ©ãģĭ
åĪĹ å³¶
Ġéĸĭ å§ĭ
éĨ ¸
L uc
Ġ other
ĠD ar
æ£ Ħæ¨©
åįĺ è¡Įæľ¬
ĠèĩªçĶ± åħļ
ĠèªŃå£² ãĤ¸ãĥ£ãĤ¤ãĤ¢ãĥ³ãĥĦ
ĠSRC L
¼ åħ¥
tern al
æĤ² åĬĩ
Ġç®± æł¹
æľī éīĦéģĵ
ãĥ¼ãĤ² ãĥ«
Ġå¤§ å¹³
å·¥ ä½ľ
æĹ§ è·¡
Ġæ±Ł åı£
ĠCon f
igh ter
Ġæľ¬ ä½ľ
çµ¶ å¯¾
æ¸¬ å®ļ
Ġãģ®ãģ¨ãģį ãģ®
åĩºæĿ¥ äºĭ
ãĥĥ ãģ¨
Ġå°ı æĿī
æĹ¥å¹³åĿĩä¹Ĺ éĻįäººåĵ¡
ĠéĢļåŃ¦ åĮºåŁŁ
ãĥĸ ãĥªãĥ³
ç§ĳ åŃ¦ç§ĳ
éĩİçĲĥ åł´
Ġç·¯ åº¦
J ames
19 09
ĠW estern
å¥½ãģį ãģª
ĠãĤ¢ãĤ¤ãĥīãĥ« ãĥŀãĤ¹ãĤ¿ãĥ¼
Ġæħ¶æĩīç¾©å¡¾ å¤§åŃ¦
awai i
ä½ľ ãĤĬ
IS ODE
Ġ36 5
ãĥīãĥ© ãģĪãĤĤãĤĵ
ãĥĩãĤ¤ ãĥ´ãĤ£ãĤ¹
ĠèĤ ī
ç¡¬ å¼ıéĩİçĲĥ
Rad io
M ark
å¹´ ç§ĭ
ĠB at
ĠD DR
ãĤŃ ãĥı
Ġd is
ab el
çµĮæ¸Ī åŃ¦éĥ¨
Ġå¯Įå£« éĢļ
æµª äºº
ç´ĭ ç«ł
F irst
å¹´ çĻºå£²
ä¸ĭ ãĤįãģĹ
åħī æĸĩç¤¾
Ġç·¨ èĳĹ
lect ed
èĦļæľ¬ å®¶
Ġç² Ł
æľīéĻĲ åħ¬åı¸
Ġæ¸¡éĤ Ĭ
Ġç Ĩ
ãģĭ ãģĬãĤĭ
éĥ¡ å¤§
60 8
oll ow
b at
ĠT ro
ĠD ate
Ġçı¾ åŃĺ
æ£ Ħ
ãĥ¼ãĤ¬ ãĥ¬ãĥĥãĥĪ
Î ²
ĠO D
ĠãĤ· ãĥĨãĤ£
Ġ24 1
Ġç¥ ĸ
èī¦ èĪ¹
Ġç§ ©çĪ¶
ä½ĵèĤ² å¤§ä¼ļ
19 06
Ġd ays
ĠãĥŃ ãĥĵãĥ³
60 7
Ġon line
ãĥ³ãĥĶ ãĤ¢
ĠçĽ®æ¬¡ ãģ¸ç§»åĭķãģĻãĤĭ
) ==
é§ħ èĪİ
ç¾İ å¹¸
50 9
ãĥĴ ãĥĩ
ãĤªãĥ¼ãĥĹãĥĭãĥ³ãĤ° ãĥĨãĥ¼ãĥŀ
ãĥŃãĥļ ãĤ¹
S ong
ç ĺ
ãĤ¹ ãĤ¦ãĤ£
ĠK AD
åĪĨ ç½²
èī¯ å¹³
èĸ Ħ
ãĥ³ãĥĽ ãĥ¼ãĥ«
ĠãĥŀãĥĦ ãĥĢ
ĠL aps
ä½Ĳ ä¸ĸä¿Ŀ
49 6
ĠèĪ Ł
ãĤ²ãĥ¼ãĥł ãĤ¹
Ġé³¥ ç¾½
ãģ¯ãģ¤ ãĤīãģĦ
éĩİ éĥİ
Ġ9 00
ĠE nt
ãĤĴ æĸ°è¨Ń
Ġäºº æ°Ĺ
å¤ľ ä¸Ńãģ®
è¦³åħī åįĶä¼ļ
åŃĺåľ¨ ãģĹãģŁ
ĠãĥĴãĥŃ ãĤ¤ãĥ³
Ġ ä¹±
Ġ''' -
ĠR en
å·Ŀ å³¶
ĠX box
ãĤ¤ãĤ¯ ãĤ¹
âĶģ âĶ
ãĥ¼ãĤ¸ãĤ§ ãĥ³ãĥĪ
Ġ ass
in ema
Ġãĥī ãĥ«
èī¯ å¤ª
ĠæĿĳ æĿ¾
G IR
N orth
ãĤģ ãģ®
çī¹ è¨Ń
ãĥĥãĥĦ ãĤ¡
Ġæİ Ľ
ĠçŃ Ĵäºķ
6 20
å½ Į
ãģĭ ãģ«
ãĤĦ ãģ¤
ĠãĤ³ ãĤ¦
Ġéĸĭ æł¡
ä¼¸ äºĮ
èĨ ľ
Ġæł¹ æľ¬
ĠProf ess
B on
D a
G reat
é ©
ãĥķ ãĥ«ãĥĪ
ä¹ĭ æĹ¥æľ¬ç¤¾
Ġãĥĳ ãĤ¤
az e
åĲ¾ éĥİ
ĠãĤ«ãĥ¯ ãĤµãĤŃ
ãĥĸ ãĤ½ãĥ³
Ġãĥŀ ãĤ»ãĥ©ãĥĨãĤ£
ĠAnd roid
Ġãĥ¦ãĥĭ ãĥĲãĥ¼ãĤµãĥ«
ĠéĢ£éĤ¦ å·ŀ
S he
ãĥľ ãĥ¼ãĥĪ
os m
ãĤģãģ¦ ãģ®
ĠæľĢå¤§ éĢŁ
ĠA åŀĭ
å®ļ åĵ¡
EN A
ä¼ļèŃ° æīĢ
ĠãĥķãĥŃ ãĥªãĥĢ
çĸ¾ æĤ£
ĠRAC ING
Ã ¸
ĠãĤ¢ ãĥ¼ãĤ±ãĥ¼ãĥī
ãĤµ ãĥª
ĠK ISS
Ġæ¸ Ī
Ġéĩİ æ²¢
éģĶ æĪĲ
ãĥ¼ãĥŁ ãĥ³ãĤ°
è¦ı åĪ¶
ãĥ¼ãĥĩãĤ£ ãĥį
ĠçĶº åĲį
ç®± æł¹
B AS
ĠW D
æĿ± èĬĿ
ĠæĹ¥æľ¬ ãģ§ãģ®
ĠãĤ¦ ãĤ¤
ãĤŃãĥ¥ ãĥ©
ä½ľ æĪĲ
ãģ¨ ç¤¾ä¼ļ
ĠF UN
ĠR ound
æĸĩ åŃ¦èĢħ
Ġãĥ¡ ãĥĪãĥŃ
g g
ĠS in
Ġ4 40
åģ ıæ³¢
ĠæĶ¾éĢģ åľ°åŁŁ
Ġæ²³ åİŁ
Ġãģł ãģĦ
ãĥĺãĥĵãĥ¼ç´ļ çİĭåº§
å¹´ æľĪ
it i
ãĥĽ ãĥ«ãĥł
ãĥĴ ãĥ¥ãĥ¼
N a
Ġ1 200
æŃ£ å¤«
çµĮ åº¦
å®¹ éĩı
å·¡ æŁ»
M EN
u an
ãģ¨ ãĤī
Ġæĸ° æł¡èĪİ
ãĥĩãĤ£ ãĤ¹ãĤ³ãĤ°ãĥ©ãĥķãĤ£
èĳī åŃĲ
Ġç´Ģ ä¼Ĭ
ĠãģĦãĤı ãģį
ĠSt ories
ĠçĦ¡ æĸĻ
ĠCan ada
ãĥ¬ãĤ®ãĥ¥ãĥ©ãĥ¼ çķªçµĦ
Or ch
ĠF ACT
ãĥĢ ãĤ¤ãĥ¤ãĥ¢ãĥ³ãĥī
ĠåĽ½ åĲį
æĢĿ ãģĦåĩº
J P
ãĥĿ ãĥ¼ãĥ©ãĥ³ãĥī
Ġãĥ¡ ãĤ¢ãĥªãĥ¼
76 7
ãĥ³ãĥĳ ãĥ³ãĥŀãĥ³
ä¿³ åı¥
ãĤ¢ãĤ¤ ãĥĨãĥł
Ġ ãĢĤ
ĠN ic
ĠãĤµ ãĥĿãĥ¼ãĥĪ
æĶ¾éĢģ éĸĭå§ĭ
éĽĨ ä¼ļ
é¦¬ åĬĽ
Ġ23 7
å¼ĺ ä¹ĭ
Ġå²© äºķ
ĠåŁºæľ¬ æĥħåł±
U X
ĠH ey
ãĤĵ ãģ®
ãĤĴ ç¤ºãģĻ
ä¸ī å®ħ
Ġc ap
Ġ24 9
IV A
ĠC orn
ãĤ» ãĥ¬ãĤ¯ãĤ·ãĥ§ãĥ³
çĶ± å®Ł
Ġçĭ Ĥ
ĠInd ia
ĠãĤ¤ãĥ³ãĤ¿ ãĥĵãĥ¥ãĥ¼
Ġé³ ©
4 48
ãģķ ãģķ
ĠãĥĽ ãĥ¼ãĥ«
Ġhe art
S ON
ĠL ook
ãĥĴ ãĥ§
Ġæķ µ
ĠBack ground
8 70
N TT
ãĥĨ ãĥ¥
ĠK ind
ä¹ħ éĽĦ
æ¤ ħåŃĲ
åĩ į
ãĤ¦ãĤ© ãĥ³
ĠFor ever
åĨħãģ® ä½įç½®
ãģ¾ãĤĵ ãģĮ
åĽº ãĤģ
S ound
Ã ¦
æľĪ ä¸ĭ
åĲ Ł
ãĥŃ ãĥ¼ãĤ«ãĥ«
18 90
éĽ» æ³¢
av or
ãģ¶ ãĤī
ãĥ¼ãĥģ ãĥ¥
éĻį ãĤĭ
å¢Ĺ ç¯ī
æ¼« æīį
8 10
Ġä¸Ń ä¸ĸ
ĠSt orm
ĠéĢ ¢
é· º
è¨ª åķı
rel s
Ġ Ä
ãģ® æ±º
éĥ Ĭ
Ġc he
Ġ*: :
åĩ ª
Ġæİ ¡
Ġç®¡ è½Ħ
å²©æīĭ çľĮ
å´© å£Ĭ
ãĥ¡ ãĤŃãĤ·ãĤ³
å®ļ çĲĨ
ãģ£ ãģį
44 1
ãĥĺ ãĥ³ãĥªãĥ¼
ä¸ĥ éĥİ
ĠCON CERT
ĠF r
ãģ« åħ¥
ãĥĩ ãĥĥãĥī
ãĥ³ãĤ¯ ãĥ¬ãĤ¸ãĥĥãĥĪ
ãĥĻ ãĤ¯ãĥĪãĥ«
Ġè¾ Ľ
æħİ ä¸Ģ
çµ¶ æ»ħåį±æĥ§
Ġèĩªæ²»ä½ĵ ãĤ³ãĥ¼ãĥī
Ġ if
'' :
ãģ® ãĤĪãģĨãģ«
ĠK an
ãģı ãģ¦
ãĥ³ãĤ¿ ãĥ³
ach i
ãģ¨ãĤĤ ãģ«
ĠãĤ¢ãĤ« ãĥĩãĥŁãĥ¼
7 30
9 60
ĠL M
ãĥĻ ãĥªãĤ¢
Ġæ¡ĳ åİŁ
I BM
çľĮ æ°ĳ
ĠK arl
ĠK enn
éĿĴ ç©º
Ġãĥģãĥ£ ãĥ¬ãĥ³ãĤ¸
ĠãĥķãĤ£ ãĥ©ãĥĩãĥ«ãĥķãĤ£ãĤ¢
ĠãĥķãĤ§ ãĤ¢
èħ «
ĠSON IC
N IGHT
æĪ¦ å¾Į
ĠU R
å¥Ī å¤®
Ġst art
ãĤ¹ãĤ¯ ãĤ¨ãĤ¢
IK O
ãĤĵãģ° ãĤĮ
ãĥĬ ãĥĨãĤ£
ãĤĪãģĨ ãģĵãģĿ
éļľ èĢħçĶ¨
Ġåħļ æ´¾
ãĥª ãĥĿãĥ¼ãĤ¿ãĥ¼
in ary
ãģĬ ãģķ
Ġãĥ© ãĥ³ãĥī
å·ŀ ãģ®
ä¼Ŀ ç¤¾
ĠãĥĩãĤ£ ãĤ¹ãĤ¯
ĠåŃ¦ ç§ĳ
Ġst ud
oo th
æ³³ ãģİ
Ġç¬¬ åħŃ
ĠF ab
è» Ł
å¤ĸ äº¤
æµģ éĢļ
Ġãģ¯ ãģª
Ġé»Ħ éĩĳ
ĠãĥĨãĥ¬ãĥĵæĿ±äº¬ ç³»åĪĹ
ãģ® è¨ĺéĮ²
æĻĤ åĪ»
Ġåīį ä½ľ
æĸ½è¨Ń ãģªãģ©
ĠèĳĹ èĢħ
éĻ¸ä¸Ĭç«¶æĬĢ åł´
ĠM un
Ġ('' '')
Ġ:** *
ĠåĬ©æ¼Ķ å¥³åĦªè³ŀ
Ġç·´ é¦¬
4 13
N B
æĹ§ åĪ¶
âĸ ²
ĠãĤ¢ãĥĬ ãĤ¦ãĥ³ãĤµãĥ¼
ĠS G
ãĤ« ãĤ²
ĠR ing
ĠH ave
Ġæľ¬ å¡ģæīĵ
Ġèĩª æ°ĳåħļ
ãĥ³ãĤ« ãĥ³
åª Ĵ
ãģĺ ãĤĭ
ĠãĤ´ ãĥ¼ãĤ¹ãĥĪ
ç¨İ åĭĻ
ĠUEFA ãĥ¨ãĥ¼ãĥŃãĥĥãĥĳãĥªãĥ¼ãĤ°
ĠæľĹ èªŃ
ãĤ¦ ãĥ³ãĥĨ
ĠåĮĹ è¦ĭ
ĠãĥĹ ãĥ©ãĤ¹
çĦ¡ éĻĲ
ss on
æįľæŁ» çıŃ
Ġæ¦İ æľ¬
W EST
ĠF ront
ãĥĳ ãĥĭãĥĥãĤ¯
ãĤ± ãĥ¼ãĥĨãĤ£ãĥ³ãĤ°
æ¡ ģ
ãĥĥãĥģ ãĤ§
ĠèĹ¤ æĿĳ
èħ ¸
éģİåİ» ãģ®
æĹ¥ åħī
çŁ³ å·ĿçľĮ
ĠãĤ¢ ãĥĪ
çĶº éķ·
ĠãĢİ ãĢı
Ġä¸Ń å¶ĭ
Ġå°ı å®®
éĻ¢ èŃ°åĵ¡
Ġãĥĩ ãĥĪãĥŃãĤ¤ãĥĪ
ãģĽ ãģį
ĠéĿĴ èĳī
Ġçī¹ æįľ
éļĨ åı²
ĠéĻ £
Ġä¸ĢèĪ¬ åĽ½éģĵ
ãĤµãĤ¹ãĥļãĥ³ãĤ¹ åĬĩåł´
ç§ ©çĪ¶
ãĤ¶ ãĥĥãĤ¯
ĠçĻ½ å·Ŀ
k n
ì ķ
ãĥ¬ ãĥ¼ãĤ¸
ar is
ĠW ell
ĠO lymp
äºķ é§ħ
Ġ27 5
æĿ¥ ãĤĭ
ĠéĿĴ éĩİ
ĠãĤ¸ãĤ§ ãĥªãĥ¼
M k
ãģ® åŁİ
ãĤī ãģĽ
ç«ĭ å·Ŀ
æŃ£ åĴĮ
Ġé§ Ĩ
iz ed
ãĥĹãĥ¬ ãĤ¹ãĥĨãĥ¼ãĤ¸
ĠãĤ³ãĥŃ ãĥ³ãĥĵãĤ¢
ĠSWE ET
é£¯ å¡ļ
Ġæ¯Ľ åĪ©
Ġ3 10
å·Ŀ åİŁ
ãģĭ ãģ£ãģŁ
éĩİ æľĽ
çķª éķ·
Ġç«ĭ åĳ½é¤¨
Ġå¹ķ åºľ
AR O
ãĤ¿ãĥ¼ ç´ļ
ĠæĦĽ ãģ¨
Ġ48 0
ãĥ³ãĤ« ãĥ¼ãĥ³
ç¥ĸ çĪ¶
çªģ çł´
b ra
ä¸Ń æĹ¥
ç¬¬ åħŃ
ãĤ½ ãĤ³ãĥ³
44 2
ãĥ¼ãĥĨãĤ£ ãĤ¹
æłĦ åŃĲ
è¶³ ç«ĭ
2 200
ãģ® æĻĤéĸĵ
ĠG UN
ãĤ± ãĥªãĥ¼
Ġs ide
è¿Ķ ä¸Ĭ
æľĪ åº¦
ĠL ST
18 61
Ġãĥı ãĥĬ
Ġä¸»ãģª æĪ¦ç¸¾
Ġå¯¾ è±¡
Ġå¸Ŀ äº¬
M AG
Ġ5 12
ä¸Ģ å¹³
ĠF F
re ll
ç¤¼ åŃĲ
Ġçī¹åĪ¥ è³ŀ
ãĤ¯ ãĤ¨ãĤ¹ãĥĪ
Ġ3 06
ĠC afe
ĠM EN
ĠP sy
Ġãĥª ãĤ¢
07 7
ä¸ĩ ä¸ĭ
åħ¬åľĴ åīį
Ġå®ī åĢį
ãģ® æ¹¯
ĠT UN
Ġãĥŀ ãĥªãĥ¼
ag en
78 7
ãĥĸãĥ« ãĥĥãĤ¯
Ġæµ· æĬľ
ãĤ¯ãĥª ãĥ¼ãĥł
ĠMON KEY
ĠAustral ia
RAD IO
ĠãĥŁãĥį ãĤ½ãĤ¿
äºº ãĢħ
ãĤ¸ ãĥ¡ãĥ³ãĥĪ
ch t
å¥³ ãģ¨
ãģ¤ ãģĳ
æ¬ Ħ
Ġå¾ Ĳ
æľī å½¢æĸĩåĮĸè²¡
ãĤ¤ãĥł ãĤº
ĠãĥķãĤ£ãĥ³ ãĥ©ãĥ³ãĥī
ãĤ¢ ãĥ¬ãĤ¯
ĠC op
ãģ« ä¼´
ãĥĶ ãĥĥãĤ¯
ĠæľĪ æĹ¥
æ¦ İ
ĠãĤ¹ãĥĨãĤ£ãĥ¼ãĥ´ ãĥ³
A H
Ä ±
ãĥķ ãĥªãĥ¼ãĤ¹
Ġå°ı å®¤åĵ²åĵī
ĠãĤ¦ ãĤ¯ãĥ©ãĤ¤ãĥĬ
39 2
Ġæ°´ å¹³
Ġéģ¸ åĩº
Ġå¼ķ çĶ¨
ĠçŃĳ æĳ©æĽ¸æĪ¿
ĠM BS
åĲĪ ä½ĵ
ãĤ¬ ãĥ«ãĥĪ
è»į ãģ®
ãĤĨ ãģĦ
ãģĹãģ¾ ãģĻ
åŃĺåľ¨ ãģĻãĤĭ
ãģ¨ãģĹãģ¦ãģ® çī¹å¾´
y y
Ġ ä¼ıè¦ĭ
ĠB an
ãĤŃ ãĥįãĥŀ
ĠSt ep
ãĥ³ãĤ¸ ãĥ§ãĥ³
åĨĻ åĥı
Ġåħ¥ åł´
ĠãĥįãĥĥãĥĪ éħįä¿¡
ĠãĤ«ãĥªãĥķãĤ©ãĥ« ãĥĭãĤ¢å·ŀ
ãģ® åħī
Ġãĥĩ ãĥ«
Ġæģ ©
ĠæĪ¦ å¾Į
Ð½ Ð¸
æĲº å¸¯
ĠTri b
è²· åıİ
Ġæĵį ä½ľ
¿ çµµ
ĠD am
ĠF IL
ra p
å¸Ĥç«ĭ åĽ³æĽ¸é¤¨
av y
éģĭ ä¼ĳ
ãģ¹ ãģį
ãĤ°ãĥ« ãĥ¡
åĤĳ ä½ľ
ãģĻ ãģį
45 3
ĠCh icago
ĠãĤ¸ãĥ§ ãĥ«
97 0
7 40
B ook
ãĥŀ ãĥĥãĤ¯
ä¸Ģ çŃī
ãĤ¨ ãĥ³ãĤ¹
ãĥ¬ãĤ¤ ãĥī
AV å¥³åĦª
ĠJ ew
Ġãĥŀ ãĤ·ãĥ¥ãĥ¼
ag er
45 4
av er
Ġè±Ĭ å³¶
åłĢ æ±Ł
ĠDream s
ĠãĤ¢ãĥ¬ãĤ¯ ãĤµãĥ³ãĥĢãĥ¼
Ġå¹» åĨ¬èĪİ
ĠãĤ¯ãĥªãĤ¹ãĥĪ ãĥķãĤ¡ãĥ¼
" :
ãĤ« ãĤº
ĠãĤ¤ ãĥª
Ġä¸ī æĿ¡
æĬĢ çłĶ
åĽĽ æĹ¥å¸Ĥ
EE K
èĬĿ å±ħ
ä»Ļåı° å¸Ĥ
ĠEconom ic
D L
G N
é«ĺ å³¶
ãĥ¼ãĥĹ ãĥŃ
Ġä¸Ĭ æĿī
Ġåīį èģ·
æĵį ä½ľ
ãģĻ ãĤģ
Ġãĥŀ ãĤ¤ãĤ¢ãĥŁ
è¦ĭ çĶº
å°ļ åŃĲ
èħ °
ãĥķãĥ¬ ãĥĥãĥī
æĿĲ æĸĻ
BE AT
ĠMi LB
ãĤ» ãĥ³ãĤ¿
Ġæĸ° æĺ¥
ree k
ĠåĬ©æ¼Ķ çĶ·åĦªè³ŀ
æįľæŁ»ä¸Ģ èª²
F orm
ä¸ī æĮ¯
em por
Ġç³» èŃľ
Ġæ¸¡éĤ ī
é¤¨ æĽ¸åºĹ
ĠãĤ³ ãĥ¼ãĥ«
04 1
ãĥ³ãĥĳ ãĤ¦ãĥŃ
ĠçĤ İãģ®
æĿĳ å±±
ç§ĭ å±±
ãĤ¹ãĥĨãĤ£ ãĥĥãĤ¯
Ġåħ¥ æ±Ł
éĥ¨ å¸Ĥ
åĭĻ æīĢ
è£½ éīĦ
å¦Ĥ ãģı
ãĥ¬ ãĤ¸
æĽ ¾
and ing
ãĥĨ ãĤ¹
åŃĲ ä¼ļç¤¾
ãĥŀ ãĥĥãĤ«
Ġç´ į
ĠåĪĿ åĩº
éŁ³æ¥½ ç¥Ń
çĻ¾ å¹´
ä»£ è¡Į
ad d
åįĹ éģĵ
49 7
æĶ¹ ç¯ī
çĽ´ ä¹Ł
ĠRO AD
è¨¼åĪ¸ åıĸå¼ķæīĢ
ãĥŃ ãĥŀãĥ³
ĠH an
Ġãĥ¡ ãĤ¿ãĥ«
W EB
Ġ( *
ĠåĪ Ĭ
Ġéģİåİ» ãģ«
ĠT OP
åĲĪ æł¼
ĠãĥŀãĤ¤ ãĤ¯ãĥŃ
éĻ¸ä¸Ĭ éģ¸æīĭæ¨©
ĠF eder
ãģŁ ãģł
Ġå¤§ èĶµ
Ġ24 4
ĠæĻ ®
éļİ ç´ļ
ĠHe alth
ãģĭ ãģĻ
æĸĩ èĹĿæĺ¥ç§ĭ
æģ ¥
ĠGe h
Ġèº« éļľèĢħçĶ¨
çĸ «
ãĥĩãĤ£ãĥ´ãĤ£ ãĤ¸
ĠC ourt
as ure
Ġå¥ ª
åħĪ è¼©
Ġéº ¦
ĠãĤ»ãĥ³ãĥĪ ãĥ©ãĥ«
é» İ
4 11
on o
ãĥĲ ãĥĥãĥĪ
ch an
ä¼Ŀ çµ±
Ġèĳ µ
ä¾Ľ çµ¦
åĪĿåĽŀ éĻĲå®ļçĽ¤
ĠãĤ¤ãĤª ãĥ³ãĥ¢ãĥ¼ãĥ«
A E
ĠJ UMP
ac ter
Ġçľ ł
ĠSch m
æµ® ä¸ĸçµµ
ĠCRA ZY
ãĤµ ãĤ¤ãĥ³
Ġt er
ĠK AN
Ġb ass
Ġãĥı ãĥ³ãĥī
ĠOr chestra
Ġund er
ãĥĥãĤ± ãĥ¼
ĠAV CD
Ġæķĳ æĢ¥
åĤĺä¸ĭ æĻĤä»£
H ey
ãĥĢ ãĥ³ãĤµãĥ¼
ĠãĤ³ ãĥ©ãĥľ
ĠåįĹ æĿ±
é³¥ æłĸ
ãĥ«ãĤ¯ ãĤ¹
ĠPRE MIUM
Ġ ä¹³
åħ İ
ĠãĤ« ãĥĹãĤ³ãĥ³
46 8
çµĮ éģİ
Ġal t
ĠåĲĳ äºķ
ãģ¨åĲĮ ãģĺ
F rom
in ja
æľ¬ éĥ¨éķ·
ãĤ³ ãĤ¿
ĠãĥĩãĤ£ ãĥ´ãĤ£
ĠçĶº æĿĳ
ung en
ĠGR AND
Ġè§Ĵ çĶ°
å½ ¬
ç´ļ çĶŁ
è£ķ ä¸Ģ
ãģ¥ ãģĳ
ĠT ext
ĠB or
ç¾İ å®¹
åīį ãģ«
èĩª å·±
ĠF an
ãĤĵ ãģ¼
ãĥļ ãĥĪãĥŃ
å¯º çĶº
Ġå¤§ åĨħ
ç¥ŀ æ¥½
ãĥ¼ãĤ¸ ãĥ³
ãģĵãģ¨ ãģĮ
ãĥ¬ãĥĥ ãĤ¿
Ġå¹ķ æľ«
ĠVict or
r in
ĠãĤ¢ ãĤ°
ãĥĳ ãĥ¯
Ġç© ´
ĠãĥĹãĥª ãĥ³ãĤ¹
é« Ļ
Ġåŀĭ å¼ı
ĠC ru
ĠL ind
ĠãĤª ãĥĪ
æŁ ļ
æµ¦ çĶº
ãģĿ ãĤī
ãĤĴè¡Į ãģĨ
19 03
ĠãĥŃ ãĥľ
Ġ24 3
åįĥ å¤ı
ĠéŁ³æ¥½ ãĥĹãĥŃãĥĩãĥ¥ãĥ¼ãĤµãĥ¼
ãĤ¤ãĥ¬ ãĥ¼ãĥĦ
ĠRep ublic
ãĤ¨ãĥ¬ ãĤ¯ãĥĪ
ĠéİĮ çĶ°
ä¸Ń ãģ«
çı¾ å½¹
ĠåĢī çĶ°
çķªåľ° çŃī
ĠèŃ° å¸Ń
ĠãĤ¦ãĥ«ãĥĪãĥ©ãĥŀ ãĥ³
0 20
ĠC ZE
ãģ¨ çĶº
ĠW ON
è¥¿ çĶ°
æĿ¾ æĿĳ
éĤ ±
ĠSTAR S
å¥´ éļ·
æĸ ¼
ĠM ult
é¤¨ æĹ¥
è°· åı£
ãĥĶ ãĤ«
Ġçµ ¦
ub er
ä»£è¡¨ åıĸç·łå½¹
ĠæŃ£ æľĪ
ë¦ ¬
Ġç· ļ
ĠãĤ» ãĤ«ãĥ³ãĥī
ãģ¬ ãģį
æĸ° ãģĹãģĦ
49 4
ok i
æµ·è»į èī¦èīĩ
Ġ3 01
å±± å·Ŀ
ç¥ Ī
ĠLi ber
ĠãĤ³ãĥ³ãĤ¹ãĥĪ ãĥ©ãĤ¯ãĤ¿ãĥ¼
I m
R ON
ä¸Ń ä½Ĳ
å¹³ äºķ
ãĥĳ ãĥ¬ãĥ¼ãĥī
IS A
Ġãģ¨ ãģĨ
ĠSM AP
P eter
Ġå Ħ
ĠF rench
ãĤ¨ ãĥŁ
ãĤ¸ãĥ£ ãĥį
ĠåĲį èªī
88 7
ãģ®ä½ı æīĢ
Ġ ap
ãĤ· ãĥª
ä¸Ģ åº¦
Ġå¾ ħ
åįĹ ä¸ŃåŃ¦æł¡
60 9
ĠæĪĲ å¹´
æĪ¦èī¦ ãĥ¤ãĥŀãĥĪ
al ity
Ġãĥĭ ãĥ¼ãĥ«
mb H
ĠãĤ·ãĥ³ãĥĩãĥ¬ãĥ© ãĤ¬ãĥ¼ãĥ«ãĤº
å¹´ åĪ¶
ãĤ¢ ãĥ¬ãĥ³
ĠC reat
ãģķ ãģĬ
çľŁ åı¸
ç¿ ģ
ãĥ³ãĥĹ ãĥ«
lo an
ĠçĤ İ
å¤§ å·Ŀ
ĠL iving
ĠãĥĲ ãĥª
éģ¸æīĭ è³ŀ
66 6
ãĥ¼ãĥŁ ãĥ³
å¾ĴæŃ© ç´Ħ
Ġå¾³éĸĵ æĽ¸åºĹ
ãģ¯ãģ¤ãĤīãģĦ ãĤĪ
ĠL ord
ç¾İ ä¿Ŀ
Ġãĥī ãĤ¯ãĤ¿ãĥ¼
Ġåķ ı
ãģ® æľĪ
ĠS ITE
ãĥĶ ãĥ©
ĠãĤ¯ ãĥ¼ãĥĳãĥ¼
ĠUEFA ãĥģãĥ£ãĥ³ãĥĶãĤªãĥ³ãĤº
ĠMet ro
ãĤ«ãĥ¯ æĸĩåº«
ĠClass ic
ĠPri x
ĠN ik
ç¥ ĪãĤĬ
ad ing
ĠãĥĢ ãĤ¤ãĥĬ
è¿ ¦
ĠAr c
åĸľ åĬĩ
ĠçľĮ ç«ĭ
çĳŀ å®Ŀ
è ŀ
Ġ í
æ©Ł æĿĲ
éĽĨ éĻ¢
ĠãĤ¿ ãĤ¤ãĥ¤
å» ī
ist ry
58 3
éģĭ åĳ½
ãĥ³ãĤ½ ãĥ¯
åĲĽ ãģ«
ãĤ³ãĥł ãĥ¼ãĥį
O s
d ie
Ġç ĵ
ĠCh urch
Ġ::* **
ĠDe ep
4 23
K BS
M ichael
å¥³ æµģ
Ġp iano
Ġc or
IS ING
est a
Ġåħ¬ çĽĬ
AB A
ĠStand ard
7 10
ãĥ³ãĤ¯ ãĥ©ãĥĸ
Ġå® į
è« Ĵ
VE L
Ġãĥĵ ãĤ¸ãĥįãĤ¹
Ġéģ¸æĮĻ åĮº
Ġ let
ãĥ© ãĥĥãĥĹ
ãĤ¢ ãĤ°
ĠT OK
æ´¥ è»½
ãģ° ãģª
if fer
ĠMy ster
ãĥĸãĥª ãĥ¥
ç·¨éĽĨ éĥ¨
Ġå ¦Ĥ
ãģ® èī²
ãģ® ä¹±
ĠS even
æľ¬ åĭĿè²ł
åĨ ¶
ãĥİ ãĥ´ãĤ¡
rom e
Ġãģ¾ ãĤĬ
Ġst udio
ç¥Ĳ åŃĲ
èªł æ²»
H ol
å¹´ å¤ı
ãģ® åĨį
å¸Ĥ ãģ®åľ°åĲį
ãĥ³ãĤ¹ ãĥĨ
å®Ł æ³ģ
ãĥ³ãĤ¬ ãĥ¼ãĥī
ĠåıİéĮ² åĨħå®¹
ãģ£ãģ ´
Ġè¦³ éŁ³
èĳĽ é£¾
W ith
ãĥĥ ãĥĽ
åŃ¦åľĴ å¤§åŃ¦
éģĬ äºŃ
ĠC re
ãĤĴ æķĳ
ãĤ¢ãĥ« ãĥĹãĤ¹
Ġå®ī éģĶ
88 0
ĠåĪ¶ æľį
åŁ· çŃĨ
B RA
æľĪ çı¾åľ¨
ãĥª ãĥĲãĥ¼
å²¡ é§ħ
åįļ åı²
ãģĦãģ¡ ãĤįãģĨ
âĶģâĶģ âĶ
ãģĻãģ¿ ãĤĮ
ĠTr ue
ĠãĤ¤ãĥ³ãĥī ãĥįãĤ·ãĤ¢
ç ¼¶
ĠT M
å¤© ä¸ĭ
Ġå¯ Ŀ
éĢĢ åĽ£
Ġåįĺ ä½į
4 22
ãģ® åī£
ãĤ¢ ãĥĲ
çĶ° åı£
å¤ļ çĶ°
ich t
ĠNHK ç·ıåĲĪ
éļİ æ®µ
ç®¡çĲĨ å±Ģ
ç´ħ çĻ½
ĠSide M
f a
æĹ¥ ãģ¯
ãģĹ ãģĴãĤĭ
et ing
æŃ£ è¡Į
æĮĩå®ļ åĮ»çĻĤæ©Łéĸ¢
Ġãĥªãĥ¼ãĤ° æĪ¦
M er
ĠF ANT
çĻº çĿĢ
ãĥķãĤ¡ ãĥ«
49 8
44 3
ĠæŃ» èĢħ
ãĤ¤ ãĥ³ãĥĨ
in ch
ĠãĥĿ ãĥª
N BC
Ã «
Ń ä¹Ĺ
un ter
éº º
ãĥĨãĥ¼ãĥŀ ãĤ½ãĥ³ãĤ°
Ġcl ub
åķĨæ¥Ń é«ĺçŃīåŃ¦æł¡
Ġãĥĭãĥ¥ãĥ¼ãĤ¸ ãĥ¼ãĥ©ãĥ³ãĥī
t z
ãĤµ ãĥ¼ãĤ¯ãĥ«
ãĥĽ ãĥ«
ari ous
ĠæĢ¥ è¡Į
: )
ãģ® çī¹å¾´
Ġä½ľæĽ² å®¶
ĠæĿĳ äºķ
ĠFac ebook
Ġè£ģ åĪ¤
M IN
æľ¬ äºº
ãĤ¹ãĤ¿ ãĥł
ect or
ĠAR G
al ia
æķĻ å¤§åŃ¦
Ġãĥĩ ãĤ¸
ä½ľåĵģ éĽĨ
çĻ½ äºķ
éºĹ ãģªãĤĭ
çĨĬæľ¬ çľĮ
ãĤ¯ ãĥı
è¨ Ł
åģ ¶
éĽĦ ä¸ī
ãĥĦ ãĤ©
Ġ26 2
Ġãĥ« ãĥ¼
ens ion
Ã¶ n
ĠNav y
Ġè©¦ é¨ĵ
B GM
T ake
ä¼ļ ãģ®
ĠãĤ« ãĥĬ
ĠãĥŃ ãĤ±
Ġon ly
Ġç¾İ å°ĳå¥³
æĸ¹éĿ¢ ç·ıçĽ£éĥ¨
éĺ²æ³¢åł¤ çģ¯åı°
ãģķ ãĤĨãĤĬ
Ġä¸Ń è°·
ĠãĤ¨ ãĥ¼ãĤ¹
ad s
æŃ¦ åı²
ĠãĤ°ãĥ¬ ãĥĥãĤ°
æī¹ åĪ¤
f ish
ãĥŀ ãĥªãĤª
Ġãģ« æīĢåľ¨
Ġæİ ²è¼ī
Ġéĥ¡ éĥ¨
Ġè³ĩæľ¬ éĩĳ
h ouse
''' ãĥ»
æ°´ å³¶
æĿ¾ æĪ¸
Ð ³
ĠS EN
ãĥĲ ãĥģ
ãģ« ãģĭ
ĠO KA
Ġ25 3
ĠãĤ¿ãĤ¤ ãĥĹ
æ³¥ æ£Ĵ
E VER
ãģ® çĶ±æĿ¥
ãĥĵ ãĤ¨ãĥ«
æŃ£ æ²»
AK O
éĳĳ è³ŀ
ha us
Ġè¿· é³¥
ĠéģħãĤĮ ãĥįãĥĥãĥĪ
V i
ãģ¦ ãģĦ
äºĭ æĥħ
ĠçµĦ åĲĪ
Ġ3 40
ĠH out
Ġ18 60
åīį æ©ĭ
Ġä¸ĸ ãģ«ãĤĤå¥ĩå¦Ļãģªçī©èªŀ
ä¸Ńå¤® ãĥĨãĥ¬ãĥĵ
Ġé«ĺéĢŁ éģĵè·¯
ĠæªĢ ç´Ģ
e k
ãĤĭ ãģ¿
ĠH its
æĿ± å±±
ãģĳ ãģªãģĦ
ĠæĶ¾éĢģ ãĥªãĤ¹ãĥĪ
åº· äºĮ
Ġå½ĵ éģ¸
åºģèĪİ ãģ®ä½ıæīĢ
Co Sp
é Ī
ãĥĨ ãĥ©ãĤ¤ãĥĪ
ãģĹ ãģĴ
ĠæĿ± å¤§
åıĭ éģĶ
ĠX P
5 25
F ree
R ain
ãĥ¬ ãĥ¼ãĥ³
ä¸ī ä½į
ãĥĽ ãĥĥãĥĪ
Ġé§ħ ä¸Ģè¦§
ĠSant a
ãģ® å¦¹
ĠL ink
ĠL IGHT
ĠãĤµ ãĥ«
éĹĺ å£«
Wh en
ets u
Go ogle
ĠP ap
ĠæĿ ı
ãĥģ ãĥ¥ãĥ¼
èĬ± åľĴ
å¸ ¥
èĪª æµ·
ä½³ å¥Ī
éĤ£ éłĪ
Ġéµ ľ
E F
R un
ĠC UP
ĠãģĤ ãģ®
ãĥªãĤ¹ ãĤ¯
Ġ27 6
ĠãģĦ ãģĦ
å»ĥ æł¡
Ġå³¶ å´İ
æ¼¢ åŃĹ
0 40
4 27
S u
Ġ ×
ãĥ¡ ãĥªãĥ¼
un o
ĠåĪ ĩ
Ġc c
RE ET
è¬Ľ æ¼Ķ
æ©Łéĸ¢ éĬĥ
ãĤ¯ãĥ©ãĤ¤ ãĥŀãĥĥãĤ¯ãĤ¹
ĠCS I
éĿĴæ£® çľĮ
ĠA RE
ĠB ABY
ĠL ew
Ġæľ¬ ç·ļ
Ġæ ¢¨
å¤§ çŁ³
ãĤ« ãĥ¼ãĥĿ
æ¸ ĭ
ãĥĳ ãĥ¼ãĥĨãĤ£
éģ¸ éĽĨ
ä¿¡ å·ŀ
å£« å®ĺ
46 6
ç¿Ķ åŃĲ
Ġå·¨ ä¹³
ĠRA IN
ãĥ¼ãĥŃãĥľãĥĥãĥĪ å¤§æĪ¦
æºĸ åĤĻ
Ġå»¶ éķ·
i ers
ĠD ynam
ĠãĤ³ ãĤ¢
ãĥ¼ãĥŀ ãĥ«
ãĤ·ãĥ¥ ãĥ¼ãĥĪ
çłĶç©¶ åĵ¡
Ġä¸į åıĤåĬł
Ġãĥ©ãĤ¤ ãĤªãĥ³
Ġä¸īèı± éĩįå·¥
0 30
8 57
ãĥª ãĥ¼ãĥĭ
ĠM ET
èĤ² ãģ¦
ĠåĪĿ çīĪ
Ġãģĭ ãĤı
ĠæĻ ©
Ġæľª ç¢ºèªį
ĠæĶ¿ åħļ
è¿Ķ ãģĹ
S an
ãĤ¢ãĥ« ãĥķãĤ¡
åľŁ å±ĭ
ãģĹãĤĵ ãģ¡ãĤĥãĤĵ
Ġ3 12
ĠæĿ ¡
Ġéĸ¢ ä¿Ĥ
éĻ¢ éķ·
im es
ess e
é³¥ å±ħ
è¡Ģ æ¶²åŀĭ
ãĥĥãĤµ ãĥ³
æ¸ĵ è°·
ON T
åĳ½ åĲį
Ġè±Ĭ æ©ĭ
Ġæ¼ ģ
ä½µ è¨Ń
Ġèĸ¬ å¸«
Ġç·¯åº¦ çµĮåº¦
Ð ·
en cy
ä¸Ģ éĽĦ
ä¿ µ
ĠK a
å´İ é§ħ
Ġ Ø§
ãģ¤ ãģĬ
ĠCh ris
å®¤ èĺŃ
åº· å¼ĺ
ĠæŁ³ çĶŁ
æħİ å¤ªéĥİ
ĠçľĭèŃ· å¸«
p ed
ĠC LE
ãĥĨãĤ£ ãĤ¨
Ġæĸ° æĹ¥
çĶ± åŃĲ
UT URE
éĿĸ åŃĲ
Ġãĥ¢ãĥ³ãĥĪ ãĥªãĤªãĥ¼ãĥ«
Ġ4 20
Ġ4 56
ĠT EC
ĠA u
ãĥ¯ ãĥĪ
çķª ç·ļ
æľĿ åĢī
ci ent
G rand
ĠI MP
ĠE lement
ä¸Ĭ çĶº
åıĤ èŃ°éĻ¢èŃ°åĵ¡
Ġh p
ĠGu ard
ä¸¹ æ³¢
ãĥ³ãĥļ ãĥ¼ãĥ³
ç£Ĳ çĶ°
ĠPict ures
ãĤ¢ãĥ¼ãĤ«ãĤ¤ãĥĸ ãĤ¹
ãĥĥ ãĥķãĤ¡
ĠP osition
ãģķ ãģĮ
Ġf un
åĨħ çĶº
èĭ± åĽ½
éº» çĶŁ
ãĥŃãĥ¡ ãĤª
- ''
ãĥĥ ãĥģãĥ£ãĥ¼
ĠL ow
ãĤ³ ãĥ³ãĥĶãĥ¥ãĥ¼ãĤ¿
å°ı æ±ł
ĠåĪ Ŀãģ®
æŃ¦ èĢħ
åįĥ æĺ¥
ãģĹãģŁ ãģĦ
Ġå®ī åħ¨
ĠçŁ¢ éĥ¨
Ġçļ Ħ
èįĴ æľ¨
ãģĹ ãģ¿ãģ®
ĠãĥŁ ãĤ¹ãĤ¿ãĥ¼
èĭ± ä¸Ģ
05 1
ĠAr rang
ĠãģĻ ãģļ
ĠæĮĩ æı®
ĠæĶ¹ éĢł
ãĥ¡ãĥī ãĥ¬ãĥ¼
H B
J ack
p ert
ãĥ¬ ãĥİ
éĩİ èıľ
ĠãĤ³ ãĥ³ãĥĨ
æŃ¦ éĽĦ
é¡Į æĽ²
ãĥ¼ãĥŃ ãĥ¼ãĤº
Ġå¼¦ æ¥½
Ġ4 12
ĠåĨħ æµ·
è¶ħ äºº
åĲĪåĶ± åĽ£
Ġc ent
Ġãģ¿ ãģªãģ¿
ĠãĥįãĥĥãĥĪ ãĥ¯ãĥ¼ãĤ¯
v d
ãģ® æ³ķåīĩ
ĠS ix
Ġ3 15
èŃ¦ å®ĺ
Ġä¹ħ ç±³
0 14
U p
ãģĤ ãģĿ
ent ial
ĠAp p
ãĤ®ãĥª ãĤ·ãĥ£
. ãĢį
å¤§ çĽ¸æĴ²
ãĤ¦ãĤ§ ãĥĸ
Ġå¼ ¾
é£Ľ ãģ¶
Ġãĥ¨ãĥ¼ãĥŃãĥĥãĥĳ éģ¸æīĭæ¨©
ãĥ¡ãĥ³ãĤ¿ ãĥ«
R R
ĠG mbH
ĠãĥŃ ãĤ¹
Ġ26 5
Ġãģĭ ãĤĵ
Ġæ·± å¤ľ
æĹŃ å·Ŀ
çĶ±ç´Ģ åŃĲ
ĠD ES
éł Ĳ
ãĥĨãĤ£ ãĤ³
åĬ´åĥį çµĦåĲĪ
ĠInt el
H en
åı² ç·¨
Ġãģ® ãģ³å¤ª
æĺ¥ æ¨¹
ant a
å¤§ æĿĳ
ãĤĴ ä½¿çĶ¨
Ġéķ· å°¾
Ġä¸ĸ çĶ°è°·
Ġå®Ł å»¶éķ·
SE ED
ĠæľĢé«ĺ éłĨä½į
ĠãĤªãĥ¼ãĥ« ãĤ¹ãĤ¿ãĥ¼ãĤ²ãĥ¼ãĥł
ä»®éĿ¢ãĥ©ãĤ¤ ãĥĢ
ĠParad ise
' )
4 49
æ¸¡ éĤ
è·¯ç·ļ ãĥĲãĤ¹
Ġæ°ĳ éĸĵ
Ġéľ ĩ
Î ¿
ãģ® æ§ĭæĪĲ
ĠãĥŃ ãĤ¤ãĥ¤ãĥ«
47 2
ãĥ³ãĤ¸ ãĥ§
ĠCl ark
ãĥĹãĥ© ãĥİ
èıħ åİŁ
ãĤª ãĥ¼ãĤ¯
çī© çĶ£
ĠCh ange
if ied
58 6
Ã© l
Ġéĩį è¦ģæĸĩåĮĸè²¡
ãĥªãĤ³ ãĥĹãĤ¿ãĥ¼
Ġ __
ãģŁ ãģªãģĭ
å°ı åĥ§
ãĥĿ ãĥ«
æĢ§ èĥ½
Ġ27 1
und ay
ãĥŀãĥª ãĥİãĤ¹
ä¸ĸ çĶ°è°·
09 1
å°ıåŃ¦æł¡ åīį
è³Ģ çĶº
Ġä¿¡ è¶Ĭ
Ġèī¦ åĲį
Ġå¡ļ æľ¬
Rem ix
ĠORIG INAL
L z
ãģ« ãģĦ
çĮ Ł
Ġéĩĳ äºķ
æģµ ä¸Ģ
Ġãģ¾ ãĤĭ
çĶ² æĸĲ
per ia
ĠFR OM
ĠCult ure
ãĤ³ ãĥ©ãĥľ
it ive
Ġå°ı è°·
çİĭ ãģ®
æľĢ åīįç·ļ
å»¶ ä¼¸
ĠãĤ¢ãĥ³ ãĥª
P iano
ĠC are
oc o
ĠãĤ¸ãĥ£ ãĥĳ
èĩªåĭķè»Ĭ åŃ¦æł¡
Ġãĥŀãĥ« ãĥģ
S UMMER
Ġ3 07
çĶ° åİŁ
Ġ18 61
ĠãĤµ ãĥı
ĠãĤ¤ ãĥĬ
47 3
èĸ Ļ
ãĤ¨ãĥ³ãĤ¿ ãĥĨãĤ¤ãĥ³ãĥ¡ãĥ³ãĥĪ
ãĥĨ ãĥ©
ãĤµ ãĥŃãĥ³
ĠW ords
éĽħ ä¹Ł
Ġå®Ł åĨĻ
ĠEx per
åįĴæ¥Ń çĶŁ
ä»® åĲį
7 60
B ad
ãĥķãĤ¡ ãĥ¼ãĤ¹ãĥĪ
ãģŃ ãĤĵ
Ġãģ¿ ãĤĦ
ç½² éķ·
Ġçĭ Ń
é£¼ éĩİ
åľ ĺ
ãĤ° ãĥŁ
ut a
è»į æĽ¹
è£½ èıĵ
ĠAd d
ĠDev il
æ»ĭ è³ĢçľĮ
ä¿¡çĶ¨ çµĦåĲĪ
ç·ıçĲĨ å¤§èĩ£
ãĤ¢ ãĥ¼ãĥł
ãĤµ ãĤ¶
æĪĲ ãĤĬ
Ġéĩİ ãĢħ
HI RO
Ġæ±ŁæĪ¸ æĻĤä»£
ĠéĻĦ å±ŀ
4 18
ĠA th
ĠN BC
ãĤ¨ ãĥŀ
ĠE M
ãĥ¢ ãĥĲãĤ¤ãĥ«
åĭĿ å·±
ĠæĹ¥æľ¬ çµĮæ¸Ī
Ġå®ī èĬ¸
end ed
ĠSc iences
ãĤ«ãĥŃ ãĥ©ãĤ¤
ĠH ay
åĨħ æĿĳ
ãĥ¤ ãĤ¹
æŃĮ åĲĪæĪ¦
çµĮ é¨ĵ
ĠSP EED
ä¸İ ãģĪ
ãĥĲãĤ¹ãĤ±ãĥĥãĥĪãĥľãĥ¼ãĥ« éĥ¨
4 28
ãĥ© ãĥ³ãĤ¯
ĠåįĹ åĮĹ
Ġæ¯ Ĵ
ãĥĹãĥ¬ ãĥ¼ãĤªãĥķ
æİ¨ èĸ¦
8 06
S V
Ġ26 3
58 2
å±±åı£ çľĮ
ãĤ¹ãĥĳãĤ¤ ãĤ«ãĥ¼
Ġç° ¡
ĠåĽºæľī ç¨®
D REAM
is k
ĠãĤ¹ ãĤ¯ãĥ¼ãĥ«
ãĥĻ ãĥ¬
ĠåĽ½ ãģ®
èŃ°åĵ¡ éĢ£çĽŁ
J ãĥªãĥ¼ãĤ°
ãģ® åĶĦ
ãĥ© ãĥ³ãĤ°
å½ ĹæĺŁ
18 89
ĠK r
57 6
Ġä¼Ĭ äºĪ
ĠçĶ·åŃĲ ãĤ·ãĥ³ãĤ°ãĥ«ãĤ¹
ĠHon ey
Ġèĸ© æĳ©
ĠT ab
ç«ĭ èĬ±
ĠV ita
åħ¬ ç«ĭ
è¥¿ å¸Ĥ
æ³ķ ãģ®
éĩĳ çĶ°
EN E
æįľæŁ» ç·ļ
Ġå»º éĢł
ARD EN
Ġä»» æľŁ
åĵ ¨æĪĴ
æºĢ ãģŁãģĻ
æ²¼ å¸Ĥ
ãĥ¬ãĥĥ ãĤ½
å¢Ĺ çĶ°
Ġä¼ļ éķ·
Ġç¥ŀå¥Īå·ĿçľĮ ç«ĭ
ĠStr ings
ĠFant asy
4 26
ĠS et
å±± ç¥ŀç¤¾
ãĤ¹ãĥĪ ãĥ«
ãĥĶ ãĥ¼ãĤ¹
äºĶ è¼ª
ĠãĤ¦ãĤ£ ãĥ³ãĤ°
ĠAv enue
Ever y
, -
çĽ´ éĢļ
ãĤ®ãĥ£ ãĥ«
ãĥ¼ãĤ·ãĥ§ ãĥ³ãĤº
Ġåħīæĸĩç¤¾ æĸĩåº«
ĠB RO
Ġãĥ¬ ãĥĩãĤ£
ĠåĪ© æł¹
Ġæī¹ è©ķ
ãģ ¢
ãĥĨãĥ¬ãĥĵ æĺłçĶ»
Ġä¸ī åİŁ
ãĥķãĤ© ãĥ¼ãĤ¯
99 5
ĠAT L
å¿ Į
Ġ2 78
ĠãĤ¬ ãĤ¤
çĶº åĲį
ãĥľ ãĤ¯
æķĻ ç§ĳ
æ³ķ åĭĻ
åı° åł´
Ġãĥª ãĤ¢ãĥ«
Ġ26 4
S om
ãĤŃ ãĥ¥ãĥ¼
ãģĤ ãģķãĤĵ
ĠãĤ« ãĤ¦
åĶ ĩ
ĠArch itect
æĦĽåªĽ çľĮ
ãĥ³ãĤ·ãĥ¥ãĤ¿ ãĤ¤ãĥ³
P ort
ĠãĤ į
å¸Ĥ åİŁ
æŀĹ å¯º
Ġåįĺ çĻº
ç«¥ è©±
Ġå¤ı çĽ®
èĦ± éĢĢ
ãĥ¨ãĥ³ ãģĹãĤĵãģ¡ãĤĥãĤĵ
D ark
ãĤ« ãĥĹ
Ġ18 65
Ġãĥŀ ãĤµ
ĠéĢļ ç§°
Ġæŀ ¶
Ġpro ject
éĻ° è¬Ģ
èĨ ļ
ì Ĺ
ãĥİ ãĥ©ãĥŀ
æĺİ å¯º
åħī ä¸Ģ
ãĥ³ãĥģ ãĥ¥
ĠåĲĮ å¿Ĺç¤¾
çĪĨ æĴĥ
Ġè ¥
ĠK C
Ġ26 8
éļĨ è¡Į
ãĥ¶ æīĢ
äºĭæ¥Ń éĥ¨
å®ĩ åĴĮ
ĠãĥĦ ãĥ¼ãĥ«
Ġãģı ãģ¾
iol in
ĠWrest ling
S outh
¯ å³¨
ãĤ¤ ãĤ°
ãĥĩ ãĥ¢
ä¸Ń éĢĢ
st on
Ġãĥı ãĥ¯ãĤ¤
Ġæµħ è¦ĭ
ĠPlay er
ãģķãĤĮãģ¦ ãģĦãģŁ
ĠHout en
å±± åľ°
ãģŁ ãģį
é§ħ ãģĭãĤī
äºķ æĪ¸
ãĥķãĤ¡ ãĥ³ãĥĪ
ĠæīĢå±ŀ äºĭåĭĻæīĢ
ĠãĤ¤ãĥ³ãĥĩãĤ£ ãĤ¢ãĥĬ
ãĥ³ãĥķãĥ© ãĥ³ãĤ·ãĤ¹ãĤ³
w ar
~ '''
ãĥ¬ ãĥŁ
ãĥĩ ãĤ¸
æķĻ åĽ£
ç® ķ
Ġ27 2
In ter
ĠGeh rels
O ver
R ec
Ġæł ª
ĠCo ast
éĽ» åĮĸ
Ġ3 08
ãĢı '''
ãĤ± ãĥ¼ãĤ¿ãĤ¤
åľŃ å¤ª
pl ay
ott om
i C
å¹³ åĩ¡ç¤¾
åĿ Ģ
æµģ æĺŁ
ĠãĥĶ ãĥ¼ãĥĪ
96 2
Ġæ·¡ è·¯
ãģ¾ ãģĵãģ¨
ĠãĤ¨ ãĤŃ
Ġçı¾ è¡Į
æķĻèĤ² åŃ¦æł¡
å·¥æ¥Ń åĽ£åľ°
ĠæľĿ æĹ¥æĶ¾éĢģ
ãĥģãĤ§ ãĥŃ
ĠæĿ±æµ· å¤§
ĠãĤ¹ãĥĨ ãĥķãĤ¡
æ»ĭ è³Ģ
Ġæ®º äºº
0 13
ĠS QUARE
ul ation
å§ĭ ãģ¾ãĤĭ
çĹħ æ£Ł
åĺ ©
ãģľ ãĤĵ
Ġèĳī å±±
ĠT y
and s
47 4
Ġä¹Ĺ è»Ĭ
ĠC AF
ãģŁ ãģª
ãģ° ãģĹ
ĠCh art
ãĥ³ãĥķ ãĥ¬
Ġé»Ĵ æ²¢
ĠèŃ ·
Ġçī¹åĪ¥ ç·¨
Ġ äºĭæķħ
Ġ27 4
ĠTBS ãĥĨãĥ¬ãĥĵ
åĽ½ç«ĭ åħ¬åľĴ
Ġé£Ł åĵģ
éĩ £ãĤĬ
å¤§ çĶŁ
ĠF ace
ĠG E
èĹ¤ æ²¢
ç³» ãģ®
Ġ25 4
ç·ı éĽĨç·¨
ard o
éŃ ģ
ãĥ¼ãĥĸ ãĥ©ãĥ³ãĥī
ĠTR ACK
çīŁ çĶ°
z ig
å¤§ å¥½ãģį
ãĥķ ãĥĥãĥĪ
Ġt op
ãĤ¹ãĥĪ ãĥªãĥ¼ãĥł
äºĮ ä¸ī
ĠãĥŁ ãĤ¹ãĥĨ
æľī æĸĻ
ãĥ¼ãĥĻ ãĥ³
ĠMem ories
in ese
ĠF ox
ĠN i
ãĥ¯ ãĤ·
Ġãĥª ãĤ«ãĥ«ãĥī
Ġå¯ Ĵ
å¦ Ħæĥ³
å¹¹ å¤«
Ġä¸ĢèĪ¬ ç¤¾åĽ£æ³ķäºº
ĠTO Y
ĠTH R
ĠãĥĴãĥ¥ãĥ¼ ãĤ¹ãĥĪãĥ³
Î ½
ĠB ild
st e
éĥ¡ å±±
ç¨® çĽ®
ãĥ¼ãĥĭ ãĥĲãĥ«
å¢¨ çĶ»
r Ã©
ol k
Ġãĥŀ ãĥĥãĥī
Ġv iew
ĠãģŁ ãģĦ
ĠT OR
ĠP ot
Ġ25 8
ãĤŃãĥ£ ãĥªãĤ¢
åŃĿ ä¸Ģ
ãĥĮ ãĤ¤
Ġæ¥Ń åĭĻ
ãģį ãģ¿
æŃ£ ä¹ĭ
ä¸» äºº
ab eth
Ġåĳ¨ æ³¢æķ°
D OG
L IGHT
æĹ ¢
05 6
Ġå°ıéĩİ å¯º
Ġz u
Ĥ ãģ®
äºº ç¤¾
ãĥŀ ãĥ¼ãĤº
æľ¨ æĽ½
ĠK un
AN O
ĠæĿ¾ æĪ¸
Ġ27 3
Ġè¦³ å®¢
ĠHE AD
ĠæĸĻ çĲĨ
å¥ı èĢħ
M il
Ġãĥŀ ãĥ³ãĥģãĤ§ãĤ¹ãĤ¿ãĥ¼
Ġ26 9
æľī åĲįäºº
çĻºå£² æĹ¥
æµ® æ¨Ļ
ĠC T
ãĥĳ ãĥ¼ãĥĨãĤ£ãĥ¼
ãĥľ ãĥ«ãĥ³
Ġm a
ãĤ¸ãĥ¥ ãĥ³
Ġéİ ®
ĠDE AD
åĽĽéĩį å¥ıæĽ²
Ġæ¸Ľ çĤ¹
8 76
le m
ce an
åıĭ ç¤¾
Ġä¹ħ çķĻç±³
Ġæ¹ Ĭ
ãģªãģĭ ãģ£ãģŁ
LA ST
Ġçµ± è¨Ī
ĠMount ain
E r
Ð ±
ĠP ARK
æķĻ å®ĺ
å®Ł è·µ
åĪĿ çĻ»åł´
ä¸ĥ ä¸ģçĽ®
SC L
ĠSy mph
tra ck
ĠNov ember
T unes
Ġå°ı æ¨½
Ġm em
çł ¦
ĠãĤ³ ãĥ¼ãĤ¹
ãĤ·ãĥ£ ãĥ¯
Ġãģ§ ãģ¯
èªķçĶŁ æĹ¥
åħ¬ æĸĩåº«
å¤ª å¹³
ĠãĤ¦ ãĥ«
ç·ı è£ģ
IM A
æĸ¬ ãĤĬ
ĠRain bow
8 75
S ky
Ġãĥª ãĥ¢
48 2
IC O
åĲī å²¡
Ġ26 6
av es
ĠæıĲ ä¾Ľ
0 12
0 15
æľĪ ãģ¾ãģ§
ĠT ower
ãĤª ãĤ«
å¿Ĺ æĿĳ
ĠãĥĹãĥŃ éĩİçĲĥ
Ġçı¾å½¹ å¼ķéĢĢ
ãĤī ãĤī
56 2
ĠãĤ¢ãĥĭãĥ¡ ãĥ¼ãĤ·ãĥ§
ĠãģĨ ãģĪ
ĠM T
ãģ¿ ãģŁ
è¡¨ ç´Ļ
99 7
çģ« ãģ®
Ġéĺ¿ æ³¢
ĠãĤ¯ãĥ© ãĤ¦
ĠStud y
ãģ®èĬ± å«ģ
Ġå°ıèª¬ å®¶
ãģ¨åħ± ãģ«
æĺłçĶ»æī¹è©ķå®¶ åįĶä¼ļè³ŀ
ãĥ¡ ãĥŃãĥ³
é§ħ éĸĭæ¥Ń
ä»ķäºĭ äºº
å±± å¯º
ĠH aw
å¤ļ ãģĦ
98 6
å¤©æĸĩ åı°
çĳŀå®Ŀ ç«ł
æ± ļ
ãĤ´ ãĥł
55 1
49 3
Ġæ± Ĳ
Ġåº ı
Ġæĸĩ åº«
èĲ© åİŁ
ĠãģĬãĤĤ ãģª
ãĤĭ ãģ¾
åĪ¶ æľį
Ġéĸ¢è¥¿ ãĥĨãĥ¬ãĥĵ
.... ....
' ve
å¤§ æ²¢
ãĥģãĤ§ ãĥĥãĤ¯
Ġçģ ½
ĠFl ag
NE WS
Ġro ad
Ġtra x
C OL
ì Ħ
ĠB ang
ç¤ ģ
ing en
å°ı å®¤åĵ²åĵī
Ġå±± æł¹
åİļçĶŁ å¹´éĩĳ
W H
¤ éĩı
ãĥ© ãĥĹ
ĠãĥŁ ãĤµ
åľŁ åľ°
Ġå¾© æ´»
B Y
b ach
æĽ ³
ãĥĨ ãĥ¼ãĥĸãĥ«
åĴĮ éĽĦ
èĬ ¹
ãĥĩãĤ£ ãĥ³
å¹¸ å¤«
çµµ å·»
è§£ éĻ¤
Ð¾ ÑĢ
ĠBar b
Ġæ¤į çī©
5 33
B el
åı Ķ
ãĥĿ ãĥĥãĥĹ
ĠéĢ ģ
éĽ» æĴĥ
Ġ100 00
Ġ ä¹ĥæľ¨åĿĤ
åĮĹ æĸĹ
76 2
BO YS
ĠBR M
Ge orge
ãĤ³ãĥ¼ãĥĿ ãĥ¬ãĥ¼ãĤ·ãĥ§ãĥ³
19 02
Ġå¤§ æ±ŁæĪ¸
ĠK ong
Ġå°ı çī§
ĠãĥĲ ãĥ³ãĤ³ãĤ¯
sh ine
M ad
o ire
ĠA X
ãģĤ ãģ®
çī© çĲĨåŃ¦
ap h
éĤ¦ å¤«
Ġãģ¡ ãĤĩ
ãģĹãģı ãģ¯
Ġä¸ ²
Ġ4 30
he w
æĿ± çĶº
çłĶ äºĮ
ãĥıãĤ¤ ãĤª
çĬ¯ ç§ĳ
ĠäºĪ åĤĻ
ãĤ¤ ãĤ¸
ĠH ug
ĠW WE
ãģ§ æĶ¾éĢģ
æĸ° æ½®æĸĩåº«
ãģ£ ãģ¡ãĤĥãĤĵ
éĩĮ èıľ
æµľ é§ħ
Ġå¿ ĺ
ãģĭ ãģªãģĦ
æĿ± æµ·éģĵ
ãĥ¼ãĤ¸ ãĥĭãĤ¢
åĲī æĿĳ
äºĶ åįģåµĲ
çļ ĵ
Ġãģ¨ ãģĹ
Ġä¹Ĺ ãĤĬ
éŃļ éĽ·
ĠãĤ»ãĥ³ãĥĪ ãĥ«ãĤ¤ãĤ¹
Ġä¸¹ æ³¢
å¿ĺ ãĤĮ
T ype
r ight
re me
ãĥ¼ãĤ¸ ãĥĬãĥ«
ĠãĥŁ ãĥ©
Ġãĥĳ ãĥ³
Ġãĥ¦ ãĥªãĤ¦ãĤ¹
ãģĿãĤĮ ãģŀ
ĠãĤ°ãĥ«ãĥ¼ãĥĹãĥªãĥ¼ãĤ° æķĹéĢĢ
ĠR UN
ĠH OME
ĠèĹ¤ æŀĿ
Ġéģ¸æīĭ ãģ¨ãģĹãģ¦ãģ®çī¹å¾´
ĠãĤĪ ãģ¿
ãĤª ãĥ¼ãĥĲãĥ¼
AN ET
Ġä¸ī ãĥĦ
Ġ26 7
56 3
Ġãģķ ãĤīãģ°
ĠPro cess
ãĥ¼ãĥı ãĤ¤
å°ı éļĬ
è³ŀ éĩĳ
ĠéĢ ¸
æĦĽ ç¾İ
ri er
éĩİçĲĥ éĢ£çĽŁ
Ġæģ Ĵ
0 16
9 05
äºķ å¸Ĥ
Ġä¸ī è¼ª
ç³» èŃľ
åħ¬åľĴ é§ħ
æ§ ½
uc lear
Ġåı¤ çĶ°
ãĥĹãĥ¬ ãĥ¼
æĺĮ å®ı
ãĥĭ ãĥ¼ãĤŃãĥ£
èĦ ©
è§£ æŀĲ
R F
§ åĺ©
ãĥĥ ãĥĢ
ĠB rian
è°· çĶº
èĭ± æĸĩ
49 2
çī¹ æįľ
hel m
ĠHEA VEN
ĠN ob
æ´ Ľ
ãģĤ ãģĭãĤĬ
000 1
ãĤ¤ãĤ¹ ãĤ¯ãĥ¼ãĥ«
Ġçĸ ¾
å¥³ åŃ¦éĻ¢
éħ¸ åĮĸ
ç¶¬ ç«ł
H ot
ì §
ĠD ictionary
ãģĮ å¥½ãģį
ĠSt ra
å¾¡ çİĩ
Sil ver
8 33
ãģ® ãĤĤãģ®
ĠS us
ãĤ« ãĥ¼ãĥ³
éĽ ĩ
Ġb et
åĮĹ éĩİ
56 5
76 5
itt en
ĠCH A
Ġæ°´ æ³³
ĠãĤ± ãĥ¼ãĥĸãĥ«
å¥ı æ¥½
ãĥªãĤ¨ ãĥĥãĥĪ
Ġçīĩ æ¡Ĳ
åĽ½ç«ĭ åįļçī©é¤¨
ĠFU JI
9 10
u ce
ĠD OG
ãģĮ ãģŃ
ãĤ¹ãĤ¿ ãĥ³ãĥī
çĽ´ å¾Ħ
Ġå¤© çĦ¶
ci ous
Ġ )ãĢģ
Ġd ream
60 2
éļĬ åĵ¡
à¸ ±
Ġr pm
Ġè³ ¢
Ġç¢ §
ĠAff air
4 21
ãģĭ ãģĪ
ãģĮ çĻ»åł´
éĥ½ åŃĲ
ĠSt eve
ç·ıåĲĪ æĮ¯èĪĪå±Ģ
Ġç© į
ODY Z
9 20
y g
åįĹ åĮĹ
OR O
ĠèĬ± çİĭ
ĠãģĿ ãģĹãģ¦
Ġãģ¿ãĤĵãģª ãģ®
M em
V o
å¹´ ãģ¯
ĠP erson
ĠL ET
ãĥĭ ãĥķãĤ¡ãĥ¼
ãģĭ ãĤĤ
Ġãĥī ãĥĬãĥ«ãĥī
éīĦéģĵ ç·ļ
è¶³ åĪ©
TA IN
çĤİ ãģ®
ãĤ¸ãĥ£ãĥį ãĤ¤ãĥŃ
é ¥
æľ¬ å¤ļ
ĠA I
Ġå´ Ķ
ĠDec ember
ĠãĤ²ãĤ¤ ãĥªãĥ¼
b ell
ĠS AT
ãĥĩãĤ£ ãĤ½ãĥ³
å£² ãĤĬ
éĽĦ å¤ª
Ġç¥ Ĳ
b ur
ĠG raph
ãĤ¹ãĥĪ ãĥ©ãĥ³
ĠV E
ĠãĥķãĤ¡ ãĤ¤ãĤ¢
Ġ28 5
ãĥ¼ãĥĩ ãĥ«
è«ĸ éĽĨ
ãĥª ãĥŁãĥĥãĤ¯ãĤ¹
ãģŁ ãģ®
ä¸Ń è¥¿
æĸĩ åŃĲ
äº¬ éĺª
ãĥķãĤ£ ãĥª
ãĥŃãĥĵ ãĥ³ãĤ½ãĥ³
u ct
ãĤ¹ãĥĪ ãĥĥãĥĹ
ĠAL IVE
ãģĤãģļ ãģķ
ĠCoun cil
R oy
åĴĮ ç¾İ
ĠãĤµ ãĤ¦
æľª åĭĿåĪ©
Ġåı¤ æ²³
ãĥģãĤ§ ãĥ³
å¹ħ è·³
Ġå·¨ å¤§
v as
Ġåı Ī
ãĥĳ ãĤ¦
ad es
ĠãģŁ ãģı
ãĥ¼ãĤ» ãĥ³
W ii
ĠR FC
Ġ18 64
ãģ° ãĤĮ
ãĢħ ãģ®
ãĤŃãĥ£ ãĥĥãĥĪ
Ġç´ ¯
Ġçľ ¼
ĠHe in
ĠåĬĩ ä¸Ń
ãĥĸãĥ¬ ãĥ¼ãĥī
Ġâĸ ²
é£Ľè¡Į éļĬ
ĠãĥķãĤ¡ãĤ¤ãĥĬãĥ« ãĥķãĤ¡ãĥ³ãĤ¿ãĤ¸ãĥ¼
Ġæ ķ·
ĠE s
éĥ½ å¿ĥ
Ġãĥ© ãĥł
Ġæ°´ åİŁ
çĽ´ åĵī
æľª åıİéĮ²
ãĤ¦ãĤ© ãĥ¼ãĤ¯
ä¸ĸç´Ģ ãģ®
vent ion
Ġä»ķ æ§ĺ
iec e
ãĥī ãĤŃãĥ¥ãĥ¡ãĥ³ãĥĪ
ä¸Ģ çĶ·
ĠF ord
ä¸Ń ä¸ĸ
ä¸Ĭ æĿĳ
å°ı è¥¿
åĪĨ å²Ĳ
ç³» åĽ³
ãĥŁãĥ¥ ãĤ¨ãĥ«
ĠMak ing
ĠD oll
ĠH unt
ing u
çļĩ åĲİ
Ġç¯ Ģ
ĠMix ed
ĠR T
åĩº åľŁ
ãĤ½ ãĥĭãĥ¼
éĩį è¤ĩ
ãĥ¼ãĤ« ãĥ¼ãĥī
Ġæķ ¬
Ġé£Ľ é³¥
ĠæĶ¾æĺł å¹´
ãĥķãĤ©ãĥ¼ãĥŀ ãĥ³ãĤ¹
W est
''' ãĢģ
å¤§ äºķ
ĠN GC
æ¨ º
ĠIn s
ãģĬãĤĪãģ³ çłĶç©¶
ĠMil itary
æĢ§ è³ª
Ġç«¶èµ° æĪĲç¸¾
5 23
ãĤ¨ ãĥ³ãĥĩãĤ£ãĥ³ãĤ°
ãģĤãĤĬ ãģĮãģ¨ãģĨ
å¥Īèī¯ çľĮ
æľĢå¤§ ãģ®
an th
ç¾İ ä½Ĳ
æŃ£ ç¾İ
ãĤģ ãģĦ
AM URA
Ġç´ º
ĠãĥĹãĥŃ ãĤ°ãĥ©ãĥł
ĠTV ãĤ¢ãĥĭãĥ¡
ãĥĥãĤŃ ãĥª
Ġæ¼«çĶ» å®¶
b en
å¤ ·
ãģŁ ãģ³
Ġãĥ« ãĥĳãĥ³ä¸īä¸ĸ
çİī å·Ŀ
Ġèĺ Ń
B ro
N K
ãĥŃ ãĤ¤ãĥ¤ãĥ«
ĠãĤ¢ ãĥĥãĥĹ
ãĥĥãĥĪ ãĤ¬ãĥ«ãĥĪ
Ġãĥŀ ãĥī
Ġè¨ĺ äºĭ
ĠWOR KS
éĪ´ é¹¿
ãĥ«ãĥĬ ãĥ³ãĥĩãĤ¹
g or
i ant
è± ļ
ãĤ¸ãĤ§ ãĥ¼ãĥłãĤº
ãĥ¼ãĥĲ ãĥ©
ĠCl a
å¿ł èĩ£èĶµ
ä»¥éĻį ãģ®
Ġå¼ķéĢĢ å¾Į
8 40
ĠT aylor
ĠK it
åĮĹ éģĵ
ãĤı ãĤĵ
AS URE
Ġçµ± åĲĪ
B F
L ist
g ent
z h
ĠO t
om ic
Ġp ower
Ġå¤© æīį
Ġéĥ½å¸Ĥ ãģ¨çĶº
ãĤ»ãĥ³ãĥĪ ãĥ©ãĥ«
ĠGh ost
ãģĤ ãģĴ
78 9
49 5
OK AWA
æĴĥ ãģ®
å¾® åĪĨ
Ġèĥ ¡
ãĤ¢ ãĤ¯ãĤ¿ãĥ¼
is ch
ãĤĴ å®Ī
ĠãĤª ãĥļãĥ©
Ġm ac
ang o
ĠãĤ± ãĤ¤ãĥĪ
Ġãĥ¨ ãĥıãĥ³
Ġç§ģ ãģ¯
ĠOP EN
ĠãĤ¨ ãĤ¹
ĠæĿ¾ å´İ
ab a
58 4
ĠãĤ¢ãĥ« ãĤ¼ãĥ³ãĥģãĥ³
99 6
ĠãģĹ ãģļ
è©ķè«ĸ ç¤¾
æľĪä¸ĭ æĹ¬
Ġ3 90
Ġ26 1
Ġ27 9
Ġæºĸ çµ¶æ»ħåį±æĥ§
ãĥĸãĥŃ ãĥĥãĤ«ãĥ¼
çŁŃ ç·¨éĽĨ
ĠÐ ¡
ĠEng land
i ation
ar in
ç´ Ľ
å°ı çĻ¾åĲĪ
ĠãĥĻ ãĥį
ĠãģĦ ãģ¤
å¤± çĤ¹
ĠãģĤãģį ãĤī
ĠR am
Ġæĸ ¤éĩı
Ġä¸Ń ç¶Ļ
æµ· èĢģ
Ġãĥĭ ãĥ³ãĥĨãĥ³ãĥīãĥ¼
Ġå¯Į å²¡
5 15
ãĥª ãĤ¾ãĥ¼ãĥĪ
ĠB AS
ĠE th
ĠæĹ¥æľ¬ æµ·
ĠIm p
Ġæīĵ çİĩ
Ġå°ı æ¾¤
ĠãĤµ ãĥ³ãĥĪãĥªãĥ¼
åºĹ éķ·
ä¿® å£«
Ġãģ¾ ãģĦ
Ġæĸ½ è¡Į
è¹ Ł
Ac oustic
é«ĺè¦ıæł¼ éģĵè·¯
ãĤ¦ ãĥĲãĥ¼
ĠãĤ¹ ãĥĪãĥŃ
Ġå° ģ
ĠK on
Ġl ine
ãĤ¹ãĥĨãĤ£ ãĥ¼ãĥ´
é¹¿åħĲ å³¶çľĮ
Ġ äºĭ
ãĥŃ ãĥ¼ãĥĹ
Ġf ile
ãĥ´ ãĥ³
Ġ#* *
åķĨ ä¼ļ
ãĥ³ãĤ« ãĥĥãĥĹ
land s
duc er
æµ·è»įèī¦èīĩ ä¸Ģè¦§
L ong
N OT
AN E
Ġè£ ¸
Ġå²¡ éĩİ
Ġå®ļ æķ°
ìĿ ĺ
Ang el
Ġ4 48
ãĤ³ ãĥ³ãĤµ
ĠR V
éģĵ ä¸Ń
ãĥľ ãĥ¼ãĤ°
çĶ± è²´
Ġä½Ĳ å·Ŀ
ãĤ°ãĥ© ãĥĵãĤ¢
58 5
Ġæľ¨ æĽ½
è¿½ è·¡
P ART
ãĤ· ãĥ¼ãĥĪ
å¤§ çİĭ
ç¥¥ åŃĲ
'' ãĢģ
Ġ''' ãĢİ
ä¸» å°Ĩ
60 4
Ġãĥĳ ãĤ¤ãĥŃãĥĥãĥĪ
Ġæ³ £
æħ ķ
eat her
Ġå¥ĩ è·¡
ĠãĥĢãĤ¦ ãĥ³ãĥŃãĥ¼ãĥī
B åŀĭ
ĠMem orial
ĠãĤ¹ãĥĪãĥª ãĥ¼ãĥĪ
Ġtw o
Ġ %
ãĤ« ãĥ¼ãĤ¿ãĥ¼
åħ¬ ä¸Ģ
Ġp op
ĠAs ian
ĠãĥķãĥŃ ãĥ¼ãĥ©
eth ing
0 25
æĹ¥æľ¬ éīĦéģĵ
SB S
Ġc ir
çŃī ãģ®
çĽ£ æŁ»
Ã¤ r
ĠPrinc ess
C ry
Ġd ec
ĠSc ale
å¾ĭ åŃĲ
ĠæľĢçµĤ åĽŀ
Ġåı² è·¡
çı¾ åĥı
ãĥ¼ãĥŃ ãĥĥãĤ¯
Ġæ¨ª çĶ°
å®ı æ¨¹
ĠåĬł çĢ¬
Ġè¿ĳ ä¸ĸ
ãĥ³ãĤ» ãĥĹãĥĪ
ĠæĹ§ åĪ¶
æĮ¯ ãĤĬ
Ġåı¸ æ³ķ
ĠInv est
ãĤ« ãĤ»ãĥĥãĥĪ
æĽ² ä¸Ģ
Ġ8 02
ĠãĥŁ ãĥ¤
ãĤĵãģĺ ãĤĥ
Ġæ¤į çĶ°
ĠãĤ³ãĥŁãĥ¥ãĥĭ ãĥĨãĤ£
ãĤ¤ ãĥª
ãģ« ãģ»
ĠãĤ³ ãĥ³ãĥĶãĥ¬ãĥ¼ãĤ·ãĥ§ãĥ³
ĠæĶ¿ åºľ
ĠGerman y
ãĥĩ ãĥ¼ãĥ«
ĠH IT
ãĥ³ãĤ° ãĥŃãĥ¼ãĥĸ
ĠK az
Ġåľ ı
åĮĸ æĪĲ
56 7
ãĤ¹ãĤ« ãĥ¼
ĠãĤ¸ãĥ¥ ãĥªãĤ¢ãĥ³
ãĥķãĤ¡ãĤ¤ ãĥĸ
5 45
H N
ãĤ ŀ
å·Ŀ å¤§è¼Ķ
ãĥį ãĥ©ãĥ«
Ġå±± éĩİ
çľŁ æ¾Ħ
å°± èĪª
ãģĻãģļ ãģį
Ġãĥ¬ãĤ®ãĥ¥ãĥ© ãĥ¼ãĤ·ãĥ¼ãĤºãĥ³
ĠT est
ĠãĥŃ ãĥĸ
ber ry
æ·¡ è·¯
çŀ¬ éĸĵ
ĠM EX
ri ke
ãĤ¸ãĤ§ ãĥ«
Ġå¾Ĺ æĦı
ĠQu est
åł °
if y
è²´ åı²
Ġãĥİ ãĥ«ãĤ¦ãĤ§ãĥ¼
èĹ »
Ġå¤ľ ãģ®
ĠIsland s
ĠNav al
ãĥ©ãĤ¤ãĥĸãĥ© ãĥªãĥ¼
ãģ² ãĤĭ
å¤ľ ãģ¯
åħ¬ å¹³
å¤ª åĪĢ
Ġg ener
Ġãģ² ãģ§
æķı éĥİ
Ġæµģ éĢļ
è»Ĭè¼ Į
ĠãĤ¨ãĤ°ãĤ¼ ãĤ¯ãĥĨãĤ£ãĥĸ
æ± °
çµĦ éķ·
ä¸į è¶³
Ġåħ« éĩį
èĩ¨ æµ·
5 21
b i
ãĥĩ ãĥª
it ation
ãĥ¡ ãĤ¢
ãĥĳ ãĥ¼ãĤ«ãĥ¼
å¹¸ ä¸Ģ
æ¢¨ åŃĲ
Ġéģł å±±
ĠçĨ± ä¸Ń
äºº é¡ŀ
ĠN T
ĠãĥĲ ãĥ¼ãĥĪ
çĶ± è¡£
55 2
Ġãģ² ãģ¨
ãĥĪãĤ¥ ãĥ«
Ġè¤ĩ æķ°
ãĤ¢ ãĥ¼ãĤ¯
åĨ ´
å½ĵ éģ¸
åĸ¶ åľ°ä¸ĭéīĦ
ãĥĭãĥ¼ãĤŃãĥ£ ãĥĭãĤªãĥ³
Ġ3 09
le e
é«ĺ å²¡
éĸĭ é¤¨
Ġãĥ© ãĥ«ãĥķ
æŃĮ ãģĨ
98 9
ãĥŀãĤ¤ ãĥ³ãĥī
ãĥĪãĤ¥ ãĥĥãĥĪãĤ¬ãĥ«ãĥĪ
Ġå¹ķ å¼µ
Ġéĩľ å±±
ãĥª ãĥ³ãĥĶãĥĥãĤ¯
ic he
ĠY U
ĠãĥĪ ãĥ«
56 1
æľª å®ļ
æĽ´ æ´¥
ĠæķĻèĤ² ãģĬãĤĪãģ³çłĶç©¶
æĪ¦éļĬ ãĤ´
0 60
4 32
Ġ ext
Ġ4 76
ãĤŃ ãĥĬ
Ġãĥĩ ãĥĥãĥī
ãĤ² ãĤ²
æµľ å¸Ĥ
ä»¥ å¾Į
Ġè± ¡
Ġéģĭ åĸ¶
è¦³åħī ãĥĲãĤ¹
ĠãĥŁãĥ¥ ãĥ³ãĥĺãĥ³
Ġå±ŀ æĢ§
ãĥ ±
æŃ£ å½¦
ç¶ º
ok u
ord on
æ§ĭ æĥ³
ĠæĮ ĳæĪ¦
æķ´åĤĻ å±Ģ
Ġèĥ½ çĻ»
çĳł çĴĥ
ãģ® æ¶Ļ
19 04
å¤§ åİŁ
ãĥĩ ãĤ¸ãĥ£ãĥįãĤ¤ãĥŃ
éĢļ éģĭ
åĮĹ å°ıåŃ¦æł¡
å¹¸ ç¦ı
Ġ27 7
Ġar ch
Ġåģľ è»Ĭ
4 24
U FF
Ø ¯
å¤§ éľĩçģ½
ĠãĤ¢ ãĤ·ãĥ¥
ãĤĮ ãģ³
è¥¿ çĶº
Ġå¾ ®
å®® æ®¿
78 8
OR D
ä»ĭ èŃ·
è³Ģ å¸Ĥ
Ġn umber
ĠEl st
è¨ºçĻĤ æīĢ
æĹ¥ çĶŁãģ¾ãĤĮ
äºº ãģĮ
éĸ ¥
ãģ¾ ãĤĨãģ¿
èĢħ ãģ¯
Ġèı ±
ãĥªãĤ¨ ãĥ¼ãĤ·ãĥ§ãĥ³
( ?
B P
ãĤĴ åĳ¼ãģ¶
ãĥı ãĥĦ
æµ© ä¹ĭ
ĠçĶ· å¥³
Ġä»Ĭ éĩİ
ment s
ĠåĲĪ åĶ±
Ġãĥ´ãĤ¡ ãĤ¤ãĤªãĥªãĥ³
ĠãĤ¦ãĤ© ãĥ«ãĤ¿ãĥ¼
ãĤµãĥ³ãĥī ãĥŃ
Ġè£ħ çĶ²
ãĥŀãĤ· ãĥ¼ãĥ³
I f
O FF
ĠãĥĢ ãĥĵ
Ġãĥ« ãĥį
ĠâĢ ł
ĠãĥĻãĤ¹ãĥĪ ãĤ¢ãĥ«ãĥĲãĥł
ãģ®æ¯į è¦ª
æį· éģĭ
Î »
ç§ĳ åĮ»
Ġin formation
UT E
ĠGo es
Ġæĥ ĳ
ĠSM R
çĨ Ļ
F D
éĥ µæĶ¿
ãĤ· ãĥ³ãĤŃ
ĠãĤ¢ ãĥĲ
ãĤı ãĤĬãģ®
Ġä¸ī æ²³
äºĶ ä½įä¸ĭ
å¯¾ è«ĩ
ĠInter view
ĠMex ico
å·Ŀ æ©ĭ
ãĤĴ åĪ¶å®ļ
IN S
æĺĩ ä»»
ãģ®å¥³ æĢ§
åĨ¬ ãģ®
ãĥŁãĤ¹ãĥĨ ãĥª
Ġéį ĭ
ãĤªãĥķãĤ£ãĤ·ãĥ£ãĥ« ãĤµãĤ¤ãĥĪ
åĩ½ æķ°
äºº ãģ¯
ig en
ĠãĤ¿ ãĥ¼ãĥľ
ĠDr ive
Ġãĥīãĥ©ãĤ´ ãĥ³ãĤ¯ãĤ¨ãĤ¹ãĥĪ
ä¸ī çĶ°
ç¦ı éŁ³
Ġåī Ľ
å¼ĺ æĸĩé¤¨
çµĲ è¡£
ĠBl vd
ãģ¹ ãĤĭ
ĠChild ren
Ġ18 63
çīĩ å²¡
ãĤ¹ãĥĨãĥ« ãĥĢãĥł
¥ å·Ŀ
ãģ¿ ãģŃ
ĠãĤ¸ ãĥ«
ãģĺ ãĤħãģĨ
ĠåĮĹ å³¶
08 3
58 8
ä¸ĩ æľ¬
Ġå¤§éĺª åŁİ
ĠSp irit
Ġãģ¿ ãģ©ãĤĬ
æľĹ èªŃ
ĠåĪ¥ åĨĬ
æł¼éĹĺ å®¶
ĠãĤ¢ ãĥ¬ãĥĥ
55 8
éĥ· çĶº
Ġèı ľ
ĠèĦļæľ¬ è³ŀ
æĳ ĺ
Ġéĥ¡ åĨħãģ®ä½įç½®
Ġè¶Ĭ å¾Į
Ġtra ck
åİļçĶŁå¹´éĩĳ ä¼ļé¤¨
M art
ãģĹ ãģª
Ġ18 67
ãģ¡ ãĤħ
ĠåĪ Ī
ĠãĥĢ ãĥĭ
Ġãģµ ãģŁãĤĬ
æµħ éĩİ
UK U
ĠãĤµãĤ¤ ãĥ¢ãĥ³
ĠRE AL
ĠåĪĬ è¡Į
çĬ¯ç§ĳ å¸³
Ġ rad
åŃĲ ãģ©ãĤĤ
ãĥŀ ãĤ¯ãĥŃãĤ¹
äº¬ æĪĲ
Ġãĥı ãĥĥãĥĶ
Ġå®® åı¤
Ġæ±º å®ļ
Ġep isode
æ¼ģæ¥Ń åįĶåĲĮçµĦåĲĪ
C HI
H rsg
ãĤ¤ ãĤªãĥ³
Ġç¬¬ ä¸ĥ
ĠJ ung
æŀ ķ
Ġåĩº èµ°
çĶ¨ ãģ®
ĠãĥĢ ãĤ¤ãĤ¢
E nd
Ġ6 50
å¹³ å¡ļ
78 6
56 9
ãĥķãĤ§ ãĤ¹ãĤ¿
æ¤ ĭ
Ġé§ħ åīį
èªł ä¸Ģéĥİ
åŃ¦ ãģ¶
å¯ ¦
ãģĤ ãģĬãģĦ
ãĤ½ ãĥĬ
ä¸ĭ çĶº
Ġæµ ©
ãĥ¼ãĥª ãĥ³ãĤº
Ġè£ħ åĤĻ
M ax
ãĤµ ãĤ·
åºĹ ä¸»
ãĥķãĤ¡ ãĥ¼ãĥł
å¸Ĥç«ĭ æĿ±
IV ER
æĶ» çķ¥
ãĥ¬ãĥĥãĤ½ å¤§éĺª
ãĤ¹ ãĤºãĤŃ
ãĥ© ãĥ¼ãĥ«
ĠN ar
ĠJ er
åı² æĸĻ
ãĥĿ ãĥ³ãĥī
å» ł
Ġ#: *
æģĭ ãģĻãĤĭ
ãĥķãĥ¬ ãĥ³ãĤº
æľĪ ä¸Ĭ
ĠH orn
ĠW atch
ĠçĻº è¡¨
5 37
c ent
ãĥĭ ãĥĥãĥĪ
è¨ĺ è¿°
Ġä» ¤
åħ¥ ç¤¾
Ġ25 7
æīĵ å·®
ĠGal axy
ãĥ¬ ãĥ³ãĤº
ĠP ast
éĽ» æ±ł
çłĶç©¶ éĥ¨
Ġçģ °
ĠCM ãĤ½ãĥ³ãĤ°
æĸİ æ©ĭ
Ġå¸¸ ç£Ĳ
æĹ¥ éĸ²è¦§
Ġé Ĩ
å¤§ åĬ©
55 9
ãĤ¯ãĥŃ ãĥ¼ãĥī
ç¯Ģ åŃĲ
ãĥ³ãĥĵ ãĥ«
ĠåĮ» åŃ¦
Ġbl ue
ãĢı ãĢĤ
éģĵ ãģ®
ãĤ¤ãĥ³ ãĤ¹ãĥĪ
çµĤ ãĤıãĤĬ
è¨Ģ ãģĨ
Ġéģĵãģ®é§ħ ä¸Ģè¦§
ãĤ· ãĥ¼ãĥī
ãĥĭ ãĥ¼ãĤ¿
ĠR AM
ĠãĤ¢ ãĤ¯ãĤ·
çī© è³ª
Ġd ist
éĸĭ å¹ķ
åĮĹ æĿ¡
Ġ30 2
ãĥ³ãĥĨ ãĥ¬ãĥĵ
Ġå®ī äºķ
Ġå£ ¬
ĠHar ris
NE O
ì ŀ
ãĥĨ ãĤŃ
æĺĮ å¼ĺ
éģĬ åľĴ
Ġè¸Ĭ ãĤĭ
è¡ĮéĢ² æĽ²
N ever
ri ft
Ġ28 8
Ġn ame
Ġä»Ĭ æ²»
ãĥľãĥ¼ãĥ« éĥ¨
Ðµ ÑĢ
ãĥĵ ãĥĥãĤ¯
Ġ28 2
é¨İ åħµ
ĠæĪ¸ å¡ļ
è¨± åı¯
ĠGRE EN
9 30
g et
ĠC ROSS
éĸ ĳ
ĠN R
ãĤĴ ãĤĤ
ĠãĤ« ãĥ¼ãĥĪ
å» Ł
ĠEX P
ĠçĿĢ å·®
ĠPrem ium
Ġç¸Ħ æĸĩ
Q ue
æĹ¥ æĶ¹æŃ£
ĠB LOOD
çĶŁ èªķ
æ³ī ç¤¾
ond e
Ġéĸĭ å±Ģ
æģĲ ç«ľ
b one
w orth
ãĤ¤ ãĥĥãĥĪ
ĠA E
ãĥĽ ãĥŀ
ab or
Ġæī ĩ
our ces
ĠçľŁ è¨Ģå®Ĺ
èĪŀ é¶´
æłĦ çĶº
ãģ®ãĤ« ãĥĲãĥ¼
4 19
Ñ ħ
å±± åı¤å¢³
ĠR ub
çĶŁ æĪĲ
ID AY
ĠMed ical
em y
Ġè¥¿ åľĴ
çĶ± åĪ©
59 9
æ³ī å¯º
ä¿Ĥ éķ·
çī§ éĩİ
Ġåľ¨ä»» æľŁéĸĵ
ĠL D
Ġåı ª
çĶŁ æħĭ
ĠK in
ãĥªãĤª ãĥĥãĥĪ
Ġå®ĩ æ²»
Ġãĥ©ãĤ¤ãĥĪ ç´ļ
æĻ®éĢļ ç§ĳ
! ãĢį(
æĹ¥ åħ¬éĸĭ
ĠP i
ĠCon ference
Ġãģ«å¯¾ ãģĹ
6 35
7 07
è³ ¼åħ¥
ĠE ric
ĠK am
ãĥļ ãĥ¬ãĤ¹
Ð ¿
æŃ£ ä¸Ģ
Ġè¥¿ å²¡
58 1
ĠMISS ION
Ġp ubl
å®® åĨħ
åģ¥ ä¸Ģéĥİ
ãĥ³ãĥı ãĤ¦ãĤ¹
ãģ® è¦ª
åı ¶
ãĤĭ ãģĦ
èĢĥ åı¤
Ġ25 9
Ġæ´ ª
ĠEX PO
Ġrec ord
æĹ¥ å¤§
ãĤ½ ãĤ·ãĤ¨
ĠãĥĲ ãĥªãĥ¼
éĩĮ ç¾İ
æĮĩ åĲį
åĳ¨ æ³¢æķ°
åĸ¶æ¥Ń ãĤŃãĥŃ
ãĥ« ãĤ¬
åįļ å¹¸
æĻĤéĸĵ ãĥĨãĥ¬ãĥĵ
99 8
ä¹Ĺ è»Ĭ
UN A
Ġè¦ ļ
è£ľ åĬ©
ĠJR è¥¿æĹ¥æľ¬
af t
ãĤ¤ãĤª ãĥĭãĤ¢
Ġå¢ĥ åĨħ
0 17
Ġ ||
ar ter
ĠãĤ¢ ãĤ¹ãĤ¿
æĮĩ æķ°
98 8
Ġåĳ Ĭ
å¯Ľ åŃĲ
ãĢī )
7 01
ãĤ¹ ãĥİ
ãĤ¿ ãĥĭ
ĠN ASA
ĠCh annel
åĲĮ çªĵä¼ļ
æļ ī
åŁº çĿ£
ĠåĲĦ ç¨®
IA é¡ŀ
è¤ĩ åĲĪ
u in
ãģ« çĶŁ
çķ ³
ĠãĥķãĤ¡ ãĥŁ
hi re
ç«¥ åŃĲ
éĽ£ æ³¢
ĠäºĢ äºķ
6 90
B ob
ra f
ut sch
ç·ıåĲĪ ä½ĵèĤ²é¤¨
Ġç©º è»į
èªį è¨¼
ĠDav is
en berg
ĠF P
ĠãĤ« ãĥł
ĠCh apter
ĠãĤ´ ãĥĥãĥī
ĠGu y
çģ¯ æµ®æ¨Ļ
ãĤ¢ ãĥ©ãĥ³
Ġ# ãĢİ
ĠG eschichte
ãĤµ ãĥĲ
18 80
05 9
Ġçľ ŀ
ĠãĤ¸ãĤ§ ãĥ¼ãĥłãĤ¹
ult s
reat ened
å¤± æķĹ
Ġ7 50
åĴĮ å¼ĺ
ĠéĢ ı
ä¼Ĭ éĤ£
ev in
ĠåĲī åİŁ
99 3
ãģµ ãģĹãģİ
ĠæĿ¾æľ¬ æ¸ħå¼µ
ĠStud ios
ãĤ¹ãĥŀ ãĤ¤ãĥ«
è¤ĩç·ļ åĮĸ
h l
ĠM ORE
éķ· ãģ®
ut ch
å¸Ĥç«ĭ è¥¿
op her
ĠCh ang
ä¿Ĭ æĺİ
ĠãĤ¸ãĥ£ ãĥĳãĥ³
ãĥķãĥ©ãĥ³ãĤ¹ èªŀ
Ġèĩ¨ æĻĤ
p res
é«ĺ æ§»
ĠV II
ãĥ¨ ãĥĬãĥ©
ãĥĥãĥģ ãĥ³
ost on
Ġãĥ¦ãĥĭ ãĥĥãĥĪ
ãģ®åĲį ç§°
Ġ:|| |
ãĥĿãĤ±ãĥĥãĥĪ ãĥ¢ãĥ³ãĤ¹ãĤ¿ãĥ¼
vir on
8 20
ãģ® é¬¼
ãĤ¤ ãĤ¿ãĥ¼
Ġ3 33
ĠG ATE
ãĤ¹ãĥĨ ãĥ©
ah l
ãĥ³ãĤ» ãĥ³ãĥĪ
ãģ®å¤§ åĨĴéĻº
Girl s
æ¤ľå¯Ł åºģ
J ul
Ġ ??
ãģ® åĲĦ
ph a
Ġãĥ©ãĤ¸ãĤª çķªçµĦ
Ġå¯º å³¶
é¯ ¨
L eg
N ER
ig an
ĠãĤ¨ ãĤ¹ãĥĪ
Ġp ort
æ±Ł çĶº
ãĥĺ ãĤ¢
Ġèµ¤ ç¾½
ĠãĤĨ ãĤģ
Ġæµľ å´İ
ORN ING
ĠæĸĻ éĩĳ
ĠåħĦ å¼Ł
r est
ãģĻ ãģĦ
ĠãĤµ ãĤ¶
99 2
ĠFl ash
ĠåĪ¥ åĲį
ãģĦãĤı ãģį
ãĤµãĥ³ãĥĹ ãĥ©ãĤ¶
ĠN Z
17 00
Ġãĥ© ãĥĨãĥ³
ãĤ´ ãĥŃ
ãĤ¯ãĥ© ãĤ¦ãĥ³
Ġæľ¬ éĥ¨
ãĤ¹ãĥĪãĥŃ ãĥ³ãĤ°
ĠéŃĶæ³ķ å°ĳå¥³
æĿ±æ´ĭ ãĤ«ãĥ¼ãĥĹ
ĠAdvent ures
ãĥī ãĤ¯ãĤ¿ãĥ¼
al le
ĠãĥĴ ãĥĪ
D as
ãĥĨ ãĥ¼ãĥĹ
æł ªå¼ı
ä¿¡ å½¦
ç¦ı äºŃ
Ġãģ¿ ãģ¡
çľĮç«ĭ å¤§åŃ¦
ãģ¨ãģª ãģ£ãģ¦ãģĦãĤĭ
ãĥīãĥŁãĥ³ãĥĪãĥ³ éĥ¨
G ET
ĠK at
æ¨ ĭåı£
äºĮ åįģ
æĥ Ł
IS M
æĻº ä¹Ł
Ġå¾Į æ¥½åľĴ
ãĥĻãĥ¼ãĤ¹ ãĥľãĥ¼ãĥ«
Ġcol lection
7 47
ãĥĥ ãĥŃ
ä¼ļ ä¸Ģèĩ´
Ġå¤§ åŃ¦éĻ¢
å°ı åŀĭ
ĠæĹ¥æľ¬ ãģ«ãģĬãģĳãĤĭ
ĠãĥŃ ãĥľãĥĥãĥĪ
åįĹ é§ħ
Ġãģ² ãģ¨ãĤĬ
æĿī æľ¬
åıĹè³ŀ æŃ´
æİ¢åģµ åĽ£
å¯©æŁ» åĵ¡
- ãĢį(
ed ited
ãĥľ ãĤ¤ãĤ¹
éĩį è¦ģæĸĩåĮĸè²¡
49 1
59 1
å®ĩ æ²»
ĠIN TER
Ġå¿į èĢħ
ãĤ¯ãĥģãĥ£ ãĥ¼ãĤº
ĠS uz
ĠB ou
ĠB ow
ĠãĥĪ ãĥ¼ãĤ¯
Ġsupport ed
5 29
L ine
O B
æĹ¥ ãģ¾ãģ§
as ed
Ġãģ¨ ãģª
ĠèĬ± ãģ®
Ġart icle
0 21
ĠãĤ¬ ãĥ©ãĤ¹
åīĽ å¿Ĺ
æĿ¿ æ©ĭ
æĸĲ éĸ£
f r
Ñ Ĩ
Ġt ype
56 6
æĽ¿ ãĤıãĤĬ
ĠNat ural
5 13
T er
il t
ãģı ãģª
Ġå±± å²³
UT ION
Ġåħ± ç·¨èĳĹ
ãĤ¢ãĥ³ãĥĪ ãĥĭãĤª
ĠFACT ORY
ãĢĤ '''
ãĥĲ ãĥ¼ãĤ·ãĤ¢
ãĤµ ãĥ³ãĤ·ãĥ£ãĤ¤ãĥ³
ä½į ä¸Ĭ
Ġå°ı æ£®
å½ĵ æĻĤãģ®
Ġå¤© åľ°
æļ «å®ļ
ĠãĤ± ãĥªãĥ¼
Ġçµ¶æ»ħåį±æĥ§ IAé¡ŀ
F B
F W
ãĤ¿ ãĥ¼ãĥľ
Ġä¸Ĭ è¶Ĭ
ĠéĿĴ æŁ³
ĠKing dom
ĠãĤ·ãĥ« ãĥĲãĥ¼
æĶ¿åĭĻ æ¬¡å®ĺ
ãĥ¼ãĤ¸ãĥĬãĥ« ãĤ¹
S ing
éģĵ åŃĲ
ãĥĢ ãĥ¼ãĥ«
èĤ² èĭ±
05 2
77 5
åŃ« åŃĲ
Ġwh ich
ĠéĽ¨ å®®
N I
N ational
à ¦
ĠH um
Ġãĥķ ãĥªãĥ¼ãĤ¹
ãĥ³ãĤ¿ ãĥł
Ġåħ¨ ä¼ļä¸Ģèĩ´
çŁ¥ ãĤīãģªãģĦ
é¢¨ åĳĤ
ĠãĤŃãĥ£ ãĥ³ãĥĳãĤ¹
ĠæĦĽçŁ¥ çľĮéģĵ
ĠãĤªãĥ¼ãĥĹ ãĥ³
H APPY
ãģ® æĭ³
ĠT B
ãĥı ãĥ¯ãĥ¼ãĥī
am oto
ãĤ´ ãĥĥãĥī
ãĥĴ ãĥ«ãĤº
Ġç¹ ģ
ĠMill er
ĠCommun ity
å®¶ åº·
06 3
ĠSH IN
ãģķ ãģĹ
Ġéĩĳ å±±
ĠçĽ¸ æ²¢
çłĤ æ¼ł
ruct ure
M BC
å¤§ èĶµ
ĠV ER
åįĹ è¥¿
Ġæ² ¡
78 1
ä¸ĩ éĥ¨
è£ķ å¤ª
ãģŁãĤģ ãģ«
ig g
çľŁ ä¹Ł
äºĶ æľĪ
å®ī å®ļ
ãĤ¦ãĤ£ ãĥ¼ãĥ³
ãĥ³ãĥľ ãĥ¼ãĥ³
ĠæŃ´ä»£ æīĢå±ŀéģ¸æīĭ
4 31
é ±
ĠâĹĭ (
ĠæŁ³ æ²¢
åįł ãģĦ
ĠS em
Ġä¸ī èĪ¹
ãģĽ ãģ¤
ĠãĤ½ éĢ£
çĽ¸ å§¦
ĠPro duction
è§£ æ±º
Ġæ· Ģ
U l
ä¹ĭ éĢ²
å¤ī èº«
ãĥ¼ãĥĩãĤ£ ãĥ¼
ru ary
ĠãĤ¯ãĥª ãĤ¹ãĤ¿ãĥ«
ãĥĲãĥ¼ãĤ·ãĤ¢ ãĥ¼ãĥī
T IME
ãģ® é¤¨
çĶ° åĵ²
ĠC CoSp
Ġãĥ¡ ãĥĢãĥ«
LE CT
56 8
Ġãĥīãĥ© ãĥķãĥĪ
ãĥ³ãĥı ãĤ¤ãĥł
ãĥĨãĤ¤ ãĥ¡ãĥ³ãĥĪ
æ²ĸç¸Ħ çľĮ
Ġæĸ°äºº è³ŀ
W alk
v ert
Ġæ «
ãĤ« ãĥİ
IN ER
çľŁ ç´Ģ
55 7
ãģ² ãģĮãģĹ
æ¾¤ å¤§åŃ¦
åĲĳ ãģĵãģĨ
ĠæĽ´ æĸ°
) #
r oll
ãģ® ãĤ¨
æµ· æĪ¦
ad or
ĠéĿĴ å¹´
å¯¿ åı¸
ĠLe on
ĠèĲ Į
Ġæ±ŁæĪ¸ ãģ®
ĠEv olution
L ar
s f
ĠC HE
ĠT ouch
ãĤ« ãĥ¬ãĥ¼
ãĥĢ ãĥĵ
ĠSt ill
çı¾ åŃĺ
ãĥķãĤ¡ãĤ¤ ãĤ¿ãĥ¼ãĤº
âĸ ¡
Ġå°ıçĶ° æĢ¥
u en
ãĤª ãĥ¼ãĥĢãĥ¼
ãĥı ãĥĵãĥª
ãĥ¯ ãĤ¤ãĥ³
ãģ³ ãģ¨
Ġèĩ ³
ĠR SA
Ġ18 62
æīĭ çĶº
ĠCh amber
éīĦéģĵ è·¯ç·ļ
æŀľ å®Ł
æ¼ Ĩ
Ġå¿ľ çĶ¨
0 22
h an
l im
s a
« æĹ©
ĠF IN
ĠG overnment
Ġãĥŀ ãĥ¬ãĥ¼ãĤ·ãĤ¢
ĠãģĤ ãģĭãģŃ
ĠçŁ³ é»Ĵ
76 8
ç®¡ åĪ¶
ĠPro duct
ä¿Ĥ æķ°
ĠF iction
ä¸Ń å¸Ĥ
Ġp ages
åĻ¨ ç§ĳ
å²© äºķ
æĭĵ éĥİ
ĠæĬķ çĲĥ
Tw o
ĠDoc ument
B er
r pm
Î µ
ãĥ© ãĥ¼ãĥ©
Ġãģ ½
ãĥ¯ ãĥ³ãĥŀãĥ³
ä¸ī å¥½
äº¤ ä»£
ĠãĤ¢ãĥ« ãĥĵ
Ġåı² ä¸Ĭ
ĠF D
ĠH app
ĠO åŀĭ
ãĤ² ãĤŃ
Ġä½Ĳ æ¸¡
æ£ ²
ç§» ç®¡
Ġæľī åĲī
ĠNorth ern
ĠMot or
ĠTRI BE
Ġå®£ ä¼Ŀ
8 30
t i
ä¸Ń åŃ¦çĶŁ
ãĤ¨ ãĤ¤ãĥĪ
78 5
ãĥĥãĥģ ãĤ§ãĥ«
Ġè¡Ĩ èŃ°éĻ¢èŃ°åĵ¡
99 4
AG A
Ġå¤§ åł´
48 3
Ġæľī éĻĲ
æĬķ ãģĴ
è¾° å·³
å® µ
ĠC ost
ä¸Ń å°ī
å®¶ æĶ¿
our se
åº· éĽĦ
ãĤŃãĥ¥ ãĥªãĥĨãĤ£
Ġè¿½ åĬł
C W
ãĥ©ãĤ¤ ãĤ»ãĥ³ãĤ¹
ãĤ± ãĥ¼ãĥ³
åºĥ ãģĮãĤĬ
Ġåħ¬å¼ı ãĥĽãĥ¼ãĥłãĥļãĥ¼ãĤ¸
Ġåģ ķæĪĲç¤¾
ĠCP U
ĠãĤ¦ãĤ£ãĥ³ãĤ° ãĤ¹ãĥĳãĤ¤ãĤ«ãĥ¼
J an
Ġ äºĭåĭĻ
ĠB AL
å° ½
ĠG ab
ĠE UR
ak o
Ġç¥ŀ å±±
ãĥķãĤ§ ãĥĭãĥĥãĤ¯ãĤ¹
Or iginal
éĮ¬ éĩĳ
ãĥŀ ãĥ¼ãĤ·ãĥ£ãĥ«
ãĤ³ ãĤŃ
ĠH AR
Ġãĥª ãĤ¹
Ġ978 40
ĠåĬł ç´į
ç¯ł åİŁ
ĠD ouble
ãģĵ ãģĹ
æľī é¦¬
ãĤ·ãĤ¢ ãĥ³
ĠãģĻ ãģ¹ãģ¦
èªĵ ãģĦ
59 4
åĤ ³
ĠPer formance
ĠæĶ» æĴĥ
ãĤ¹ ãĥģãĥ¥ãĥ¯ãĥ¼ãĥĪ
ĠM iddle
å±± å°ıåŃ¦æł¡
éĩİ å¤ĸ
ç«ĭ ãģ¦
åŃ¦éĻ¢ å¤§
ãĥĲãĤ¤ ãĥĲãĥ«
I PS
r ence
æŃ ĵ
ĠL OVERS
05 8
Ġå®® æ²¢
ãĤ¤ãĤ¹ ãĥ©
ãĥĪãĥ« ãĤ³
Ġç¨ İ
ĠæŁ ļ
Ġé¡ Ķ
WOR LD
åķĨå·¥ ä¼ļèŃ°æīĢ
ĠPolit ical
6 70
ãĥ© ãĥĥãĥī
ĠS hip
ĠT urn
ĠãĤ¨ ãĥªãĤ¢
Ġp ublic
éĽĦ ä¸Ģéĥİ
06 1
æľī ç´Ģ
ĠåĪĿåĽŀ çĶŁçĶ£éĻĲå®ļçĽ¤
Ġãģ«ãĤĪ ãĤĭ
P ON
on ely
ãĥĲ ãĥŀ
it Ã©
Ġå¤§ è³ŀ
is cher
ãĥ¼ãĤ¯ ãĥ©ãĥĸ
55 3
çĻ¾ éģ¸
ĠFor est
Ġçģ«æĽľ ãĤµãĤ¹ãĥļãĥ³ãĤ¹åĬĩåł´
çŁŃæľŁå¤§åŃ¦ éĥ¨
å¸«åĽ£ éķ·
ĠãĥĩãĤ¤ ãĥ´ãĤ£ãĥĥãĥī
Ġãĥĳãĥģ ãĤ¹ãĥŃ
S am
ar io
ãĤĴ ãģĻãĤĭ
Ġ29 3
åĪĿ åĩº
ip er
ater ial
Ġéħįä¿¡ éĻĲå®ļ
ĠçŃĴ ç¾İäº¬å¹³
4 47
ãģ® æľĢ
ãĥª ãĤ¬
å¤§ åĲī
ust er
ĠAir craft
ĠãĤ¨ãĥ¬ ãĥ¼ãĥĬ
Ġè»į äºĭ
4 45
m ãĥªãĥ¬ãĥ¼
ĠC ard
ãĤ¨ ãĥªãĥĥãĤ¯
ĠW ish
ĠO d
Ġæĸ° å·Ŀ
Ġé«ĺ æŁ³
AN S
Ġä¸į è©³
Ġé§ħ éĸĵ
Ġä½ı å®ħ
çľĭèŃ· å°ĤéĸĢåŃ¦æł¡
ĠãĤ»ãĥªãĤ¨ B
ĠWH ITE
ãĥŀ ãĥĥãĤ±
é«ĺ å¿Ĺ
iv id
ĠãĥŃ ãĥ³ãĥī
æµ¦ å¸Ĥ
ĠæľĢ å¯Ħ
ĠãĤ½ ãĥ¼ãĥī
ĠæĪĲ çĢ¬
Ġè²¡ åĽ£æ³ķäºº
u ild
ĠA z
ãĤ¸ ãĥİ
ĠD atabase
ãĤ° ãĥ¬ãĥ³
æĸĩåĮĸ ãĥĽãĥ¼ãĥ«
ĠRe lease
ç¿Ĵ æīĢ
èªĺ å°İ
æ Ħļ
éĸĵ ãģ«
Ġå±± å²¡
ä¿¡ è¡Į
ĠéĢ Ķ
IS ION
Ġå¤© ä¿Ŀ
æĩ Ĳ
ĠWal ter
ãĥıãĥ¼ãĥī ãĥ«
Ġæ²¿ç·ļ ãģ«ãģĤãĤĭ
ãĥ©ãĤ¤ ãĥł
ãĥķãĤ¡ ãĥŁ
Ġãĥ¡ ãĥ¼ãĤ«ãĥ¼
Ġ28 1
è³Ģ éĥ¡
çĻ½ å·Ŀ
97 5
ĠEn er
éī Ľ
ĠèĪªç©º èĩªè¡ĽéļĬ
Ġå´ ĩ
L ou
ãģ® çµĲæŀľ
Ġ'' :
ĠãĤ¨ ãĥ´ãĤ¡
åįĥ é¶´
ç§Ģ å¹¸
ç§ĭ èĳī
çģ« çģ½
OUN G
ĠãģķãģĦãģŁãģ¾ å¸Ĥ
Ġå°Ĩ æ£ĭ
ãĥĭãĥĥãĥĿãĥ³ æĶ¾éĢģ
A US
ãĤ· ãĥĸ
ĠC ro
ãĥī ãĥĭãĤ¢
åĪ¥ ãĤĮ
Ġ30 3
ĠãĤ¸ãĥ§ ãĤ»ãĥķ
Ġãĥīãĥ© ãĤ´ãĥ³
Ġåįļ å£«
ĠRuss ia
" '''
ãģ® å°ĳå¥³
ãĥ© ãĥĥãĤ¯ãĤ¹
åĩº ä¼ļ
Ġthe ir
ĠSh im
æĻĥ ä¸Ģ
ĠEP ISODE
ãĥ¼ãĤ¹ãĤ¿ ãĤ¤ãĥ«
Ġå¤©çļĩ æĿ¯
ãģ® åĭķ
Ġãģ ±
ĠS old
ĠP ur
ãĥĶ ãĥ¼ãĤ¿ãĥ¼
ĠåĪ Ģ
ĠæĿ±äº¬ ãĥīãĥ¼ãĥł
ĠâĶ ģ
Ġsch ool
Ġ ou
ãĥ¬ ãĥŁãĥ¼
ãĥİ çĢ¬
ãĤ½ ãĥ©
Ġãĥª ãĥ³
ãĥ¼ãĤ° ãĥ«ãĤ¹
ãĥķãĤ© ãĥĪ
Ġç¶ Ļ
Ġä¿Ŀ èĤ²
éĿŀ å¸¸
å·¨ å¤§
åı¯èĥ½ ãģª
f e
ĠR ich
ĠR oss
ãĥĻ ãĥĥãĤ«
é¦ ¨
ãĥĿ ãĥ«ãĥĪãĤ¬ãĥ«
Ġå®ī éĥ¨
man ia
éĭ¼ ç®¡
Ġ eng
ãĥ« ãĤ±
åĭ §
ĠãĤ¢ ãĥ¼ãĥŃãĥ³
ãĥİ åĨħ
Ġd ella
Ġéĸ¢éĢ£ ä¼ļç¤¾
Ġ00 1
ãĥĭãĤ³ ãĥĭãĤ³
ĠPer fect
èıĬ åľ°
I ER
å¤§ å¸«
ĠT OWN
ãĥī ãĤŃãĥ¥ãĥ¡ãĥ³ãĤ¿ãĥªãĥ¼
Ġ5 50
ãģ« ãĤı
ç¬¬ ä¸ĥ
åħī åŃĲ
99 1
ph y
é«ĺæł¡ çĶŁ
ĠMur der
Ġãĥıãĥ¼ãĥ¬ ãĤ¯ãĤ¤ãĥ³
6 36
ãĥĪ ãĥĭãĥ¼
çĶŁ çĶº
Ġãĥī ãĥ©ãĤ¤
ie g
ãĥ¼ãĥĲ ãĤ¤ãĤ¶ãĥ¼
ĠæĪ¦ äºī
âĻ Ĥ
B ON
h p
ol as
Ġå° İ
55 4
ãĤ¼ ãĥķ
è±Ĭ å³¶
Ġj ust
ãĤ¹ãĥĶ ãĥªãĥĥãĥĦ
ĠUN DER
ĠSouth ern
ĠM H
ĠH iro
åĢ Ł
åģ¥ ä»ĭ
ĠUn it
ĠPl ant
ĠåĿĤ ä¸Ĭ
âĶ Ģ
ĠèŃ° åĵ¡
k Hz
ãĤ¨ ãĥªãĥ¼
re ment
09 9
ãģ¸ ãĤĪãģĨãģĵãģĿ
é³¥ ç¾½
ãĤīãĤĮ ãģ¦ãģĦãĤĭ
å¾Ĺç¥¨ æķ°
empor ary
å¤§ çĶ°
ĠN on
Ġç·ı éĽĨç·¨
è¬Ľ ç¾©
æľĪä¸Ĭ æĹ¬
Ġ3 16
Ġf ilm
ãģ£ãģ¦ ãĤĭ
96 9
eg g
å¥³åŃĲ é«ĺçŃīåŃ¦æł¡
ãĤ¦ãĥ«ãĥĪ ãĥ©ãĥŀãĥ³
å²©æ³¢ æĽ¸åºĹ
ĠPolit ics
ĠBul let
åĲį è©ŀ
Ġ28 4
äº® ä»ĭ
ett a
ãĤĨãģĨ ãģį
ãĥĦãĤ£ ãĤ¢
ãĥĭãĥ£ ãĥ³
çĹ´ æ¼¢
Ġãĥ¯ãĥ³ãĥŀãĥ³ ãĥ©ãĤ¤ãĥĸ
g art
u is
ĠC ook
ĠFl ight
ãģ£ãģ º
ĠPRO DU
Ġ( ,
ĠB ee
ãĥ¤ ãĥ¼ãĥī
em s
05 3
Ġåºĥ å·ŀ
ç¶Ļ ç¶ļ
ans as
ĠæŁ³ å·Ŀ
Ġãĥ¬ãĥĥãĥī ãĥĸãĥ«
9 40
i Ã³n
ĠC ode
ĠF le
ĠF RE
ĠJ P
ĠV OCAL
ãĥ¢ ãĥīãĤŃ
ãĥĽ ãĤ¦
åħĥ æİ¨çĲĨ
Ġå¤© ä¸ĭ
ãĥĲãĥ© ãĥ¼ãĥī
ĠMiss ion
Ġæ²¿ç·ļãģ«ãģĤãĤĭ æĸ½è¨Ńãģªãģ©
C arl
N et
éģ į
ãĥĲ ãĤ¤ãĤ¹
ãģĬ ãĤĵãģª
æĿ¾ æ°¸
Ġéĩİ å´İ
è¡Ĺ ãģ®
ãģ¨ãģĹãģ¦ åĩºæ¼Ķ
Ġèĭ± éĽĦ
ãĥĹãĥŃãĥ¬ãĤ¹ ãĥ©ãĥ¼
ãĥĵ ãĥ©
ãĤĪ ãģı
æĿ¾ å±±å¸Ĥ
éĩĳ ãģķãĤĵ
ãģ² ãģ¾ãĤıãĤĬ
Ġg ood
Ġéģ¸ æĬľ
ãģ«ãĤĪ ãģ£ãģ¦
Ġå¤ĸ åĽ½èªŀ
ĠçĬ ¶
Pro ject
ãĥĹãĥ©ãĤ¤ ãĥł
ãģ¤ãģı ãģ°
ãģ® éĢĨè¥²
å·Ŀ å´İå¸Ĥ
ãģĭ ãģį
ĠO pt
ãĥĹãĥŃ ãĥ¢ãĥ¼ãĤ·ãĥ§ãĥ³
Ġn ov
OM B
Ġh as
ãĥ³ãĥĸ ãĥ«ãĥīãĥ³
ĠéĻ¸ å£«
Ġå®ļ åĵ¡
J IS
æľĪ æľ«
éĽ» å·¥
Ġ30 4
ĠãĤ¬ ãĥ«
çĪĨ çĻº
çĨŁ å¥³
Q R
ãģ® éŃĶ
ĠM AK
ãĥķ ãĥ¬ãĤ¤
ĠãĤ¹ ãĥİ
ch ange
Ġv ideo
IC éĸĵ
ä½ı æ°ĳ
ĠçķªçµĦ åĲį
Ġæīĵ çĤ¹
éĨ Ĳ
ĠãĤªãĥı ãĥķ
å±±å½¢ çľĮ
5 24
C y
O åŀĭ
ç¨ĭ åº¦
BM W
Ġè³ĩ æĸĻ
ĠèĽ ¯
ĠW HE
18 99
åĪĨ åī²
un n
åĳ¨ å¹³
çĽ¸ äºĴ
97 9
çļĩ åŃĲ
å¤§åĪĨ çľĮ
. )'''
A lex
ĠM u
éĥ¨ ãģ«
ãĥĨ ãĤª
ãĤ¦ ãĤ½
ĠD iamond
Ġd ans
æĻĤéĸĵ SP
ãĥ´ãĤ£ ãĤ¨
å¤§ä¼ļ éĢ£ç¶ļ
UK E
æľĢçµĤ è©±
Ġæŀł çķª
0 18
C or
d own
èĢ Ģ
ãĥı ãĥ«ãĥĪ
éĩĮ é§ħ
og n
åĳ½ ä»¤
ç¤¾ä¼ļ äºº
ĠSy nthes
ĠãĥŁãĥ¥ãĥ¼ãĤ¸ ãĤ·ãĥ£ãĥ³
ĠçĤ Ń
ĠãĤ»ãĥ« ãĥĵãĤ¢
Ġç¡ ¬
å±ı é¢¨
æľĢå¯Ħ ãĤĬãģ®
R U
ĠãĤ· ãĥ³
59 5
98 5
åľ°æĸ¹ æķ´åĤĻå±Ģ
ĠExpl or
w orld
ãĤ° ãĥ¢
el son
ãĤį ãģı
èĬ± åŃĲ
eb a
ĠBe h
ãĥĨãĥ¬ãĥĵæľĿæĹ¥ ç³»åĪĹ
çĪĨ ç¬ĳ
æ¦ ´
ĠãĤ´ãĥ¼ãĥ« ãĥĩãĥ³
7 27
D em
ãĤ¤ ãĥĥãĥģ
çĶ° å³¶
ãĤĬ ãģĪ
ä»£ æķ°
ä¿® éģĵ
ç±³ åŃĲ
ĠéĻ ¶
ĠçĻ½ æ°´ç¤¾
Ġãĥ©ãĤ¤ ãĥĢãĥ¼
ãĥŃãĥ¼ãĥī ãĥ¬ãĥ¼ãĤ¹
ãĥŀãĥį ãĤ¸ãĥ¡ãĥ³ãĥĪ
ãĥ¼ãĥĽ ãĥ¼ãĥ«
ĠãĤ¢ãĤµ ãĥĴ
Ġå¤§ åľ°
18 98
çľŁ çĲ´
06 6
ç¹Ķ çĶ°
æ¯Ķ å¥Ī
Ġçģ½ å®³
R ep
ãģ® ãģ¼
å¤§ ç¥Ń
ä¿® æŃ£
Ġ37 0
ãĥ¼ãĤŃ ãĥ¥
åīµ åħĥç¤¾
Ġå®¤ èĺŃ
Ġãĥģãĥ¼ãĥķ ãĥĹãĥŃãĥĩãĥ¥ãĥ¼ãĤµãĥ¼
â ĩĴ
ĠC BC
ĠL am
ĠG il
ĠW W
ĠK om
ãģĬ ãģį
å®Ł è¡Į
ĠçĦ¡ éĻĲ
ĠæŃ´ä»£ çĽ£çĿ£
ĠãĤ¤ãĤ¹ãĥ© ãĤ¨ãĥ«
S al
æľĪ ä¸Ń
ãĥĭ ãĥ©
åĪĨ åŃĲ
åŃĿ éĽĦ
Ġå¸Ĥ åİŁ
Ġç«¹ ä¸Ń
å±±æ¢¨ çľĮ
ĠC rit
ĠãĤ¢ ãĥĻ
ãĥ¬ãĤ¤ ãĤ½ãĥ«
Ġè¨ ¼
èĮĤ éĽĦ
Ġåħĥ ãĥĹãĥŃéĩİçĲĥéģ¸æīĭ
ãĤĵãģĺ ãĤĩãģĨ
Ð½ Ð°
ĠVis ual
¶æ¡ĳ ç¤¾
C ont
Ĭ ç¶Ń
ä¸Ģ èī²
Ġå¤§ åŀ£
é«ĺ éĽĦ
åīµ åĪĬ
Ġãģµ ãģĺ
æĬľ ãģį
ãĥ³ãĥģãĤ§ ãĤ¹
gr ess
/ (
b eat
äºķ æĿĳ
ãĤ½ ãĥķãĤ£ãĤ¢
èĭ± åŃĲ
å½ĵ ãģŁãĤĬ
Ġãĥ« ãĥ¼ãĥĪ
Ġãĥĸãĥ© ãĥĲãĥł
åĲĽ ãģ¨
Ġæ¢¶ åİŁ
ĠPHP çłĶç©¶æīĢ
R ichard
ãģ® ä½ľåĵģ
ĠF OX
Ġæĺ Ĩ
ãģł ãĤĵ
ri al
åıĤ éģĵ
Ġå¼ ı
æ¸© åº¦
ãĥ¼ãĥį ãĥ«
uz z
ãĥ³ãĤ¦ ãĤ©
Com p
ãĥĭ ãĥ«
ĠG RA
ĠN TV
ãĤ¬ ãĥŁ
ĠY ELLOW
ĠåĮĹ æĸĹ
éĩĮ çĶº
Ġãĥ¡ ãĤ¿
èĳī å±±
Ġãĥ« ãĥ¼ãĤ«ãĤ¹
ç² ĭ
ĠæŁ ĵ
ĠGreat est
ĠNat ure
ĠFANT ASY
6 88
N AM
S at
į éĨĲ
ĠF NS
ä¸» å©¦
ãĤĢ ãĤĬ
Ġãĥĺ ãĥĥãĥī
å¹ķ å¼µ
ĠCol umbia
Ġå¿Ĺ è³Ģ
J S
Y AMA
ĠM ID
ĠH as
ãĤĴ ç·¨åħ¥
çķª çĽ®ãģ®
ĠãĤ« ãĥ³ãĤ¶ãĤ¹
57 2
ĠZ h
ãĥ¼ãĥ¬ ãĤ¤
ĠAr thur
Ġé¶´ å²¡
H y
Ġ3 25
ĠC ab
ãģĤ ãģĭãģŃ
åģ¥ äºº
57 9
ãģĵãģ¨ ãģ°
pr ing
ĠéĢŁ æ°´
Ġãĥ¢ãĥ³ ãĤ¹ãĤ¿
ĠãĥĭãĥĥãĥĿãĥ³ æĶ¾éĢģ
) ãĢİ
ãģ® å¿ĥ
Ġãĥļ ãĤ¢
P DF
ãĤĴ æ±Ĥ
æ¬ ¾
Ġä¸ī è§Ĵ
å®Ī åĶĦ
Ġçĭ¬ç«ĭ å±Ģ
D el
Ġ Ã©
å¹´ æľ«
er i
Ġå® ĭ
ãĤ± ãĥ³ãĥĪ
ç©º ä¸Ń
ĠãĥĪ ãĥŀãĤ¹
åĪ© æĺİ
ĠéĢļç®Ĺ æĪĲç¸¾
Ġå¡ļ çĶ°
r ine
ãĥ³ãĤ¯ ãĥ«
ĠU C
ä¹ĭ æ±Ł
Ġl ist
ãĤ¤ãĥī ãĥ³
Ġãĥĵ ãĥ¼ãĥĪ
æķĻèĤ² åŃ¦éĥ¨
rum pet
M et
Ġãģ ¬
ĠK E
Ġãĥ© ãĥ³ãĥĩãĤ£
ĠCh all
çĿĢ å·¥
ĠNTT ãĥīãĤ³ãĥ¢
Ġtrans l
åĸ« èĮ¶
l am
® æįķ
ĠC Y
ãģĮ ãģĬ
æ°´ ãģ®
ãĥĶ ãĤ¯ãĥģãĥ£ãĥ¼ãĤº
æµ© åı²
åıĹè³ŀ èĢħ
å¿į æ³ķ
7 78
ãĤ¤ ãĤ±
ĠM oto
ĠH K
et ry
ãģĤ ãģ¤
ãĥ¼ãĥ© ãĤ¤ãĥ³
åĪĿ å¾ĹçĤ¹
AG O
ult ure
å¸«ç¯Ħ åŃ¦æł¡
Ġå¹ķåºľ éłĺ
C ON
m ed
æ «»
ãĥĸ ãĥ¼
ãĥĩ ãĥł
ãĤµ ãĥ¼ãĤ«ãĤ¹
ĠH ong
æĹħ é¤¨
ãĥŀãĥ« ãĥģ
Ġph ot
18 86
Ġéĩ £ãĤĬ
ĠãĤ« ãĥ¡ãĥ©
Ġãĥ© ãĥķãĤ¡ãĤ¨ãĥ«
åįĹ é«ĺçŃīåŃ¦æł¡
08 8
éĢł å½¢
è¦ļ éĨĴ
ãĥīãĥŃ ãĥĥãĥĹ
7 25
æľ¬ é¤¨
ĠT SU
ãĥŀ ãĤ¹ãĤ¿
ãģĮ éĸĭéĢļ
ãĥı ãĥ¼ãĥ¢
ec a
åĬł å·¥
Ġå·Ŀ åİŁ
ĠST AND
ĠãĤ¬ ãĥª
è¨ĺå¿µ çī©
ĠãĤ¦ãĤ£ ãĥ¼ãĥ³
ĠGener ation
IB é¡ŀ
ĠæģĲ ç«ľ
5 11
ãĤŃ ãĥªãĤ¹ãĥĪæķĻ
ãĥ¡ ãĤ¿
ãģĤ ãģ¨
å¿Ĺ éĩİ
éĺ² æŃ¢
æŀĿ åŃĲ
ĠMic hel
æĹ¥åĪĿçīĪ çĻºè¡Į
ì ļ
Ġåı ·
ãĥĥãĥĦ ãĥĲãĥ¼ãĤ°
ĠçľĮ åºģ
ĠæĹ¥æľ¬èªŀ è¨³
ĠãĥĹãĥª ãĥ³ãĤ»ãĤ¹
ĠCOM P
Ġé³´ éĸĢ
g es
æľ¬ æĸĩ
Ġãĥ© ãĤ¹
åĪ¥ ãģ®
57 3
ĠãĥĽ ãĥĥãĥĪ
æĻº ç¾İ
ĠHot el
ãĤ· ãĥ³ãĥĩãĥ¬ãĥ©
Ġåįĥ æŃ³
Ġä¸ĭ çĶ°
é£Ľ ãģ³
Ġé¦¬ çķª
ãĤ¦ ãĥ«ãĤ¹
ãĥĹ ãĥģ
ãģĬ ãĤĦ
05 4
éħ ¬
98 4
ost er
Ġãģ¤ ãģ°
éģĭè»¢ æīĭ
c ell
ĠV V
ir i
09 5
é¦Ļ åŃĲ
ĠéĽ» è»Ĭ
å¼ģ å½ĵ
è¤ĩ æķ°
Ġéľ ŀ
Ġ ,
ãĤ¢ ãĥ¡
ãĥŃ ãĥĥãĤ½
ãĥģãĥ£ ãĥ³ãĤ¹
å¿Ĺ æĳ©
Ġãģ²ãĤį ãģĹ
Ġé´ »
Ġãĥģãĥ£ãĥ¼ãĥĪ æĪĲç¸¾
å¿ħæ®º æĬĢ
6 15
b in
ãģ® å·Ŀ
æĿ± å¸Ĥ
æĿ± æĢ¥
ä½Ĳ åĢī
59 3
ĠãĤŃãĥ£ ãĥ©
ãģ¥ ãģĭ
Ġæĥ ³
Ġç¨² èį·
ãĤ« ãĤµ
Ġt em
ĠãĤ· ãĤ¢ãĤ¿
ĠãĤ³ ãĥª
ĠãĥĿ ãĥĹãĥ©ç¤¾
Ġ29 9
ĠçµĮ ç·¯
ĠCO AST
ãģ® æŃ£
ĠãĤ¢ ãĥŃ
Ġãĥľ ãĤ¤ãĤ¹
ĠNE O
èĥ ¤
eck er
åĽº å®ļ
ãĤªãĥķãĤ£ãĤ·ãĥ£ãĥ« ãĥĸãĥŃãĤ°
ãĤĬ ãģĬ
is es
ĠH OL
ãģķ ãģĹãģĦ
ĠãĤ³ ãĥ³ãĥĪ
å®ī èĬ¸
EE E
ç´į è¨Ģ
ãĤ³ãĥŁãĥ¥ãĥĭãĥĨãĤ£ ãĥĲãĤ¹
ĠKob ayashi
J C
M al
r ise
ĠM USE
ãĥĨ ãĥĬ
ãĥī ãĥ©ãĤ¤
å°ı æ²¢
ĠãĤµ ãĥ³ãĥī
ĠãĥŁ ãĥªãĤªãĥ³
Ġç¦ı åİŁ
Ġå²¸ æľ¬
ĠSci ent
Ġæģµ æ¯Ķå¯¿
ãĤ¸ãĥ£ãĥ¼ãĥĬ ãĥ«
T a
Ġ =
ãģĹ ãĤħãģĨ
ä¸Ĭ åİŁ
Ġå±± åŁİ
06 8
Ġãĥ¢ ãĥ¼ãĥªãĤ¹
ä¸Ńå¤® çĹħéĻ¢
© åħ·
ãģ® é¨İå£«
ãĥ¬ ãĤ¢ãĥ«
ĠãĤ¨ ãĤ¸ãĥĹãĥĪ
Ġm il
98 1
ick s
åħĭ ä¹Ł
. ;
ĠS leep
ãĤ¦ ãĤ¤ãĥ«ãĤ¹
re ad
Ġ18 50
ä½Ĳ ä¹ħéĸĵ
ĠãĤ¨ ãĤ¦
Ġ28 7
ĠåĲĦ åĽ½ãģ®
¢ éĹĺ
ãģ® æĦı
ĠS af
ãĤª ãĤº
78 4
ĠãĥĩãĤ£ ãĤ¢
è»¢ çĶŁ
èĪĪ è¡Į
Ġçı¾åľ¨ ãģ¯
Ġå¸¸ çĽ¤
Ġçµ¶æ»ħåį±æĥ§ IBé¡ŀ
é ¢
çĶ° å¹¸
å¤§ éĸĢ
ĠM it
è¦ĭ å¸Ĥ
ĠAn alysis
Ġæ£ ļ
ĠéĩĮ è¦ĭ
ĠEmp ire
å£ º
ĠJ ourney
ol s
æŃĮ åĬĩ
ãĤ¹ãĥĨ ãĥ³
Ġãĥĺ ãĤ¢
Ġè£½ä½ľ èĳĹä½ľ
ĠæĶ¿ çŃĸ
çķ¥ ç§°
V C
Ġ äº«
ä¸Ĭ ä½į
07 5
Ġå®ĩ éĥ¨
èªŃ æľ¬
ãĥĢ ãĤ°ãĥ©ãĤ¹
æ¬¡ çĶ·
Ġ29 5
Ġæ©Ł åĭķ
ĠNe ed
çĻ¾åĲĪ åŃĲ
ç°¡æĺĵ éĥµä¾¿å±Ģ
S y
U HF
ãģ® ãģ²
åĩº æīĢ
ãģĤ ãĤĨ
ãģĬ ãģ¨
çĻº å±ķ
ç·ı çĿ£
ĠãĤ° ãĥ¬ãĥ¼ãĥĪ
Ġ28 3
Ġãĥŀãĥ« ãĥĨãĤ£ãĥ³
ĠåħŃ æľ¬æľ¨
ĠEar ly
ĠJan uary
ĠãĤ¢ãĤ¦ ãĥĩãĤ£
ĠA Z
ãĥĵ ãĤ¦ãĤ¹
it le
é¤ ħ
ãĤŃãĥ£ ãĥ³ãĥĲãĤ¹
çĻ½ æ²³
å»º çī©
ãĥĲãĥ¬ãĥ¼ãĥľãĥ¼ãĥ« éĥ¨
ãģ® ãĥ¡ãĥ³ãĥĲãĥ¼
ãĥĻ ãĥĪãĥĬãĥł
Ġç¦ı æľ¬
ãĥķãĤ© ãĥĥãĤ¯ãĤ¹
RO P
å¯Į å±±çľĮ
éĩİçĲĥ éĥ¨
à¸ Ń
Ġæŀ ľ
ĠãĤ¢ãĥ³ãĥī ãĥ¬ãĤ¤
Ġ:|| ||
Ġãĥĳãĥģ ãĥ³ãĤ³
B reak
ãĥ¼ãĤ ĭ
ĠM G
ĠåĮĹ åĮº
Ġè¥¿ éĥ·
ãĤ·ãĥ£ ãĤ¹
Ġ38 0
ĠãĥĩãĤ£ ãĥĥãĤ¯
Ġæ¨ª æīĭ
ç§ĳåŃ¦ ä¼ļ
åħ¬å¼ı ãĥĸãĥŃãĤ°
à¹ Ģ
ãĥ¢ãĤ¶ ãĤ¤ãĤ¯
G reen
v ard
en o
et on
ĠK id
Ġl anguage
Ġst r
èħ Ķ
Ġæ´¥ è»½
ĠPer cussion
ãģ®åľ° åĽ³
ãĥ³ãĤ® ãĥ³
ĠéģĬ æĴĥ
ĠãĤŃãĥ¥ ãĥ¼ãĥĲ
ãģ®åıĭ äºº
ãģ§ãģį ãģªãģĦ
ãģ® ãĤ³ãĥ¼ãĥĬãĥ¼
Ġé Ĳ
å³¶ ç¤¾
ĠãĤ¸ ãĥ¼ãĥ³
ãģ¤ ãģŃ
ĠAl bert
çĨĬ éĩİ
ĠåĲĪè¨Ī çĤ¹
Ġå¤§æĹ¥æľ¬ å¸ĿåĽ½
ãĥ© ãĥ³ãĥĬãĥ¼
ãĥ³ãĥĢ ãĥ¼ãĥī
08 1
ãĤ¯ãĥ© ãĥķãĥĪ
åĬĩåł´ æľªåħ¬éĸĭ
ç¥Ĳ äºĮ
Ġå±±ä¸ĭ éģĶéĥİ
ĠæľĿæĹ¥ æĸ°èģŀç¤¾
ĠæĹ¥ç«ĭ è£½ä½ľæīĢ
ĠC ou
ĠA uth
ĠG a
éł ĵ
Ġåľ §
nd ãĤ·ãĥ³ãĤ°ãĥ«
Ġæİ Ī
ĠéĽ» è©±
æĹ¥çĶº åĪ¶
Ġé® İ
4 36
P at
R X
ĠL iter
ãĤª ãĥ¼ãĤ±ãĤ¹ãĥĪãĥ©
ãĥ¼ãĥ© ãĤ¤ãĥĪ
Ġn a
98 7
Ġæĸĩ æĺ¥æĸĩåº«
ä¸ĥ çĢ¬
çĽ£ å¯Ł
éİ §
ci ence
ĠI A
st ar
ä½Ĳ ä¹ħ
US HI
çµĲ åŁİ
az a
çµ¦ é£Ł
ĠMon ster
éº»è¡£ åŃĲ
Ġæµ·ä¸Ĭ èĩªè¡ĽéļĬ
åħĥæİ¨çĲĨ æĸĩåº«
ãģ® ç«ł
ãĤ¿ ãĥģ
st ãĤ·ãĥ³ãĤ°ãĥ«
åħ¬ èªį
åº¦ çĽ®ãģ®
è¶ £åĳ³
ĠãĤ¸ãĥ£ ãĤ¹ãĥĨãĤ£ãĥ³
ĠåĽĽ æľĪ
ãĥ¼ãĤµ ãĤ¤ãĥī
æĹĭ é¢¨
ãģ¤ãģ° ãģķ
æĪĲ ç¾İ
ãĥ¼ãĤ¿ ãĥ¼ãĤº
Ġä½Ĳ ä¹ħ
RE T
åģ¥ æ¬¡éĥİ
åĤ ¾
å¿ł éĽĦ
Ġçķª å¤ĸç·¨
Ġãĥ´ãĤ¡ ãĤ¤
Sp ace
è´ ĪãĤĬ
Ġæĳ ©
ãģ® åĽ½ãģ®
ãĥ© ãĥ³ãĤ«
ĠB U
çĶº åŃĹ
ãģĨ ãģ©ãĤĵ
ãĥĩãĤ£ ãĥĵ
av i
Ġä¼Ĭ ä¸¹
Ġå¾³ æ°¸
Ġå¥³åŃĲ ãĤ·ãĥ³ãĤ°ãĥ«ãĤ¹
ĠèĢ ³
Ġ à¤
ãģ¾ ãģª
ç·ı è¦§
59 8
ãĥĭãĤ¢ ãĥł
æķĻèĤ² å¤§åŃ¦
Ġé¦Ļ åıĸ
Ġæ©Ł ä½ĵ
JR è¥¿æĹ¥æľ¬
ãĥĨãĥ¬ãĥĵæľĿæĹ¥ çīĪ
åıĹ é¨ĵ
åŁ· äºĭ
ĠL or
ãĤĴ è¡¨ãģĻ
id ay
Ġ28 6
åıĭ ç¾İ
oh ama
ãĥ³ãĤ³ ãĥ¼ãĤ¹
Ġå®¶ æĶ¿
Ġé³¥ å±ħ
ãĤ¹ ãĤ¦ãĤ§ãĥ¼ãĥĩãĥ³
ĠB ON
ĠãĥŁ ãĤ²ãĥ«
08 5
è¿ ħ
åĿĤ ä¸Ĭ
Ġçī¹ è¨ĺäºĭéłħ
Ġh om
æ¨ª æĸŃ
ãģ¸ãģ® å½±éŁ¿
ãĤ¤ãĤ¨ ãĥł
å¥¨ åĬ±è³ŀ
Ġãĥ¦ãĥªãĤ¦ãĤ¹ æļ¦
S oft
ãĤ³ ãĤ³
ĠR ace
ĠãĤ¢ ãĤ¹ãĥĪ
ĠæĹ¥ æ¸ħ
ãĤ¹ãĤ¿ ãĤ¤
ĠãĤµ ãĥ³ãĥķãĥ©ãĥ³ãĤ·ãĤ¹ãĤ³
ĠãĤ¦ ãĥ©
å®ı ç¾İ
ĠD IG
ãģĪ ãĤĪ
Ġãĥĳ ãĥ¼ãĤ«ãĥĥãĤ·ãĥ§ãĥ³
04 2
Ġçı¾ èģ·
ĠæŃ£ å¼ı
æĹ¥æľ¬èªŀ çīĪ
rie ved
Ä ĵ
ĠP OC
ãĤµ ãĥ¼ãĥ«
ãĥı ãĥ³ãĤ°
Ġb o
Ġãĥ¬ ãĤ¹ãĥĪãĥ©ãĥ³
Ġéĩĳ åīĽ
ast ers
ian ce
çī¹åĪ¥ æĶ¯æı´åŃ¦æł¡
org an
ãĥĹãĥ¬ãĥŁãĤ¢ ãĥªãĥ¼ãĤ°
Ġè£ľ è¶³
ç´³ å£«
C ambridge
Ġ4 90
ãĤµ ãĥ³ãĥĪ
Ġâ Ļ
ĠãĥĢ ãĤ°ãĥ©ãĤ¹
à¸ ģ
åºĥåŁŁ å¸Ĥ
UL T
ãĥ¼ãĤ·ãĥ£ ãĥ³
ĠæľĿæĹ¥ æĸ°èģŀ
ĠLew is
6 11
7 29
ãĤ¿ ãĥł
ãĥĭ ãĤ¯ãĥ«
ãĤª ãĤ¯
ĠE qu
ãģ¿ ãĤĵ
éĽĦ å¤§
Ġèĩª ä¸»
66 5
SW E
ĠæłĹ å±±
Ġåıİ å®¹
è¤ Ĵ
æľĪ ç¬¬
ãģł ãģĭ
å®Ŀ çŁ³
ĠéĢ² èĹ¤
ĠäºĢ å±±
ĠæłĦ åħ¸
æł¼éĹĺ æĬĢ
è¨´ è¨Ł
ãĥª ãĥİ
in um
Ġ4 25
å³ »
çĶŁ åłĤ
ĠãĥĢ ãĤ¤ãĥ¤
Ġ28 9
æ¹ ¿
çı¾ è±¡
Ġéł ĺ
å°ĳ å°ī
Ġæ°¸ éĩİ
æĿ±æµ· ãĥĨãĥ¬ãĥĵ
fin ity
éłĺäºĭ é¤¨
J im
ãĤ¹ ãĤŃãĥ£
ä¸Ģ ç¾©
ĠW S
Ġä¸Ń æ´¥
Ġc ount
çī¹ æĬĢ
Ġæľ¬ çĶº
ä¸į åı¯
åĬ© çĽ£çĿ£
Ġãĥĺ ãĥ¬ãĥ³
çĻ» å±±
Wh o
ãĥ³ãĤ± ãĥ³
ãĥ¼ãĥķãĤ£ ãĥ¼
8 90
S ingle
å¤§ åĲį
ãĤµ ãĥ¼ãĤ¬
ç¾İ ä»£åŃĲ
ig in
Ġc ity
58 9
ç¨® åĪ¥
ç¥¥ äºĭ
anc y
ãĥª ãĥ¼ãĥģ
ĠS ET
ãĤ¿ ãĤ¤ãĥ«
ĠB HR
ic ode
Ġ18 66
Ġãĥ© ãĥ³ãĤ¹
56 4
ĠãĤ¸ãĥ£ ãĥ³ãĤ°ãĥ«
æĲ ¬
d on
Ġ3 13
ĠA er
ĠE arl
ĠK K
Ġå± Ģ
ING S
ãģ¹ ãĤĬ
ĠCol ors
ãĥįãĤº ãĥŁ
å¸Ĥè¡Ĺ åľ°
M K
m ill
ãģ® æĹĹ
ĠD RAGON
åĭĿ ç¾İ
ĠãĤ·ãĥ£ ãĤ¤
ãĤ¦ãĥ«ãĥĪ ãĥ©ãĥŀ
ĠãĥīãĤ¥ ãĤ«ãĥĨãĤ£
c ar
ãĥĪ ãĥ³ãĥĹãĤ½ãĥ³
ãĤ· ãĤŃ
Ġ4 60
ãĥĨ ãĥĦ
ĠI ss
ä¼ļ è©±
åĴĮ åĵī
ĠæĿ± åĲį
éģ¸ çµĦ
ĠãĤ· ãĤ§ãĥ«
ãĤ¶ ãĥ«
78 3
åħĪ è¡Į
è¦³ å¯Ł
æķ´ æķ°
è¶ħ ç´ļ
çķ° ãģªãĤĭ
ãĥŀãĤ¯ ãĥīãĥĬãĥ«ãĥī
5 36
F ECT
ĠF NN
ãĥ³ãĤ¿ ãĤ¤ãĥ³
ĠãĥĨãĥ¬ãĥĵ æĦĽçŁ¥
ĠåŃ £
ãĥ³ãĥĬ ãĥĥãĥĹ
ãĤ¢ãĥ³ãĥĪ ãĥ©ãĥ¼ãĤº
Ġ3 14
ĠH art
Ġs et
åĲĮ åŀĭ
æµ¦ é§ħ
ãĥ¼ãĤ¬ ãĥ¼ãĥ«
Ġæľª å®ļ
ĠArt ists
ĠInd ian
ĠMon ey
Ġå¸ĥ æĸ½
æ±½ èĪ¹
ĠçĨ Ł
C ome
ãĤ¢ ãĥ¬ãĤ¹
ä¸Ģ ä»£
ãĥ¯ ãĥ©
09 6
çľģ åĲ¾
Ġç¦ıå²¡ çľĮéģĵ
ãĥ³ãĥŃ ãĥ¼
éį Ľ
ĠFI RE
ç§ĭçĶ° çľĮ
é¬ ±
ãģĮ å»ĥæŃ¢
ist ic
05 7
Ġãģª ãĤĵ
68 4
Ġæ´ ŀ
çĶ£æ¥Ń å¤§åŃ¦
ãĤ¤ãĤ¨ ãĥ¼
ĠæºĲ æ°ı
å¾Ĺç¥¨ çİĩ
ĠCOMPLE TE
ì ł
ãĢı ''
18 96
ĠJ U
çķª åĭĿè²ł
çµĦ åĵ¡
04 3
Ġãĥľ ãĥĩãĤ£
76 9
åĲĳ ä¸Ĭ
èĪŀ åŃĲ
ĠâĹĭ âĹĭ
åłĢ å·Ŀ
ĠèĲ½ èªŀ
ĠKore a
7 12
d o
z z
ãĥ» '''
ãģ® å®¢
le ph
ag n
è·¯ é§ħ
Ġä¸ī æ®µ
ant i
Ġå¥³ æµģ
Ġæĸĩ åĮĸéĥ¨
ann y
é«ĺéĢŁ éīĦéģĵ
SM AP
Ġæ¶Īéĺ² ç½²
Ġèį» éĩİ
5 14
5 38
ãģĤ ãģĳ
æ¬ º
æ¯į ãģķãĤĵ
ä»Ĭ æ²»
Ġåħµåº« çľĮç«ĭ
æľĢé«ĺ ä½į
ÃŁ e
Ġæĥĳ æĺŁ
æľĪ ãģĭãĤī
ãĤ¯ ãĥ¼ãĥĳãĥ¼
ãĥĨ ãĥª
ãĥŀ ãĤ·ãĥ¥
ãĤ¦ ãĤª
66 9
ãĥ³ãĥĵ ãĥ¼
ĠçĹħ éĻ¢
) âĺħ
0 47
ĠD ol
ĠD awn
ãĥĬ ãĥī
ãĤ± è°·
Ġs erv
ĠãĥĢ ãĥł
ãĥĻãĥ« ãĤ°
Ġå¥³åŃĲ ãĤ·ãĥ³ãĤ°ãĥ«
ĠèĪŀ é¶´
ĠåĩºçīĪ ç¤¾
Ã ¥
ãģ® ãģĵ
ãĥĩ ãĥĵãĥ«
ãĤ¨ ãĥĭãĥĥãĤ¯ãĤ¹
ĠTh ird
åıİ å®¹
ĠåŁİ å±±
Ġå·Ŀå´İ å¸Ĥ
ĠFilm s
å¤©çİĭ å¯º
ĠãĥŁãĥīãĥ« ãĥĸãĥŃãĥĥãĤ«ãĥ¼
ãĥķ ãĥĥãĥĪãĥľãĥ¼ãĥ«
ä¸Ń éĸĵ
ĠV T
Ġ- ãĢĮ
Ġãĥģ ãĥª
ä»» è°·
éĽ»æ°Ĺ è»Įéģĵ
l an
ãĥ© ãĥĥãĤ»ãĥ«
ãĥ¬ ãĥĿãĥ¼ãĥĪ
ĠA RI
ãĥŀ ãĥªãĥ³
ä¸Ģ ä¸ī
ãĥı ãĥ³ãĤ¬ãĥªãĥ¼
ãģ¡ ãģĭ
ãģł ãģĭãĤī
èį Ĵäºķ
åİ ¨
ĠæŃ¦ åĨħ
augh ter
ãĥ¡ãĥ¢ ãĥªãĤ¢ãĥ«
ĠãĥªãĤª ãĥĩãĤ¸ãĥ£ãĥįãĤ¤ãĥŃ
ĠãĥĿãĤ±ãĥĥãĥĪ ãĥ¢ãĥ³ãĤ¹ãĤ¿ãĥ¼
Ġ ä¾į
ĠR y
ãĤĴ åĩº
åĬĽ åŃ¦
ĠãĤŃãĥ£ ãĤµãĥªãĥ³
100 1
Ġé£ ²
ĠPres ident
Ġé«ĺéĢŁ ãĥĲãĤ¹
ãģ£ãģ½ ãĤĵ
w ick
Â »
ĠB d
ĠèĹ¤ å·Ŀ
77 9
Ġèį ĺ
ĠãģĹ ãĤħãģĨ
Ġç¤ ¼
ĠèŃ¦ åĤĻ
ãĥŃãĤ¦ ãĤº
æĭį åŃĲ
4 37
G IN
L ov
ä¿ ĥ
é«ĺ ãģķ
ãģ¿ ãĤīãģĦ
ç¾© æĺİ
åģ¥ æ¬¡
ãĤ¸ãĤ§ ãĥªãĤ¢
96 8
ĠãĤ¢ãĥĭãĥ¡ãĥ¼ãĤ·ãĥ§ ãĥ³ãĥĹãĥŃãĥĩãĥ¥ãĥ¼ãĤµãĥ¼
viron ment
A v
Ġ oc
Ĵ åĲ¦
ĠãĤ¢ ãĥ¤
is er
Ġb es
Ġè»Ĭ ç·ļ
ä¸īåĽ½ å¿Ĺ
Child ren
ãĥĲ ãĥĥãĤ¯ãĤ¹
ST A
ĠåĲī äºķ
ĠãĤ± ãĥ³ãĤ¿
Ġéģİåİ»ãģ® æĪĲç¸¾
ãģ®çİĭåŃĲ æ§ĺ
Ġ ear
ãĤ¯ ãĥ¢
ãģĭ ãĤĮãĤĭ
ãģĮ ãģªãģĦ
å°ı æ¨½
ç¨ Ģ
ag g
æľŁ çĽ®
å°Ĩ è£ľ
èŃ¦å¯Ł å®ĺ
Ġå®¤ åĨħ
5 26
ãĥĪ ãĥ¼ãĥ«
ãĤ¿ ãĥĥãĥģ
ĠB GM
ä¸Ģ çĶŁ
ãģĬ ãģ¯
Ġé«ĺ åĢī
Ġãĥ© ãĥ³ãĤŃãĥ³ãĤ°
im er
ĠãĥŃ ãĤ±ãĥĥãĥĪ
ãģ° ãĤĭ
åº· æĻ´
ĠTh ink
èıľ ãĢħ
EX ILE
ä¹ħä¿Ŀ çĶ°
Ġäº¤å·® ãģĻãĤĭ
Eng lish
r ent
Ġ3 18
çĶ° éĥ¨
äºº åĲį
ãĥĸ ãĥ¼ãĥ«
ãĤ¸ãĥ£ ãĥĭ
æ¼ Ĥ
ĠKn ight
Ġç´¯ è¨Ī
ãĥĨ ãĥĥãĥĪ
ãĥ³ãĤ° ãĥ©
Ġãĥª ãĥĲ
07 9
eb all
ãģ¼ ãģı
ãģ®å¥³ ç¥ŀ
ĠåłĢ å·Ŀ
å¥¥ çĶ°
ãĥ¬ãĥĩãĤ£ ãĥ¼ãĤ¹
Î ĸ
ãĤ¹ ãĤ¯ãĥ©
ĠãĤ· ãĥ¢
ãģ¤ ãģ¾
ãĥĽ ãĥ¼ãĤ¹
Ġ29 2
æłĦ æ²»
ĠWh en
éħĴ å±ĭ
Ġéľ ²
è¬Ļ ä¸Ģ
Ġåľı å¤ĸ
7 90
F ar
ãĥŀ ãĥ¼ãĤ±ãĥĥãĥĪ
ĠL as
Ġãģ® ãģ¶
ãĤ¤ãĤ¢ ãĥ³ãĥĪ
é« Ħ
å¤©æ°Ĺ äºĪåł±
åı° é¢¨
æ´¥ ç·ļ
ãĤ·ãĥ£ ãĥ¯ãĥ¼
ãĤĥ ãĤĵ
çı¾ åł´
ĠéĤ ª
ĠSm all
ãĤ¹ãĥŀ ãĥ¼ãĥĪ
Ġä½ıå±ħ è¡¨ç¤º
H OT
P al
R D
åŃ¦ æĹħè¡Į
ĠR ES
ĠG AR
Ġåį ł
ĠãĤ« ãĥķãĤ§
ãĤŃãĥ£ ãĥĹãĥĨãĥ³
ĠÐ ¿
ĠèĲ ¬
6 45
Ï ģ
ãĥŃ ãĥ³ãĥī
ĠãĤª ãĥķãĤ£ãĤ¹
Ġãĥ¬ ãĤªãĥ³
ill er
ãĥ³ãĥĲ ãĥĥãĥĪ
ĠCol lect
Sec ret
7 22
in ner
ãĤµ ãĤ¿
ĠW he
ãģ£ ãģĭ
ut ions
æ¸¯ æ¹¾
ĠåįĹ ãĤ¢ãĥķãĥªãĤ«
Ġãĥ« ãĥ¼ãĥŀãĥĭãĤ¢
çµµ éĩĮ
ç§ĳåŃ¦ æĬĢè¡ĵ
åĳ¼ åĲ¸
Ġæį ľ
ä¹ĹãĤĬ åł´
à ®
Ġ4 05
ãģ« ãģĦãĤĭ
ĠN am
Ġå¤§ æ±Ł
Ġãĥķ ãĥ¥
Ġb est
æİ ²
ĠFl ower
éģº ä¼Ŀ
Ġãģ¦ ãĤĵ
ãĤ³ãĥª ãĥ³ãĤº
æľ ´
ĠãĤ¢ ãĥ¼ãĤ¯
ĠE ye
åĮĹ è¥¿
ĠãĤ³ ãĥ¡ãĥĩãĤ£
Ġãĥĭ éķ·èª¿
å¢ ľ
ĠMar s
Ġä¸»è¦ģ é«ĺè¦ıæł¼éģĵè·¯
ç«¯ æľ«
åĨĻçľŁ å®¶
èĩªçĦ¶ åħ¬åľĴ
åĽ½ä¼ļ åĽ³æĽ¸é¤¨
7 06
ãĤĴ è¶Ĭ
æ¥Ń åĵ¡
OU BLE
ĠAN G
ãĥ¼ãĥŁ ãĥ¥ãĥ¼ãĤ¸ãĥĥãĤ¯
ĠEd ge
ãģ¿ãģ® ãĤĬ
æ¤İ åĲį
çĶ¨å¿ĥ æ£Ĵ
Ġ4 78
ĠT ogether
Ġå¤§ æ³ī
ĠãĤ· ãĥ«ãĥĲ
Ġãĥĸ ãĥªãĥ¥
è£½ éĭ¼
ĠAcc ess
ĠåĪ¤ å®ļ
7 11
E lectric
Ġ3 17
ĠåĪ¶ä½ľ èĳĹä½ľ
ĠãĥĨãĤ£ ãĤ¢
èĤī ãĥŀãĥ³
Ġä¹Ĺè»Ĭäººåĵ¡ æİ¨ç§»
ĠM aps
ãĥĵ ãĥ¼ãĥł
Ġãĥ¡ ãĥ¢
97 4
ãĥĲãĥ¼ ãĥ³ãĤº
åŃĺ ç¶ļ
ĠComp ut
Ġsh ow
Ġ3 21
ãĤ· ãĤ®
ãĤ« ãĥ¤
ĠH op
ãģ¾ ãģĭãģĽ
ãĥĽ ãĥĥãĤ±ãĥ¼
Ġåĩºæ¼Ķ çķªçµĦ
ãĥ¼ãĥļ ãĥĥãĥĪ
5 17
9 06
ãģ® èģĸ
ĠM AD
æĺİ å½¦
ãĥĶ ãĥŃ
æ¥½ å¯º
ĠãĥĪ ãĤ¦
Ġãĥī ãĥŁ
åĬł å¥ĪåŃĲ
59 7
ĠãĤ¬ ãĤ¹
çī¹åĪ¥ ä¼ģçĶ»
å¸Ŀ çİĭ
Ġæ·± å·Ŀ
ĠProt ocol
ãĥĵãĤ¨ãĥĪ éĢ£éĤ¦
8 08
L IFE
ãĤ¢ ãĥŁ
ãĤĤ ãģ£ãģ¨
im al
ãģł ãĤ¾
ĠåĨ ĴéĻº
ä»ģ å¿Ĺ
ãĥĭãĥ¥ ãĤ¨ãĥ«
ĠPh oto
Ġéĺªç¥ŀ ãĤ¿ãĤ¤ãĤ¬ãĥ¼ãĤ¹
5 22
S ol
h ol
è¡Į çĤº
ĠãĥĲ ãĥĥãĤŃãĥ³ãĤ°
å¼ĺ ä¸Ģ
76 6
Ġãģ« ãģ¤ãģĦãģ¦
Ġæ¼ Ĩ
Ġãĥĸãĥ« ãĥ¼
ãģ®åĲį åīį
Ġãģ¼ ãģı
5 16
S ony
ãģ® åĳ³
æĸ ¯
çĽ® éĮ²
ãĥģ ãĥ§ãĥ³
ãĤģ ãģĹ
ãĥĬãĥ« ãĥĩãĤ£
ãģķãĤĵ ãģ¾
ĠãĥĩãĤ£ ãĥĬãĥ¢
ĠãģĽ ãģĦ
inst rumental
0 23
5 49
m usic
äºº ãģ¨
åĭ ħ
ĠF IVE
ãģĮ è¦ĭ
ç© £
Ġè¡ Ŀ
äºľ çŁ¢
Ġä»Ĭ æ³ī
Ġè±Ĭ å·Ŀ
ĠãĤ¸ãĤ§ãĤ¤ ãĥŁãĥ¼
uts che
çĹ´ å¥³
Ġãĥŀãĥ© ãĤ½ãĥ³
ãĤ¢ ãĥ¤
ĠB REAK
åĲį æīĢ
ĠæĿ± éĤ¦
OK OH
Ġåģ ıæ³¢
ĠãĥĨãĥ¼ãĥŀ æĽ²
ĠPri ze
S ex
Ġ4 79
ĠB rad
us a
Ġs ingle
ç¸ £
æ´» çĶ¨
ãĤ¦ãĤ£ ãĥĥãĤ¯
Ġsp ec
å®®å´İ çľĮ
ĠMr s
ãĥ´ãĤ§ãĥ« ãĥĩãĤ£
ĥ åŃĲ
ĠF O
Ġå¤§ åĪ¤
ãģĺ ãĤįãģĨ
Ġ29 4
æ» ŀ
ĠçĨ± è¡Ģ
Ġçµ± ä¸Ģ
ITT LE
ãĤ¢ ãĥķ
ĠM ost
é«ĺ ãģĦ
ãĤ´ ãĥ¼ãĥīãĥ³
å®Ī èŃ·
ç«ľ äºĮ
GO OD
ĠN umber
ĠSt ock
Ġãĥĩ ãĥĵãĥ«
åĲĮ å¿ĥ
åħµ å£«
åıĤåĬł ä½ľåĵģ
ãĤ¯ãĥ« ãĥ¼ãĤº
å¢ĵ åľ°
ãģªãģĮ ãĤī
ĠMem ory
Ġå Ĵ
ãģĭ ãģķ
ãĥĩãĤ£ ãĤºãĥĭ
éĥ¡ ä¸Ĭ
éĥ¡ ãģ®ãģĨãģ¡
Ġå¾ Ģ
ĠãģĦ ãģļãĤĮãĤĤ
Ġæĭ Ŀ
ĠS AL
ĠC old
ãĤµ ãĥ³ãĥģãĤ§ãĤ¹
ãĤº ãĥĬ
Ġå¼ Ł
èĪ¹ èĪ¶
ç´° å·Ŀ
ĠãĤ¦ãĤ£ ãĥ³ãĥĸãĥ«ãĥīãĥ³
æĸ°æ½Ł å¸Ĥ
ç·ł çµĲ
ĠæĹħ å®¢
ĠCr ime
ĠãĤ¢ãĥĢãĥ«ãĥĪ ãĥĵãĥĩãĤª
7 21
V TR
ãģ® æ»Ŀ
ĠS IM
ãĤ³ ãĤ¹ãĤ¿
Ġåīį éłŃ
ĠãĥķãĤ§ ãĥĭãĥĥãĤ¯ãĤ¹
over y
ãĤ³ãĥ³ãĥĨ ãĤ¹ãĥĪ
Ġåķ ĵ
åİļ æľ¨
èªĺ æĭĲ
7 08
v ing
ãĤª ãĥ¯
ãĤµ ãĥ³ãĤ¬
ãģ¾ ãĤĨ
ãĥĳ ãĥ¼ãĥī
ĠK ent
ãĤ¬ ãĥ¼ãĥĩ
è¥¿ å°¾
ãĥ¦ ãĥ¼ãĥŃ
59 6
ãĤ¤ãĤ¢ ãĥ¼
Ġä¿Ŀ éĻº
Ġæ³ķ å¾ĭ
ãĥĥãĤ± ãĥ³
ãĤµãĥĥãĤ« ãĥ¼ãĥªãĥ¼ãĤ°
Ġè³ŀ éĩĳ
7 13
D I
V al
b oy
ãĤ³ ãĥ¼ãĥĴãĥ¼
ãģ« æĺĩæł¼
ãĥ¢ ãĥķ
ĠåĭĿ æķ°
ĠãģĹ ãĤĥ
éģł å¾ģ
m l
Ġ5 10
Ġãĥ¢ ãĥ¼ãĤ¿
åĨĨ å¯º
æļ ĸ
ãĥ¼ãĥĲ ãĤ¹
ĠãĥĴ ãĥ¡
ãĥģãĥ¥ ãĥ¼ãĥī
ĠAll en
Ġè£ħ é£¾
Ġè¨º çĻĤ
A W
N EC
c ore
i ot
ĠW ILD
ãĥ¢ ãĥ¢
ãĥĨãĥ¬ãĥĵ ãĤ¢ãĥĭãĥ¡
ag le
ä¿¡ ä¹Ł
æ©Ł ãģ®
æĬĢ èĥ½
èĳĹ åĲįäºº
æįľæŁ» ç¶²
R ay
Ġs a
ãĤ¦ãĤ§ ãĤ¤ãĥ³
Ġæ£® æ°¸
åĵ² åı¸
æķı å½¦
ric s
æ¯Ķ åĳĤ
ĠGr ound
ãĤ¤ãĥ³ãĤ¿ ãĥ¼ãĥĬãĤ·ãĥ§ãĥĬãĥ«
ĠL ess
ãĤ¦ ãĥ³ãĤ¹
æīĭ ãģ«
ĠåĽ½ å£«èĪĺ
Ġç· ĭ
ĠCh a
çī¹ å®ļ
ĠãĤ¤ãĥ³ãĥĨ ãĥ«
Ġçı ł
ãĢĤ ãĢį
ch a
ĠãĥĲ ãĥ³ãĥĢãĤ¤
88 8
æ¿ ¡
ãĥ¬ãĥ¼ãĤ· ãĥ§
æ´ŀ å®Ĺ
Ġä¸ŃæĹ¥ ãĥīãĥ©ãĤ´ãĥ³ãĤº
Ġå¤©ä½¿ ãģ®
çĶ°ä½³ ç¥Ĳ
S IDE
Î ¹
Ġ ä¿Ĭ
Ġ3 35
ic ip
ä½Ĳ æ¸¡
ĠãĤ¤ ãĥ©ãĥ³
å¯º çĶ°
ell ig
Ġ29 7
æĻ´ ãĤĮ
ART H
Ġå½± éŁ¿
ç¦ıäºķ çľĮ
éī± å±±
J u
ãĤ¯ ãĤ¢
ĠS EX
ĠF REE
è© ²å½ĵ
åħ¬ çĪµ
åħ¸ å¼ĺ
ĠéĿ ©
çĽ´ è¡Į
ãģµ ãģĨ
ĠéĽ» æ³¢
åħ¬å¼ı ãĥĽãĥ¼ãĥłãĥļãĥ¼ãĤ¸
ĠPar ade
Ġãĥķãĥ©ãĥ³ãĤ¹ èªŀ
å»ºç¯ī å®¶
QU OS
ĠãĥĹãĥŃåħ¥ãĤĬ ãģ¨
ĠVir t
ĠETC å°ĤçĶ¨
ĠéĢĶ ä¸Ń
0 33
4 46
Ġ ang
ãģĺ ãĤħ
UN G
Ġé»Ĵ å´İ
ĠãĥķãĤ© ãĥ¼ãĥŁãĥ¥ãĥ©
æľĽ æľĪ
ãģĦãģ£ ãģĹãĤĩ
Ġæ»ĳ èµ°
ĠUEFAãĥģãĥ£ãĥ³ãĥĶãĤªãĥ³ãĤº ãĥªãĥ¼ãĤ°
åľ° çĤ¹
ãģ¦ ãĤĤ
ĠãĥĨãĥ¬ãĥĵ ãĥ¦ãĥ¼
èĥ½ çĻ»
éĢ² åħļ
è¶Ĭ ãģĹ
Ġ48 6
Ġå¸¸ éĻ¸
ĠãĤªãĥªãĤ¸ãĥĬãĥ« ãĤµãĤ¦ãĥ³ãĥīãĥĪãĥ©ãĥĥãĤ¯
ãĤµ ãĥŃ
Ġãĥı éķ·èª¿
æ°Ĺ æĮģãģ¡
å®ī åĢį
LE AGUE
è²´ å¿Ĺ
ĠãĤ® ãĥ«
è²¡ æĶ¿
çĽ£ è¦ĸ
è³ª éĩı
çķ° å¸¸
Ġæ¶Ī è²»
D ec
L ost
T ak
ë Ĥ
ĠP ract
ĠD EST
Ġ; '''
ç´ º
ãģĮ å¦Ĥãģı
Ġæĸ ī
åįĹ ç·ļ
ĠãĤŃãĥ£ ãĤ¹ãĤ¿ãĥ¼
ĠãĤ¸ãĤ§ ãĥĭãĥķãĤ¡ãĥ¼
ãĥ¼ãĥ¡ ãĤ¤ãĥī
ĠåħŃ æľĪ
Ġä½ĵ æĵį
ãĤ·ãĤª ãĥĬãĥ«
ãĥīãĥ©ãĤ´ ãĥ³ãĥľãĥ¼ãĥ«
5 31
ãģ¨ è¦ĭ
ãĥĭ ãĤºãĥł
ãģ« å¯¾å¿ľ
18 97
18 93
ĠV el
åħ¬ æĺİåħļ
Ġéģ ¥
ĠãĤ³ ãĤ³
Ġl ike
Ġn et
Ġéĩİ å³¶
ĠåŃ¦ è¡ĵ
0 26
æ «»äºķ
ãģ® éĥ¨å±ĭ
è¥¿ å±±
çł ķ
Ġed ited
ĠãĥĲãĥ¬ ãĥ³ãĤ·ãĤ¢
0 24
ĠH ope
ãĥ³ãĤ¯ ãĥĪ
ĠSt adt
ãģ¸ ãĤĵ
OM I
St r
ãĤ¾ ãĥ³ãĥĵ
ãĥ³ãĥĨãĤ£ ãĥ³
ĠçĨĬæľ¬ å¸Ĥ
ĠUP CH
ĠçĹ ´
ĠLab el
ĠTem ple
ĠE in
ĠJ H
é«ĺ æŀ¶
Ġæĸ° åŁİ
ãĥ³ãĥĨ ãĥĬ
ok ohama
å®ī æīĵ
ĠèĹ¤ å´İ
ĠæīĢ æľī
ĠéŁ³æ¥½ åĪ¶ä½ľ
ple te
éĻ¸ä¸Ĭç«¶æĬĢ éģ¸æīĭæ¨©å¤§ä¼ļ
èĢĲ ä¹ħ
ãĤ¢ ãĤ²
ãĤ¨ ãĥĥãĤ»ãĤ¤
ãĥŁ ãĤŃ
Ġæł ¸
åº· ä¹ĭ
Ġçĭ ¼
Ġä¸»è¦ģ åľ°æĸ¹éģĵ
ãģªãĤī ãģ°
èĢķ ä¸Ģ
éĹĩ ãģ®
Ġè¡£ è£³
ĠMAG IC
ĠJoh ann
AN C
Ġå¹³ æĿ¾
éĢ² æŃ©
ç¹ °
ĠæŁ³ çĶ°
Op en
C LE
åĲį éĳĳ
ãĥĨãĥ¬ãĥĵ ãĤ¸ãĥ§ãĥ³
ag i
åı° å°ıåŃ¦æł¡
éĩĳ åīĽ
ãĥ³ãĤ· ãĥĬãĥĨãĤ£
Ġå½ĵ é§ħ
å»ºéĢł çī©
x is
ĠB ull
ĠI EEE
å¥ ®
ãĤī ãģļ
åĲĪ ãģĦ
ãĤ·ãĥ£ ãĥ¼ãĥĹ
ãĥĪãĥŃ ãĥ³
eng er
Ġå²¸ çĶ°
Ġwh o
6 42
ãĤ Ŀ
ãĤ¤ ãĥ´
ĠP HI
å¹³ å±±
Ġä¸ī ä»£çĽ®
ãĤ¿ãĥ¼ ãĥ³ãĤº
57 4
ĠãģĹ ãģ¾
ĠçĦ¡ äºº
Ġç«ĭ æĨ²
Ġa ir
Ġå®Łæ¥Ń ä¹ĭæĹ¥æľ¬ç¤¾
ĠToy ota
7 33
ãģ® éŁ³æ¥½
Ġ3 26
ĠM ik
åĴĮ ç¾©
ĠãĤª ãĥĥãĤº
Ġæµ· æ´ĭ
æĬķ è³ĩ
çīĩ å±±
Ġé¡ ŀ
ĠDem oc
Ġé«ĺ è¦ĭ
ĠãģĬ ãģ°
Ġãģª ãĤĵãģ°
ĠAr ound
Ġç© ¶
ĠæĸĩåĮĸ æĶ¾éĢģ
Ġåĩ ¦
ble m
ĠæĢ§ è³ª
Ġæķ° åŃ¦
ĠSteph en
5 35
ĠI X
HE Y
ãĥĴ ãĤ³
Ġãģ¯ ãĤĦ
ãĥ¬ãĥĥ ãĥĨãĤ£
ãĥ¼ãĥı ãĥ³ãĤ¿ãĥ¼
ãģ«ãģª ãĤĬãģŁãģĦ
Ġãĥ¢ãĥ¼ãĥĭãĥ³ãĤ° å¨ĺ
å¼§ åĨħãģ¯
C ORE
ãģ® ãĤµãĥĥãĤ«ãĥ¼éģ¸æīĭ
ĠM ich
ãĥ¯ ãĤ·ãĥ³ãĥĪãĥ³
èĬ± å«ģ
æ¹ §
77 1
66 8
ãĥĥãĤ° ãĤ¹
ãĥĪãĥ¬ ãĥ¼ãĥĬãĥ¼
ĠT ar
ãĥŀ ãĤ¤ãĥĪ
ãģĵ ãģĦ
ãĤ´ ãĥ¼ãĤ¹ãĥĪ
ĠãĥĨãĤ£ ãĥ¢
å±±ãģ® éĩĳãģķãĤĵ
5 28
u er
ä½ĵ ç³»
98 2
up t
ãĥĮ ãĥ¼
ĠãĥģãĤ§ ãĥŃ
OKOH AMA
n est
Ġ3 24
ãģ« æģĭ
ä¸ī åİŁ
åĪ¥ çĶº
æŃ¦ å¤«
ãĥ¦ ãĥĢãĥ¤
ä¿® å¹³
å¡ļ åı¤å¢³
ott en
æľĪæĽľ æ·±å¤ľ
You Tube
ãĤ¨ãĥ³ãĤ¿ ãĥ¼ãĥĨãĤ¤
æĽ¸è¨ĺ å®ĺ
ãĤ· ãĥł
Ġãĥŀ ãĥĨãĤ£
ĠãĤµ ãĥ³ãĥĳãĤ¦ãĥŃ
Ġä¸Ĭ æĺł
IT AL
ãĤ«ãĥ« ãĥŃ
Ġå¹´ ä»£
Ġãĥį ãĤ³
ãĥĥãĤµ ãĥ¼
ĠSl St
ĠPhil ip
ĠãĤµãĥĥãĤ«ãĥ¼ éĥ¨
m el
ãĢĤ ''
ĠP ay
ãĥĸ ãĥ¬ãĥĥãĥĪ
ãĥķãĤ¡ ãĥĥãĤ·ãĥ§
88 9
ç§ĺ å®Ŀ
æ¨¡ æ§ĺ
ille d
ãģ· ãĤĪ
ãĥ¢ãĥİ ãĥ¬ãĥ¼ãĥ«
ãĥĪ ãĤ¢ãĥĭãĤ¢
ĠS ome
ĠC le
ĠP ink
ãģ¯ ãģĬ
ãĥĽ ãĥ¼ãĥ³
ul u
Ġ29 6
ĠåĲĪ ä½µ
Ġç¿ Ĵ
Ġåįļ çī©é¤¨
è»Ĭåº« åīį
J os
ãĥŃ ãĥĥãĥĹ
OM A
åĪĿ éŁ³ãĥŁãĤ¯
ĠçĦ¡ ãģĹ
bl ack
ãĥŃãĥĲ ãĤŃãĤ¢
E ast
k h
ĠJ ACK
å²¡ å±±å¸Ĥ
éģĭ æ²³
æĶ¹ åĸĦ
ãĥĩãĤ¶ãĤ¤ãĥ³ è³ŀ
ĠÎ ±
ãĥ¡ãĥ³ãĥĨ ãĥ¼ãĤ¿ãĥ¼
ĠãĥīãĥŁãĥĭ ãĤ¯
F K
ĠA ction
ä¸Ń çĶº
Ġãĥŀ ãĥ³ãĤ¬
09 4
æ¨¹ å¥ĪãĢħ
æĹı é¤¨
ãĤ¦ãĤ£ ãĥ«
ç®¡ åĨħ
åŃ¤ çĭ¬
7 15
== ===
ĠP en
ĠL ang
çī Į
çİ ĸ
éłħ å¼ı
æĦĽ ç§°
Ġå²¡ å±±å¸Ĥ
Ġä¹Ĺ éĻįäººåĵ¡
5 18
b ury
10 10
Ġåħ į
Ġå°ı åĩº
id t
ĠæĶ¾éĢģ åĽŀ
ä¸ĩ ãĥīãĥ«
ãĥ¼ãĥĲ ãĥ¼ãĥĪ
ç¾½ çĶ°
ĠæīĢå±ŀ ãĥģãĥ¼ãĥł
Ġè¨ĺ åı·
Ġæħ Ī
ĠãĤ¯ãĥª ãĥ¼ãĥĸãĥ©ãĥ³ãĥī
ãĤ¹ãĥĿ ãĥ³ãĤµãĥ¼
ĠAnim ation
å¡Ĺ è£ħ
ãĥ¡ ãĥ¢ãĥª
åĽ½ çİĭ
ãĤ¤ãĥĪ ãĥ¼
Ġé«ĺ å°¾
æ²¢ çĶº
çķĮ ãģ®
ãĥĺ ãĥªãĤ³ãĥĹãĤ¿ãĥ¼
ĠST REET
éŁ »
ĠãĤ¬ ãĥĸãĥªãĤ¨ãĥ«
ĠSh ot
79 2
åĸĦ æ²»
Ġç«¹ ä¸ĭ
Ġç¬¬äºĮ æ¬¡
De ad
ĠWalk er
8 77
åı ¡
ĠD OC
Ġin clud
åŁİ ãģ®
ST UDIO
Ġãĥı ãĤ¦ãĤ¹
ãĤ·ãĥ£ ãĥ³ãĥĦãĤ§
Ġ29 1
ãĥ¼ãĥĵ ãĤ£
ä»ģ è¦ªçİĭ
Ġä¸ĸçķĮ éģºçĶ£
ĠæŃ£ ç¾©
ãĥ¼ãĤ³ ãĥ³ãĥĶãĥ¥ãĥ¼ãĤ¿
ãģķãģ¨ ãģ¿
ĠåŁºç¤İ ãĥĩãĥ¼ãĤ¿
ĠãĤ¬ãĥ³ãĥĲ å¤§éĺª
6 17
l av
å¤§ çĻ¾ç§ĳ
ãģķ ãĤīãģ°
å½¢ ãģ®
ĠçŁ³ åŀ£
èŃ¦ è¦ĸ
ĠãĤ¸ãĥ§ ãĥ¼ãĥĢãĥ³
ĠMON STER
ĠFI LE
ä¸¦ æľ¨
ĠJun ior
: :
A fter
ãĥª ãĥ¼ãĥķ
ĠD ub
ãģ« ãģĤãģ£ãģŁ
ĠãĥĩãĤ£ ãĤºãĥĭãĥ¼
åŃĿ è¡Į
ĠçĶ· å½¹
ãĥįãĥĥãĥĪ å±Ģ
ç¨İåĭĻ ç½²
ãĤ· ãĥī
è¨ĺ ãģ®
æ°Ĺ åĭķè»Ĭ
ĠæľĢçµĤ éłĨä½į
ĠãĤ¦ãĤ§ãĥ« ãĤ¿ãĥ¼ç´ļ
ãĥŁ ãĥ«ãĤ¯
æķĻ è«Ń
ä¿Ŀ åħ¨
ip zig
eg as
Ġäº¬ æµľ
ãĤģãģĲ ãĤĭ
ĠãĤ«ãĥªãĥķãĤ©ãĥ« ãĥĭãĤ¢
Ħ ç¾İ
ĠC ool
ĠT u
ro y
Ġm ov
ĠãĤ½ ãĥķãĤ£ãĤ¢
ĠãģŁ ãģĭãģĹ
åľ§ ç¸®
Ġåħ¨ç±³ å£²ä¸Ĭ
~ ãĢı
ĠD EL
ĠåĲ ¸
Ġãģª ãģ§ãģĹãģĵ
97 3
ãģ¼ ãĤĵ
è²¡ åĭĻ
ĠãĤ·ãĥ£ ãĥ«ãĥ«
ãĥŁãĥ¥ ãĥ³ãĥĺãĥ³
ĠéĢ£ åĲĪ
ãĥ³ãĥĹãĥª ãĥ¼ãĥĪ
ãģ®éĥ¨ ä¸ĭ
WOR K
ä¾ĽçĶ¨ éĸĭå§ĭ
É Ļ
Ġ5 01
å®® å·Ŀ
av al
ĠãĥĿ ãĤ¹ãĥĪ
ĠST S
èª¿ æķĻ
Ġå¼ ±
ĠãĤĨ ãģļ
ĠãĤ¹ãĥĪ ãĥĥãĤ¯
ĠShad ow
ĠçļĦ åł´
ĠWHE EL
l on
ãģķ ãģĬãĤĬ
å®Ł éĮ²
58 7
Ġ29 8
ãĤŃãĥ¥ ãĤ¦
Ġéĺª åı£
ãģŁãģĭ ãģĬ
ĠãĥŁãĥĭ ãĤ·ãĥªãĥ¼ãĤº
æĿı å¥Ī
å²©æīĭ æĶ¾éĢģ
åĴĮ å®ı
ãĤĴ æĸ¬ãĤĭ
ä¸ī çĶ·
ĠãĤŃ ãĥ«
Ġå¥ ¨
ä¿® ç¾ħ
ĠãĤ¬ ãĥ¼ãĥ«ãĤº
åĩ ¶
Ġåı¤ è°·
ãĤ¢ãĤ¹ ãĥ¬
éŃĶæ³ķ ãģ®
Ġæ²¼ çĶ°
ãĥŃãĥĲ ãĥ¼ãĥĦ
ĠãĤªãĥ¼ãĤ¯ ãĥ©ãĥ³ãĥī
7 02
Ġå¤§ éĸ¢
Ġãĥı ãĥŃãĥ¼
å¤ĸ éĸ¢ä¿Ĥ
ãĥ©ãĤ¹ ãĤ«
Ġãģĵ ãģ¨
Ġéĸĭ é¤¨
ç§ģ ãģ¯
ĠMi y
Ġåģıæ³¢ éĿ¢
0 31
9 56
B ra
ãĥ¬ ãĥľ
ĠN OW
ãĥĨãĤ£ ãĤ¢ãĥ³
ãĥķãĤ£ ãĥĥãĤ·ãĥ¥
æŁ Ĭ
... ãĢį
èµ· æºĲ
Ġãĥķãĥ¬ ãĥĩãĥªãĥĥãĤ¯
ãĤ¨ãĥ³ãĤ¿ ãĥĨãĤ¤ãĥ¡ãĥ³ãĥĪ
ĠPort able
ĠLAC M
G al
g ra
m od
ĠE S
åĸ ª
èĭ± æ²»
Ġä½Ĳ ãĢħ
ĠCh i
å®Ł è£ħ
07 4
... '''
ĠãĤ± ãĥ¼ãĤ¿ãĤ¤
ãĥģãĤ§ ãĥ³ãĤ¸
ĠçĮ Ľ
Ġä¼ĳ é¤¨æĹ¥
Ġç§ĭèĳī åİŁ
0 36
f eld
ãĤ¢ ãĥ³ãĤ³ãĥ¼ãĥ«
18 95
ĠãĤ¤ ãĥģ
å®¢ è»Ĭ
Ġé¨ ¸
ãģ«çĻ»åł´ ãģĻãĤĭ
ãĤ¸ãĥ£ãĥ¼ãĥĬ ãĥªãĤ¹ãĥĪ
Ġé¡Į åĲį
å· «
Ġ3 23
Ġå¤§ æŀĹ
ĠãĤ¹ ãĥ¼ãĥĦ
åħ¬ å®ī
æŃĮ éĽĨ
ĠãĥŁ ãĥĥãĤŃãĥ¼
az ing
é¨İ ä¹Ĺ
å¸ĿåĽ½ å¤§åŃ¦
ĠAS KA
ĠãĤµãĥł ãĥ©ãĤ¤
6 75
b us
ãĤ· ãĤ¿
ãĤµ ãĥ¼ãĥī
æĿĳ ãģ®
çķª çĶº
08 7
ĠãĤ» ãĥĸãĥ³
éħ ·
åĩ °
ĠBe auty
Ġå®Ŀå¡ļ æŃĮåĬĩåĽ£
ĠãĤªãĥ³ ãĥ©ãĤ¤ãĥ³
K U
V HS
ãĤ« ãĥĭ
Ġåħ ·
ç¾İ ãģĹãģĦ
Ġä¸ī æľĪ
æĪ¸ å¡ļ
æ®µ éļİ
ĠåĭĿ æķĹ
å¾Ģ æĿ¥
ĠRecord ing
éĢłèĪ¹ æīĢ
ãĥĲ ãĥĥãĥī
ĠF ine
ç¥ ĩåľĴ
ĠJ oy
ä¸Ĭ æĺĩ
ĠãĤ¨ ãĤ³
if er
Ġãĥ¦ ãĥ¼ãĤ¹
é£Ľè¡Į åł´
å¾® ç¬ĳ
Ġãĥ¦ãĥĭãĤªãĥ³ æĺłçĶ»
% (
T ON
äº ¥
çĻº æĺİ
æ³ķ åŃĲ
78 2
Ġãĥ¢ ãĥĲãĤ¤ãĥ«
ãĥĹãĥ© ãĥĥãĥĪ
ĠTY PE
ĠPhilosoph y
ĠM ORNING
ĠçŁ³ å±±
ĠçĶ° æīĢ
RA B
ĠåľŁ çĶ°
éĭ Ń
æ½ľ åħ¥
ĠM ah
ãĤ¨ ãĤŃ
æĿ± ç·ļ
ĠãĤ¹ ãĥģãĥ¼ãĥ«
ä¸» äººåħ¬
Ġw ere
Ġå®® åİŁ
ĠZ ONE
æµª æ¼«
åŃ¸ éĻ¢
ä»ĬæĹ¥ åŃĲ
0 38
C ra
å¤§ äºº
es h
ãĤĴ æĦĽ
ĠO bs
éĥ½ ä¼ļ
å¤© éĩİ
Ġéķ· çĶ°
ãģĶ ãģ¯ãĤĵ
ĠSc ene
ĠUN IVERS
B rand
ĠS upport
ãĤ· ãĥ«ãĥĲ
çĶ» éĽĨ
Ġc ons
çŁ³ å·»
ãĥ³ãĥĲ ãĥ©
Ġæľ¬ ç·¨
Ġg en
ç¤º éĮ²
å¯Įå£« è¦ĭ
ãĥ¬ãĥ¼ãĤ·ãĥ³ãĤ° ãĥģãĥ¼ãĥł
Je an
Ġç¦ıæ°¸ ç¥Ĳä¸Ģ
Ġå°ı åħĲ
æĹ¥æľ¬ å¤§åŃ¦
Ġw ar
Ġä¸Ģ å®®
è£ķ åı¸
ĠçĶŁ åĳ½
Ġæ±Ł å·Ŀ
Ġæ¨ªå±± åħ¸å¼ĺ
ĠMot ors
ĠPlat form
6 18
6 22
B en
ê °
ep s
ran ch
Ġãĥ« ãĥ¼ãĥ«
Ġåħ« æľĪ
ĠCl oud
éģĭè¡Į éĸĭå§ĭ
ĠTrans port
å¤©åłĤ å¤§åŃ¦
Ġéģĭåĭķ éĥ¨
ãģıãģł ãģķãģĦ
8 45
å¹´ ãģ«ãģ¯
ãĤ¯ ãĥªãĤ¹ãĥĪ
Ġ3 28
ĠT oo
éĽ «
ĠO M
th ãĤ¢ãĥ«ãĥĲãĥł
éĮ «
åĸ ļ
em ble
ç¶ ´
éĽ» çİĭ
ãĤ·ãĥ£ ãĥĦ
Ġæł ĥ
å¤ľ ãģ«
Ġå¹³ å²¡
ĠãĤ¸ãĤ§ ãĥĥãĥĪ
æĨ ©
7 05
g ang
v est
~ (
åħ ¶
ĠM TV
ãģı ãģĻ
ãģ¤ ãģ¼
âĨ ĵ
ant om
ĠåĲī æ²¢
ĠåĪĿ æģĭ
ĠTh under
Ġãģį ãĤī
Ġå°¾ éģĵ
ĠBar on
K R
ãĥŀ ãĥł
éķ· è°·
ĠæĿ± ãĥ¬
ĠãĤ¤ ãĥ´ãĤ¡ãĥ³
ãĤ¸ãĥ£ ãĤ±ãĥĥãĥĪ
ĠãĥĽ ãĥª
æĶ¹ é¡Į
Ġãĥķãĥ© ãĥ³ãĤ·ãĤ¹
èıľ åŃĲ
ĠçĢ¬ å·Ŀ
Ġæīĵ æķ°
Ġç¯ł çĶ°
æľ¨æĽľ æ·±å¤ľ
ĠèĮĤ æľ¨
Ġ il
ãģ® å¡Ķ
ãĥ³ãĤµ ãĥ³ãĥĸãĥ«
ĠWON DER
åĲ Ĳ
ĠT i
ĠI SS
æĸ° æĺ¥
ãĤĦ ãĤĬ
Ġv ir
ĠæľĢ åĪĿãģ®
ãĤĦãģ¾ ãģł
app oro
ĠåłĢ çĶ°
ĠãĤ¯ãĥ©ãĤ¤ ãĥŀãĥĥãĤ¯ãĤ¹
Ġå© ¦
Ġæłª ä¸»
M ET
o en
ãĤ¹ ãĥ¼ãĥĹ
æł ½
ĠW ave
ol ia
Ġç¦ı ç¥ī
Ã© g
Ġãģķ ãĤī
ĠBl og
æ¨¡ åŀĭ
Ġé· º
ãĥĪãĥ©ãĤ¤ ãĤ¢ãĥ«
ĠFried rich
Ġåķı é¡Į
æľĪä¸Ń æĹ¬
0 35
D NS
P AR
¥ ç¾İ
ĠT CP
ĠB ib
ãģį ãģı
èĢħ å¾©æ´»
ĠSt aff
Ġc al
ĠãĤŃ ãĥĥãĤº
ä¼Ŀ æī¿
æµ© åŃĲ
Ġæ±Ł èĹ¤
Ġæ©Ł èĥ½
ãģ¾ãĤĬ ãĤĦ
ĠçĬ ł
ĠDR IVE
D oc
à Ń
ãģ® ãĥª
ĠL I
ĠJ ane
æŃ£ åīĩ
ç·ı çĽ£
æľī å¸Į
æĹħ ç«ĭãģ¡
Ġãĥ¯ ãĥ³
ĠçĶ·åŃĲ ãĤ·ãĥ³ãĤ°ãĥ«
èģ¡ ç¾İ
å¤§ ãĥĽãĥ¼ãĥ«
ãĥŁ ãĥ¬
ĠK or
ra cle
ãĥĽ ãĥ«ãĥ³
æŃ¦ å½¦
ç¨² èĳī
ĠCra zy
å°ĭå¸¸ å°ıåŃ¦æł¡
O ld
ãĥĲ ãĥªãĤ¢
éļĨ çĶ·
ire d
ä¹± èĪŀ
Ġä¼ļ è¨Ī
ãĤŃãĥ³ãĤ° ãĥĢãĥł
Ġéģĵè·¯ æĸ½è¨Ń
éģĭåĭķ åł´
ĠPol icy
ç¡ «
ĠLE G
ãĥłãĤ· ãĤ¯ãĤ¤
ãģ® è¦ĭ
ĠG ET
é§ħ æ§ĭåĨħ
im s
çľŁ ç¾İ
åįĹ æĿ±
96 7
Ġæ¹¯ æµħ
Ġç¹Ķ çĶ°ä¿¡
ĠæĽ½ æĪĳ
ĠDS Q
Ġãģ³ ãĤı
0 19
0 27
m ãĥıãĥ¼ãĥīãĥ«
ãĤ¢ ãĥ¼ãĤµãĥ¼
åŃĲ çĶº
ĠF ur
ĠF UTURE
ĠãĥŃ ãĤ¹ãĥĪ
æ£® å±±
åįļ åŃĲ
åĲĮ å¹´
ãĥ¼ãĥŃ ãĥ©
76 4
ä¸¡ ç·¨æĪĲ
Ġå®ĩ åĴĮ
ĠæĻĤ æľŁ
éİ® åº§
8 25
éģ ĩ
ĠK aw
as i
ig ation
id ence
æ°ĳ éĸĵ
Ġãģ¾ ãģĵãģ¨
æ±ł ä¸Ĭ
ind er
TBS ãĥĨãĥ¬ãĥĵ
67 4
ãĥĥãĤ¿ ãĥ³
å¾ħ ãģ¡
ĠPre fect
å±± æīĭ
é§ħ åģľè»Ĭ
ãģĤ ãĤīãģĻãģĺ
æĺİ ç¥ŀ
æ°´ è°·
ĠãĤ« ãĥ©ãĥ¼
æĸ¹ éĩĿ
ãĥ³ãĥĲ ãĥ«
æĩ ¸
ĠA udio
ĠN ARUTO
éķ· ç·¨
ãĥĻ ãĤ¬ãĤ¹
Ġg ra
ret ty
Ġæ»Ŀ å·Ŀ
Ġæ°´æĽľ ãĥŁãĤ¹ãĥĨãĥªãĥ¼
F all
J ournal
L OW
å±± éĽħ
ĠãĤ¢ ãĥķ
éĩİ å°ıåŃ¦æł¡
ä¸ī æ²³
Ġãĥ¡ ãĤ¤ãĤ¯
06 5
rd ãĤ·ãĥ³ãĤ°ãĥ«
Ġåľ¨ ç±į
ãĥ³ãĤ¸ãĥ£ ãĥ¼ãĤº
Ġç©¶ æ¥µ
ĠM IS
ĠD iver
ĠãĥĨ ãĥ«ãĤ»
æĪ¸ çĶº
ul es
ĠãĤ» ãĥ¬ãĥĥãĤ½å¤§éĺª
Ġåĸ «
ĠãģĻ ãģ¿
æļ´ åĬĽ
ĠJust ice
ãĥĵãĥŃ ç£ĲçĶ°
8 13
P re
ãĤ¤ ãĥ¯
Ġå¤ ĸéĥ¨
ãĤ« ãĤ¯
ãĤ³ ãĥ³ãĤ°
ãĥĲ ãĥķãĤ¡
ãģª ãģ¤ãģ¿
åĴĮ ä¹ĭ
Ġb r
ĠãĤ³ ãĥªãĥ³
Ġä¸Ĭ å·»
ach er
Ġãģµ ãģĹãģİ
GA IN
5 43
h y
ĠB ear
ãĥİ ãĥł
ãĥ³ãĥī ãĤ¥
è¼Ŀ ãģı
An n
Ġle g
Ġau f
S ur
ãĤ¢ ãĥ³ãĤ¸ãĤ§
å¤§ å´İ
ĠM M
ĠB EA
ĠR ow
ãģį ãĤĪ
Ġæ¨ ĭ
ID O
éĸĭçĻº åħĥ
ĠéĢ² è¡Į
ĠPR IDE
ĠAre a
Ġå·» æķ°
UC N
äº¤éŁ¿ æ¥½åĽ£
ĠMÃ¼n chen
5 48
Ġ4 33
ĠãĤ¤ ãĤ¶
ĠãĤ¤ ãĤ¹ãĥ©ãĥł
çĶ¨ éĢĶ
Ġå·Ŀ ç«¯
ç§ĭ åħĥ
Ġç§ »åĭķ
au er
ĠãĤ¯ãĥ¬ ãĥ¨ãĥ³ãģĹãĤĵãģ¡ãĤĥãĤĵ
ĠçĲĨ è«ĸ
èĽ į
' ,
P ad
ãĥŀ ãĥ¼ãĥĪ
Ġä¸ī æ²¢
ãĥĴ ãĥ¼ãĥĪ
ill es
å¤ļ æ§ĺ
ãĤ³ãĥŃ ãĥ³ãĥĵãĤ¢
çĶ±ç´Ģ å¤«
æµľæĿ¾ å¸Ĥ
ãĥ³ãĥ´ ãĤ¡
GY M
5 34
ĠS AN
ĠL eb
ãĥ³ãĤ¯ ãĤ·ãĥ§ãĥ³
ER E
ãĤŃãĥ£ ãĥĥãĥģ
å¹´ãģ® æĺłçĶ»
ãĤªãĥ¼ãĤ¹ãĥĪ ãĥªãĤ¢
ãĤ» ãĤ¢ãĥĭãĤ¢
åĮ» èĢħ
77 4
ĠãĤ·ãĥ£ ãĤ·ãĥ¼
åĳ¼ ç§°
[...]
