{"<s>":0,"<pad>":1,"</s>":2,"<unk>":3,"<mask>":4,"<company>":5,"<label>":6,"<category>":7,"<review>":8,"!":9,"\"":10,"#":11,"$":12,"%":13,"&":14,"'":15,"(":16,")":17,"*":18,"+":19,",":20,"-":21,".":22,"/":23,"0":24,"1":25,"2":26,"3":27,"4":28,"5":29,"6":30,"7":31,"8":32,"9":33,":":34,";":35,"<":36,"=":37,">":38,"?":39,"@":40,"A":41,"B":42,"C":43,"D":44,"E":45,"F":46,"G":47,"H":48,"I":49,"J":50,"K":51,"L":52,"M":53,"N":54,"O":55,"P":56,"Q":57,"R":58,"S":59,"T":60,"U":61,"V":62,"W":63,"X":64,"Y":65,"Z":66,"[":67,"\\":68,"]":69,"^":70,"_":71,"`":72,"a":73,"b":74,"c":75,"d":76,"e":77,"f":78,"g":79,"h":80,"i":81,"j":82,"k":83,"l":84,"m":85,"n":86,"o":87,"p":88,"q":89,"r":90,"s":91,"t":92,"u":93,"v":94,"w":95,"x":96,"y":97,"z":98,"{":99,"|":100,"}":101,"~":102,"¡":103,"¢":104,"£":105,"¤":106,"¥":107,"¦":108,"§":109,"¨":110,"©":111,"ª":112,"«":113,"¬":114,"®":115,"¯":116,"°":117,"±":118,"²":119,"³":120,"´":121,"µ":122,"¶":123,"·":124,"¸":125,"¹":126,"º":127,"»":128,"¼":129,"½":130,"¾":131,"¿":132,"Â":133,"Ã":134,"Ä":135,"Å":136,"Æ":137,"Ç":138,"È":139,"É":140,"Ê":141,"Ë":142,"Ì":143,"Í":144,"Î":145,"Ï":146,"Ð":147,"Ñ":148,"Ò":149,"Ó":150,"Ô":151,"Õ":152,"Ö":153,"×":154,"Ø":155,"Ù":156,"Ú":157,"Û":158,"Ü":159,"Ý":160,"Þ":161,"ß":162,"à":163,"á":164,"â":165,"ã":166,"ä":167,"å":168,"æ":169,"ç":170,"è":171,"é":172,"ê":173,"ë":174,"ì":175,"í":176,"î":177,"ï":178,"ð":179,"ó":180,"ô":181,"Ġ":182,"ġ":183,"Ģ":184,"ģ":185,"Ĥ":186,"ĥ":187,"Ħ":188,"ħ":189,"Ĩ":190,"ĩ":191,"Ī":192,"ī":193,"Ĭ":194,"ĭ":195,"Į":196,"į":197,"İ":198,"ı":199,"Ĳ":200,"ĳ":201,"Ĵ":202,"ĵ":203,"Ķ":204,"ķ":205,"ĸ":206,"Ĺ":207,"ĺ":208,"Ļ":209,"ļ":210,"Ľ":211,"ľ":212,"Ŀ":213,"ŀ":214,"Ł":215,"ł":216,"Ń":217,"ãĥ":218,"ãĤ":219,"ãģ":220,"==":221,"Ġ==":222,"''":223,"ãĥ¼":224,"å¹":225,"Ġå":226,"æľ":227,"Ġ1":228,"ãĢ":229,"Ġ*":230,"å¹´":231,"ãĥ³":232,"20":233,"Ġæ":234,"Ġãĥ":235,"Ĺ¥":236,"ĠãĤ":237,"ä¸":238,"æľĪ":239,"æĹ¥":240,"ãĥ»":241,"Ġ===":242,"'''":243,"ãģ®":244,"Ġç":245,"ãĥ«":246,"ãĤ¹":247,"Ġ20":248,"äº":249,"çĶ":250,"ãĥ¼ãĥ":251,"Ġ(":252,"Ġé":253,"ãĤ¤":254,"Ġ19":255,"ãĥª":256,"Ġ**":257,"Ġè":258,"åŃ":259,"ãĥ©":260,"ãĥĪ":261,"å¤":262,"ãĤ¯":263,"ãĥĥ":264,"ä½":265,"åı":266,"éĥ":267,"åħ":268,"ãĤ¢":269,"Ġ2":270,"Ġ'''":271,"19":272,"ãĢģ":273,"å®":274,"ãĥ¼ãĤ":275,"ãĥ¬":276,"er":277,"ãĥ³ãĥ":278,"Ġãģ":279,"Ġ201":280,"åĽ":281,"ĠS":282,"éĢ":283,"ãĥ³ãĤ":284,"æĿ":285,"ä»":286,"Ġ200":287,"å·":288,"å±":289,"Ġ3":290,"an":291,"in":292,"å¸":293,"ãĢĤ":294,"on":295,"ãĤ£":296,"åĲ":297,"åŃ¦":298,"æĪ":299,"Ġ:":300,"æĸ":301,"éģ":302,"æľ¬":303,"00":304,"ãĥŃ":305,"ãĤ·":306,"éĩ":307,"çĶ°":308,"¬¬":309,"æĽ":310,"åĪ":311,"Ġå¤":312,"Ġä¸":313,"ĠC":314,"å¤§":315,"ä¼":316,"ĠM":317,"Ġ4":318,"ĠT":319,"äºº":320,"ãĤ¿":321,"ãĥķ":322,"åº":323,"æŃ":324,"ĠãĢ":325,"æĺ":326,"éĸ":327,"éĥ¨":328,"ar":329,"çĽ":330,"ãĥĨ":331,"åŃĲ":332,"åľ":333,"ç·":334,"è¡":335,"Ġ''":336,"en":337,"ĠA":338,"çľ":339,"or":340,"ãĥī":341,"ĠB":342,"ãģĦ":343,"ãĥŀ":344,"10":345,"ãĤ«":346,"ãĥ£":347,"å¸Ĥ":348,"æī":349,"ãĤĭ":350,"æ³":351,"ãĤ¸":352,"ä½ľ":353,"å°":354,"ãģ¨":355,"æł":356,"Ġ5":357,"ĠP":358,"åĮ":359,"åĭ":360,"he":361,"Ġ====":362,"at":363,"Ġ199":364,"åį":365,"ä¸Ģ":366,"ĠL":367,"Ġ#":368,"es":369,"ãĢı":370,"ãĢį":371,"ãĥĵ":372,"Ġç¬¬":373,"çī":374,"åł":375,"al":376,"å±±":377,"ãĥ¥":378,"ãĤ¦":379,"æķ":380,"ãĤ³":381,"ãĥĲ":382,"ĠD":383,"ãģĹ":384,"ĠF":385,"ç«":386,"12":387,"è¦":388,"ãĥĭ":389,"ãĤª":390,"ĠR":391,"ãĥł":392,"ãģª":393,"ä¹":394,"ç§":395,"éĽ":396,"ãģ«":397,"å·Ŀ":398,"ĩº":399,"è¨":400,"Ġ6":401,"11":402,"ãĥĸ":403,"ãĤĬ":404,"ãģŁ":405,"æµ":406,"è©":407,"èª":408,"ĠI":409,"ãĥĬ":410,"æ²":411,"ãĥĩ":412,"çľĮ":413,"ĠãĤ¢":414,"ä¿":415,"ä¼ļ":416,"ĠæĿ":417,"ãĤ§":418,"ĠG":419,"ç¾":420,"èĢ":421,"å½":422,"«ĺ":423,"ãĥĹ":424,"it":425,"ic":426,"æ°":427,"çµ":428,"å¼":429,"ãģĭ":430,"éģĵ":431,"å¥":432,"éĩİ":433,"ä¸Ń":434,"ãĥ¼ãĥ«":435,"æĶ":436,"200":437,"å¹³":438,"ĠN":439,"åĽŀ":440,"is":441,"ç¤":442,"ãĤµ":443,"æ¥":444,"Ġ;":445,"ãĤŃ":446,"ãĤ¨":447,"ãĥ¡":448,"çĽ®":449,"Ġt":450,"Ġ7":451,"ĠH":452,"éĻ":453,"é§":454,"Ġ10":455,"æĻ":456,"ãĤĵ":457,"âĢ":458,"åĵ":459,"ãĥĥãĤ¯":460,"ä½į":461,"ãģ¯":462,"æĪĲ":463,"å³":464,"Ġåħ":465,"å¯":466,"ĴĮ":467,"ķ·":468,"le":469,"æł¡":470,"Ł³":471,"ãĥģ":472,"åĬ":473,"ãĥ§":474,"ãĥŁ":475,"æĽ²":476,"åĽ½":477,"çķ":478,"æĿĳ":479,"å£":480,"ĠW":481,"ç¤¾":482,"ç´":483,"é§ħ":484,"è³":485,"Ġå¤§":486,"Ġ9":487,"éł":488,"ç¥":489,"åĨ":490,"è»":491,"æĸĩ":492,"18":493,"Ġ8":494,"åĴĮ":495,"å³¶":496,"åł´":497,"å¾":498,"ãĥ³ãĤ¯":499,"çĻ":500,"Ġ198":501,"İŁ":502,"ĠE":503,"ãĤī":504,"ãĢĮ":505,"çĶº":506,"ĠJ":507,"15":508,"ãģį":509,"ãĤ¹ãĥĪ":510,"ãĢİ":511,"ãĤ¡":512,"ou":513,"of":514,"ĠãĢİ":515,"ä»£":516,"æľ¨":517,"åĩº":518,"ç·ļ":519,"ãģĨ":520,"re":521,"ol":522,"¼Ķ":523,"åī":524,"Ġ12":525,"åĲį":526,"ãĤĴ":527,"Ħļ":528,"äº¬":529,"éĢ£":530,"16":531,"ãĥ³ãĤ°":532,"ãģ¾":533,"13":534,"ĠO":535,"å²":536,"st":537,"ãģķ":538,"ãģĮ":539,"et":540,"Ġ18":541,"ç«ĭ":542,"14":543,"Ġãĥķ":544,"Ġ0":545,"æ´":546,"Ĺ¤":547,"æ©":548,"Ġof":549,"åŁ":550,"ãĥĥãĥĪ":551,"åľ°":552,"é«ĺ":553,"æĪ¦":554,"30":555,"æīĭ":556,"éķ·":557,"17":558,"Ġ:*":559,"ãģ¿":560,"éļ":561,"ãĤ°":562,"åİŁ":563,"ion":564,"Ġéĸ":565,"æĿ±":566,"ãģ¦":567,"Ġåı":568,"çĶŁ":569,"åı·":570,"Ġ.":571,"el":572,"æ¸":573,"ãģ§":574,"ç¬¬":575,"äºķ":576,"ä¸Ĭ":577,"ĠãĤ¹":578,"ãĥ¬ãĥĵ":579,"om":580,"ãĥªãĥ³ãĤ¯":581,"åŃ¦æł¡":582,"æ³¨":583,"¥¿":584,"çĲ":585,"ãĥĳ":586,"ĸéĥ¨":587,"ãĤĮ":588,"Ġå°":589,"ãĥ¼ãĤº":590,"éĸĵ":591,"ĸéĥ¨ãĥªãĥ³ãĤ¯":592,"ãĥĢ":593,"ĠæĹ¥":594,"ing":595,"and":596,"ç¾İ":597,"ãĥı":598,"ãĥ¼ãĥī":599,"ĠèĦļ":600,"Ġå®":601,"å¿":602,"è¡Į":603,"ĠK":604,"25":605,"ãģ¡":606,"ĠãĢĮ":607,"éĿ":608,"il":609,"æ¼Ķ":610,"ãģĻ":611,"æīĢ":612,"ĠV":613,"Ġ197":614,"Ġæĸ":615,"éĥİ":616,"am":617,"ç©":618,"Ġ11":619,"å°ı":620,"ãĤ»":621,"è©±":622,"ch":623,"æĻĤ":624,"ãĥ¼ãĥĪ":625,"ĠæĿ±":626,"åĪĨ":627,"ãĥ¢":628,"ãĥİ":629,"çĶ»":630,"ĠåĲ":631,"ãģı":632,"as":633,"Ġå¤ĸéĥ¨ãĥªãĥ³ãĤ¯":634,"ãĥ¼ãĤ¹":635,"æ¥Ń":636,"199":637,"èĹ¤":638,"éĢģ":639,"åĲĪ":640,"ãĥ³ãĥī":641,"åĭĿ":642,"ĠèĦļæ³¨":643,"çİ":644,"ãģĤ":645,"åı£":646,"èĪ":647,"ãĤ¬":648,"ĠçĶ":649,"äºĭ":650,"Ħª":651,"æ¨":652,"Ġ::":653,"Ġéĸ¢":654,"ãĥ¼ãĥł":655,"èĢħ":656,"çī©":657,"ãĤº":658,"è£":659,"¾éĢģ":660,"ãĥ¯":661,"ä¸ī":662,"ãģĬ":663,"ãĤ¤ãĥĪ":664,"ãĥ³ãĥĪ":665,"Ġä¸Ń":666,"äºĮ":667,"ed":668,"Ġthe":669,"24":670,"ãĤ½":671,"ãĥĻ":672,"ãĥį":673,"å¥³":674,"Ġd":675,"Ġãĥŀ":676,"ãģĵ":677,"åĮº":678,"èī":679,"æ±":680,"æĸ°":681,"å´":682,"æĺİ":683,"é¤":684,"æĹ":685,"Ġf":686,"å¤§åŃ¦":687,"us":688,"22":689,"åħ¬":690,"æŀ":691,"æµ·":692,"Ġ15":693,"å¼ı":694,"ãĥªãĥ¼":695,"éģ¸":696,"åĨħ":697,"Ġå°ı":698,"ãĥ©ãĤ¤":699,"èŃ":700,"å¹³æĪĲ":701,"è³ŀ":702,"ra":703,"ĠU":704,"23":705,"å²¡":706,"Ġ196":707,"ro":708,"Ġ14":709,"ĠãĤ¸":710,"Ġ13":711,"ãĥĨãĤ£":712,"å®¶":713,"Ġåį":714,"ER":715,"ĠãĤ·":716,"ãĥ´":717,"ç·¨":718,"26":719,"IN":720,"°·":721,"ãģ¤":722,"å´İ":723,"ãĤĪ":724,"ãĥĦ":725,"åīį":726,"æķ°":727,"28":728,"è»Ĭ":729,"Ġ16":730,"27":731,"ãĤĤ":732,"Ġ-":733,"ĠæŃ":734,"âĢĵ":735,"¦ı":736,"Ġ***":737,"æĽ¸":738,"Ġ17":739,"21":740,"éłħ":741,"é¦":742,"é¤¨":743,"éĺ":744,"è·":745,"ãĤ¹ãĤ¿":746,"ç¥ŀ":747,"èĢĥ":748,"ĠæĹ¥æľ¬":749,"29":750,"ä½Ĳ":751,"Ġéĸ¢éĢ£":752,"æĹ¥æľ¬":753,"ãĤ±":754,"Ġå±":755,"æ²»":756,"th":757,"Ġæľ":758,"Ġæĺ":759,"çķª":760,"çĿ":761,"ãĥľ":762,"ĠãĤª":763,"Ġåĩº":764,"éłħçĽ®":765,"çīĪ":766,"èĬ":767,"AR":768,"çŃ":769,"ig":770,"èªŀ":771,"å®ļ":772,"æĢ":773,"éĢļ":774,"ãĤ©":775,"ãģ£":776,"åı²":777,"ĠãĤ¨":778,"ãĥĨãĥ¬ãĥĵ":779,"å¤ª":780,"åĦª":781,"åĵģ":782,"è°·":783,"æŃ£":784,"ent":785,"ĠåĽ":786,"åľĴ":787,"ãĥĿ":788,"ä¸ĭ":789,"çĻº":790,"Ġm":791,"çĲĨ":792,"è¥¿":793,"ç§ĳ":794,"è²":795,"ãĥ¼ãĤ¸":796,"ä¸ĸ":797,"æĽľ":798,"æ°´":799,"198":800,"èĳ":801,"ãĥ§ãĥ³":802,"Ġä½ľ":803,"åĳ":804,"ac":805,"Ġå±±":806,"éĥ½":807,"ãĥ³ãĤ¿":808,"ĠãĥĨ":809,"åĭķ":810,"ãĥļ":811,"æ®":812,"æ©ĭ":813,"è¦ģ":814,"iv":815,"Ġb":816,"éĮ":817,"id":818,"Ġéĩ":819,"un":820,"Ġæĸ°":821,"ĠãĤµ":822,"Ġéĸ¢éĢ£éłħçĽ®":823,"Ġs":824,"ON":825,"èĩ":826,"ãĥĶ":827,"æĺŃ":828,"çŁ":829,"50":830,"ãĥĩãĤ£":831,"ad":832,"ãĢľ":833,"ĠåĪ":834,"ä¾":835,"Ġp":836,"ç¨":837,"éĸĭ":838,"åĮĹ":839,"ãĤ¶":840,"æŃ´":841,"SB":842,"ĠãĤ¤":843,"īĦ":844,"ãĥĽ":845,"ay":846,"Ġin":847,"Ġé«ĺ":848,"===":849,"ĠåĮ":850,"ĠãĤ«":851,"æĶ¾éĢģ":852,"åº¦":853,"éĸ¢":854,"um":855,"åħ¸":856,"ur":857,"éĮ²":858,"ãģĪ":859,"ĠçĻ":860,"çĶ¨":861,"§ĭ":862,"é¡":863,"åĵ¡":864,"AN":865,"Ġand":866,"Ġ*ãĢİ":867,"ãĥªãĤ¢":868,"æķĻ":869,"Ġéģ":870,"Ġãĥ©":871,"ĦĽ":872,"ag":873,"çĤ":874,"æĸ¹":875,"ĬĢ":876,"ĠY":877,"SBN":878,"Ġåľ":879,"èĭ":880,"èĤ":881,"è¨ĺ":882,"å±ĭ":883,"åĢ":884,"¦Ĥ":885,"ãĤ¤ãĥ«":886,"æģ":887,"éĻ¢":888,"ĠãĤ¯":889,"ĠSt":890,"000":891,"ãģĳ":892,"ä¿¡":893,"æľŁ":894,"im":895,"Ġc":896,"åģ":897,"ãĥ¼ãĤ¯":898,"ä¸»":899,"ir":900,"æĿ¾":901,"40":902,"æĮ":903,"ãĤ®":904,"æ¥½":905,"åĮĸ":906,"è¾":907,"æ³ķ":908,"ä½ĵ":909,"åºĹ":910,"å·ŀ":911,"ãĤĦ":912,"31":913,"£®":914,"è¨Ń":915,"å£²":916,"è·¯":917,"éĥ¡":918,"è¦§":919,"ä¹ħ":920,"ĠãĥĲ":921,"åħĥ":922,"æ©Ł":923,"ot":924,"ãĤ´":925,"æİ":926,"ĠãĤŃ":927,"Ġãĥĩ":928,"éīĦ":929,"ers":930,"æ¬":931,"ĤĻ":932,"çł":933,"ãĤı":934,"197":935,"ãĥ¤":936,"ãĥ³ãĤ¹":937,"å£«":938,"ĠãĤ³":939,"æĥ":940,"Ġæ°":941,"ãĥĥãĥĹ":942,"åĸ":943,"å±Ģ":944,"èģ":945,"å·¥":946,"åŁİ":947,"Ŀãģ®":948,"Ġv":949,"æĺŃåĴĮ":950,"ation":951,"ST":952,"æ²¢":953,"ĠISBN":954,"Ġå¾":955,"Ġå²":956,"ĠãĥŃ":957,"æŃĮ":958,"Ġä»":959,"çµĦ":960,"ec":961,"ow":962,"çľŁ":963,"åı°":964,"çĶ·":965,"Ġä¸ī":966,"Ġ195":967,"çİĭ":968,"ãģĺ":969,"Ġãĥª":970,"The":971,"Ġ2010":972,"éĽĨ":973,"å®®":974,"Ġ2015":975,"ç©º":976,"åħī":977,"Ġ2014":978,"Ġ\"":979,"ĠåĮĹ":980,"em":981,"Ġ2012":982,"åįĹ":983,"¦Ĥè¦ģ":984,"çĿ£":985,"ĠãĤ¿":986,"ä¸Ģè¦§":987,"¢¨":988,"Ġ2013":989,"ä¿Ŀ":990,"å¡":991,"Ġçµ":992,"çĤ¹":993,"ç³":994,"Ġw":995,"ãĥ¼ãĤ¿":996,"è«":997,"æĺł":998,"çŃī":999,"ãĥ¼ãĤ·":1000,"ãĤģ":1001,"çĮ":1002,"48":1003,"Ġãĥı":1004,"ãĤ¿ãĥ¼":1005,"ĠåĽ½":1006,"ç¶":1007,"Ġ2011":1008,"éĩĳ":1009,"£çĿ£":1010,"Ġ2016":1011,"ĠThe":1012,"è¡¨":1013,"éŁ³":1014,"os":1015,"ĠãĥĹ":1016,"ĠãĥĪ":1017,"px":1018,"æĪ¸":1019,"Ġãĥī":1020,"åħ¥":1021,"äº¤":1022,"åĪ¥":1023,"éģ¸æīĭ":1024,"ãĥķãĤ£":1025,"ãĥĥãĥī":1026,"åĽ£":1027,"èĤ²":1028,"Ġ2009":1029,"å¤«":1030,"ãģł":1031,"HE":1032,"IC":1033,"Ġçī":1034,"Ġãĥģ":1035,"æ°ĳ":1036,"..":1037,"ãĥķãĤ¡":1038,"Ġæ²":1039,"ä¹ĭ":1040,"Ġ2000":1041,"45":1042,"Ġç·":1043,"ĠæĶ":1044,"å»":1045,"ãĤį":1046,"Ġ2017":1047,"è©ŀ":1048,"od":1049,"Ġk":1050,"ut":1051,"Ġãĥ¬":1052,"35":1053,"ov":1054,"è¡ĵ":1055,"Ġæµ":1056,"éĽĦ":1057,"ĠãĥķãĤ¡":1058,"æº":1059,"Ġ2008":1060,"Ġåħ¨":1061,"ĠæĿ±äº¬":1062,"éĸĢ":1063,"éĿ¢":1064,"ap":1065,"ı¾":1066,"åĿ":1067,"ç¾©":1068,"ãĥ³ãĥĢ":1069,"ãģĻãĤĭ":1070,"ç³»":1071,"ĠçĽ":1072,"ç§Ĵ":1073,"Ġè¥¿":1074,"èı":1075,"éĺª":1076,"Ġ2018":1077,"åº«":1078,"çŁ¥":1079,"Ġ2007":1080,"ĠéĢ":1081,"å¯º":1082,"ter":1083,"å¤©":1084,"æ¬¡":1085,"ç¯":1086,"ie":1087,"ĠãĥŁ":1088,"ĠåıĤ":1089,"33":1090,"èī¯":1091,"78":1092,"ul":1093,"èĩª":1094,"nd":1095,"Ġ#:":1096,"OR":1097,"è¼":1098,"ä¼Ĭ":1099,"Ġä¸»":1100,"çĶ±":1101,"Ġ25":1102,"èĭ±":1103,"ãĤ¤ãĥ³":1104,"éĽ»":1105,"ä¸ģ":1106,"ak":1107,"æ¯":1108,"AL":1109,"ç½":1110,"æ´¥":1111,"å½¢":1112,"ãĥ¼ãĥŀ":1113,"åŀ":1114,"åĬĽ":1115,"ĠæĿ¾":1116,"æĶ¿":1117,"çŁ³":1118,"ãĤ·ãĥ£":1119,"ãĤ²":1120,"ĠéĿ":1121,"é¦¬":1122,"60":1123,"Ġæ¦Ĥè¦ģ":1124,"ia":1125,"Ġå·":1126,"åĥ":1127,"ãģ°":1128,"'''(":1129,"AT":1130,"Ġå¥":1131,"Ġ2006":1132,"æŁ":1133,"oc":1134,"å½¹":1135,"ĠãĤ¦":1136,"VE":1137,"ç±":1138,"Ġãĥĳ":1139,"ĠãĥĨãĥ¬ãĥĵ":1140,"ãĥ¼ãĥ³":1141,"ãĥĹãĥŃ":1142,"ç¸":1143,"åķ":1144,"ãģ©":1145,"Ġãĥĸ":1146,"è¦ĭ":1147,"ãĥĴ":1148,"Ġå¯":1149,"åħ¨":1150,"åŁŁ":1151,"éļĬ":1152,"âĢ»":1153,"ä»ĸ":1154,"Ġ:;":1155,"å¾Į":1156,"Ġç¦ı":1157,"36":1158,"ãĥ¼ãĥĹ":1159,"Ġ2005":1160,"Ġ2019":1161,"ãĥ«ãĥĪ":1162,"å·»":1163,"éĩĮ":1164,"åı¸":1165,"åĲī":1166,"çĮ®":1167,"å¸Ĥç«ĭ":1168,"ãĥªãĥ¼ãĤº":1169,"å¥Ī":1170,"ç·ı":1171,"åı¤":1172,"ä¸ģçĽ®":1173,"Ġ23":1174,"çķĮ":1175,"ãĥ¼ãĥª":1176,"ãĥ©ãĥŀ":1177,"Ġ21":1178,"47":1179,"ãĥĥãĤ¯ãĤ¹":1180,"åħļ":1181,"äºĶ":1182,"æĭ":1183,"Ġâ":1184,"Ġãĥ¡":1185,"Ġæ¸":1186,"é£":1187,"196":1188,"Ġ2001":1189,"Ġ*:":1190,"åĬł":1191,"ãĤ·ãĥ¥":1192,"ãĤ¢ãĥ«":1193,"Ġl":1194,"op":1195,"éĩį":1196,"Ġ24":1197,"ce":1198,"å±ŀ":1199,"ĠãĥĢ":1200,"æĸĩçĮ®":1201,"æ£®":1202,"ãĥ³ãĤ¸":1203,"Ġäºº":1204,"ãĥ¼ãĥ©":1205,"55":1206,"38":1207,"Ġç¥":1208,"ist":1209,"æĦĽ":1210,"37":1211,"Ġéķ·":1212,"è±":1213,"èĳī":1214,"ill":1215,"æŃ¦":1216,"Ġä½Ĳ":1217,"åºĥ":1218,"01":1219,"ãģ²":1220,"åł±":1221,"--":1222,"ĠCh":1223,"æŀĹ":1224,"ç®":1225,"ãĤ¸ãĥ£":1226,"Ġ1999":1227,"çĲĥ":1228,"è»į":1229,"çļ":1230,"49":1231,"ĠåĬ":1232,"ãĥªãĤ«":1233,"Ġä¸Ĭ":1234,"å§":1235,"II":1236,"39":1237,"æ±Ł":1238,"ĠåĨ":1239,"è¶":1240,"èŃ°":1241,"Ġ2004":1242,"08":1243,"Ġ22":1244,"è¿":1245,"ĠIn":1246,"æ¡":1247,"46":1248,"Ŀãģ®ä»ĸ":1249,"åĪ¶":1250,"åľ¨":1251,"igh":1252,"å¹¸":1253,"Ġæ±":1254,"åĭĻ":1255,"ĥ½":1256,"èĬ±":1257,"èĢĥæĸĩçĮ®":1258,"ãĥ¼ãĤ°":1259,"æĺŁ":1260,"å¹´åº¦":1261,"Ġ26":1262,"å®Ł":1263,"èª¬":1264,"Ġ2002":1265,"'s":1266,"ĠãģĤ":1267,"IS":1268,"ãĥģãĥ£":1269,"ãĥ¼ãĥĬ":1270,"ĠãĥĻ":1271,"çłĶ":1272,"ãĤĨ":1273,"ãĥ³ãĥĩ":1274,"ĠãĤ»":1275,"ãģĭãĤī":1276,"ãĤ¹ãĥĨ":1277,"ãĤ¯ãĥ©":1278,"US":1279,"09":1280,"çµĮ":1281,"ess":1282,"Ġãģ®":1283,"ç´Ģ":1284,"05":1285,"æ½":1286,"Ġç¾":1287,"ãĥ¬ãĤ¤":1288,"çī¹":1289,"ĠãĤ°":1290,"åŀĭ":1291,"est":1292,"èµ":1293,"æĢ§":1294,"ĠèĬ":1295,"Ġ2003":1296,"BS":1297,"art":1298,"æ·":1299,"34":1300,"å°ıåŃ¦æł¡":1301,"06":1302,"Ġæ³":1303,"og":1304,"æ¸¯":1305,"ĠãģĬ":1306,"İéĮ²":1307,"ri":1308,"åįĥ":1309,"ard":1310,"Ġåĩºåħ¸":1311,"æ¨¹":1312,"ile":1313,"è¨Ī":1314,"EN":1315,"ãģĹãģ¦":1316,"åħ±":1317,"07":1318,"ab":1319,"ãĥªãĤ¹":1320,"ĠéĽ":1321,"å¤ĸ":1322,"åĬĩ":1323,"ä¼Ŀ":1324,"Ġéĩĳ":1325,"æµľ":1326,"å½¦":1327,"ĤĻèĢĥ":1328,"å£°":1329,"åįļ":1330,"ĠåĲį":1331,"av":1332,"º«":1333,"åĲĮ":1334,"Ġåľ°":1335,"ä»ĭ":1336,"ãģ¸":1337,"ç¦ı":1338,"Ģ¬":1339,"æŃ³":1340,"ä¹Ł":1341,"æĺ¥":1342,"éĢł":1343,"ãĤĥ":1344,"Ġåº":1345,"å¸¯":1346,"ãĥĲãĤ¹":1347,"Ġåī":1348,"Ġ27":1349,"ä½ľåĵģ":1350,"ãģ³":1351,"åįģ":1352,"å¿Ĺ":1353,"æ´ĭ":1354,"Ġç«":1355,"çĦ":1356,"æĿ±äº¬":1357,"ĠæĶ¾éĢģ":1358,"Ġå¸":1359,"44":1360,"éĤ":1361,"ãģĤãĤĭ":1362,"çĶ£":1363,"Ġ30":1364,"Ġæł":1365,"ĠçŁ³":1366,"ĠæŃ´":1367,"Ġç¥ŀ":1368,"æ°Ĺ":1369,"ĠåĤĻèĢĥ":1370,"AM":1371,"éŃ":1372,"ãĤ°ãĥ©":1373,"Ġåħ¬":1374,"ãĥ³ãĥĨ":1375,"æħ":1376,"éħ":1377,"ç©¶":1378,"ãģĽ":1379,"çĽ£çĿ£":1380,"OU":1381,"å¤®":1382,"»Ĵ":1383,"Ġæī":1384,"ĠåıĤèĢĥæĸĩçĮ®":1385,"Ġ28":1386,"åħ«":1387,"ĠTHE":1388,"è³Ģ":1389,"æľĿ":1390,"ct":1391,"ç«ł":1392,"æĬĢ":1393,"å¯¾":1394,"ãģļ":1395,"å¦":1396,"æ¨©":1397,"æĻĤéĸĵ":1398,"our":1399,"Ġ1998":1400,"æĬ":1401,"å°¾":1402,"if":1403,"ĠçĶ°":1404,"ç§Ģ":1405,"Ġå½":1406,"ãĢħ":1407,"ok":1408,"åĽĽ":1409,"RE":1410,"32":1411,"å®¤":1412,"å®ī":1413,"ĠãĢľ":1414,"ãĥ¦":1415,"åįĶ":1416,"é¡Į":1417,"ĠæĪ":1418,"Ġ#'''":1419,"åºľ":1420,"é¦Ļ":1421,"æĴ":1422,"å¤ªéĥİ":1423,"ãĤ·ãĥªãĥ¼ãĤº":1424,"éīĦéģĵ":1425,"è¾º":1426,"all":1427,"åĪ©":1428,"åĩºæ¼Ķ":1429,"OL":1430,"ãĥ³ãĤ¿ãĥ¼":1431,"'',":1432,"ãĥ³ãĥĲ":1433,"ĠãĥķãĤ¡ãĤ¤ãĥ«":1434,"ãĤŃãĥ£":1435,"ãĥ¼ãĤ«":1436,"æĥħ":1437,"ĠãģĿãģ®ä»ĸ":1438,"çģ":1439,"Ġç´":1440,"ç´ļ":1441,"ãĥķãĤ©":1442,"ine":1443,"04":1444,"ell":1445,"åģ¥":1446,"Ġãĥĭ":1447,"Ġæ°´":1448,"Ġè¡":1449,"Ġ+":1450,"ãĥ³ãĤº":1451,"å¸«":1452,"ãĤ¸ãĤª":1453,"åĢī":1454,"ãĤ¤ãĥĪãĥ«":1455,"Ġkm":1456,"ãĥ©ãĥ¼":1457,"58":1458,"æı":1459,"åıĤ":1460,"ãĤ¤ãĥī":1461,"ew":1462,"Ġn":1463,"ãĤµãĤ¤ãĥĪ":1464,"è§":1465,"æ®µ":1466,"Ġde":1467,"ight":1468,"æ²³":1469,"é¢¨":1470,"03":1471,"ĠæĹ":1472,"Ġãĥ¢":1473,"ä¼ļç¤¾":1474,"ä¹Ŀ":1475,"âĨ":1476,"è¡Ľ":1477,"æĹı":1478,"ĠåŃ":1479,"èĮ":1480,"Ġ#*":1481,"æ¶":1482,"Ġæ¨":1483,"Ġæľ¬":1484,"éĻ½":1485,"57":1486,"ĠãĥĿ":1487,"LE":1488,"Ġ29":1489,"ub":1490,"çĢ¬":1491,"æĸĩåº«":1492,"Ġè©":1493,"59":1494,"ĠâĢ»":1495,"æĿ¥":1496,"åĽ³":1497,"æ¹":1498,"æĺłçĶ»":1499,"ive":1500,"çı¾":1501,"ĠåįĹ":1502,"çłĶç©¶":1503,"AC":1504,"ä¸ĩ":1505,"èº«":1506,"èį":1507,"çĹ":1508,"åłĤ":1509,"ä¿®":1510,"åľŁ":1511,"æĶ¯":1512,"é«ĺçŃī":1513,"ep":1514,"æ³¢":1515,"ä½ľæĽ²":1516,"ä»¥":1517,"Ġå®®":1518,"ç¿":1519,"éģĭ":1520,"INE":1521,"ĠãĥĽ":1522,"56":1523,"ãģķãĤĮ":1524,"ith":1525,"ãĥ´ãĤ£":1526,"ä¸į":1527,"å¤ľ":1528,"æĶ¹":1529,"ue":1530,"ãĥ¨":1531,"åĤ":1532,"è¬":1533,"éļĽ":1534,"åĥı":1535,"ãĥĭãĥ¡":1536,"ãĥ´ãĤ¡":1537,"ãĥĥãĥģ":1538,"æľī":1539,"å¢":1540,"å¤ļ":1541,"Ġä¸Ģ":1542,"æ±º":1543,"IT":1544,"èĳĹ":1545,"åĿĤ":1546,"ãĥ¡ãĥªãĤ«":1547,"å¡ļ":1548,"Ī´":1549,"Ġçķ":1550,"æµ¦":1551,"02":1552,"HK":1553,"Ġéł":1554,"æ³ī":1555,"ĠæľĢ":1556,"å®ĺ":1557,"Ġä½ľæĽ²":1558,"æĤ":1559,"åĽŀæĪ¦":1560,"Ġto":1561,"ge":1562,"ãĥĬãĥ«":1563,"Ġçľ":1564,"çĪ":1565,"åº§":1566,"ãĥĭãĥ¼":1567,"éº":1568,"OM":1569,"rom":1570,"AS":1571,"åĪĿ":1572,"ä¸ŃåŃ¦æł¡":1573,"ĠãĥĬ":1574,"Ġéĺ":1575,"ãģ¶":1576,"âĺ":1577,"ity":1578,"çĽ´":1579,"Ġç·¨":1580,"ev":1581,"Ġèĩ":1582,"ãģªãģĦ":1583,"ĠãĤ²":1584,"èĶ":1585,"åĪĹ":1586,"ant":1587,"æ´»":1588,"ĠæŃ´åı²":1589,"ĠãĤ¢ãĥ«":1590,"æ¸ħ":1591,"äººçī©":1592,"éĢĢ":1593,"Ġ1997":1594,"ĠèĹ¤":1595,"å½ĵ":1596,"ĠãĤŃãĥ£":1597,"ãģĹãģŁ":1598,"æķĹ":1599,"æĻĤä»£":1600,"43":1601,"ãĥĲãĥł":1602,"ãĥŀãĥ³":1603,"å¼ĺ":1604,"ex":1605,"ãĤĩ":1606,"çĬ":1607,"ĠåĲī":1608,"Ġæķ":1609,"æł¼":1610,"äº¬éĥ½":1611,"äºĪ":1612,"41":1613,"æľĢ":1614,"è£½":1615,"ĠéĿĴ":1616,"åħµ":1617,"42":1618,"ãĥĭãĤ¢":1619,"Ġãĥľ":1620,"å°ĳ":1621,"ãĤ¦ãĤ§":1622,"Ġè¨":1623,"ob":1624,"ç¨®":1625,"ãĥ³ãĥĹ":1626,"åĸ¶":1627,"ãĢį(":1628,"ãĥ³ãĤ°ãĥ«":1629,"ãĥķãĤ§":1630,"µãĥ¼":1631,"ĠZ":1632,"ĠæĦĽ":1633,"Ġä¼Ĭ":1634,"Ġå¤©":1635,"ç¸¾":1636,"Ġå¹³":1637,"Ġfor":1638,"³¥":1639,"æģµ":1640,"Ġæľ¨":1641,"åŃĹ":1642,"çĻºå£²":1643,"ud":1644,"Ġãģ¨":1645,"»åł´":1646,"ãĥ¼ãĥģ":1647,"CD":1648,"hi":1649,"ĠèĪ":1650,"ãĥĺ":1651,"ãĤ¥":1652,"ĠRet":1653,"Ġ2020":1654,"ĠåĦª":1655,"Ġå·Ŀ":1656,"ast":1657,"Ġ1995":1658,"Ġ*#":1659,"ãĤ¹ãĤ¿ãĥ¼":1660,"ä½¿":1661,"ç·¨æĽ²":1662,"ç½®":1663,"ãĤ¨ãĥ«":1664,"Ġåĭ":1665,"äº¤éĢļ":1666,"ãĤ¤ãĤ¹":1667,"Ġ1996":1668,"ãĥ¼ãĥĦ":1669,"æŃ¢":1670,"ord":1671,"ĠçĻº":1672,"èĶµ":1673,"ian":1674,"ãĥīãĥ©ãĥŀ":1675,"ãĤĢ":1676,"èĸ":1677,"çĿĢ":1678,"æĮĩ":1679,"'')":1680,"æł¹":1681,"Ġä¸ĸ":1682,"OW":1683,"¹¿":1684,"ÃĹ":1685,"ĠAl":1686,"eb":1687,"çµĤ":1688,"ä½ı":1689,"Ġè£":1690,"æŀľ":1691,"ãĤ½ãĥ³":1692,"¥æŃ´":1693,"ãĥĥãĤ«":1694,"é«ĺçŃīåŃ¦æł¡":1695,"Ġå²¡":1696,"eat":1697,"ãĥĸãĥ«":1698,"çĻ½":1699,"ĠãĤ¹ãĤ¿":1700,"ãĤ·ãĥ§ãĥ³":1701,"å¤§ä¼ļ":1702,"èĥ½":1703,"Ġ100":1704,"Ġæĺł":1705,"åķĨ":1706,"Ġãģª":1707,"99":1708,"ä¾¿":1709,"ĠAn":1710,"çĭ":1711,"Ġãĥĵ":1712,"54":1713,"ran":1714,"åıĸ":1715,"ĠåİŁ":1716,"ãĥ³ãĥģ":1717,"Ġå¥³":1718,"çµĲ":1719,"ãĥ¼ãĥĨ":1720,"Ġãĥ«":1721,"éĢ²":1722,"éĿĴ":1723,"2010":1724,"¦åĲĪ":1725,"è£ķ":1726,"2013":1727,"å°Ĩ":1728,"ç±³":1729,"Ã©":1730,"Ġçī¹":1731,"2012":1732,"ey":1733,"åıĭ":1734,"æµ·éģĵ":1735,"ãĥ³ãĤ·":1736,"ãĥĸãĥ©":1737,"Ġg":1738,"ort":1739,"RA":1740,"ĠçĶŁ":1741,"èī²":1742,"åĦªåĭĿ":1743,"2015":1744,"æ®º":1745,"ãĥªãĤª":1746,"2011":1747,"Ġæ¡":1748,"æ¾":1749,"åĨĨ":1750,"æľª":1751,"2014":1752,"æŁ»":1753,"æĪ¿":1754,"Ġä½ľè©ŀ":1755,"åº·":1756,"Ġåįĥ":1757,"Ġæº":1758,"ãĤ¸ãĤ§":1759,"ãĥ¼ãĥĳ":1760,"Ġãĥ´":1761,"éļĨ":1762,"Ġå¤§éĺª":1763,"ç¶ļ":1764,"æļ":1765,"éĩĪ":1766,"æµģ":1767,"ãģķãĤĵ":1768,"æ§ĭ":1769,"ĨĬ":1770,"ãĥ¼ãĥĩ":1771,"ãĥ¼ãĤ·ãĥ§ãĥ³":1772,"æĻº":1773,"çİī":1774,"ãĥ¼ãĥ¬":1775,"æ°¸":1776,"ĠLINE":1777,"Ġåºĥ":1778,"æĸ½":1779,"åĮ»":1780,"åİ":1781,"VD":1782,"è£ħ":1783,"å¿ĥ":1784,"æĸĻ":1785,"age":1786,"2008":1787,"2009":1788,"Ġå²©":1789,"ĠãĥĹãĥŃ":1790,"ãĥ¼ãĥ«ãĥī":1791,"Ġh":1792,"ĠéŁ³":1793,"ĠFile":1794,"ãĤ»ãĥ³ãĤ¿ãĥ¼":1795,"åĤĻ":1796,"ik":1797,"OK":1798,"ãģĦãĤĭ":1799,"ĠéĻ":1800,"ãĥ¼ãĥĭ":1801,"ãĥĩãĥ¥":1802,"ry":1803,"2007":1804,"Ġèĩª":1805,"ä¿Ĭ":1806,"EC":1807,"ĠåĪĿ":1808,"Ġ38":1809,"Ġ36":1810,"2016":1811,"ãģĶ":1812,"ä»»":1813,"ĠãĤ¸ãĥ£":1814,"ãĤ¤ãĤ¢":1815,"Ġãģĭ":1816,"åĬ©":1817,"Ġ1994":1818,"ç¥Ń":1819,"ãĥ¬ãĤ¹":1820,"ãĥ©ãĤ¯":1821,"IVE":1822,"å¤ī":1823,"æĸĩåĮĸ":1824,"ãĤ¼":1825,"ç¹":1826,"ãģİ":1827,"Ġåĩºæ¼Ķ":1828,"æ¤":1829,"éľ":1830,"ain":1831,"åĻ":1832,"ial":1833,"éĿ©":1834,"Ġè¿":1835,"Ġon":1836,"ĠPr":1837,"èŃ¦":1838,"ack":1839,"Ġ*'''":1840,"Ġå¿":1841,"æ¢":1842,"Ġ1993":1843,"çļĦ":1844,"ĠSp":1845,"ä½ľè©ŀ":1846,"è«ĸ":1847,"Ġç¾İ":1848,"éĬĢ":1849,"ĠAr":1850,"ĠST":1851,"Ĩä½į":1852,"åŁº":1853,"ç¬":1854,"éĢŁ":1855,"å¾³":1856,"Ġé¦":1857,"Ġèĭ":1858,"2006":1859,"Ġé§":1860,"åħĲ":1861,"),":1862,"ass":1863,"98":1864,"ĠãĤ½":1865,"çµ±":1866,"éĻ¸":1867,"èĦļ":1868,"Ġãģ¯":1869,"ĠãĥĩãĤ£":1870,"ãĥ¼ãĥŃ":1871,"51":1872,"ĠLINEAR":1873,"ĠçĻ½":1874,"ãģµ":1875,"åĬĩåł´":1876,"RO":1877,"Ġby":1878,"æ¼":1879,"ĠåĦªåĭĿ":1880,"76":1881,"ate":1882,"èĬ¸":1883,"åĳ¨":1884,"Ġåīį":1885,"èª¿":1886,"ç§°":1887,"çĽ¸":1888,"ªå¼ı":1889,"Ġ978":1890,"Ġéĩİ":1891,"ãģ¡ãĤĥ":1892,"Ī´æľ¨":1893,"æµ©":1894,"Ġæ¨ª":1895,"ãĥ¼ãĥĲ":1896,"é¨":1897,"Ġå¼":1898,"ãĢı(":1899,"éŁ":1900,"ãĤ·ãĥ§":1901,"æĿ¡":1902,"å§ĭ":1903,"è²´":1904,"ãģŃ":1905,"Ġ31":1906,"ong":1907,"FC":1908,"åħ¬åľĴ":1909,"ĠåŁ":1910,"ove":1911,"ãĥ¼ãĥĸ":1912,"¾į":1913,"ä»ĺ":1914,"çħ":1915,"ET":1916,"Ġ32":1917,"æĥħåł±":1918,"Ġ1990":1919,"ä¸Ģéĥİ":1920,"53":1921,"ãĥ©ãĤ¹":1922,"ãĥ©ãĥ³ãĥī":1923,"æ»":1924,"Ġå®ī":1925,"ãģĲ":1926,"end":1927,"æ§":1928,"æĹħ":1929,"Ġ1992":1930,"ãĤ·ãĤ¢":1931,"AK":1932,"52":1933,"ĠãĤ¬":1934,"ä¹Ĺ":1935,"Ġ*ãĢĮ":1936,"ING":1937,"Ġæĸĩ":1938,")-":1939,"å°Ĥ":1940,"ĠæīĢ":1941,"ä¸¸":1942,"çĹħ":1943,"åħŃ":1944,"2000":1945,"ION":1946,"ãĥªãĥ¼ãĤ°":1947,"Ġèª":1948,"AD":1949,"ãĥ³ãĥĩãĤ£":1950,"ĠãĥĶ":1951,"2017":1952,"ãĥ¼ãĥķ":1953,"ary":1954,"ä»£è¡¨":1955,"éģĶ":1956,"IG":1957,"å¿µ":1958,"88":1959,"âĹ":1960,"åĳ½":1961,"ĠçµĮ":1962,"Ġæ³¨":1963,"Ġãģ¾":1964,"Ġä¸ĭ":1965,"ãĥ¼ãĤºãĥ³":1966,"æ±ł":1967,"Ġãĥ¯":1968,"åĩºçīĪ":1969,"ç§ĭ":1970,"ãĥªãĥ³":1971,"å½±":1972,"ªå¼ıä¼ļç¤¾":1973,"Ġ34":1974,"Ġ(''":1975,"io":1976,"ãĤ¯ãĥĪ":1977,"ff":1978,"ĠCD":1979,"ĠSh":1980,"AP":1981,"Ġ---":1982,"Ġæĺİ":1983,"UN":1984,"å¯Į":1985,"77":1986,"Ġèµ":1987,"2005":1988,"éĻĲ":1989,"ĠçĽ£çĿ£":1990,"66":1991,"Ġæ£®":1992,"Ġãģĵ":1993,"Ġ1991":1994,"éŃĶ":1995,"ä¼ģ":1996,"ond":1997,"ber":1998,"ãĤ¦ãĤ£":1999,"åĩ":2000,"ä¸ĸçķĮ":2001,"è»¢":2002,"åĻ¨":2003,"éģ¸æīĭæ¨©":2004,"Ġçı¾":2005,"èī¦":2006,"ãģ£ãģŁ":2007,"âĺĨ":2008,"åı¤å±ĭ":2009,"çį":2010,"å¤ı":2011,"ãģĿ":2012,"ld":2013,"ĠTh":2014,"St":2015,"ç®¡":2016,"æķĻèĤ²":2017,"ies":2018,"ä¸ĸå¸¯":2019,"Ġãĥ¦":2020,"ãĤ¹ãĥļ":2021,"Ġæ©":2022,"ĠãĤ¸ãĤ§":2023,"ç¥ŀç¤¾":2024,"ĠåľŁ":2025,"æģĭ":2026,"ĠUn":2027,"çķªçµĦ":2028,"Ġèĳ":2029,"100":2030,"ory":2031,"ID":2032,"ãĥ³ãĤ¬":2033,"èĲ":2034,"ang":2035,"å¯Ł":2036,"ãģ»":2037,"OC":2038,"è±Ĭ":2039,"ix":2040,"Ġ37":2041,"Ġ33":2042,"ãĥ¼ãĤ¿ãĥ¼":2043,"éĽħ":2044,"éĺ²":2045,"ide":2046,"ich":2047,"Ġãģķ":2048,"æĦ":2049,"çİĩ":2050,"è¶Ĭ":2051,"Ġat":2052,"ãĤ¢ãĥĭãĥ¡":2053,"Ġæ³¨éĩĪ":2054,"èĪ¹":2055,"ĠBl":2056,"ãģ£ãģ¦":2057,"ãĤªãĥ³":2058,"æ¸Ī":2059,"90":2060,"ĠX":2061,"Ġéĸĭ":2062,"ãĤ§ãĥ«":2063,"ly":2064,"up":2065,"é¡ŀ":2066,"ä»¶":2067,"ip":2068,"ĠãĤ¿ãĤ¤ãĥĪãĥ«":2069,"ãĤ¹ãĤ³":2070,"ĠåĨħ":2071,"ä¸Ńå¤®":2072,"æľĿæĹ¥":2073,"Ġå¯Į":2074,"ãĤ¯ãĥŃ":2075,"Ġ48":2076,"ãĥ¼ãĥĵ":2077,"Ġä¸»ãģª":2078,"å¼ıãĤµãĤ¤ãĥĪ":2079,"Ġåħ«":2080,"çĦ¡":2081,"ä¸ĥ":2082,"å²©":2083,"Ġ40":2084,"ç±į":2085,"ĠãĤ¸ãĥ§":2086,"ĠåıİéĮ²":2087,"96":2088,"OS":2089,"ãĤ¦ãĤ¹":2090,"ES":2091,"2004":2092,"2018":2093,"åĤ¬":2094,"èª²":2095,"Ġ=====":2096,"ãĥĥãĥķ":2097,"ĠæĺłçĶ»":2098,"ãĤ¸ãĤ¢":2099,"ãĥ¥ãĥ¼":2100,"ĠQ":2101,"ç«¶":2102,"Ġfrom":2103,"æĢ¥":2104,"Ġæµ·":2105,"ãĥĻãĥ«":2106,"æ£":2107,"ĠæĻ":2108,"åĽ½éļĽ":2109,"èŃ·":2110,"eg":2111,"ãģªãĤĭ":2112,"ãĤĩãģĨ":2113,"ĠæŃ¦":2114,"å®Ŀ":2115,"èĪª":2116,"km":2117,"ear":2118,"åĵ²":2119,"ç¥¨":2120,"ãĤ¸ãĥ§":2121,"åŃĿ":2122,"å®ı":2123,"Ġéĥ":2124,"ãĤ·ãĥ£ãĥ«":2125,"...":2126,"ĠãĤ±":2127,"Ġ1989":2128,"ne":2129,"æĽľæĹ¥":2130,"Ġéģ¸":2131,"ãĥķãĥĪ":2132,"ãĤ«ãĥ«":2133,"é»Ĵ":2134,"µä¾¿":2135,"æ¾¤":2136,"ĠåĢ":2137,"æĴĥ":2138,"Ġ35":2139,"æĪĲç¸¾":2140,"ect":2141,"è¨³":2142,"æ½Ł":2143,"å¤§éĺª":2144,"é³¥":2145,"ite":2146,"ĠCom":2147,"Ġç·¨æĽ²":2148,"Ġç§":2149,"ind":2150,"ãĤ¢ãĥ«ãĥĲãĥł":2151,"ĠéĢļ":2152,"97":2153,"Ġé£":2154,"ont":2155,"aw":2156,"Ġå¸Ĥ":2157,"Ġ50":2158,"ä¸¡":2159,"å³¶çľĮ":2160,"2003":2161,"å©":2162,"Ġå¹´":2163,"ãĥĹãĥª":2164,"EL":2165,"ãĥ³ãĥĳ":2166,"Ġå£":2167,"ãģ«ãĤĪ":2168,"ĠæĽ":2169,"ĠçĶ·":2170,"se":2171,"ĠåĬł":2172,"ãģŁãģ¡":2173,"åıİéĮ²":2174,"æºĸ":2175,"éĩİçĲĥ":2176,"ãĥĥãĥĦ":2177,"AY":2178,"ãĥ©ãĥ³":2179,"åĶ":2180,"oy":2181,"Ġãģ¿":2182,"Ġ1988":2183,"ĠãĤ´":2184,"ãĤ¿ãĤ¤":2185,"ãĥĲãĥ¼":2186,"åħĪ":2187,"è¦³":2188,"ĠãĤ®":2189,"è¿ĳ":2190,"oh":2191,"ä»ģ":2192,"ph":2193,"68":2194,"Ġãģ«":2195,"ĠçĻºå£²":2196,"ĠåŃ¦":2197,"ãĢĳ":2198,"ĠçŁ":2199,"è«ĩ":2200,"åºģ":2201,"è¨Ģ":2202,"Ĺè³ŀ":2203,"Ġäº¬éĥ½":2204,"¿éĿ©":2205,"Ġå»":2206,"çĽ¤":2207,"ç«¹":2208,"Ġè¦":2209,"EST":2210,"ĠVol":2211,"Ġ()":2212,"au":2213,"å¸¸":2214,"æĹ§":2215,"éĥ·":2216,"æľĪåı·":2217,"èĦ":2218,"Ġç§ĭ":2219,"ĠNo":2220,"çģ«":2221,"å¾Ĺ":2222,"Ġ1987":2223,"2019":2224,"OT":2225,"åĪĬ":2226,"usic":2227,"ãĥ¼ãĤµãĥ¼":2228,"ĠPro":2229,"çħ§":2230,"Ġæºĸ":2231,"éłŃ":2232,"ĠæľĪ":2233,"ãĥ¼ãĥĨãĤ£":2234,"æĺİæ²»":2235,"Ġwith":2236,")ãĢģ":2237,"Ġ*''":2238,"mer":2239,"åĲĳ":2240,"Ġ39":2241,"ãģĴ":2242,"ãĥ¶":2243,"ure":2244,"Ġ46":2245,"Ġè¶":2246,"ivers":2247,"ĠéłĨä½į":2248,"éĸ¢éĢ£":2249,"ĠãĥĴ":2250,"éĹ":2251,"è³ĩ":2252,"ĠâĹ":2253,"å»º":2254,"iz":2255,"ãĥ¥ãĥ¼ãĤ¸":2256,"70":2257,"Ġä¸į":2258,"ãĤŃãĥ¼":2259,")'''":2260,"Ġè¿ĳ":2261,"ĠãģĦ":2262,"ãĥ³ãĥĶ":2263,"ãģ¹":2264,"TV":2265,"ãĥĪãĥ©":2266,"man":2267,"å®¿":2268,"ãĥ¬ãĤ¯":2269,"Ġ----":2270,"ark":2271,"çµµ":2272,"èµ°":2273,"ĠãĢģ":2274,"ust":2275,"äºľ":2276,"åĭķè»Ĭ":2277,"Ġãĥķãĥ©":2278,"Ġåł":2279,"å¥³åŃĲ":2280,"uc":2281,"åŃ¦éĥ¨":2282,"ĠYou":2283,"ãĤ¤ãĤ¯":2284,"éº»":2285,"é¾į":2286,"è§£":2287,"Ġãĥ¤":2288,"æį":2289,"HI":2290,"ĠãĤ¶":2291,"Ġèı":2292,"æĨ":2293,"Ġè»":2294,"AG":2295,"æ¯į":2296,"éĩı":2297,"åŃ¦åľĴ":2298,"Ġãĥİ":2299,"ãģ¡ãĤĥãĤĵ":2300,"ãĤ¢ãĥ³":2301,"BC":2302,"ç§»":2303,"nt":2304,"è¡Ĺ":2305,"80":2306,"ä½³":2307,"ç·ıåĲĪ":2308,"UM":2309,"ish":2310,"Ġ1986":2311,"2001":2312,"ãĥīãĥ«":2313,"ĠçľŁ":2314,"ĠäºĮ":2315,"èı¯":2316,"å·®":2317,"2002":2318,"ãĥĽãĥ¼ãĥ«":2319,"ä¿Ĥ":2320,"qu":2321,"ĠåĪ¶":2322,"è¨ĺå¿µ":2323,"æķĹéĢĢ":2324,"Ġãĥį":2325,"çī©èªŀ":2326,"èģĸ":2327,"éģĵè·¯":2328,"å®Ī":2329,"å®Ĺ":2330,"ãģ®ãģ¿":2331,"SP":2332,"éħį":2333,"Ġst":2334,"èĪİ":2335,"ĠãĤ¢ãĥ¡ãĥªãĤ«":2336,"Ġãĥģãĥ¼ãĥł":2337,"ãĤ¤ãĤº":2338,"ãĥ³ãĥķ":2339,"IR":2340,"Ġ60":2341,"Ķåĵ¡":2342,"ĠåĭĿ":2343,"):":2344,"èĪŀ":2345,"''''":2346,"Ġéļ":2347,"ĠåĲĮ":2348,"ç´°":2349,"ãĤ¹ãĤ¯":2350,"Ġ1985":2351,"ãĤ¸ãĥ¥":2352,"ãĥĥãĤ·ãĥ¥":2353,"çĬ¶":2354,"éŁ³æ¥½":2355,"è·¡":2356,"ãĤħ":2357,"Ġãĥĺ":2358,"Ġè§":2359,"çĻ¾":2360,"ĠPl":2361,"æºĢ":2362,"ãĥ¼ãĤ¬":2363,"ãĥĸãĥŃ":2364,"èģ·":2365,"Ġæ±Ł":2366,"å·ĿçľĮ":2367,"Ĵ°":2368,"ãĥ¼ãĥĢ":2369,"ĠSP":2370,"æŃ©":2371,"ãĥªãĤ¹ãĥĪ":2372,"Ġåĳ":2373,"Ġæ¥":2374,"æ¨ª":2375,"65":2376,").":2377,"çľģ":2378,"ĠçĦ":2379,"èģŀ":2380,"Ġãĥģãĥ£":2381,"ä»¤":2382,"çĹħéĻ¢":2383,"Ġé»Ĵ":2384,"æłĦ":2385,"ED":2386,"äºĭæ¥Ń":2387,"ãĤ·ãĥ³ãĤ°ãĥ«":2388,"Ġ1980":2389,"Ġæ´":2390,"75":2391,"IL":2392,"ĠæŃĮ":2393,"ãĤ¤ãĥĦ":2394,"åİ»":2395,"ãĥ³ãĤ½":2396,"Ġæ²³":2397,"ĠOF":2398,"ice":2399,"æĽ¸æĪ¿":2400,"Ġèį":2401,"æİĪ":2402,"è©¦åĲĪ":2403,"å±ħ":2404,"âĨĴ":2405,"ãĥĥãĤ«ãĥ¼":2406,"éĸĭå§ĭ":2407,"éĥµä¾¿":2408,"Ġ1984":2409,"ĠéŁ³æ¥½":2410,"å»ĥ":2411,"Ġçİ":2412,"ood":2413,"79":2414,"Ġæ¯":2415,"ç²":2416,"Ġäºķ":2417,"äºĨ":2418,"ãĥĪãĥ«":2419,"èĻ":2420,"ç¹Ķ":2421,"Ġä½ĲèĹ¤":2422,"Ġåı¤":2423,"te":2424,"åĸľ":2425,"Ġç¨":2426,"ç´Ħ":2427,"ĠãĤªãĥª":2428,"äºĭä»¶":2429,"ãĤ¸ãĥĨãĥ¬ãĥĵ":2430,"Ġæģ":2431,"Ġ:::":2432,"å®¢":2433,"æ§ĺ":2434,"ĠNew":2435,"Ġ56":2436,"ãĥ³ãĥĲãĥ¼":2437,"å®ĩ":2438,"UT":2439,"ĠæŁ":2440,"az":2441,"ĠåĮĹæµ·éģĵ":2442,"86":2443,"Ġé§ħ":2444,"ĠæĺŃ":2445,"Ġæ²¿éĿ©":2446,"ĳäºĭ":2447,"Ġæ¼Ķ":2448,"ore":2449,"IM":2450,"ç¥Ĳ":2451,"ãĤĪãĤĬ":2452,"ãĤ¯ãĥ©ãĥĸ":2453,"ĠCl":2454,"ĠãģĹ":2455,"èĮĤ":2456,"Ġç·ı":2457,"èªł":2458,"ĠéĪ´æľ¨":2459,"ib":2460,"å§Ķåĵ¡":2461,"å®¹":2462,"ĠãģŁ":2463,"ãĥ«ãĤ¹":2464,"Ġè²":2465,"Ġre":2466,"ert":2467,"orld":2468,"çĻĤ":2469,"ĠåĴĮ":2470,"¶´":2471,"ãĥĩãĥ«":2472,"89":2473,"ãĥ¼ãĤ¹ãĥĪ":2474,"ãĥ³ãĤ³":2475,"ãĤ¾":2476,"ah":2477,"Ġ1982":2478,"SS":2479,"ç¾½":2480,"ens":2481,"Ġ1983":2482,"à¸":2483,"und":2484,"ãĥ³ãĤŃ":2485,"Ġ57":2486,"é«ĺæł¡":2487,"ãĥĹãĥ¬":2488,"çľĮéģĵ":2489,"ãģĦãģŁ":2490,"ãĥ³ãĥĦ":2491,"Ġ1981":2492,"ç¾İè¡ĵ":2493,"Ġä½ľåĵģ":2494,"å¤¢":2495,"Ġæ¸ħ":2496,")ãĢĤ":2497,"åľ°åŁŁ":2498,"æ¢¨":2499,"Ġ45":2500,"ä¹Ŀå·ŀ":2501,"Ġ:#":2502,"å¾¡":2503,"IV":2504,"ç«ľ":2505,"ãĥģãĥ¼ãĥł":2506,"èĹ":2507,"Ġå½¹":2508,"Ġæ·":2509,"Ġ42":2510,"iss":2511,"çķªåı·":2512,"è£ľ":2513,"ãĤ½ãĥ¼ãĥī":2514,"Ġãģ§":2515,"éŁ¿":2516,"Ļå²¡":2517,"Ġè±":2518,"Ġå®ĩ":2519,"ĠçĦ¡":2520,"Ġå¾Ĺ":2521,"ãģķãĤĮãģŁ":2522,"Ġä¸ĸçķĮ":2523,"ãĥ«ãĥ¼ãĥĹ":2524,"èįī":2525,"Ġ47":2526,"Ġ55":2527,"ĠæĺŃåĴĮ":2528,"ç©ºæ¸¯":2529,"ãĥķãĥ©":2530,"éĤ¦":2531,"ãĥĪãĥª":2532,"ç½²":2533,"âĨĲ":2534,"Ġèµ¤":2535,"Ġç©":2536,"è¼ī":2537,"äººåı£":2538,"Ġãģ²":2539,"ĠæĿĳ":2540,"Ĵ²":2541,"ĠNHK":2542,"ãĥĩãĥ¥ãĥ¼ãĤµãĥ¼":2543,"ng":2544,"Ġç¦ıå²¡":2545,"ãĤ¦ãĤ©":2546,"Ġvs":2547,"å¥½":2548,"1999":2549,"æĮĻ":2550,"ãĥ³ãĥį":2551,"Ġ49":2552,"Ġåħĥ":2553,"çĻ»åł´":2554,"èĩªåĭķè»Ĭ":2555,"ãģ«ãĤĪãĤĭ":2556,"ħå½ĵ":2557,"Ġä»Ĭ":2558,"ock":2559,"æ¸¡":2560,"ãĥĭãĥ¥":2561,"å¿ł":2562,"å¶":2563,"æĥ³":2564,"Ġãĥ©ãĤ¤":2565,"ĠãĥķãĤ£":2566,"å¼µ":2567,"ãĤ·ãĥ¼":2568,"æĺĮ":2569,"ãĥ©ãĥł":2570,"¬¼":2571,"87":2572,"ach":2573,"æ±ºåĭĿ":2574,"åĪ¶ä½ľ":2575,"å¿ľ":2576,"TBS":2577,"æķı":2578,"ãĥĮ":2579,"one":2580,"åħ¬æ¼Ķ":2581,"éĹĺ":2582,"èĪĪ":2583,"ãĥ¼ãĥªãĥ¼":2584,"å¥ı":2585,"ãģĸ":2586,"ãĥ¼ãĤŃ":2587,"ãĥ³ãĥŀ":2588,"ãĤĤãģ®":2589,"ire":2590,"ç®Ĺ":2591,"ãĥ©ãĥĸ":2592,"Ġ44":2593,"å¹¼":2594,"res":2595,"ç´Ķ":2596,"ãĥĿãĥ¼ãĥĦ":2597,"ãģªãģĹ":2598,"æ´¾":2599,"ãĤ¤ãĥ¤":2600,"ãĥĶãĤ½ãĥ¼ãĥī":2601,"ãĥ©ãĤ¤ãĥĸ":2602,"Ġæ¸¡":2603,"ĠèĬĿ":2604,"Ġãĥļ":2605,"ãģ¨ãģĹãģ¦":2606,"64":2607,"ĠçĨĬ":2608,"æĸ½è¨Ń":2609,"ĠåĿ":2610,"ä¿³":2611,"Ġ41":2612,"ĠLIVE":2613,"å¨":2614,"ĠèĬ±":2615,"ãģ¼":2616,"æŃ»":2617,"ĠåĽĽ":2618,"æ²¼":2619,"ĠçĻºå£²æĹ¥":2620,"61":2621,"ä¸»åħļ":2622,"æĸ¹éĿ¢":2623,"Ġé¹¿":2624,"ment":2625,"ãĥĬãĥ¼":2626,"ver":2627,"ric":2628,"ime":2629,"æºĲ":2630,"æĹ¥çĻºå£²":2631,"é£Ł":2632,"çļĩ":2633,"å¸Į":2634,"Ġè£½":2635,"Ġ****":2636,"éłĨ":2637,"kg":2638,"ĠèĳĹ":2639,"ĠæķĻ":2640,"ãĥ¢ãĥ³":2641,"ç¯Ģ":2642,"èĩ£":2643,"Ġ43":2644,"Ġå£°":2645,"ĠãĤ¹ãĤ¿ãĥĥãĥķ":2646,"Ġ1979":2647,"Ġå¤ª":2648,"Ġä¹ħ":2649,"ãģ§ãģĤãĤĭ":2650,"ãĥŁãĥ¼":2651,"NHK":2652,"Ġè¡Į":2653,"ä¼ģçĶ»":2654,"Ġå¹´åº¦":2655,"ĠMar":2656,"Ġéģ¸æīĭ":2657,"ãĥ«ãĤ¯":2658,"è¡Ĩ":2659,"éĥ½å¸Ĥ":2660,"Ġäººåı£":2661,"ound":2662,"500":2663,"Ġå³":2664,"éļİ":2665,"Ġè·":2666,"è§Ĵ":2667,"ãĥ¼ãĥĻ":2668,"ext":2669,"åĽŀçĽ®":2670,"è¦ª":2671,"å±ķ":2672,"åĲ¹":2673,"ç£":2674,"çľĮç«ĭ":2675,"ä¹ĥ":2676,"å·¥æ¥Ń":2677,"ss":2678,"æĽ¸åºĹ":2679,"1998":2680,"ç³»åĪĹ":2681,"ãģ¾ãģ§":2682,"ee":2683,"éĥµä¾¿å±Ģ":2684,"Ġæİ":2685,"ook":2686,"OD":2687,"ãĤ«ãĥĥãĥĹ":2688,"ãģĦãģ¦":2689,"ĠæĢ":2690,"Ġå¾³":2691,"OP":2692,"ork":2693,"Ġy":2694,"ern":2695,"å¦»":2696,"ãĥ¼ãĤ½":2697,"Ġ1978":2698,"69":2699,"å¯Ĩ":2700,"èªĮ":2701,"ĠæĿ¥æŃ´":2702,"ãĤ¿ãĥ«":2703,"æīĢå±ŀ":2704,"ãģ¸ãģ®":2705,"ĠåĲįåı¤å±ĭ":2706,"äºĪéģ¸":2707,"åŃ¦ç§ĳ":2708,"ãĤ¢ãĥ¡ãĥªãĤ«":2709,"ãĥĥãĤ°":2710,"åŃ¦éĻ¢":2711,"æĽ¿":2712,"ãĤ²ãĥ¼ãĥł":2713,"Ġæŀ":2714,"ç¾¤":2715,"æ·±":2716,"ãĥªãĤ¨":2717,"ãĥ³ãĥľ":2718,"çĴ°":2719,"ãĥĲãĤ¤":2720,"å¹Į":2721,"éĻį":2722,"åĨį":2723,"ĠæľĿ":2724,"æłªå¼ıä¼ļç¤¾":2725,"ĠçĶ°ä¸Ń":2726,"ĠåıİéĮ²æĽ²":2727,"ĠãĤĨ":2728,"ĠåĽ½éģĵ":2729,"ĠèĦļæľ¬":2730,"OUR":2731,"åįĶä¼ļ":2732,"æ°ı":2733,"ãĥ³ãĥĸ":2734,"Ġéģĵ":2735,"è¼Ķ":2736,"æĻ¯":2737,"çķĻ":2738,"ãĥ¬ãĥ¼":2739,"æ¸©":2740,"èµ¤":2741,"ãĤĮãģŁ":2742,"Ġå¾Į":2743,"ãĤĬãģ®":2744,"ç¯ī":2745,"OVE":2746,"åĦ":2747,"å®Į":2748,"ãĥĢãĥ¼":2749,"ĠçĻ»åł´":2750,"å¹ķ":2751,"ä¸ĺ":2752,"ãģ¨ãģ®":2753,"ãĥīãĥª":2754,"ĠãĤ¦ãĤ£":2755,"ãĥ³ãĤ«":2756,"èŃ¦å¯Ł":2757,"ãĥ¼ãĥ´":2758,"ĠRe":2759,"æīĵ":2760,"ãĤ¦ãĥ³":2761,"ãĥģãĤ§":2762,"çŁ¢":2763,"Ġ54":2764,"å§«":2765,"Ġäººçī©":2766,")(":2767,"Ġfeat":2768,"Ġ1977":2769,"ĠLove":2770,"ĠèŃ":2771,"Ġ1976":2772,"ĠSc":2773,"ĠæĹ¥æľ¬ãģ®":2774,"éłĺ":2775,"Ġéħ":2776,"67":2777,"ug":2778,"ãĤ¹ãĤ«":2779,"è¬Ľ":2780,"ĠâĢ":2781,"æ¯Ķ":2782,"Ġãĥ¨":2783,"Ġæľī":2784,"å½©":2785,"ä¼¸":2786,"ãĥĵãĥ¼":2787,"æľĹ":2788,"1997":2789,"åĩºèº«":2790,"ĠDVD":2791,"uk":2792,"åĭ¢":2793,"ical":2794,"lect":2795,"éĽ²":2796,"YO":2797,"ãĥ«ãĥī":2798,"ĠIN":2799,"å¢ĥ":2800,"Ġ::*":2801,"æŃ´åı²":2802,"====":2803,"èĲ½":2804,"ĠçµĮæŃ´":2805,"ãĥĨãĥ«":2806,"ĭäºº":2807,"ãĥĥãĥĳ":2808,"Ġé«ĺæ©ĭ":2809,"æ³°":2810,"éĢ±":2811,"æķĻæİĪ":2812,"ãģĵãģ¨":2813,"ãĥ¼ãĥľ":2814,"cm":2815,"åķı":2816,"å¤ĸéĥ¨ãĥªãĥ³ãĤ¯":2817,"Ġ58":2818,"Ġåįĥèĳī":2819,"èĸ¬":2820,"çª":2821,"ĠæĿ±äº¬éĥ½":2822,"éĬ":2823,"åĸĦ":2824,"åĪ¤":2825,"ãĤ¯ãĤ»":2826,"62":2827,"ĠãĤ²ãĥ¼ãĥł":2828,"Ġ1970":2829,"Ġ1975":2830,"ãĥĪãĥŃ":2831,"Ġäº¤éĢļ":2832,"èıľ":2833,"old":2834,"é£Ľ":2835,"åľ°æĸ¹":2836,"ĠMe":2837,"ĠéŃ":2838,"åĲ¾":2839,"63":2840,"ãĤ¢ãĤ¤":2841,"çī¹åĪ¥":2842,"ä¿³åĦª":2843,"ĠæĬ":2844,"ç¨ĭ":2845,"ä½ĵèĤ²":2846,"ĥĮ":2847,"ä¾ĭ":2848,"Ġæĸ°æ½Ł":2849,"è¡£":2850,"Ch":2851,"æĭħå½ĵ":2852,"é¹¿":2853,"éłĪ":2854,"çĪ¶":2855,"Ġæ±ł":2856,"åľ°åĮº":2857,"æ¿":2858,"()":2859,"1996":2860,"ace":2861,"éĬĢè¡Į":2862,"ost":2863,"ãĥĹãĥ©":2864,"ãĥ³ãĥĬ":2865,"è²¡":2866,"ãĥ³ãĤ»":2867,"äºĭåĭĻ":2868,"ãĤŃãĥ¥":2869,"Ġéĺ¿":2870,"ai":2871,"äººãģ®":2872,"®å½±":2873,"ãĥ³ãĥįãĥ«":2874,"ãĥįãĥĥãĥĪ":2875,"¼çİī":2876,"ãĤ¿ãĤ¤ãĥĪãĥ«":2877,"å²¸":2878,"ç´ł":2879,"å¼¾":2880,"ĠãĤ·ãĥ£":2881,"ä¼ĳ":2882,"Ġbar":2883,"ç©Ĥ":2884,"å®Ļ":2885,"æħĭ":2886,"ational":2887,"è¼ª":2888,"ãĥ©ãĤ¸ãĤª":2889,"ãĥĩãĤ£ãĤ¢":2890,"ãĤ¹ãĥĳ":2891,"ĠæīĢå±ŀ":2892,"Ġè±Ĭ":2893,"ĠåĬĩ":2894,"ä»Ĭ":2895,"mm":2896,"Ġæĺİæ²»":2897,"ĠBe":2898,"FA":2899,"EX":2900,"ãĥ¼ãĥį":2901,"ĠSH":2902,"Ġãĥĸãĥ©":2903,"åı¯":2904,"äºī":2905,"son":2906,"åģľ":2907,"æľ«":2908,"æ©Łéĸ¢":2909,"ãĥĲãĥ«":2910,"ĠèĮ":2911,"ç¤¾ä¼ļ":2912,"ĠåĿĤ":2913,"ĠHe":2914,"âĶ":2915,"ĠäºĶ":2916,"æİ¢":2917,"Ġçķª":2918,"THE":2919,"åīĩ":2920,"æĳ":2921,"ãĤĮãĤĭ":2922,"Ġçģ":2923,"Ġ1973":2924,"Ġ1972":2925,"æĶ»":2926,"çĶ²":2927,"ĠBr":2928,"Ġå±±åı£":2929,"ãĤ¦ãĥ³ãĥī":2930,"éĸ¢ä¿Ĥ":2931,"ĠãģĮ":2932,"tern":2933,"æ¡ľ":2934,"ĠæĪ¦":2935,"Ġå®Ł":2936,"Ġ53":2937,"ĠMan":2938,"ãĥ¼ãĥİ":2939,"ĠãĥķãĤ©":2940,"æ¶Ī":2941,"1995":2942,"ç§ĳåŃ¦":2943,"ãĤĪãģĨ":2944,"Ġ1974":2945,"ãĤ±ãĥĥãĥĪ":2946,"æĸ°èģŀ":2947,"Ġ52":2948,"çĻ»":2949,"ĠMy":2950,"ãģ§ãģ®":2951,"ä¾Ľ":2952,"ãĤĦãģ¾":2953,"Ġå³¶":2954,"ĠéĽ»":2955,"ĠAN":2956,"ĠCol":2957,"Ġ80":2958,"æ¬¡éĥİ":2959,"ĠãĤĴ":2960,"éĽ¢":2961,"Ġä¸ŃæĿĳ":2962,"ãĥĢãĥł":2963,"ç¢":2964,"Ġéģĭ":2965,"æĿ¯":2966,"Ġç«¹":2967,"è¾²":2968,"ãĥ¼ãĥŁ":2969,"å»ĥæŃ¢":2970,"æ³ģ":2971,"®éĿ¢":2972,"çı":2973,"åĲĽ":2974,"Ġéĥ½":2975,"ĠãĥķãĤ§":2976,"Ġåľ°çĲĨ":2977,"ĠæĹ§":2978,"è¼Ŀ":2979,"Ġ1971":2980,"ç©į":2981,"ĠMusic":2982,"ãĥŃãĥ³":2983,"èĪªç©º":2984,"ãĥªãĥ¼ãĤ¹":2985,"åĭĩ":2986,"»Ħ":2987,"åĽ³æĽ¸":2988,"å»¶":2989,"è¦ı":2990,"ĠæĪĲ":2991,"åĸ¶æ¥Ń":2992,"èĭ¥":2993,"èĦļæ³¨":2994,"ERS":2995,"ãĥģãĥ¥":2996,"ence":2997,"Ĩ±":2998,"Ġå°ıæŀĹ":2999,"éģł":3000,"CH":3001,"95":3002,"ãģĹãģĦ":3003,"é¨ĵ":3004,"ãĥĵãĥ«":3005,"isc":3006,"éĻĲå®ļ":3007,"å¸Ŀ":3008,"ãĥ³ãĤµ":3009,"ĠWorld":3010,"çŁŃ":3011,"ãĥ³ãĥĨãĤ£":3012,"85":3013,"ç¯ĩ":3014,"Ġè·¯":3015,"per":3016,"ition":3017,"éĽª":3018,"³ç´°":3019,"çĽ£":3020,"Ġ51":3021,"ll":3022,"Ġ##":3023,"ick":3024,"ãĥªãĥ³ãĤ°":3025,"æĬķ":3026,"å¼ķ":3027,"92":3028,"ents":3029,"å¹¹":3030,"å¯¿":3031,"ãģıãĤī":3032,"é§ħåīį":3033,"æĦı":3034,"ãĤ¶ãĤ¤ãĥ³":3035,"Ńå¹Į":3036,"æ§ĭæĪĲ":3037,"Ã¼":3038,"å¥³åĦª":3039,"DVD":3040,"are":3041,"ĠçĲ":3042,"èŃ°åĵ¡":3043,"åĵī":3044,"ĠSch":3045,"ãĤ¹ãĥĨãĤ£":3046,"ãĥ«ãĥķ":3047,"pe":3048,"Ġè¾":3049,"åı·ç·ļ":3050,"ãĥŃãĥ¼":3051,"jp":3052,"æĻ´":3053,"ĠçµĲ":3054,"å¹´ãģ®":3055,"orm":3056,"ĠSU":3057,"å°İ":3058,"åĪĳäºĭ":3059,"å±±çľĮ":3060,"æľĽ":3061,"ä½¿çĶ¨":3062,"æĮĩå®ļ":3063,"åįĺ":3064,"éģİ":3065,"èĪ¬":3066,"93":3067,"CT":3068,"apan":3069,"Ġ1969":3070,"ĠEd":3071,"ãģªãģ©":3072,"è±¡":3073,"land":3074,"é½":3075,"rd":3076,"ohn":3077,"ĠÐ":3078,"åıİ":3079,"Ġæ°¸":3080,"åįĬ":3081,"ĠãĤ¿ãĤ¤":3082,"1994":3083,"Ġç©º":3084,"ann":3085,"73":3086,"ĠéīĦ":3087,"åŃ¦èĢħ":3088,"æĽ´":3089,"71":3090,"åĿĩ":3091,"æĢª":3092,"Ġæľª":3093,"72":3094,"«çĶ»":3095,")''":3096,"Ġé¦Ļ":3097,"ãĥĥãĤ»":3098,"ĠãĢİ'''":3099,"ãĥŁãĤ¢":3100,"âĢĿ":3101,"ãĤ³ãĥ³":3102,"åīµ":3103,"å¼¥":3104,"å°ĳå¥³":3105,"irl":3106,"Ġr":3107,"Ġ1968":3108,"Ġ'":3109,"Ġä¸ŃåĽ½":3110,"ãĤªãĥª":3111,"Ġåħ±":3112,"Ġè¬":3113,"94":3114,"çĨĬ":3115,"Ġè·¯ç·ļ":3116,"æ¤ľ":3117,".,":3118,"ç¸Ħ":3119,"Ġvol":3120,"æĿī":3121,"ãĥĩãĤª":3122,"ina":3123,"æ°ĳä¸»åħļ":3124,"ĠçĽ¸":3125,"Ġ70":3126,"ĠéĻ¸":3127,"ä¸īéĥİ":3128,"Ġè¨ĺ":3129,"Ġèĭ±":3130,"ĠGu":3131,"ãĥŀãĥ«":3132,"å¾©":3133,"Ġ~":3134,"Ġæ¨ªæµľ":3135,"ç«¶æĬĢ":3136,"è©ķ":3137,"ĠUnivers":3138,"æĨ²":3139,"ome":3140,"ãĥĩãĥ¼ãĤ¿":3141,"çŁ¥çľĮ":3142,"ton":3143,"ãĥ¼ãĥĬãĥ¼":3144,"ĠãĤ·ãĥ¼ãĤºãĥ³":3145,"è¨ĺéĮ²":3146,"ĠæŃ£":3147,"åĺ":3148,"AB":3149,"è¶³":3150,"ĠæĶ¾éĢģæĹ¥":3151,"Ļåı°":3152,"Ġå¥³åŃĲ":3153,"å®ħ":3154,"ĠãĢĲ":3155,"ãĤ¢ãĥĬ":3156,"Ġãĥ©ãĤ¸ãĤª":3157,"è·¯ç·ļ":3158,"ĠæĮ":3159,"ãĥŃãĤ¹":3160,"ĠãĤ¹ãĥļ":3161,"ier":3162,"ĠåĲĪ":3163,"Ġæ©Ł":3164,"ount":3165,"ãĥĸãĥª":3166,"Ġ''''''":3167,"çµĤäºĨ":3168,"ãĥ£ãĥ¼":3169,"ãĤ·ãĤ§":3170,"Ġ1967":3171,"HT":3172,"ç¦":3173,"ãģĳãĤĭ":3174,"84":3175,"å§Ķåĵ¡ä¼ļ":3176,"ĠTV":3177,"OKYO":3178,"åĨĻ":3179,"Ġåħ¬å¼ıãĤµãĤ¤ãĥĪ":3180,"91":3181,"éĻº":3182,"æ´»åĭķ":3183,"å¸ĥ":3184,"åīĽ":3185,"LU":3186,"æİ¥":3187,"ĠèĪŀ":3188,"own":3189,"Ġè£½ä½ľ":3190,"æŀĿ":3191,"83":3192,"ãĥ¼ãĥŀãĥ³":3193,"1993":3194,"ãĥīãĥ©":3195,"Ġæĺ¥":3196,"itt":3197,"ĠII":3198,"æ¦Ĥè¦ģ":3199,"æ·³":3200,"ãĥŀãĤ¤":3201,"ãĥĽãĥ¼ãĥł":3202,"her":3203,"å®¶æĹı":3204,"74":3205,"Ġe":3206,"jpg":3207,"è«ĩç¤¾":3208,"åŃ£":3209,"ĠTe":3210,"ake":3211,"æŁ³":3212,"åĳ³":3213,"ãĥ´ãĤ§":3214,"ĠBS":3215,"1991":3216,"Ġèģ":3217,"ç¤º":3218,"ãĤ®ãĥ¥":3219,"rum":3220,"81":3221,"ãĥ¼ãĥ«ãĤº":3222,"ãĤ¹ãĥļãĤ·ãĥ£ãĥ«":3223,"ance":3224,"ãĤ°ãĥ©ãĥķãĤ£":3225,"82":3226,".)":3227,"Ġ1966":3228,"Ġåħ¥":3229,"Ġå±±æľ¬":3230,"æİ¨":3231,"1992":3232,"æ²Ļ":3233,"æ¹ĸ":3234,"Ġçł":3235,"ĠCon":3236,"æĲ":3237,"Ġéĺª":3238,"ĠæĺŁ":3239,"2020":3240,"ĠãĤ¢ãĥĭãĥ¡":3241,"Ġåħī":3242,"éİ":3243,"ãĥĵãĤ¢":3244,"çµĮæ¸Ī":3245,"1990":3246,"ram":3247,"ãĥĳãĥ³":3248,"ãĥ©ãĤ¯ãĤ¿ãĥ¼":3249,"çĳ":3250,"è¦ĸ":3251,"ä¾¡":3252,"ĠæĹ©":3253,"å¨ĺ":3254,"ĠPh":3255,"ous":3256,"Ġåħµ":3257,"ãĥ¬ãĥĥ":3258,"ãĤ¢ãĥ¼":3259,"ãĤįãģĨ":3260,"ãĥĨãĥ¼ãĥŀ":3261,"ãĤ¹ãĥĨãĥł":3262,"Ġå¤ĸ":3263,"out":3264,"è©©":3265,"æĹ©":3266,"Ġåįģ":3267,"æħ¶":3268,"ĠçŁ¢":3269,"int":3270,"OV":3271,"Ġæ¹":3272,"ãĢħæľ¨":3273,"åĪĩ":3274,"ç§ĺ":3275,"Ġçĭ":3276,"ç¿Ĵ":3277,"ãĥĻãĥ³ãĥĪ":3278,"ĠéĿĻå²¡":3279,"ĠLe":3280,"éģĬ":3281,"Ġèĭ¥":3282,"æįľ":3283,"Ġ1965":3284,"ãģ²ãĤį":3285,"åľı":3286,"Ġç«ĭ":3287,"DS":3288,"å®³":3289,"Ġçķ¥æŃ´":3290,"ãģ¨ãģĨ":3291,"Ġéĩį":3292,"æĶ¯åºĹ":3293,"Ġä¼ĬèĹ¤":3294,"ĠåĲīçĶ°":3295,"ãĥ³ãĤµãĥ¼":3296,"ãĤ¤ãĥ³ãĥĪ":3297,"ãĤ·ãĥ¼ãĤºãĥ³":3298,"å½°":3299,"é¬¼":3300,"ç¨ļ":3301,"ĠEx":3302,"ç¶Ļ":3303,"ä»¥ä¸Ĭ":3304,"Ġç¬":3305,"Ġ59":3306,"ãĥļãĥ¼ãĤ¸":3307,"å¶ĭ":3308,"è³¢":3309,"EM":3310,"Ġç±":3311,"äºĢ":3312,"çĽŁ":3313,"ĠSe":3314,"Ġç¤":3315,"Ġå¹³æĪĲ":3316,"ãģĤãĤĬ":3317,"æĺĩ":3318,"ĠçĶ·åŃĲ":3319,"ĠãĤ¸ãĥ§ãĥ³":3320,"äº®":3321,"Ġå¯¾":3322,"çŃĸ":3323,"åŃĺ":3324,"ä¸įæĺİ":3325,"Ġãĥĭãĥ¥":3326,"arl":3327,"ĠåıĹè³ŀ":3328,"ãĥ¬ãĥ³":3329,"ĠãĤ¹ãĥĪ":3330,"ãĥ¼ãĥĩãĤ£":3331,"åĳĬ":3332,"å·¦":3333,"é½¢":3334,"æĶ¹æŃ£":3335,"ĠDe":3336,"æĳ©":3337,"ĠJR":3338,"Ġè©¦åĲĪ":3339,"ĠNE":3340,"Ġæ¢":3341,"ç¨²":3342,"Ġå±±çĶ°":3343,"CE":3344,"æ¹¾":3345,"ool":3346,"åºŃ":3347,"æ¼Ķåĩº":3348,"å¹¡":3349,"åľ¨åľ°":3350,"ãĥ¬ãĥ¼ãĤ·ãĥ§ãĥ³":3351,"ĠæĿī":3352,"Ġä¸»æ¼Ķ":3353,"USS":3354,"å±±å¸Ĥ":3355,"ãĥ¬ãĥ³ãĤ¸":3356,"Ġåºĥå³¶":3357,"åī£":3358,"ãĥĭãĥĥãĤ¯":3359,"orn":3360,"RI":3361,"ife":3362,"ART":3363,"åħ¬å¼ıãĤµãĤ¤ãĥĪ":3364,"In":3365,"ãĥ¡ãĥ³ãĥĪ":3366,"çį£":3367,"å¯Ľ":3368,"æ¨Ļ":3369,"ãģ¥":3370,"åı³":3371,"ĠIs":3372,"Ġäº¬":3373,"é¶´":3374,"ãĢī":3375,"ĸç¸Ħ":3376,"éĺľ":3377,"çĦ¶":3378,"Ġæ»":3379,"åĴ²":3380,"éĤ£":3381,"åħ¼":3382,"ĠãĤ¹ãĥ¼ãĥĳ":3383,"ãĥ³ãĥĵ":3384,"èĦļæľ¬":3385,"è«¸":3386,"ĠãĥŀãĤ¤":3387,"ĠãĥĻãĤ¹ãĥĪ":3388,"å¼·":3389,"ãĥ¼ãĤ«ãĥ«":3390,"OCK":3391,"åįĶåĬĽ":3392,"è¡Ģ":3393,"Ġè¦ı":3394,"èĭ±èªŀ":3395,"ãģ®ä¸Ģ":3396,"âĹĭ":3397,"äº¤å·®":3398,"Ġa":3399,"ãĥľãĥ¼ãĥ«":3400,"éĸ£":3401,"Ġç±³":3402,"åĩºåħ¸":3403,"è£½ä½ľ":3404,"Ġãĥŀãĥ«":3405,"ãĥ¼ãĤµ":3406,"Ġ1964":3407,"Ĳéĺľ":3408,"æ½®":3409,"Ġæ¡ľ":3410,"ä¼ļé¤¨":3411,"ĠåĪ¶ä½ľ":3412,"åģµ":3413,"åĩºåł´":3414,"é¡ĮæŃĮ":3415,"olog":3416,"ĠæĻĤ":3417,"ink":3418,"åıĤåĬł":3419,"å¹´ä»£":3420,"SU":3421,"ĠFor":3422,"å¹¼ç¨ļ":3423,"åĽ½ãģ®":3424,"Ġèī":3425,"¤ĩ":3426,"Ġéķ·éĩİ":3427,"ox":3428,"ild":3429,"ata":3430,"Ġæ±º":3431,"åŁİçľĮ":3432,"æ¸©æ³ī":3433,"éĢ£ç¶ļ":3434,"Ġ64":3435,"SA":3436,"ax":3437,"èŃ°éĻ¢":3438,"ĠWh":3439,"Ġåĸ":3440,"ĠIm":3441,"Ġãģį":3442,"ream":3443,"ĠGr":3444,"ãĤ¯ãĥª":3445,"ĠPress":3446,"ica":3447,"''.":3448,"å¹¼ç¨ļåľĴ":3449,"ãģ®å¥³":3450,"Hz":3451,"Ġçģ«":3452,"III":3453,"®éĿ¢ãĥ©ãĤ¤":3454,"ãĥĥãĤŃ":3455,"åħĭ":3456,"Ġ1960":3457,"ail":3458,"SC":3459,"ãĥŁãĥ¥":3460,"å¸Ń":3461,"åįĴ":3462,"ĠãģĿãģ®ä»ĸãģ®":3463,"1989":3464,"ĠLive":3465,"Ġtext":3466,"Ġ75":3467,"ç¬ĳ":3468,"ç¾İåŃĲ":3469,"Ġ:**":3470,"ĠéĢ£":3471,"èĬ³":3472,"èĢģ":3473,"Ġæ¤":3474,"Ġæµħ":3475,"èªŃ":3476,"é«ĺéĢŁ":3477,"å°ļ":3478,"è¢":3479,"ãĥķãĤ¸ãĥĨãĥ¬ãĥĵ":3480,"ĠâĹĭ":3481,"ĠãĤĤ":3482,"ĠãĤĦ":3483,"ãĤ¸ãĥ§ãĥ³":3484,"ĠçĶº":3485,"Ġ65":3486,"ĠCM":3487,"Ġãĥ´ãĤ¡":3488,"ĠBO":3489,"Ġãģµ":3490,"ä»£çĽ®":3491,"ign":3492,"ãĥıãĤ¤":3493,"ĠRec":3494,"ĠåĲĦ":3495,"STER":3496,"ky":3497,"ĠFl":3498,"ĠAL":3499,"ä¼Ŀèª¬":3500,"ãĤ¦ãĥ«":3501,"çµĲæŀľ":3502,"æ®¿":3503,"ĠåĬłèĹ¤":3504,"oo":3505,"ĠãĤ¸ãĥ¥":3506,"ĠUniversity":3507,"Ġæ¸¡è¾º":3508,"æı´":3509,"amp":3510,"éłĥ":3511,"Ġå¾ĹçĤ¹":3512,"çĶ°å¸Ĥ":3513,"ale":3514,"Ġå¡":3515,"ĠTOUR":3516,"ç´Ļ":3517,"ãģĵãģĨ":3518,"ĠéĤ":3519,"ck":3520,"ãģĹãģ®":3521,"ics":3522,"Ġ)":3523,"ãĤ¨ãĥĶãĤ½ãĥ¼ãĥī":3524,"Ġæµľ":3525,"âĨĲâĨĲ":3526,"ase":3527,"USIC":3528,"Ġãģ»":3529,"ĠOn":3530,"Ġå§":3531,"ĠON":3532,"ung":3533,"ONE":3534,"åķĵ":3535,"åłĢ":3536,"ãĤ±ãĥ«":3537,"ĠåĽ½éļĽ":3538,"ãĥįãĤ¹":3539,"Ġä»ĸ":3540,"éĸĭçĻº":3541,"Ġåįĺ":3542,"ans":3543,"att":3544,"å¾Įãģ®":3545,"çłĶç©¶æīĢ":3546,"ame":3547,"åŃĲãģ®":3548,"''')":3549,"oll":3550,"Ġal":3551,"ķçĶŁ":3552,"ãĥĪãĥ³":3553,"éģ¸æĮĻ":3554,"Ġæ¼":3555,"Ġç¤¾":3556,"æķ´":3557,"ãĥ³ãĥĢãĥł":3558,"ãģŀ":3559,"è¨¼":3560,"Ġå®¶":3561,"è¶ħ":3562,"éĺ¿":3563,"ãĤ³ãĥ¼ãĥī":3564,"che":3565,"IX":3566,"éĥ¨éĸĢ":3567,"é¤Ĭ":3568,"Ġä¸Ńå¤®":3569,"å²³":3570,"Ġè¦ıæł¼":3571,"èĺ":3572,"éĩİçĲĥéģ¸æīĭ":3573,"Ġ63":3574,"æĬĢè¡ĵ":3575,"Ġéģİ":3576,"(*":3577,"ĠãģĨ":3578,"IGHT":3579,"ĠæķĻèĤ²":3580,"ãĤ³ãĥ¼ãĤ¹":3581,"Ġãĥīãĥ©ãĥŀ":3582,"å°ıèª¬":3583,"ãĥ³ãģ®":3584,"âĶģ":3585,"ult":3586,"ise":3587,"ãĥ¼ãĤ¼":3588,"Ġ61":3589,"Ġé³¥":3590,"ĠçŃ":3591,"Ġãģ¤":3592,"ç¬¬ä¸Ģ":3593,"ãĤĨãģį":3594,"ACK":3595,"ict":3596,"ãĥĭãĥ³ãĤ°":3597,"Ġ62":3598,"Ġçī¡":3599,"ĭè°·":3600,"ĠçĨĬæľ¬":3601,"æĮ¯":3602,"Ġæ°ĳ":3603,"APAN":3604,"ĠEn":3605,"æĮģ":3606,"ãĥ¼ãĤ¶":3607,"ree":3608,"ãĥ³ãĥĢãĥ¼":3609,"Ġãĥ´ãĤ£":3610,"éħĴ":3611,"æĭĵ":3612,"å¾Ĵ":3613,"éĢļãĤĬ":3614,"Ĵå·Ŀ":3615,"Ġ1963":3616,"app":3617,"æĢĿ":3618,"ĠæĿ¾æľ¬":3619,"ãĥĨãĥ³":3620,"ç®¡çĲĨ":3621,"Ret":3622,"Ġãĥĸãĥ«":3623,"ä¹±":3624,"åľŃ":3625,"éľĬ":3626,"Ġè§£":3627,"ãĥĭãĤ¹":3628,"åĮºéĸĵ":3629,"ãģŁãģĭ":3630,"ç²¾":3631,"1988":3632,"ãģ¤ãģ®":3633,"enn":3634,"!(":3635,"IO":3636,"Ġè»Ĭ":3637,"ĠæŀĹ":3638,"row":3639,"IA":3640,"ĠãĥĦ":3641,"Ġè©³ç´°":3642,"å°ĳå¹´":3643,"Ġå¢":3644,"ãĥ¼ãĤ«ãĥ¼":3645,"åħ¬å¼ı":3646,"å¦¹":3647,"ĠãĤĪ":3648,"Ġåħ¬å¼ı":3649,"ĠåŁ¼çİī":3650,"ãĤ¸ãĥ¼":3651,"ĠComp":3652,"çķĳ":3653,"Ġå°ĳ":3654,"1987":3655,"ĠéĸĭåĤ¬":3656,"ãĤīãģĻ":3657,"TA":3658,"Ġåģ":3659,"ãĥ³ãĤ´":3660,"ãĤ¸ãĥĬãĥ«":3661,"ãĤ®ãĥªãĤ¹":3662,"Ġè°·":3663,"æľ¬ç·ļ":3664,"æ¡Ī":3665,"AND":3666,"Ġth":3667,"pt":3668,"åĽ³æĽ¸é¤¨":3669,"ĠåĪ©":3670,"ĠéŃĶ":3671,"MA":3672,"å©¦":3673,"ays":3674,"ows":3675,"ISBN":3676,"æĹ¥æľ¬ãģ®":3677,"ĠãĤ¢ãĥ«ãĥĲãĥł":3678,"ĠSy":3679,"èħ":3680,"Ġé£¯":3681,"çł²":3682,"ĠãĤ²ãĤ¹ãĥĪ":3683,"ãĤµãĥĥãĤ«ãĥ¼":3684,"ãģ®é§ħ":3685,"Ġ66":3686,"æ³ķäºº":3687,"ãĥŁãĥ¥ãĥ¼ãĤ¸":3688,"åıĹè³ŀ":3689,"çī§":3690,"å¢Ĺ":3691,"Ġç¾İè¡ĵ":3692,"å¤§æŃ£":3693,"çĭ¬":3694,"ç¿Ķ":3695,"Ġãĥł":3696,"ĠGo":3697,"ãĥ¼ãĥĻãĥ«":3698,"pr":3699,"ãĥĬãĤ¤":3700,"å¹ħ":3701,"ALL":3702,"Ġè³":3703,"ãĥĪãĤ¥":3704,"Ġè¬Ľ":3705,"ĠAd":3706,"ĠãĥĨãĤ£":3707,"âĺħ":3708,"Ġet":3709,"ĠåłĢ":3710,"ĠèĥĮ":3711,"ç«¥":3712,"âĢĻ":3713,"Ġé¢¨":3714,"æĶ¾":3715,"èĩªçĶ±":3716,"ĠèĲ":3717,"ãģķãĤĮãĤĭ":3718,"éĥ¨éķ·":3719,"ĠJapan":3720,"ä½µ":3721,"Ġä¼ļ":3722,"Ġçı¾åľ¨":3723,"Ġ1962":3724,"1986":3725,"Ġç«¶":3726,"ĠæĽ¸":3727,"Ġç¶":3728,"Ġæłªå¼ıä¼ļç¤¾":3729,"èªį":3730,"PS":3731,"ãĤ¤ãĥīãĥ«":3732,"ãĥ¼ãĥĵãĤ¹":3733,"IE":3734,"æĿ¿":3735,"éģº":3736,"Ġéģł":3737,"ĠåĬĩåł´":3738,"ãĤ¯ãĤ·ãĥ§ãĥ³":3739,"åŀ£":3740,"ãĥ¯ãĥ¼":3741,"OUN":3742,"ãĥ¬ãĥĥãĥĪ":3743,"ãģĪãĤĭ":3744,"çĶºç«ĭ":3745,"ower":3746,"è³ª":3747,"è¿½":3748,"å°ĤéĸĢ":3749,"Ġå¤ļ":3750,"ings":3751,"ubl":3752,"ĠWar":3753,"ä»ķ":3754,"ash":3755,"EA":3756,"åª":3757,"çĬ¶æ³ģ":3758,"ĠOr":3759,"JR":3760,"Ġsh":3761,"æŀļ":3762,"ions":3763,"ä¼¯":3764,"Ġæ¬":3765,"ĠFC":3766,"åĦĦ":3767,"Ġæ¼Ķåĩº":3768,"SH":3769,"ĠãĤ·ãĥ³ãĤ°ãĥ«":3770,"Ġåı°":3771,"ĠCH":3772,"ru":3773,"ãģ¦ãģĦãĤĭ":3774,"åıĤçħ§":3775,"ĠLOVE":3776,"Ġ1961":3777,"ãĥ³ãĥĪãĥ³":3778,"ç·¨éĽĨ":3779,"ĠSer":3780,"Ġéģİåİ»":3781,"ãģªãģĭ":3782,"Ġé¹¿åħĲ":3783,"å°Ħ":3784,"ĠID":3785,"ãĥ¼ãĥ©ãĥ³ãĥī":3786,"ley":3787,"ãĥ¼ãĤ¤":3788,"ãģŁãĤģ":3789,"ãĤħãģĨ":3790,"æ»ħ":3791,"ãĤªãĥĸ":3792,"Ġéļ£":3793,"Bl":3794,"ãģĦãģ®":3795,"port":3796,"é§ħéĸĵ":3797,"ĠãĤ¢ãĤ¤":3798,"ĠDN":3799,"ãĤ°ãĥ«ãĥ¼ãĥĹ":3800,"ãĤ·ãĥĨãĤ£":3801,"ank":3802,"Ġç¥ŀå¥Ī":3803,"Ġæ¸ħæ°´":3804,"æĻĥ":3805,"èĮ¶":3806,"Ġæ©ĭ":3807,"ãģ£ãģ":3808,"æķ·":3809,"Ġæ¶":3810,"ĠãĥĹãĥ¬":3811,"ãģĦãģ¡":3812,"ãĥ¡ãĥ³ãĥĲãĥ¼":3813,"Ġç§ĭçĶ°":3814,"ĠOff":3815,"ãĥªãĥĥãĤ¯":3816,"ä¸Ģä¸ģçĽ®":3817,"åł´æīĢ":3818,"ron":3819,"Ġis":3820,"Ġä¸ĸå¸¯":3821,"400":3822,"BO":3823,"1985":3824,"Ġäºķä¸Ĭ":3825,"Ġéķ·å´İ":3826,"Ð°":3827,"ãĥĵãĥĩãĤª":3828,"ĠæĴ":3829,"ãĤ·ãĤ¹ãĥĨãĥł":3830,"ĠãĥĨãĥ¬ãĥĵãĥīãĥ©ãĥŀ":3831,"ĠèĪŀåı°":3832,"èĹ©":3833,"åĸ¶æ¥ŃæīĢ":3834,"åħ¥åı£":3835,"ve":3836,"ä¹ħä¿Ŀ":3837,"ãģ¬":3838,"ãĤ¿ãĥªãĤ¢":3839,"ãģĭãĤĬ":3840,"pl":3841,"we":3842,"æ¥µ":3843,"ther":3844,"è³ĩæĸĻ":3845,"ãĥĨãĥ¬":3846,"åŃ¦ä¼ļ":3847,"Ġ68":3848,"Ġå¤ı":3849,"æĪ¦äºī":3850,"300":3851,"ĠãģªãģĹ":3852,"Ġéĥ¡":3853,"Ġdes":3854,"å©ļ":3855,"ĠVer":3856,"éħįä¿¡":3857,"Ġla":3858,"åĲįç¾©":3859,"éĸĭåĤ¬":3860,"Ġåĳ¨":3861,"sh":3862,"CM":3863,"çµĦåĲĪ":3864,"åĮĹæµ·éģĵ":3865,"Ġ67":3866,"åĬŁ":3867,"1984":3868,"å¾¹":3869,"FM":3870,"ĠTra":3871,"æľĪæĹ¥":3872,"ĠPar":3873,"æĤª":3874,"ãĥ©ãĥ«":3875,"ĠFM":3876,"åĬ¹":3877,"ãĥĲãĥ¼ãĥĪ":3878,"Ġæĸ½":3879,"ãģ«ãģĬ":3880,"ĠArt":3881,"reat":3882,"ãģĹãģ¾":3883,"af":3884,"Ġæ´¥":3885,"ãĤ³ãĥŃ":3886,"ãĤµãĤ¤":3887,"ĠIt":3888,"ãĢĲ":3889,"ãĤ¤ãĥĬ":3890,"gh":3891,"åĢ¤":3892,"ãĤĵãģª":3893,"act":3894,"ĠãĤŃãĥ£ãĤ¹ãĥĪ":3895,"Ð¾":3896,"UR":3897,"ç¾İè¡ĵé¤¨":3898,"Ġå¥¥":3899,"ĠèŃ¦":3900,"ãĥĹãĥŃãĥĩãĥ¥ãĥ¼ãĤµãĥ¼":3901,"ĠJohn":3902,"æķ¬":3903,"ĠâĨ":3904,"èµ·":3905,"ç¾ħ":3906,"1983":3907,"Ġ69":3908,"ĠåĲįåīį":3909,"ĠåĢĭäºº":3910,"ãģĿãģ®ä»ĸ":3911,"Ġch":3912,"ãĥĻãĤ¹ãĥĪ":3913,"ĠæĶ¿":3914,"ocal":3915,"PER":3916,"åįĵ":3917,"ãĥķãĥ¬":3918,"Ġãĥ»":3919,"åĽŀæĪ¦æķĹéĢĢ":3920,"äºĭåĭĻæīĢ":3921,"LD":3922,"Ġj":3923,"ãĥ©ãĤ¤ãĥ³":3924,"ãĥŃãĥĥãĤ¯":3925,"éĸ¢éĢ£éłħçĽ®":3926,"ãĥįãĥ«":3927,"Ġé¦¬":3928,"Ġä¸ĥ":3929,"Ġund":3930,"itar":3931,"Ġ/":3932,"Ġä¹Ĺ":3933,"å¥¥":3934,"ãĥ³ãĥĹãĥª":3935,"Ġä¿Ŀ":3936,"ãĤĪãģ³":3937,"Ġéº":3938,"ray":3939,"è¨ĪçĶ»":3940,"©å£²":3941,"ç¦ıå²¡":3942,"ĠPart":3943,"ĠAll":3944,"é®":3945,"åĨ¬":3946,"ãĤ½ãĥ³ãĤ°":3947,"Ġder":3948,"Ġæĥ":3949,"µĲ":3950,"ç§ģ":3951,"âĻ":3952,"Ġå°¾":3953,"ãĤ¢ãĥª":3954,"''(":3955,"èĵ":3956,"ĠTBS":3957,"åĦªç§Ģ":3958,"å·¥åł´":3959,"ĠäºĪéģ¸":3960,"é³":3961,"EE":3962,"æĪ¦å£«":3963,"åĺī":3964,"åĶ±":3965,"æ¤į":3966,"ĵåĽ½":3967,"1982":3968,"çĨ±":3969,"ĠæºĸåĦªåĭĿ":3970,"éĳ":3971,"cl":3972,"çĩ":3973,"åģ´":3974,"ä»¥ä¸ĭ":3975,"ĠèĩªçĶ±":3976,"ĠJAPAN":3977,"raph":3978,"äºĮä¸ģçĽ®":3979,"åī¯":3980,"ĠæŃ´ä»£":3981,"ãģ²ãģ¨":3982,"ĠãĤ¯ãĥªãĤ¹":3983,"1980":3984,"éĽ¨":3985,"ĠéĬĢ":3986,"icial":3987,"Ġor":3988,"å¹»":3989,"com":3990,"çī©é¤¨":3991,"Ġç§ģ":3992,"ãģ®ä¸Ģè¦§":3993,"(+":3994,"Ġæ³ķ":3995,"æįľæŁ»":3996,"åĽ£åľ°":3997,"ĠæĤ":3998,"Sh":3999,"ç¬¬äºĮ":4000,"ãģ®åŃĲ":4001,"Ġå¤§ä¼ļ":4002,"ĠãĤ°ãĥ©":4003,"ãĤĤãģ¨":4004,"ĠçĻ»åł´äººçī©":4005,"Ġæ·±":4006,"ãģ®ãģĬ":4007,"æĵ":4008,"Ġ1959":4009,"ç¬ł":4010,"ĪĴ":4011,"ĠæĬķ":4012,"å¼ģ":4013,"Ġ90":4014,"ãģ§ãģ¯":4015,"ãĥ¼ãĥ¡":4016,"yo":4017,"å½¹æīĢ":4018,"ward":4019,"Ġç¿":4020,"ors":4021,"åĲįåı¤å±ĭ":4022,"1981":4023,"ords":4024,"ãģ£ãģ¨":4025,"Ġå¾¡":4026,"å¾´":4027,"åıĬ":4028,"å¹³åĿĩ":4029,"Ġä¸Ńå±±":4030,"å·±":4031,"çķ¥":4032,"Ġ72":4033,"ãĥĶãĤ¢":4034,"Ġãģ®ãģ¡":4035,"Ġè¶ħ":4036,"iel":4037,"åħ·":4038,"ĠãĤ¦ãĤ§":4039,"æıĲ":4040,"å¤§èĩ£":4041,"ĠçľĮ":4042,"é¨İ":4043,"ara":4044,"æĸĩåŃ¦":4045,"ãģ¤ãģĦãģ¦":4046,"å¥ĩ":4047,"ãĤīãģĻãģĺ":4048,"ãĤ¹ãĥ¼ãĥĳ":4049,"Ġ1958":4050,"Ġãģ¡":4051,"éĪ´æľ¨":4052,"ãĥ¬ãĥ¼ãĤ·":4053,"ãĥŀãĤ¹":4054,"ĠAnd":4055,"è¨Ńç½®":4056,"TS":4057,"ãĢĪ":4058,"Ġå»º":4059,"Ġå¦":4060,"ĠJIS":4061,"æ¢ħ":4062,"ott":4063,"ĠãĥĲãĤ¹":4064,"ĠæŁ³":4065,"æĦŁ":4066,"Ġä¸¸":4067,"ä¸»æ¼Ķ":4068,"é¦ĸ":4069,"ason":4070,"Ġå¥Ī":4071,"æĥĳ":4072,"ĠéĩĳæĽľ":4073,"æİ¢åģµ":4074,"åĳ¼":4075,"ãģĭãĤı":4076,"ãĥ¼ãĤ¯ãĤ¹":4077,"ãĥĸãĥ¬":4078,"æĬľ":4079,"MC":4080,"Ġæģĭ":4081,"Ġ01":4082,"ĠMUSIC":4083,"å¡ģ":4084,"ãģĹãģ¦ãģĦãĤĭ":4085,"Ġ73":4086,"åĮ»çĻĤ":4087,"ä¸ŃåĽ½":4088,"ä¹Ļ":4089,"æĹ¥æľ¬ãĥĨãĥ¬ãĥĵ":4090,"çĶ£æ¥Ń":4091,"æľ¬éĥ¨":4092,"Ġä»£è¡¨":4093,"Ġè¨ĺéĮ²":4094,"ãĥ¼ãĤ¨":4095,"æľį":4096,"ãĥĥãĤŃãĥ¼":4097,"å¼Ł":4098,"æ§ĭéĢł":4099,"ĠAm":4100,"çı¾åľ¨":4101,"ĠåľŁæĽľ":4102,"ĠCar":4103,"ĠåħŃ":4104,"ãĤ¶ãĥ¼":4105,"Ġ1955":4106,"é£¯":4107,"ãĤªãĥ¼ãĥĹ":4108,"ãĤĪãģĹ":4109,"ãĢįãĢĮ":4110,"ae":4111,"ãĥĵãĥ¥ãĥ¼":4112,"ĠEX":4113,"ãĤ¹ãĥĨãĥ¼ãĤ¸":4114,"ãĤ¹ãĥĿãĥ¼ãĥĦ":4115,"ãĥķãĥ«":4116,"åĥį":4117,"Ġç¯":4118,"åĬ´":4119,"ãĥģãĥ§":4120,"ãĤ¯ãĤ¹":4121,"Ġæĭ":4122,"ath":4123,"ãĥĥãĤ¸":4124,"ĥæľ¨":4125,"Ġç¾½":4126,"ç¥¥":4127,"ãĥĢãĥ«":4128,"let":4129,"Ġ00":4130,"èĥ":4131,"æłª":4132,"ĠæĸĩåĮĸ":4133,"ãĥ´ãĤ©":4134,"ersion":4135,"åºĥå³¶":4136,"Ġç¥ŀæĪ¸":4137,"ç³»çµ±":4138,"åħ¬éĸĭ":4139,"ä¸ĸç´Ģ":4140,"rist":4141,"ãģıãĤĵ":4142,"Ġæ±ºåĭĿ":4143,"æ¹¯":4144,"ãģĿãģ®":4145,"Al":4146,"åĳ¨å¹´":4147,"ãĤŃãĥ³ãĤ°":4148,"åĽ½éģĵ":4149,"ĠãĤµãĥĸ":4150,"å¤īæĽ´":4151,"Ġè«":4152,"ãĥĥãĤµ":4153,"èŃ°ä¼ļ":4154,"ãĥªãĤ¢ãĥł":4155,"ãĥ¼ãĤ³":4156,"é·":4157,"ĠãģĻ":4158,"oon":4159,"ä½ĲèĹ¤":4160,"Ġä¸įæĺİ":4161,"Ġå¤±":4162,"Ġç¨²":4163,"å¾ĭ":4164,"ãĤ«ãĥ©":4165,"Ġ71":4166,"ãĤ¹ãĤ³ãĤ°ãĥ©ãĥķãĤ£":4167,"ãĥĨãĥ¬ãĥĵæľĿæĹ¥":4168,"èª¿æŁ»":4169,"åħĥå¹´":4170,"ãĥĿãĥ¼ãĥĪ":4171,"è©¦":4172,"éĳĳ":4173,"åªĽ":4174,"ĠæŃ»":4175,"Ġç³":4176,"iet":4177,"ãĤ¬ãĥ¼":4178,"ĠIS":4179,"ever":4180,"ĠROCK":4181,"ãĥĹãĥŃéĩİçĲĥéģ¸æīĭ":4182,"ĠãĥĹãĥ©":4183,"è£ģ":4184,"ãĤ¯ãĥ¬":4185,"è¤ĩ":4186,"BA":4187,"çµ¦":4188,"ĠWeb":4189,"Ġæ¥½":4190,"Ġåħµåº«":4191,"ĠGirl":4192,"éŃļ":4193,"ĠGT":4194,"Ġå®®å´İ":4195,"ç·ĳ":4196,"BR":4197,"Ġãĥīãĥ©":4198,"éĿĻ":4199,"ĠHist":4200,"ĠåİŁä½ľ":4201,"é»Ħ":4202,"ãĥ«ãĥł":4203,"æĸĹ":4204,"éģ¸æīĭä¸Ģè¦§":4205,"ãĥ«ãĤ»":4206,"ĠNight":4207,"ãĥªãĥ¥":4208,"ĠãĥĨãĥ¬ãĥĵãĤ¢ãĥĭãĥ¡":4209,"ĠæľŃå¹Į":4210,"'''''":4211,"Ġ1956":4212,"anc":4213,"Ġä¸»è¦ģ":4214,"æ¯Ľ":4215,"ç¤¼":4216,"Ġéħį":4217,"ãĤŃãĤ·":4218,"åĳ¨è¾º":4219,"Ã¤":4220,"Ġå¤§éĺªåºľ":4221,"åħµè¡Ľ":4222,"ett":4223,"ĠéĿĴæ£®":4224,"ãģŁãģĦ":4225,"ãĥ«ãĤ¿":4226,"æµħ":4227,"ç¶¾":4228,"ĠæĪ¸":4229,"ä¼ģæ¥Ń":4230,"ä¸»ãģª":4231,"ãģ¾ãģ¤":4232,"iam":4233,"Ġå¯º":4234,"ft":4235,"ĠAR":4236,"ĠéīĦéģĵ":4237,"çĻºè¡Į":4238,"åıį":4239,"Ġ78":4240,"ode":4241,"ĠãģĿãģ®":4242,"ys":4243,"ĠâĢľ":4244,"ãĥ¼ãĤ²":4245,"ãĥ¢ãĥĩãĥ«":4246,"ãģ®å¤§":4247,"Ġ76":4248,"Ġ**ãĢĮ":4249,"ner":4250,"Ġæļ":4251,"Ġyou":4252,"å³°":4253,"ATION":4254,"TER":4255,"å®ĮæĪĲ":4256,"ii":4257,"ãĤ½ãĥķãĥĪ":4258,"ãĥ¼ãĥĲãĥ¼":4259,"Ġ'''''":4260,"çĶŁæ´»":4261,"Ġå¤§åĪĨ":4262,"amb":4263,"Ġtill":4264,"Ġçİĭ":4265,"ãĤ¹ãĥĪãĥ³":4266,"ĠâĹı":4267,"åĢĻ":4268,"åįĴæ¥Ń":4269,"ave":4270,"LA":4271,"Ġæł¡":4272,"ĠCo":4273,"ere":4274,"Ġ1957":4275,"me":4276,"äººåĵ¡":4277,"ãģ®ä¸Ń":4278,"ãĤ¯ãĤ»ãĤ¹":4279,"Th":4280,"å±±çĶ°":4281,"ĠAnn":4282,"ĠæĶ¾éĢģå±Ģ":4283,"ç«¯":4284,"ãĥĩãĤ¶ãĤ¤ãĥ³":4285,"Ġ77":4286,"way":4287,"æĸŃ":4288,"åįļçī©é¤¨":4289,"ãģ¨ãĤĤ":4290,"ĠåĪĨ":4291,"No":4292,"Ġç®":4293,"ç±³ãĥīãĥ«":4294,"éĢļä¿¡":4295,"Ġåĩ":4296,"Ġéĺ²":4297,"Ġä»®éĿ¢ãĥ©ãĤ¤":4298,"IDE":4299,"1979":4300,"æľŁéĸĵ":4301,"Ġçī¹åĪ¥":4302,"Ġãģı":4303,"ject":4304,"èĩªæ²»":4305,"Â°":4306,"ĠãĥĻãĥ«":4307,"ade":4308,"ä¿ĿèĤ²":4309,"OG":4310,"ĠCent":4311,"åį°":4312,"ited":4313,"UK":4314,"ĠGe":4315,"Sp":4316,"ĠFran":4317,"ãĥ¬ãĥĥãĥī":4318,"ãģªãĤī":4319,"ations":4320,"æħİ":4321,"MS":4322,"Ġéĸ¢æĿ±":4323,"èĬĿ":4324,"Ġå±±å½¢":4325,"ãĥ©ãĤ¤ãĥĪ":4326,"åºĥåŁŁ":4327,"ĠåıĤåĬł":4328,"ãĤ¬ãĥ³ãĥĢãĥł":4329,"Ã¡":4330,"Ġå¯Įå£«":4331,"ãĥ¬ãĥ³ãĥĪ":4332,"ium":4333,"è¦³åħī":4334,"çĽĽ":4335,"ãĥ³ãĤ½ãĥ³":4336,"ret":4337,"ins":4338,"Ġåĩºåł´":4339,"®éĢļ":4340,"Ġçīĩ":4341,"Ġç¨®":4342,"cc":4343,"èı±":4344,"Ġç¬¬äºĮ":4345,"La":4346,"Ġ74":4347,"Ã¶":4348,"ĠãĥķãĤ¸ãĥĨãĥ¬ãĥĵ":4349,"ãģ«ãģ¯":4350,"ĠRo":4351,"TH":4352,"æļ¦":4353,"ĠãĤ·ãĥ¥":4354,"åĲĦ":4355,"ãĥ³ãĥĻ":4356,"ĠãģĤãĤīãģĻãģĺ":4357,"çĪĨ":4358,"Ġçİī":4359,"ãĥĭãĥ¥ãĥ¼ãĤ¹":4360,"èŃ¦å¯Łç½²":4361,"åį±":4362,"ãģ®äººçī©":4363,"ĠãĤ¢ãĥ³ãĥī":4364,"iew":4365,"ãĤ¤ãĥŃ":4366,"æ´ŀ":4367,"Ġå½ĵ":4368,"åħĪçĶŁ":4369,"ĠçµĲæŀľ":4370,"æ¶Īéĺ²":4371,"ĠéĢļç®Ĺ":4372,"Re":4373,"çłĤ":4374,"æ¨¡":4375,"ĠAmer":4376,"Ġç¬¬ä¸Ģ":4377,"1978":4378,"ĠæĿ±æµ·":4379,"âĹı":4380,"æ»Ŀ":4381,"æĿĲ":4382,"ãĥķãĤ©ãĥ¼ãĥī":4383,"PG":4384,"ats":4385,"å±±åı£":4386,"Ġéģĵè·¯":4387,"èĬ¸è¡ĵ":4388,"ãģ«ãģ¤ãģĦãģ¦":4389,"Ġpres":4390,"çĶ°æĿĳ":4391,")ãĢį":4392,"Ġä¸ĢèĪ¬":4393,"æ¨ªæµľ":4394,"les":4395,"Ġi":4396,"ĠãĤ¯ãĥ©":4397,"ãĤ®ãĥ¥ãĥ©ãĥ¼":4398,"ĠãģĿ":4399,"çĶ°ä¸Ń":4400,"ãĥĲãĥ©":4401,"ĠéŁ":4402,"ä¹³":4403,"Ġ1954":4404,"WA":4405,"Ġæĸ½è¨Ń":4406,"åĨĻçľŁ":4407,"ĿéĽ¢":4408,"ãĥķãĤ¡ãĤ¤":4409,"ä½įç½®":4410,"que":4411,"ĠTOKYO":4412,"Ġä½ı":4413,".''":4414,"ãĥīãĤ¥":4415,"æ¯İ":4416,"IF":4417,"äº¤å·®çĤ¹":4418,"1977":4419,"Ġèģĸ":4420,"ãĤ¸ãĤ¿ãĥ«":4421,"ction":4422,"ãĤ¤ãĥ³ãĤ¿":4423,"ãģªãģ¿":4424,"Ġ1950":4425,"air":4426,"ãĥªãĥĨãĤ£":4427,"åķıé¡Į":4428,"ãĤ¦ãĥĪ":4429,"CA":4430,"ç¿¼":4431,"Ġæ¯İ":4432,"ĠIntern":4433,"Ġä½ĲãĢħæľ¨":4434,"Ġãĥķãĥ©ãĥ³ãĤ¹":4435,"ãĥĥãĤ¿":4436,"å®£":4437,"ãĥ¯ãĥ¼ãĥ«ãĥī":4438,"æĺłåĥı":4439,"Ġè¬Ľè«ĩç¤¾":4440,"Ġç·ıåĲĪ":4441,"ĠæĹ¥æľ¬èªŀ":4442,"ãĤ¬ãĥ³":4443,"åĵģçķª":4444,"Ġç¦ıäºķ":4445,"åħ±åĴĮ":4446,"ãģ®æĹ¥":4447,"ĠæĴ®å½±":4448,"Ġåīµ":4449,"ãĤ«ãĥ¼":4450,"æĤł":4451,"Ġ85":4452,"ĠãĤĬ":4453,"åºĦ":4454,"ãĥĭãĤ³":4455,"ĠèıĬ":4456,"Ġ02":4457,"AGE":4458,"ãĥªãĥ¼ãĥ³":4459,"ĠMA":4460,"æ®ºäºº":4461,"å¿į":4462,"ç¤¾éķ·":4463,"è²ŀ":4464,"æ±ºå®ļ":4465,"Ġ1945":4466,"ĠçĶ»":4467,"Ġå¿Ĺ":4468,"ĠåŁİ":4469,"éĸĭæ¥Ń":4470,"An":4471,"over":4472,"atch":4473,"ãĤ¢ãĤ¹":4474,"ama":4475,"ute":4476,"Ġ88":4477,"ãĥģãĥ£ãĥ³ãĥįãĥ«":4478,"de":4479,"ä¸İ":4480,"ãĤ³ãĥ³ãĥĨ":4481,"Ġkg":4482,"'t":4483,"Ġåķ":4484,"ĠãĤ¯ãĥŃ":4485,"Ġçļ":4486,"EB":4487,"ı¡":4488,"æŃ³ä»¥ä¸Ĭ":4489,"ãĥ³ãĤ²":4490,"ä¹ĭåĬ©":4491,"ater":4492,"(-":4493,"ãĥĬãĤ¤ãĥĪ":4494,"çģ¯":4495,"è°·å·Ŀ":4496,"ãĥ¼ãĥŃãĥĥãĥĳ":4497,"æĶ¿æ²»":4498,"Ġåħ¨åĽ½":4499,"å¯Įå£«":4500,"éĽ»æ°Ĺ":4501,"ãģ¨ãģªãĤĭ":4502,"ĠæĿ±åĮĹ":4503,"çµ¶":4504,"ãĥĪãĥ¬":4505,"ĠãĥīãĤ¤ãĥĦ":4506,"å¤±":4507,"ãĥ¼ãĤ±":4508,"ç·Ĵ":4509,"ãģ¾ãĤĬ":4510,"||":4511,"ãģ¨ãģį":4512,"çİĭåŃĲ":4513,"ãĥĥãĥĶ":4514,"Ġ120":4515,"ĠTR":4516,"ĠãĤ¹ãĥĨ":4517,"ä»ı":4518,"èģ¡":4519,"ĠPer":4520,"ĠèĪª":4521,"ãĥ³ãĥı":4522,"âĸ":4523,"Ġèº«":4524,"åı¸ä»¤":4525,"Ġè¡ĮæĶ¿":4526,"inal":4527,"Ĵäºķ":4528,"Ġå®Ŀ":4529,"ãĤ¦ãĥł":4530,"IK":4531,"Ġæľ¨æĿĳ":4532,"ãĥĸãĥŃãĤ°":4533,"Ġåĵ":4534,"Ġ79":4535,"1976":4536,"SW":4537,"ĠPC":4538,"Ð¸":4539,"ä¸¹":4540,"its":4541,"Ġè¦ıæł¼åĵģçķª":4542,"ĠãĥĩãĤ£ãĤ¹ãĤ³ãĤ°ãĥ©ãĥķãĤ£":4543,"Ġle":4544,"ä½ľæĪ¦":4545,"ĠæīĢåľ¨åľ°":4546,"åįĥèĳī":4547,"Ġè§£èª¬":4548,"è¡ĽéļĬ":4549,"ãĤµãĥ³":4550,"Ġä¸ĸå¸¯æķ°":4551,"ĠOp":4552,"åıĹ":4553,"ĠAir":4554,"è²¨":4555,"ĠèĪ¹":4556,"ĠãĥģãĤ§":4557,"1973":4558,"ãģ«ãģ¦":4559,"æ¡ĥ":4560,"rans":4561,"Ġ1948":4562,"é§Ĳ":4563,"ãĤ¤ãĤ¨":4564,"è»Ĭä¸¡":4565,"1970":4566,"ĠIDOL":4567,"çł´":4568,"çĶ·åŃĲ":4569,"1971":4570,"Ġæµ¦":4571,"Ġä¹Ŀå·ŀ":4572,"ĠçŁ³å·Ŀ":4573,"å®ĩå®Ļ":4574,"ony":4575,"Ġèĸ":4576,"çĬ¬":4577,"Ġå®ļ":4578,"ãĤµãĥ¼ãĥĵãĤ¹":4579,"ĠæľĪæĽľ":4580,"Ðµ":4581,"use":4582,"Ġä»Ļåı°":4583,"çķ°":4584,"è¦ļ":4585,"ames":4586,"åĨħå®¹":4587,"äºĶéĥİ":4588,"ĠçĪ":4589,"ãģĤãģį":4590,"Ġ1952":4591,"éºĹ":4592,"ãģ¶ãĤĬ":4593,"ĠæľĢçµĤ":4594,"ple":4595,"ãĤĢãĤī":4596,"Ġ1953":4597,"Ġä¿¡":4598,"ãĤĨãģĨ":4599,"ĠãĥŁãĥ¥ãĥ¼ãĤ¸":4600,"Ġed":4601,"aj":4602,"TR":4603,"bo":4604,"å·¡":4605,"Ġæ²ĸç¸Ħ":4606,"ãģĭãĤīãģ®":4607,"çķ¿":4608,"ĠãĤ¯ãĥ©ãĥĸ":4609,"ãĥ©ãĤ¯ãĤ¿":4610,"ĠSou":4611,"!?":4612,"è¨Ńç«ĭ":4613,"ons":4614,"âĶģâĶģ":4615,"ãĥ¼ãĥ¨":4616,"1975":4617,"ĠãĥĹãĥª":4618,"ĠçĮ":4619,"Ġéĺªç¥ŀ":4620,"1974":4621,"Ġan":4622,"Ġpro":4623,"ãģªãģŁ":4624,"Ġ81":4625,"ãĤ®ãĥ£":4626,"ual":4627,"ĠæĿ±æĺł":4628,"ãĤ®ãĥ¼":4629,"ç¥ŀæĪ¸":4630,"ura":4631,"ki":4632,"Ġè¨Ń":4633,"ĠãĤ°ãĥ«ãĥ¼ãĥĹ":4634,"ãĥķãĤ£ãĥ¼ãĥ«":4635,"ãĥ³ãĤ¸ãĥ³":4636,"ican":4637,"red":4638,"ouse":4639,"éĢ£çĽŁ":4640,"è¼¸":4641,"æĸİ":4642,"ĠçĶ²":4643,"ike":4644,"Ġåħ¨åŁŁ":4645,"æĴ®å½±":4646,"ãĥ¬ãĤ¯ãĤ·ãĥ§ãĥ³":4647,"åŃ¦çĶŁ":4648,"Ġ*(":4649,"BE":4650,"Ġå²Ĳéĺľ":4651,"ä¸ŃæĿĳ":4652,"ĠEng":4653,"Ġå°ıéĩİ":4654,"ãĤ´ãĥ³":4655,"ris":4656,"éģĭåĭķ":4657,"ãĢı)":4658,"ĳèªĮ":4659,"1972":4660,"ãģŁãĤĬ":4661,"åµĲ":4662,"Ġ::;":4663,"ĠBEST":4664,"ãĤ¹ãĥĶ":4665,"ãĥ¨ãĤ¿":4666,"ĠãĤ·ãĥ§":4667,"ä½ľå®¶":4668,"OH":4669,"yn":4670,"ãĤ«ãĤ¤":4671,"éĭ":4672,"è¡ĽéĸĢ":4673,"ĠãĤı":4674,"ãĥīãĤ¤ãĥĦ":4675,"çīĩ":4676,"ĠãĥĹãĥŃãĥĩãĥ¥ãĥ¼ãĤµãĥ¼":4677,"Ġå¸¸":4678,"çįĦ":4679,"ãĥ¬ãĥ¼ãĤ¹":4680,"LS":4681,"ãĥ©ãĤ¹ãĥĪ":4682,"ãģ®ãģĨ":4683,"Ġèıħ":4684,"ãĥĳãĥ¼ãĤ¯":4685,"æ·±å¤ľ":4686,"ps":4687,"åĿĬ":4688,"Ġå·¥":4689,"Ġæħ":4690,"eng":4691,"to":4692,"Ġ82":4693,"ari":4694,"TT":4695,"UD":4696,"ĭèŃ·":4697,"Ġ150":4698,"Ġbe":4699,"ĠåĪ©çĶ¨":4700,"ãĥķãĥŃ":4701,"ograph":4702,"çģ½":4703,"Ġç¦ıå³¶":4704,"ĠOf":4705,"Ġå¥Īèī¯":4706,"ç¥ī":4707,"uss":4708,"æ£ĭ":4709,"ĠImage":4710,"åĩ¦":4711,"æ¼«çĶ»":4712,"æĪĳ":4713,"Ġä¸»é¡ĮæŃĮ":4714,"å¤ķ":4715,"ãĥĳãĤ¹":4716,"æµ·è»į":4717,"''',":4718,"éģ·":4719,"Ġè¡¨":4720,"éĿĸ":4721,"å¸°":4722,"ä¸īä¸ģçĽ®":4723,"å¸Ĥæ°ĳ":4724,"å¾ĹçĤ¹":4725,"ift":4726,"ose":4727,"ãģ®åľ°":4728,"ull":4729,"ble":4730,"æľĢé«ĺ":4731,"EP":4732,"ĠæĹ¥æľ¬ãĥĨãĥ¬ãĥĵ":4733,"ãĥ¼ãĥ¢":4734,"åıĮ":4735,"ĠBar":4736,"ĠLife":4737,"æ´²":4738,"ĠåĪ¥":4739,"ãĥ³ãĥĶãĥĥãĤ¯":4740,"ãĤŃãĥ£ãĥ©ãĤ¯ãĤ¿ãĥ¼":4741,"ãĥĩãĥ³":4742,"æĿ±äº¬éĥ½":4743,"ĠWind":4744,"ãĥ¼ãĥĢãĥ¼":4745,"250":4746,"ãĢķ":4747,"æ²¹":4748,"ĠWOR":4749,"ãĤ«ãĥ¼ãĥī":4750,"èĺŃ":4751,"Ġæĺłåĥı":4752,"ãĥ«ãĤº":4753,"ãĥ¼ãĥı":4754,"çı¾ä»£":4755,"Ġç¥ŀå¥Īå·ĿçľĮ":4756,"Ġå®Ī":4757,"Wh":4758,"Ġ''(":4759,"ãģ©ãģĨ":4760,"ãĥŀãĥª":4761,"å¡©":4762,"ĠãĥĪãĥ©":4763,"èªī":4764,"ãĥĻãĥ¼ãĤ¹":4765,"IP":4766,"Ġ1951":4767,"ãĤīãģĦ":4768,"Ġéģ¸æīĭåĲį":4769,"è¸":4770,"åħĦ":4771,"600":4772,"Ġå²©æīĭ":4773,"èŃ°éĻ¢èŃ°åĵ¡":4774,"çĸ":4775,"GE":4776,"ya":4777,"èĦĩ":4778,"ĠçĽ´":4779,"ĠBest":4780,"å¤§è¼Ķ":4781,"urn":4782,"800":4783,"ãģĬãĤĪãģ³":4784,"ãĤ³ãĥŁ":4785,"Ġ1949":4786,"å§ī":4787,"ç°":4788,"Ġãĥ©ãĤ¤ãĥĸ":4789,"Ġéľ":4790,"ĠåĮ»":4791,"ĠæĦĽçŁ¥çľĮ":4792,"æĹĹ":4793,"ãĤ¬ãĤ¹":4794,"æĽ¿ãģĪ":4795,"Ġ84":4796,"å¤©çļĩ":4797,"du":4798,"ç´ħ":4799,"èıĬ":4800,"è²©å£²":4801,"ĠãĤ¯ãĥª":4802,"alk":4803,"ĠçĢ¬":4804,"ĠHar":4805,"Ġå±±å´İ":4806,"Ġç´Ģ":4807,"ĠAs":4808,"ĠåĪ¶å®ļ":4809,"æĤŁ":4810,"ren":4811,"org":4812,"ç¯Ħ":4813,"ĠCount":4814,"å²Ĳ":4815,"Le":4816,"FL":4817,"å¯Ħ":4818,"ĠSm":4819,"ĠYork":4820,"ecial":4821,"ana":4822,"ĠãĤ¼":4823,"uro":4824,"Ġæ®":4825,"Ġpresents":4826,"ãĥªãĤ¢ãĥ³":4827,"Ġme":4828,"çĬ¯":4829,"ĠåŁº":4830,"Ġå¢Ĺ":4831,"é®®":4832,"ãģĬãĤĬ":4833,"ĠTour":4834,"ãĤ¯ãĥ«":4835,"ino":4836,"çĻºè¡¨":4837,"okyo":4838,"Ġçµ¶":4839,"ãĤĵãģł":4840,"æ¶²":4841,"ŀį":4842,"Ġ1947":4843,"æµª":4844,"ĠãĥıãĤ¤":4845,"ãĤ°ãĥŃ":4846,"æĸ°æ½Ł":4847,"æķ¦":4848,"åĽ½ç«ĭ":4849,"UL":4850,"Ġãĥ¬ãĤ¤":4851,"ĠStud":4852,"Ġ86":4853,"Ġå¤¢":4854,"ãĥĥãĥĨ":4855,"éľĩ":4856,"æ¸ħæ°´":4857,"Ġ110":4858,"ĠWill":4859,"ĠåĢī":4860,"ĠãĤ·ãĥªãĥ¼ãĤº":4861,"ãĥŁãĤ¹":4862,"NE":4863,"GP":4864,"æıĽ":4865,"æĹħå®¢":4866,"ĠPlay":4867,"ãĤ¢ãĤ¤ãĥīãĥ«":4868,"ãĥĹãĥ¬ãĥŁãĤ¢":4869,"ãĥ¡ãĤ¤":4870,"1969":4871,"éĿŀ":4872,"ãģ®ãģŁãĤģ":4873,"ĠãĤ¨ãĥ«":4874,"Ġéĸ¢è¥¿":4875,"ĠLa":4876,"é«ĺæ©ĭ":4877,"æĶ¹ç§°":4878,"ç½ª":4879,"rid":4880,"Ġå¹´åº¦åĪ¥":4881,"Ġver":4882,"ç´Ĺ":4883,"ãĥ³ãĥļ":4884,"ĠTo":4885,"Ġ99":4886,"Ġè¦³":4887,"å¡Ķ":4888,"ĠOne":4889,"çĪµ":4890,"ãĤ¤ãĤª":4891,"ien":4892,"Ar":4893,"æķ£":4894,"ãĤ¤ãĥĻãĥ³ãĥĪ":4895,"Ġé¶´":4896,"ĠUp":4897,"å°ĤæĶ»":4898,"bum":4899,"ãĥķãĥ©ãĥ³ãĤ¹":4900,"æĹ¥æľ¬èªŀ":4901,"Ġ83":4902,"ĠåĲĪè¨Ī":4903,"ãĤ¤ãĥĸ":4904,"ãĥŁãĥĭ":4905,"ãĥ¼ãĤ»":4906,"able":4907,"ãģ¾ãĤĭ":4908,"äºĮéĥİ":4909,"ãĥ«ãĥĦ":4910,"ĠTw":4911,"éłĨä½į":4912,"æ¶¼":4913,"Ġ87":4914,"ãģĭãģª":4915,"Ġcom":4916,"åĪĢ":4917,"ĠInd":4918,"ĠCity":4919,"ãĤĬãģ°":4920,"ãģĭãģĦ":4921,"ãģ®äººçī©ä¸Ģè¦§":4922,"çĦ¼":4923,"ä½ĵèĤ²é¤¨":4924,"IAL":4925,"ãĤ¯ãĤ¿ãĥ¼":4926,"ãĤ¢ãĤ«":4927,"ĠæĢ§":4928,"éĻ¤":4929,"æĹ¥æĶ¾éĢģ":4930,"ĠHer":4931,"ĠQu":4932,"ãģ®éģ¸æīĭä¸Ģè¦§":4933,"ĠTime":4934,"å±±æľ¬":4935,"ãĥ¼ãĤ½ãĥ³":4936,"Ġ**ãĢİ":4937,"ĠGO":4938,"ĠèĮ¨":4939,"ster":4940,"ke":4941,"åıĬãģ³":4942,"éĻ¸ä¸Ĭ":4943,"ĠTO":4944,"Ġæ¢ħ":4945,"form":4946,"ãĥ³ãĥŃ":4947,"äºŃ":4948,"Ġå·Ŀå´İ":4949,"ãģĵãģ®":4950,"ãĥ¼ãĤ¦":4951,"å¤§è³ŀ":4952,"Ġç·¨éĽĨ":4953,"oft":4954,"Ġåľ¨":4955,"Ġæ±łçĶ°":4956,"æ®Ĭ":4957,"æ¼¢":4958,"Ġz":4959,"ĠEl":4960,"Ġæĥħ":4961,"ãĤ¸ãĥ³":4962,"ãĥ¯ãĥ¼ãĥī":4963,"å»¶éķ·":4964,"VER":4965,"ĠãĤ«ãĥ«":4966,"å°±":4967,"ology":4968,"æķĳ":4969,"Ġ95":4970,"ä»²":4971,"Ġå»ĥ":4972,"Ġçĭ¬":4973,"ĠãĤ¤ãĤ®ãĥªãĤ¹":4974,"ĠãĥĭãĤ³":4975,"ãģ«ãģĬãģĳãĤĭ":4976,"Ġ1944":4977,"ĠRem":4978,"éĬĥ":4979,"çĹĩ":4980,"Ġmm":4981,"inc":4982,"ãĥ³ãĥĩãĤ£ãĥ³ãĤ°":4983,"Ġcol":4984,"ĠéĮ":4985,"æĵį":4986,"orth":4987,"RC":4988,"Ġ89":4989,"ãĤ¹ãĤ¿ãĥĥãĥķ":4990,"Ġé£Ľ":4991,"KA":4992,"æŃĮæīĭ":4993,"è»Ĭåł´":4994,"ĠãĢį":4995,"éį":4996,"èİ":4997,"KB":4998,"ĠãĤªãĥªãĤ¸ãĥĬãĥ«":4999,"ãĤ²ãĤ¹ãĥĪ":5000,"æĸĩåĮĸè²¡":5001,"éħ¸":5002,"stem":5003,"ittle":5004,"åĭ²":5005,"1968":5006,"ĠSong":5007,"!ãĢį":5008,"äººéĸĵ":5009,"EFA":5010,"ãĤºãĥł":5011,"ĠçµĤ":5012,"ets":5013,"īèĹ¤":5014,"ãĥķãĥªãĤ«":5015,"å·Ŀå¸Ĥ":5016,"ãģ¤ãģį":5017,"ĠãĤ¢ãĤ¸ãĤ¢":5018,"ENT":5019,"ãĤĵãģĺ":5020,"æĸĩç¤¾":5021,"çŀ":5022,"ĠAb":5023,"ãĥ¼ãĤª":5024,"Ġæ¸ĭè°·":5025,"ãĤ¯ãĤ·":5026,"åĮºåŁŁ":5027,"ler":5028,"ãĥĩãĤ¤":5029,"ãģĤãģĦ":5030,"èįĺ":5031,"ĠãĤ®ãĥ£":5032,"éī":5033,"ĠAt":5034,"ãĤ¢ãĤ¸ãĤ¢":5035,"ĠFEST":5036,"ĠãĤµãĥĸãĤ¿ãĤ¤ãĥĪãĥ«":5037,"ĠGl":5038,"ĠéĻ¸ä¸Ĭ":5039,"ĠRes":5040,"çŃĨ":5041,"ĠæłĹ":5042,"åĲīçĶ°":5043,"ĠWe":5044,"è¢ĭ":5045,"ini":5046,"ĠAp":5047,"Ġæ§ĭ":5048,"ãĥĥãĥĿ":5049,"ĠèĤ":5050,"æ³³":5051,"ä¸ĩåĨĨ":5052,"ãģķãģ¨":5053,"ãĤ¦ãĤ§ãĤ¤":5054,"ka":5055,"ç¥ĸ":5056,"æĪ¦éļĬ":5057,"ãĤ¸ãĥ£ãĥ¼":5058,"ä»¥éĻį":5059,"ĠãĤ¨ãĥĶãĤ½ãĥ¼ãĥī":5060,"ãĥ¼ãĤ·ãĥ£":5061,"Ġæīĭ":5062,"ç¦ıç¥ī":5063,"ĠDay":5064,"ĠãĤ¹ãĤ³":5065,"ĠSE":5066,"Ġä¹Ŀ":5067,"è¥":5068,"Ġæ°ı":5069,"ĠéĢ²":5070,"ane":5071,"ãģķãģį":5072,"lo":5073,"ãĥ¬ãĥ¼ãĤ·ãĥ³ãĤ°":5074,"éĢ£åĲĪ":5075,"è¬Ļ":5076,"ĠãĥĿãĤ¤ãĥ³ãĥĪ":5077,"ĠãĤ¹ãĥĪãĥ¼ãĥªãĥ¼":5078,"ãĤ¨ãĤ¹ãĥĪ":5079,"ĠçµĮæ¸Ī":5080,"ãĥĥãĤ±":5081,"ros":5082,"ãĥ¦ãĥĭ":5083,"ãĥ¬ãĥ¼ãĥĪ":5084,"ãĥĻãĥ«ãĥĪ":5085,"é¦¬åł´":5086,"ĠAg":5087,"å¯¾å¿ľ":5088,"ĠèĳĹæĽ¸":5089,"Ġéģİåİ»ãģ®":5090,"Ġæ±ŁæĪ¸":5091,"èĻ«":5092,"åĲĪè¡Ĩ":5093,"GO":5094,"ãĥ©ãĥªãĥ¼":5095,"ĠãĤµãĤ¤":5096,"éļľ":5097,"ä¼ļèŃ°":5098,"å½¼":5099,"ĠSC":5100,"ĠRob":5101,"ĠçĬ":5102,"ÑĢ":5103,"ä»Ļ":5104,"Ġå¹´è¡¨":5105,"ĠâĨĲ":5106,"LUB":5107,"ĠéłĪ":5108,"ãģ®å¤ī":5109,"Ð½":5110,"æīį":5111,"cy":5112,"æģŃ":5113,"ãĤ³ãĤ¹":5114,"ç´į":5115,"ãĤ¦ãĥ³ãĤµãĥ¼":5116,"çĶºæĿĳ":5117,"ãĥ¼ãĤ´":5118,"Ġä¸īéĩį":5119,"ãĥĩãĤ¹":5120,"æı®":5121,"ãĥĪãĥ©ãĥĥãĤ¯":5122,"ĠSoc":5123,"ĠåĨį":5124,"LIVE":5125,"å¹´æľĪæĹ¥":5126,"å¯©":5127,"éĲ":5128,"è±Ĩ":5129,"uper":5130,"éĸī":5131,"co":5132,"åİļ":5133,"åĪĹè»Ĭ":5134,"Ġ1943":5135,"ãĤıãĤĬ":5136,"ãĥĥãĤ·":5137,"æĶ¯æı´":5138,"èĩªåĭķè»Ĭéģĵ":5139,"Ġæ¼«çĶ»":5140,"ĠMc":5141,"ãĥ¤ãĥŀ":5142,"Ġç¦ıå²¡çľĮ":5143,"éĻĦ":5144,"ese":5145,"æķħ":5146,"åĪ»":5147,"GA":5148,"åİŁçĶ»":5149,"aul":5150,"åıĤèĢĥæĸĩçĮ®":5151,"éŃĤ":5152,"ãģĬãģĬ":5153,"èĳĹä½ľ":5154,"è¾ŀ":5155,"Ġ\\":5156,"ãĤ¹ãĤ¿ãĥ¼ãĤº":5157,"ĠStar":5158,"å°ıæŀĹ":5159,"Ġ96":5160,"éĽ·":5161,"åĽŀå¤§ä¼ļ":5162,"SE":5163,"ãģ®å·»":5164,"ãĤ¬ãĥ«":5165,"ãĥŀãĥ¼":5166,"ãĥģãĥĬ":5167,"ĠBE":5168,"ĠåĲ¹":5169,"))":5170,"ĠMF":5171,"VA":5172,"ĠPol":5173,"ãĤ³ãĥ¼ãĥĬãĥ¼":5174,"ideo":5175,"å°»":5176,"æłĹ":5177,"Ġè¡Ģ":5178,"ä¸»ç¾©":5179,"ĴéĻº":5180,"è¾°":5181,"ĠãĤ¤ãĥ³ãĤ¿":5182,"çĴ°å¢ĥ":5183,"é¼":5184,"ãĥĵãĥ³":5185,"ãĤªãĥ¼ãĥĹãĥ³":5186,"ä¼ļéķ·":5187,"å¸ĿåĽ½":5188,"ãĥ¢ãĥ³ãĥī":5189,"ç´¹":5190,"Ġéº»":5191,"ener":5192,"æŀł":5193,"ç·´":5194,"é«":5195,"ãģĮãģĤãĤĭ":5196,"ãĥ³ãĤ¼":5197,"ONG":5198,"è²ł":5199,"ĠCOM":5200,"ãĢģãĢĮ":5201,"ĠComm":5202,"ãĥıãĤ¦ãĤ¹":5203,"´çĶ°":5204,"Ġ92":5205,"Ġé¾į":5206,"éĽ»è»Ĭ":5207,"ç£¨":5208,"éĢĶ":5209,"1967":5210,"ãĥĴãĥŃ":5211,"-'''":5212,"ãĥŀãĥ©":5213,"ç·ł":5214,"MP":5215,"Ġ93":5216,"ãģķãģĦ":5217,"oto":5218,"Ġå®Į":5219,"ãģľ":5220,"my":5221,"éģĭè¡Į":5222,"ĠèªķçĶŁ":5223,"ĠçķªçµĦ":5224,"Ġæ©ĭæľ¬":5225,"è»½":5226,"ĠåĪĿåĽŀ":5227,"ĠèįĴ":5228,"Cl":5229,"ĠæĿİ":5230,"ãģįãĤĭ":5231,"ãĤĤãĤĵ":5232,"ĠçĽ®":5233,"ä½ĳ":5234,"Ġâĸ":5235,"ãĤ¿ãĤ¤ãĥł":5236,"ãĥ¡ãĥ©":5237,"åĳĤ":5238,"Ġåĩºèº«":5239,"ãĥ¼ãĥĵãĥ¼":5240,"å¹´éĢ£ç¶ļ":5241,"éķ·å´İ":5242,"ital":5243,"ĠMon":5244,"ãĤ°ãĥª":5245,"æĿŁ":5246,"é¡Ķ":5247,"ĠãĥķãĥŃ":5248,"ãģıãĤĬ":5249,"æĸĩåŃĹ":5250,"ĠYour":5251,"éĸĭè¨Ń":5252,"LO":5253,"èīĩ":5254,"éı¡":5255,"Ġç¾¤":5256,"å·¨":5257,"ĠRecords":5258,"è±ª":5259,"**":5260,"ãĤ¿ãĥ³":5261,"æ½¤":5262,"è³ĢçľĮ":5263,"ãĤ»ãĥĥãĥĪ":5264,"iversary":5265,"Ġ1946":5266,"ĠåŃ¦æł¡":5267,"Ġ400":5268,"Ġèĭ±èªŀ":5269,"ral":5270,"Ġ1941":5271,"ç¶±":5272,"ĠãĤ¯ãĥ¬":5273,"æ¿ĥ":5274,"ãĤ·ãĥ³":5275,"ĠãĤ¦ãĤ©":5276,"ĠæľĢé«ĺ":5277,"Ġä¼ģçĶ»":5278,"ize":5279,"Ġì":5280,"é£¾":5281,"è¨ª":5282,"èģ´":5283,"Ġ1940":5284,"èĪĹ":5285,"åħ¥ãĤĬ":5286,"ĠDream":5287,"Ġè£ľ":5288,"æ¾Ħ":5289,"ç¨İ":5290,"éķ·éĩİ":5291,"æ¶¯":5292,"åĽ½æ°ĳ":5293,"eth":5294,"ze":5295,"Ġæ¿":5296,"ĠåĮº":5297,"æ¥½éĥ¨":5298,"ãĥ¼ãĥĮ":5299,"ãĥĦãĤ¢ãĥ¼":5300,"ãĥ¯ãĥ³":5301,"ement":5302,"åĽ£ä½ĵ":5303,"ãģ¿ãģ®":5304,"åľĭ":5305,"Ġ98":5306,"æľªæºĢ":5307,"Ġä½ĵ":5308,"åħ±åĴĮåĽ½":5309,"Ġãĥ¦ãĥĭ":5310,"rag":5311,"Ġå¡©":5312,"ãĥ«ãĤ«":5313,"ĠèĹ¤åİŁ":5314,"ita":5315,"ĠåŃĲ":5316,"ald":5317,"ĠInternational":5318,"Ġ97":5319,"1960":5320,"ãĥ¯ãĤ¤":5321,"ãĥ«ãĤ³":5322,"æĿ¾æľ¬":5323,"Ġæ¶Ī":5324,"æĿ±æĺł":5325,"çĤİ":5326,"è·ĿéĽ¢":5327,"ĠæĦĽåªĽ":5328,"ĠCan":5329,"ãĤ¯ãĥ©ãĤ¹":5330,"Ġ91":5331,"Ġ1942":5332,"ĠèĥĮçķªåı·":5333,"ãĤ·ãĥ£ãĥ³":5334,"éĿĻå²¡":5335,"ĠåĽ½ç«ĭ":5336,"åĪ¸":5337,"Ġãĥ¤ãĥŀ":5338,"Ġèī¦":5339,"çĶ°çĶº":5340,"oss":5341,"Ġå¼ķ":5342,"æĲº":5343,"ãĥĲãĥ³":5344,"MI":5345,"åĽĽéĥİ":5346,"ãĥŃãĤ¦":5347,"uck":5348,"Ġmy":5349,"110":5350,"ĠStation":5351,"Ġãģ»ãģĭ":5352,"è¡ĮæĶ¿":5353,"ĠãĤŃãĥ£ãĥ©ãĤ¯ãĤ¿":5354,"ĠãĤ¹ãĥĨãĤ£":5355,"ãĤ«ãĥª":5356,"èĢķ":5357,"ĠInst":5358,"å¸³":5359,"ãĥ¼ãĥĸãĥ«":5360,"....":5361,"ãĤģãģĲ":5362,"ĠMag":5363,":'''":5364,"ãĥĥãĤ³":5365,"éĽ»åĬĽ":5366,"lin":5367,"ĠåķĨ":5368,"èĻİ":5369,"FF":5370,"ãĥ¼ãĥ¨ãĥ¼ãĤ¯":5371,"æĻ¶":5372,"ãĥªãĥªãĥ¼ãĤ¹":5373,"by":5374,"è»Į":5375,"ãĥĥãĤ¿ãĥ¼":5376,"ĠYOU":5377,"ç¹ģ":5378,"ãĥķãĥª":5379,"IVAL":5380,"»è¨³":5381,"ãĥĨãĤ¤":5382,"ental":5383,"ARD":5384,"ĠæĬķæīĭ":5385,"æ±ŁæĪ¸":5386,"ĠUEFA":5387,"ummer":5388,"ãģ«ãģĤãĤĭ":5389,"æĸ°èģŀç¤¾":5390,"fer":5391,"ãģ®èĬ±":5392,"åįļå£«":5393,"Ġå¤ľ":5394,"ãģįãģŁ":5395,"æľªæĿ¥":5396,"ãĥ³ãĥĳãĤ¹":5397,"æ£Ĵ":5398,"ãģķãģ¾":5399,"ãĤģãģ¦":5400,"å¦Ļ":5401,"Ġæłĥæľ¨":5402,"èĴ":5403,"ãģĹãĤĵ":5404,"å°ĤéĸĢåŃ¦æł¡":5405,"Ġas":5406,"ãĤ¹ãĤŃ":5407,"ãĤ¹ãĥĪãĥ©":5408,"Ġç¤¾ä¼ļ":5409,"ĠRev":5410,"åºĬ":5411,"è¨±":5412,"AZ":5413,"Ġéİ":5414,"Ġ94":5415,"éĢĨ":5416,"My":5417,"1966":5418,"1961":5419,"Ġæľ¨æĽľ":5420,"ĠæĮĩ":5421,"ãģ«ãģª":5422,"çĶ°é§ħ":5423,"è¾¼":5424,"Ġãĥ¡ãĤ¤":5425,"ĠåĬĩåł´çīĪ":5426,"ĠãĤ¹ãĥĿãĥ¼ãĥĦ":5427,"Ġpp":5428,"Ġå®ĩå®Ļ":5429,"å¡¾":5430,"ãĥĬãĥĢ":5431,"1965":5432,"ãĥ³ãĥĭ":5433,"ãģ®æĪ¦":5434,"aut":5435,"Ġ03":5436,"å·³":5437,"irst":5438,"å¹´ãģ¶ãĤĬ":5439,"ĠDr":5440,"ãĥĳãĥ©":5441,"åĩºçīĪç¤¾":5442,"Ġéĥ¨":5443,"å»ºç¯ī":5444,"ãģ¯ãĤĭ":5445,"ãĥĸãĥ³":5446,"Ġãģ§ãģĤãĤĭ":5447,"ĠçĶ»åĥı":5448,"ãĤªãĥ«":5449,"ãĥĢãĤ¤":5450,"ĠãĤ¿ãĤ¤ãĥł":5451,"ĠåĲĽ":5452,"ĠHistory":5453,"å¤§æĪ¦":5454,"ãĥĽãĥĨãĥ«":5455,"iano":5456,"åĲįãģ®":5457,"Ġåľ°åŁŁ":5458,"Ġæīĵ":5459,"ãĥĨãĥ¬ãĥĵæĿ±äº¬":5460,"ĠãĤĨãģĨ":5461,"Ġèįī":5462,"ĠEP":5463,"æĹħå®¢éīĦéģĵ":5464,"ĠçĲĨ":5465,"uch":5466,"çĨĬæľ¬":5467,"ãĤ¸ãĥ§ãĥ¼":5468,"ĠEN":5469,"å¼ĵ":5470,"ĠOP":5471,"ĠChrist":5472,"ĠAc":5473,"å®Łæĸ½":5474,"çĶ»çĽ£çĿ£":5475,"Ġé»Ħ":5476,"åħħ":5477,"å³ł":5478,"ĠåīįçĶ°":5479,"ĠéĢĢ":5480,"ä½ıå®ħ":5481,"ãĤ»ãĥ«":5482,"ãĤ¸ãĤ¢ãĥł":5483,"Ã¨":5484,"Ġãģĵãģ®":5485,"æĭ³":5486,"çªģ":5487,"ĠOfficial":5488,"LB":5489,"éģĭè»¢":5490,"Ġå¤ī":5491,"å¯¾è±¡":5492,"ãĥıãĥł":5493,"èĵ®":5494,"ãĥĥãĤ·ãĥ§ãĥ³":5495,"çİ²":5496,"Ġçµµ":5497,"æ¸¡è¾º":5498,"ĠMix":5499,"ori":5500,"-)":5501,"ĠBer":5502,"ma":5503,"èĸ«":5504,"é¡ĺ":5505,"ĠçĦ¡æīĢå±ŀ":5506,"ĠãĤ¸ãĥ§ãĥ¼ãĤ¸":5507,"åºĥåŁŁåľı":5508,"åıİåħ¥":5509,"ãĥ¼ãĥĩãĥ³":5510,"ates":5511,"Ġå²¡å±±":5512,"ãĥ³ãĥ¡":5513,"å¢³":5514,"çĶ±æĿ¥":5515,"Ġç¦ıå³¶çľĮ":5516,"Ġun":5517,"ãĢħæ±ºåĭĿ":5518,"ãĥŃãĥ¼ãĥī":5519,"ution":5520,"æĿ±æµ·":5521,"çĽĬ":5522,"ãĥ©ãĤ¤ãĥĲãĥ¼":5523,"ãĤ¹ãĥ©":5524,"ĠèĩªçĶ±æ°ĳä¸»åħļ":5525,"ĠãĥĨãĥ¬ãĥĵæľĿæĹ¥":5526,"Ġdu":5527,"ÃŃ":5528,"Ġæ°Ĺ":5529,"na":5530,"Ġ300":5531,"ç¤İ":5532,"å¾ħ":5533,"ĠNEW":5534,"ĠMON":5535,"lection":5536,"Ġç³»":5537,"Ġç´Ħ":5538,"èĩ¨":5539,"YA":5540,"Ġé¹¿åħĲå³¶":5541,"åī²":5542,"çĮ«":5543,"Ġç´°":5544,"ãģ¾ãģŁ":5545,"æĹŃ":5546,"ille":5547,"åİŁå¸Ĥ":5548,"ĠAward":5549,"è¨ĵ":5550,"éł¼":5551,"æģµåŃĲ":5552,"ĠDE":5553,"ĠçĻ¾":5554,"Ġ1939":5555,"iver":5556,"ãģ®æ¯į":5557,"Ġãģĳ":5558,"rad":5559,"ĠFI":5560,"ãĥŀãĤ¹ãĤ¿ãĥ¼":5561,"Ġåºĥå³¶çľĮ":5562,"Ġæ¹¯":5563,"Ġå½¹åĲį":5564,"æļ®":5565,"ĠPubl":5566,"ãĥªãĤªãĥ³":5567,"å¥ıæĽ²":5568,"ĠãĤ¢ãĥĬ":5569,"åľ°ä¸ĭ":5570,"æĿ±æĹ¥æľ¬":5571,"æ£Ł":5572,"ĠSec":5573,"Ñģ":5574,"ãĤ´ãĥ¼ãĥ«":5575,"åĽ½éļĽç©ºæ¸¯":5576,"ãĤ¹ãĤ±":5577,"åĶĦ":5578,"Ġæĥħåł±":5579,"ĠéĿĻå²¡çľĮ":5580,"æģĴ":5581,"ano":5582,"ç´¹ä»ĭ":5583,"ãģĹãģį":5584,"ãĥ¯ãĤ¤ãĥĪ":5585,"æ¸¬":5586,"ĠæĬĢ":5587,"ĠâĨĲâĨĲâĨĲ":5588,"ãĥĥãĤº":5589,"ãĥĻãĤ¤":5590,"çĲĨåŃ¦":5591,"çµĮæŃ´":5592,"Ġhe":5593,"ãĢģãĢİ":5594,"Ġãĥıãĥ¼ãĥī":5595,"ĠME":5596,"ãĥ¼ãĥĪãĥ«":5597,"ĠâĨĲâĨĲâĨĲâĨĲ":5598,"æĩ":5599,"Ġvon":5600,"ãĥ³ãĥīãĥ³":5601,"å¹´çĶŁ":5602,"Ã³":5603,"Ġ(#":5604,"éĪ´":5605,"ãĥ¬ãĥ«":5606,"ãĥªãĤ³":5607,"1964":5608,"åįĥä»£":5609,"å£°åĦª":5610,"ĠãģĪ":5611,"UE":5612,"ãĥ©ãĥ¼ãĥª":5613,"èĩªæ²»ä½ĵ":5614,"ĠDav":5615,"åĲ«":5616,"å¯Ĩåº¦":5617,"ĠèªŃ":5618,"ĠãĢı":5619,"ĠåĬ©":5620,"ãĥ¬ãĥĥãĤ¯ãĤ¹":5621,"å«":5622,"ĠAT":5623,"ä¾Ŀ":5624,"£å·¥":5625,"ough":5626,"èĤī":5627,"Ġç£":5628,"ĠæĹ¥æĽľ":5629,"ä¿ĿèĤ²åľĴ":5630,"ĠèĬ¸":5631,"Ġ1930":5632,"\",":5633,"é§Ĵ":5634,"Ġæ£":5635,"ãģĬãģĭ":5636,"ĠæĦĽçŁ¥":5637,"ä»Ļåı°":5638,"ãĤ¬ãĥ¼ãĥ«":5639,"Ġè§Ĵå·Ŀ":5640,"site":5641,"ãģ¡ãĤĩãģĨ":5642,"åħ±åĲĮ":5643,"ĠSS":5644,"oph":5645,"åħ±èĳĹ":5646,"å¥³æĢ§":5647,"ãģĻãģ¿":5648,"ĠåŁ¼çİīçľĮ":5649,"Ġæ°ıåĲį":5650,"Ġç²":5651,"Ġé¦ĸ":5652,"è»Ĭäººåĵ¡":5653,"ãĤ¢ãĥĥãĥĹ":5654,"hip":5655,"çĽ®ãģ®":5656,"ĠÎ":5657,"äº¡":5658,"ĠãĥĽãĥ³ãĥĢ":5659,"ç·¨æĪĲ":5660,"æķĻå¸«":5661,"Ġ$":5662,"ãĥ³ãĤ±":5663,"ãĤ°ãĥ¬":5664,"ãĤ®ãĤ¿ãĥ¼":5665,"è£ģåĪ¤":5666,"çµĮçĶ±":5667,"Ġæºĸæ±ºåĭĿ":5668,"ä¼ĬèĹ¤":5669,"Ġéķ·éĩİçľĮ":5670,"æķĻä¼ļ":5671,"ĠBR":5672,"æľŃå¹Į":5673,"ype":5674,"ĠãĤ¦ãĥ«ãĥĪ":5675,"ux":5676,"Ġæ»Ŀ":5677,"ĠæĽ²":5678,"DER":5679,"ĠâĪĴ":5680,"åĥļ":5681,"ãģŁãģ¡ãģ®":5682,"ãĥĥãĥĨãĤ£":5683,"Ġä½":5684,"éĻ°":5685,"ãģĦãģĨ":5686,"ãĤ¤ãĥł":5687,"ji":5688,"å´ĩ":5689,"ĠMed":5690,"å»ºè¨Ń":5691,"ĠéĬ":5692,"Ġå±±ä¸ĭ":5693,"ĠBook":5694,"Ġé¬¼":5695,"ãĥĹãĥ¬ãĤ¤":5696,"è²«":5697,"ĠSw":5698,"ãĤ¹ãĤ¿ãĤ¸ãĤª":5699,"èĽ":5700,"Ġ101":5701,"æĸ°å®¿":5702,"å¹´ãģ«":5703,"å°ī":5704,"Ġéĥ½å¸Ĥ":5705,"ĠæŁı":5706,"OUND":5707,"ĠUS":5708,"Ġåħ¬éĸĭ":5709,"ĠRock":5710,"éĻĲå®ļçĽ¤":5711,"Ġä¸ŃåŃ¦æł¡":5712,"ãĤ¹ãĥĪãĥŃ":5713,"ene":5714,"AI":5715,"ember":5716,"éķ·èª¿":5717,"ãĥ³ãĤ¶":5718,"Ġ140":5719,"Ġ('''":5720,"rit":5721,"ãĤ°ãĥ©ãĥ³ãĥĹãĥª":5722,"eter":5723,"åĨĴéĻº":5724,"ãģĮãĤı":5725,"é£Ľè¡Į":5726,"ha":5727,"aka":5728,"è¥²":5729,"Ġpl":5730,"Ġpr":5731,"ãĥįãĥŀ":5732,"Ġãĥ¡ãĥ³ãĥĲãĥ¼":5733,"Ġå°ıåŃ¦æł¡":5734,"Ġå¤§åŃ¦":5735,"1963":5736,"ãĤ³ãĥ¼ãĥģ":5737,"Ġå²¸":5738,"thãĤ·ãĥ³ãĤ°ãĥ«":5739,"Ġçģ«æĽľ":5740,"Ġcl":5741,"ĠIII":5742,"ãģ¯ãĤī":5743,"Ġå°ıèª¬":5744,"ĠãĥįãĥĥãĥĪ":5745,"ãĥĬãĥł":5746,"ated":5747,"ERO":5748,"ç´«":5749,"ĠèĹ¤çĶ°":5750,"æĮĩå°İ":5751,"åĮºç«ĭ":5752,"OWN":5753,"ãĤ¤ãĥ¬":5754,"ourn":5755,"Ġåĩºæ¼ĶèĢħ":5756,"Ġãĥīãĥ©ãĥł":5757,"ãģ§ãģĻ":5758,"éĽ»éīĦ":5759,"ĠAnniversary":5760,"è§£èª¬":5761,"ĠWORLD":5762,"ĠTr":5763,"ãĥĲãĥ³ãĤ¯":5764,"ãĤ¢ãĥ©":5765,"Ġãĥªãĥ¼ãĤ°":5766,"ãģ®äºº":5767,"ĠAss":5768,"Ġ500":5769,"ãĤ°ãĥ©ãĥł":5770,"PC":5771,"ãĤĨãģ¿":5772,"å¿«":5773,"ãģ®æŃĮ":5774,"ãĥ¼ãĥłãĤº":5775,"Ġæ°´æĽľ":5776,"Ġse":5777,"now":5778,"Ġsp":5779,"ãģ«åıİéĮ²":5780,"ĠDJ":5781,"æĹ¥å¹³åĿĩ":5782,"ĠGIR":5783,"æŁĵ":5784,"å¥½ãģį":5785,"Un":5786,"Ġx":5787,"åĭ¤":5788,"BL":5789,"ĠPe":5790,"reet":5791,"åĬ´åĥį":5792,"åĬłèĹ¤":5793,"çīĽ":5794,"Ġå±±æ¢¨":5795,"ĠHigh":5796,"ãĥķãĤ£ãĤ·ãĥ£ãĥ«":5797,"ĠçĿ":5798,"è¾²æ¥Ń":5799,"Ġç¾¤é¦¬":5800,"ãĤµãĥ³ãĥī":5801,"ãĤ¨ãĥĨãĤ£":5802,"ĠçŃĳ":5803,"Ġä¿³åĦª":5804,"Ġå¿ĥ":5805,"ondon":5806,"Ġå¹¸":5807,"INAL":5808,"æĽ½":5809,"ãĥŀãĤ¯":5810,"ãĥ³ãĥĿ":5811,"inn":5812,"ãģ«éĸ¢":5813,"ãĥŁãĥį":5814,"çĲ´":5815,"ci":5816,"Ġ1936":5817,"ĠUN":5818,"²å¾Ĺ":5819,"ĠBro":5820,"æ¼ģ":5821,"ĠåĪĳäºĭ":5822,"120":5823,"ger":5824,"éĸ¢è¥¿":5825,"Ġä¸Ńå³¶":5826,"å¤§æ©ĭ":5827,"ĠPre":5828,"Ġ130":5829,"CK":5830,"ãģ®æ£®":5831,"éĽ£":5832,"Ġæµģ":5833,"ĠãĥĨãĥ¬ãĥĵæĺłçĶ»":5834,"ĠDisc":5835,"æĹ¥ãģ®":5836,"ãĥĩãĥ¥ãĥ¼ãĤ¹":5837,"oot":5838,"Ġæĸ°å®¿":5839,"ole":5840,"Ġè¾²":5841,"ĠãĥŀãĤ¤ãĤ±ãĥ«":5842,"Ġdi":5843,"åĴĮçĶ°":5844,"ãĥŁãĤ¹ãĥĨ":5845,"ãĥ¬ãĤ¯ãĤ¿ãĥ¼":5846,"IME":5847,"Ġèµ·":5848,"Ġç¯ł":5849,"ird":5850,"åķĨæ¥Ń":5851,"éĿ¢ç©į":5852,"ĠåĪ©çĶ¨çĬ¶æ³ģ":5853,"ford":5854,"ĠãĥĪãĥ¨ãĤ¿":5855,"ãģ§ãĤĤ":5856,"ãĥİãĥ¼":5857,"æľĿæĹ¥æĶ¾éĢģ":5858,"Ġå°Ĥ":5859,"Ġen":5860,"ãĤ¢ãĥĬãĤ¦ãĥ³ãĤµãĥ¼":5861,"åħ«å¹¡":5862,"ĠåĴĮæŃĮ":5863,"line":5864,"1959":5865,"èĭ±ç¤¾":5866,"ãĤ¨ãĤ¢":5867,"ISO":5868,"ãĥķãĤ¡ãĥ³":5869,"ĠäºĢ":5870,"Ġåħµåº«çľĮ":5871,"ĠæĽ¸ç±į":5872,"Ġåı¸":5873,"ãĤ¢ãĥ³ãĥī":5874,"ãģĵãĤį":5875,"ãĤ¸ãĥ¥ãĥĭãĤ¢":5876,"æįķ":5877,"Ġèº«éķ·":5878,"ãĤ¹ãĤŃãĥ¼":5879,"Ġå½¢":5880,"Ġ1937":5881,"èĩªè¡ĽéļĬ":5882,"ĠåĨĻ":5883,"æ¡Ĥ":5884,"ħæ®º":5885,"è£ħç½®":5886,"101":5887,"Ġåįļ":5888,"ĠDF":5889,"ãĤĮãģ¦":5890,"å·¥äºĭ":5891,"èĢħãģ®":5892,"ãģĶãģ¨":5893,"ä¸Ńç¶Ļ":5894,"ĠãĤ®ãĤ¿ãĥ¼":5895,"ãĥģãĥ£ãĥ³":5896,"ç¢º":5897,"ĠCR":5898,"åı¯èĥ½":5899,"ãģįæĽ¿ãģĪ":5900,"Ġé³":5901,"åĬ¹æŀľ":5902,"ĠçŁ¥":5903,"è£ı":5904,"ĠçµĦ":5905,"sp":5906,"è¦ĩ":5907,"Ġä¸Ńéĩİ":5908,"1962":5909,"åĢĭ":5910,"âĢľ":5911,"Ġå®¶æĹı":5912,"ãĥĲãĥĪãĥ«":5913,"Ġæĸ°æ½ŁçľĮ":5914,"ãĥīãĥŃ":5915,"DR":5916,"ãĥ¢ãĥª":5917,"Ġè¿ĳçķ¿":5918,"ãĤ¿ãĤ¦ãĥ³":5919,"ism":5920,"åĭĿåĪ©":5921,"NA":5922,"Ġä¸īèı±":5923,"ç§ĳå¤§åŃ¦":5924,"ĠRE":5925,"çİĭåº§":5926,"ĠGre":5927,"âĢł":5928,"ãĤ¯ãĥ©ãĤ¤":5929,"ĠãģĭãĤī":5930,"Ġæ¤į":5931,"Ġå°±":5932,"ACE":5933,"ç«ĭãģ¡":5934,"ãĥİãĥ³":5935,"awa":5936,"ĠçĻ»":5937,"ĠIDOLM":5938,"WE":5939,"ĠãĥĿãĥ¼ãĥ«":5940,"ãģ©ãĤĬ":5941,"¿åħ¥":5942,"ĠFESTIVAL":5943,"chen":5944,"ĠSchool":5945,"åĭķçī©":5946,"ãĥ¼ãĥĭãĥ³ãĤ°":5947,"çĳŀ":5948,"çļĦãģª":5949,"èĢħæķ°":5950,"åĨħéĸ£":5951,"TE":5952,"ãĥľãĥĥãĥĪ":5953,"ĠãĤªãĥ¼ãĥĹ":5954,"ãĥĲãĥ¬":5955,"ĠèĪªç©º":5956,"ĠCS":5957,"any":5958,"be":5959,"ãĥĿãĥ¼ãĥ«":5960,"Ġå¹´é½¢":5961,"ª¨":5962,"è©¦é¨ĵ":5963,"ãģķãĤĮãģ¦ãģĦãĤĭ":5964,"å·ĿçĶº":5965,"Ġãģ©":5966,"æĥĳæĺŁ":5967,"Ġ1932":5968,"DJ":5969,"aby":5970,"ç¦ģ":5971,"ä¼ļåł´":5972,"ãģĹãĤĥ":5973,"ĠBlu":5974,"åľŁæĽľ":5975,"å¹´é½¢":5976,"ç·¨åħ¥":5977,"ĠæĹŃ":5978,"ĠMC":5979,"èĦ±":5980,"ãĥ§ãĤ¦":5981,"Ġåĭķ":5982,"ĠDo":5983,"ĠEv":5984,"åºģèĪİ":5985,"ãĥıãĥ¼ãĥĪ":5986,"ĠéĽª":5987,"åĽŀæķ°":5988,"ãĤ¸ãĥĥãĥĪ":5989,"Ġæ¡ĥ":5990,"ĠæķĹ":5991,"å´İå¸Ĥ":5992,"ãĥ¬ãĤ³ãĥ¼ãĥī":5993,"åħ«æ®µ":5994,"epp":5995,"åŃ¦é¤¨":5996,"ãĥ³ãĤ®":5997,"ĠãĥĽãĥ¼ãĥł":5998,"ĠçłĶ":5999,"ĠHeart":6000,"Ġä»¥":6001,"ãģĻãģĳ":6002,"ãģ½":6003,"ISC":6004,"Ġ1935":6005,"ĠGuitar":6006,"åħŃæ®µ":6007,"éĻ£":6008,"ĠæľĢåĦªç§Ģ":6009,"Ġä¹ħä¿Ŀ":6010,"èĥĮ":6011,"éĻµ":6012,"ãĥĹãĥ¬ãĥŁãĤ¢ãĥł":6013,"ĠãĤªãĥĸ":6014,"æģ¯":6015,"ĠFOR":6016,"Ġéĺ¿éĥ¨":6017,"ĠAS":6018,"Ð¾Ð":6019,"ãĥ¡ãĥ¼ãĤ¸":6020,"ĠãĥĻãĥ¼ãĤ¹":6021,"åİŁé¡Į":6022,"Ġçħ":6023,"Ġ1934":6024,"æŃ³æľªæºĢ":6025,"äºĭæ¥ŃæīĢ":6026,"ĠåĽ½ç±į":6027,"æĿ±å®Ŀ":6028,"ãĥ³ãĥŀãĥ³":6029,"Ġ1931":6030,"ĠTokyo":6031,"ĠéŁĵåĽ½":6032,"ĠéĿĴæľ¨":6033,"ĠåįĥèĳīçľĮ":6034,"æ¥½æĽ²":6035,"uz":6036,"ĠMY":6037,"Ġè¦ª":6038,"ãĥ¼ãĥŁãĥĬãĥ«":6039,"ãģ®åĩºæ¼Ķ":6040,"çĶŁçĶ£":6041,"ãĥ¼ãĤ¸ãĥ§ãĥ³":6042,"Ġä»ģ":6043,"ç¨²çĶ°":6044,"ä¸Ī":6045,"TOKYO":6046,"ĠçĨ±":6047,"æĻºåŃĲ":6048,"Ġå®®åŁİçľĮ":6049,"Ġå¤§éĩİ":6050,"ĠæĤª":6051,"ĠçĤ":6052,"æĹ¥è¨ĺ":6053,"æĺĵ":6054,"ãĤ¸ãĥ£ãĥĳãĥ³":6055,"Ph":6056,"Ġ1933":6057,"å·Ŀé§ħ":6058,"Ġé¡":6059,"è©³":6060,"å¤©ä½¿":6061,"ring":6062,"ãģ·":6063,"ĠNational":6064,"ĠDon":6065,"çıł":6066,"ãģłãģĦ":6067,"è£½éĢł":6068,"èª²ç¨ĭ":6069,"ãĥĨãĤ£ãĥĸ":6070,"ĠGP":6071,"æĮĩæı®":6072,"ãĥ¼ãĤ·ãĥ§":6073,"ãģĺãĤĥ":6074,"aster":6075,"Ġ1920":6076,"ĠRep":6077,"Ġæ²¢":6078,"ãĥ³ãĥ¢":6079,"chn":6080,"Ġè©±":6081,"æĹ¥æĽľ":6082,"Ġå·¨":6083,"ĠéĿŀ":6084,"ĠãĤ¨ãĥ¬":6085,"ĠçŁŃ":6086,"ãģĭãĤĵ":6087,"ãģ®æŃ´åı²":6088,"ç¥ŀå¥Ī":6089,"åĢĭäºº":6090,"éĭ¼":6091,"700":6092,"Ġex":6093,"els":6094,"ĠéĽĨ":6095,"ãģ¾ãģĻ":6096,"æĻĤãģ®":6097,"REAM":6098,"ĠèĢ":6099,"ody":6100,"ĠLA":6101,"oe":6102,"QU":6103,"éīĦéģĵé§ħ":6104,"ĠSing":6105,"è®":6106,"ĠSpecial":6107,"ãĥ³ãĥĮ":6108,"the":6109,"ĠUP":6110,"BM":6111,"ãĥ«ãĥĢ":6112,"Ġ1929":6113,"Ġæħ¶":6114,"Ġè¿ĳèĹ¤":6115,"èĪŀåı°":6116,"ãĤ¹ãĤ¿ãĤ¸ãĤ¢ãĥł":6117,"ces":6118,"å¸¸çĽ¤":6119,"Ġ1938":6120,"Ġçį":6121,"å¾ģ":6122,"ĠÂ":6123,"ãĥªãĥ¼ãĥĪ":6124,"çĶ°çľŁ":6125,"èĨ":6126,"Ġar":6127,"å±±é§ħ":6128,"Ġweb":6129,"Ġé§ħæ§ĭéĢł":6130,"150":6131,"½é¤¨":6132,"Ġãĥķãĥ¬":6133,"è¬Ľè«ĩç¤¾":6134,"ĠCOL":6135,"ãĥ«ãĥ¼":6136,"ĠMi":6137,"con":6138,"èŃĺ":6139,"é³´":6140,"Ġæ³ī":6141,"ĠãĤ°ãĥ¬":6142,"ä¸ĥæ®µ":6143,"å¾Ħ":6144,"å¤ªéĻ½":6145,"ãĤ¸ãĤ§ãĤ¯ãĥĪ":6146,"ãĥ«ãĥĪãĥ³":6147,"ĠCont":6148,"ãĤ¢ãĤŃ":6149,"ãĥ¼ãĥĨãĤ£ãĤ¹ãĥĪ":6150,"Live":6151,"ãģ¨ãģª":6152,"Ġé³¥åıĸ":6153,"ÑĤ":6154,"ãģķãģıãĤī":6155,"åĦªè³ŀ":6156,"ĠRad":6157,"ãĥĽãĥ¼ãĥłãĥļãĥ¼ãĤ¸":6158,"ãĥ¯ãĥ¼ãĤ¯":6159,"ĠåĨĻçľŁ":6160,"ãĥ¼ãĥįãĥĥãĥĪ":6161,"ĠèĦ":6162,"OWER":6163,"Ġä¸īæµ¦":6164,"åĲ¹æĽ¿":6165,"ĠãĤªãĥ¼ãĤ¹ãĥĪ":6166,"Ġ112":6167,"DE":6168,"åĹ":6169,"èŃľ":6170,"åĳ¨å¹´è¨ĺå¿µ":6171,"ube":6172,"éĩİæīĭ":6173,"æ°´æºĸ":6174,"ãģ®å¤īéģ·":6175,"æ¡ĳ":6176,"ĠNO":6177,"èİī":6178,"Pl":6179,"ãĤ¢ãĥł":6180,"ä¸Ńãģ®":6181,"ĠèĻ":6182,"ĠPark":6183,"ãĥŃãĥ¼ãĤº":6184,"æľ¬ç¤¾":6185,"Ġé§ħåĳ¨è¾º":6186,"Ġå¾Ĺç¥¨":6187,"éĨ":6188,"TD":6189,"ĠãĥŁãĥĭ":6190,"Ġ1928":6191,"å®¶ãģ®":6192,"Ġ111":6193,"ãĤ»ãĤ¤":6194,"Ġæł¹":6195,"ĠVersion":6196,"è¡¨è¨ĺ":6197,"ĠOut":6198,"æľĭ":6199,"çµĲå©ļ":6200,"ny":6201,"AV":6202,"ãĥŃãĤ°":6203,"%)":6204,"ãģ®ä¸Ģéĥ¨":6205,"ä¸Ĭãģ®":6206,"ĠåĽŀ":6207,"Ġå°ıå·Ŀ":6208,"ĠChe":6209,"ãĥĳãĥ¼ãĥĪ":6210,"éŃĶæ³ķ":6211,"æ¦":6212,"åĢ¶":6213,"ãĥĸãĤµãĤ¤ãĥĪ":6214,"åħį":6215,"Ġéļ£ãģ®é§ħ":6216,"Ġç¹":6217,"å·¥åŃ¦":6218,"ãĥ¼ãĤ¸ãĥ£":6219,"èī²ãģ®":6220,"å¥³ãģ®":6221,"other":6222,"ĠåıĤèĢĥ":6223,"Ġäº¤":6224,"AMA":6225,"çĭ©":6226,"ury":6227,"æķĻå®¤":6228,"åľ§":6229,"ãĥĭãĤ¨ãĥ«":6230,"ĠåĲįç§°":6231,"ãĤ¯ãĥŃãĤ¹":6232,"çĽĹ":6233,"ãĥŀãĥį":6234,"ush":6235,"èį·":6236,"æĿ±åĮĹ":6237,"KY":6238,"ãĥ©ãĥªãĤ¢":6239,"Ġâĺ":6240,"oup":6241,"ãĥ¼ãĥģãĤ§":6242,"ãĥ³ãĤ°ãĤ¹":6243,"ĠAmerican":6244,"ãĤ¨ãĥł":6245,"ä¼ı":6246,"ç§ĺå¯Ĩ":6247,"åķĨåºĹ":6248,"ãĥ©ãĥ³ãĥĢ":6249,"Ġãģ¾ãģŁ":6250,"ãģłãģĳ":6251,"ĠDes":6252,"è¨Ńè¨Ī":6253,"weet":6254,"Ġåħ¨éķ·":6255,"ĠçŁ³äºķ":6256,"lex":6257,"ç·¨èĳĹ":6258,"æ¡Ĳ":6259,"''':":6260,"Ġim":6261,"çľŀ":6262,"ãĥ³ãĤ¸ãĥ£":6263,"ĠæĶ¾éĢģæĻĤéĸĵ":6264,"ãĥŁãĥ³":6265,"æ¢°":6266,"Ġ105":6267,"Ġè¶³":6268,"Ġè¶Ĭ":6269,"Mar":6270,"ures":6271,"æĹ¥å¸Ĥ":6272,"ĠBlack":6273,"NS":6274,"è»Ĵ":6275,"Ġ''''":6276,"æľ¨æĿĳ":6277,"ĠCounty":6278,"Ġä¸Ńäº¬":6279,"åĥķ":6280,"ĠCL":6281,"çĭ¼":6282,"ĠPS":6283,"ĠãĤ¢ãĥª":6284,"Ġæ¥½æĽ²":6285,"Ġå¾ĮèĹ¤":6286,"ĠNe":6287,"åĲĪè¡ĨåĽ½":6288,"ãĥĢãĥ³ãĤ¹":6289,"äºķä¸Ĭ":6290,"ĠEm":6291,"ĠHol":6292,"ä¸Ģéĥ¨":6293,"çĽ£ä¿®":6294,"ius":6295,"Ġ04":6296,"ĠAM":6297,"ume":6298,"æľĢçµĤ":6299,"å¾ĵ":6300,"é´":6301,"éĢ£éļĬ":6302,"ãĥ¼ãĥ¬ãĥ³":6303,"ĠéĤ¦":6304,"ãĥªãĥĥãĥĹ":6305,"ãģ£ãģ¡":6306,"æī¿":6307,"æŃ¯":6308,"TC":6309,"Ġ115":6310,"ãĥķãĤ¡ãĥ¼":6311,"æĸ¹æ³ķ":6312,"1000":6313,"aki":6314,"åĽĽä¸ģçĽ®":6315,"åŃ¦éĻ¢å¤§åŃ¦":6316,"ãĤ¨ãĤ¤":6317,"Ġæĸ¹":6318,"ĠãĥĩãĤ¸ãĤ¿ãĥ«":6319,"New":6320,"èŀį":6321,"åħ¨éĽĨ":6322,"Ġãĥ¨ãĥ¼ãĥŃãĥĥãĥĳ":6323,"ħãĤĮ":6324,"éĽĢ":6325,"erry":6326,"ific":6327,"Ġæĸİ":6328,"æ´¥å¸Ĥ":6329,"ĠéŁ³éŁ¿":6330,"ãĥ¬ãĤ®ãĥ¥ãĥ©ãĥ¼":6331,"ä¿º":6332,"ãĥ¯ãĤ¤ãĥī":6333,"Ġau":6334,"ãģŁãģĳ":6335,"ãĤĴåıĤçħ§":6336,"åħ¨åĽ½":6337,"å°ĤçĶ¨":6338,"Ġè©ķ":6339,"ãĥĥãĥı":6340,"ãĤ¿ãĥ¬ãĥ³ãĥĪ":6341,"ĠAng":6342,"å¦Ĥ":6343,"Ġå°ıçĶ°":6344,"HP":6345,"ĠåĶ":6346,"ç¨Ķ":6347,"ãĥ³ãĤŃãĥ³ãĤ°":6348,"Ġãģĺ":6349,"Ġå®¤":6350,"Ġå®Ĺ":6351,"ãĤ¯ãĤ¤":6352,"ä¼´":6353,"âĢķ":6354,"rop":6355,"ĠFW":6356,"ĠOR":6357,"Ġå²¡çĶ°":6358,"Love":6359,"Ġæ½":6360,"åŃ«":6361,"åĨĬ":6362,"ĠSun":6363,"æĽ¸ç±į":6364,"ĠPART":6365,"ĠæĻ®éĢļ":6366,"åĭķæĪ¦å£«":6367,"ĠAV":6368,"è¡ĨèŃ°éĻ¢èŃ°åĵ¡":6369,"ãĥĲãĥ³ãĥī":6370,"ĠBlue":6371,"ä¸¦":6372,"OME":6373,"æ½®ç¤¾":6374,"ĠÃ":6375,"1958":6376,"ãģ¾ãģ¡":6377,"Ġ**:":6378,"èįĴ":6379,"ä»®":6380,"ady":6381,"ĠCor":6382,"ĠæĶ¹":6383,"ãģļãģ¿":6384,"ĠæĿĳä¸Ĭ":6385,"Ġè¼":6386,"æľĪæĽľ":6387,"ãģ¾ãģķ":6388,"Ġè¥¿æĿĳ":6389,"Ġæ¨ªå±±":6390,"åĲĮä¸Ĭ":6391,"ãĥĨãĥĥãĥī":6392,"æ¢Ŀ":6393,"Ġ102":6394,"çĵ":6395,"ĠREC":6396,"ãĤ¹ãĥŀ":6397,"ĠRemix":6398,"ãģĿãģĨ":6399,"çķªåľ°":6400,"¿åħ¥æŃĮ":6401,"ĠãĤµãĥ³":6402,"ãĤ¸ãĥ«":6403,"Ġåħ¨æĹ¥æľ¬":6404,"ĠãĤ¤ãĥĻãĥ³ãĥĪ":6405,"çİĭåĽ½":6406,"ĠåĿĤæľ¬":6407,"KE":6408,"De":6409,"åħĥãĥĹãĥŃéĩİçĲĥéģ¸æīĭ":6410,"Ġéħįä¿¡":6411,"èĩªçĦ¶":6412,"å°Ĩè»į":6413,"ĠNot":6414,"ael":6415,"éĸ¢ä¿ĤèĢħ":6416,"Ġãĥīãĥ©ãĥŀCD":6417,"Ġãģ®ãĤĬãģ°":6418,"ena":6419,"å³¶å¸Ĥ":6420,"ears":6421,"Ġä½¿çĶ¨":6422,"ãģĭãĤĭ":6423,"ĠéģłèĹ¤":6424,"ãĤīãģĹ":6425,"ield":6426,"ç·łå½¹":6427,"Ġåİ":6428,"eph":6429,"é«ĺéĢŁéģĵè·¯":6430,"GM":6431,"æī±":6432,"ãĥ³ãĥģãĤ§":6433,"mi":6434,"ello":6435,"Ġ113":6436,"èªķçĶŁ":6437,"è¨ĺäºĭ":6438,"Ġçī§":6439,"Ġ103":6440,"1600":6441,"ĠæºĸãĢħæ±ºåĭĿ":6442,"é·¹":6443,"åħĥåīį":6444,")ãĢı":6445,"Ġãģªãģ©":6446,"CTION":6447,"çī¹åħ¸":6448,"fl":6449,"éľ²":6450,"Ġ114":6451,"ãĤ°ãĥ«":6452,"ĠãĤ¹ãĥĳ":6453,"æ»ħåį±":6454,"Ġft":6455,"æĸ°è¨Ń":6456,"ãĥ«ãĥĨãĤ£":6457,"ãģ¿ãģ¤":6458,"æľŁå¤§åŃ¦":6459,"æ³ķå¾ĭ":6460,"å¢ĵ":6461,"éĸ¢éĢ£æĽ²":6462,"ĠWindows":6463,"å®ļæľŁ":6464,"Station":6465,"åŁºåľ°":6466,"KO":6467,"Be":6468,"æĥ§":6469,"ãĥ¢ãĤ¹":6470,"ANCE":6471,"ĠãĤ¦ãĤ£ãĥªãĤ¢ãĥł":6472,"åŁ¼çİī":6473,"åģ¥ä¸Ģ":6474,"ç¥ŃãĤĬ":6475,"çĶ±ç¾İ":6476,"Ġ09":6477,"çİĦ":6478,"çŃĭ":6479,"Ġåĳ¨è¾º":6480,"ãĥĬãĥ³":6481,"Ġå¾ĵ":6482,"ãĥ³ãĥķãĤ©":6483,"æ»ħåį±æĥ§":6484,"PA":6485,"ĠSUPER":6486,"ãĢĶ":6487,"ãĤĤãĤĬ":6488,"Ġ250":6489,"éĩĳæĽľ":6490,"ival":6491,"åĭķçĶ»":6492,"ĠTH":6493,"ãĥ«ãĥĲ":6494,"ãģ¿ãĤĦ":6495,"board":6496,"æĸ°æĽ¸":6497,"éīĦéģĵé§ħä¸Ģè¦§":6498,"LOVE":6499,"æ±ºå®ļæĪ¦":6500,"ãĤ¦ãĥĥãĥī":6501,"ĠãĥŃãĤ·ãĤ¢":6502,"hel":6503,"ATE":6504,"ĠProject":6505,"off":6506,"ĠæĿ¿":6507,"ãĥ³ãĥĪãĥªãĥ¼":6508,"åĲįãģª":6509,"ĠLondon":6510,"Ġä»»":6511,"çµĦç¹Ķ":6512,"ãģ»ãģĭ":6513,"CO":6514,"çĥ":6515,"ĠãĤ³ãĥŃ":6516,"äºĶæ®µ":6517,"Ġ116":6518,"åŁ·":6519,"èŃ·å£«":6520,"ima":6521,"ĠæľĿæĹ¥":6522,"MB":6523,"Ġ1927":6524,"ĠãĤ¸ãĥ£ãĥĥãĤ¯":6525,"Ġé«ĺçĶ°":6526,"ãĥ©ãĤ¤ãĤº":6527,"ĠMod":6528,"ĠåŃĹ":6529,"è¸Ĭ":6530,"å®®å´İ":6531,"åĽ£æ³ķäºº":6532,"Ġè¾»":6533,"ĠRed":6534,"ãĤ³ãĥ¬ãĤ¯ãĤ·ãĥ§ãĥ³":6535,"ãĥ¨ãĥ³":6536,"ãģ«éĸ¢ãģĻãĤĭ":6537,"ãģ¤ãģĭ":6538,"ĠçĿĢ":6539,"ilm":6540,"ãģ«ãĤĤ":6541,"ision":6542,"ĠéĤ£":6543,"éļ»":6544,"ãģĪãģŁ":6545,"Ġshift":6546,"åĢ¶æ¥½éĥ¨":6547,"åĨħãģ®":6548,"ORY":6549,"ada":6550,"ĠãĥĨãĥ¬ãĥĵæĿ±äº¬":6551,"æ²ĸç¸Ħ":6552,"æ¯ħ":6553,"ãĥľãĥ¼ãĤ«ãĥ«":6554,"Ġãĥ¬ãĥ¼ãĥĻãĥ«":6555,"ĠéĸĢ":6556,"Ġåıĭ":6557,"ãĥ¦ãĥ¼ãĤ¹":6558,"ãģªãģĮ":6559,"ĠInt":6560,"He":6561,"ãĥ©ãĤ¤ãĤ¢ãĥ³":6562,"urg":6563,"ãĥ¼ãĥªãĥ³ãĤ°":6564,"æµ®":6565,"Ġ1925":6566,"ä¸»é¡ĮæŃĮ":6567,"Ġ...":6568,"900":6569,"Ġ07":6570,"ling":6571,"éĸ¢æĿ±":6572,"è²Ŀ":6573,"ĠçĶ£":6574,"Ġ125":6575,"You":6576,"Ġæİ¥":6577,"ãĤ¢ãĥī":6578,"éĩİæĿĳ":6579,"ĠãĤ¢ãĥ¬ãĤ¯":6580,"ĠOS":6581,"ĠSci":6582,"ĠSystem":6583,"ãĤ¨ãĥ¬":6584,"ãĤ¢ãĤ¯ãĤ»ãĤ¹":6585,"ISS":6586,"ĠInc":6587,"ãĤ¯ãĤµ":6588,"æ®ĭ":6589,"æĸĻçĲĨ":6590,"Ġæ¡Ĳ":6591,"åİŁä½ľ":6592,"éİ®":6593,"Ġé£Ł":6594,"ãĥ¼ãĥŀãĤ¹":6595,"Ġéĩĳæ²¢":6596,"æİ¨ç§»":6597,"itch":6598,"ãĢĭ":6599,"ãĥ»ãĥ»":6600,"ĠæľĢå¤§":6601,"YS":6602,"Ġå²¡å±±çľĮ":6603,"å²¡å¸Ĥ":6604,"å¹³æ´ĭ":6605,"è½":6606,"1957":6607,"Ġ|":6608,"ãĥ¼ãĥģãĥ£":6609,"ãĤ¢ãĥ¼ãĥĪ":6610,"æĻĭ":6611,"Ġãĥ¯ãĥ¼ãĥ«ãĥī":6612,"æĬķæīĭ":6613,"ãĥľãĥ¼":6614,"ĠåħĪ":6615,"ä¾į":6616,"Ġç®¡":6617,"!ãĢı":6618,"ĠSl":6619,"æĸĲ":6620,"Ġcon":6621,"ĠçĶŁå¹´":6622,"ãĤĦãģĭ":6623,"CS":6624,"æł¡èĪİ":6625,"Ġ08":6626,"ãĤ¹ãĥĿ":6627,"ato":6628,"ĠãĤ¸ãĥ£ãĥ³":6629,"æŁı":6630,"1956":6631,"ãĤ¯ãĥªãĤ¹":6632,"ĠUSA":6633,"èĿ":6634,"ĠBack":6635,"ĠVocal":6636,"ãĤ¹ãĥŃ":6637,"Ġ06":6638,"ãĤĨãĤĬ":6639,"ãĤ·ãĤª":6640,"une":6641,"ãĥ«ãĥ³":6642,"ãĥŁãĥ¥ãĥĭ":6643,"ĠFL":6644,"éĿĴæĺ¥":6645,"(''":6646,"ĠãĤªãĥı":6647,"æĮ¯èĪĪ":6648,"ĠPL":6649,"IZ":6650,"å²Ĳéĺľ":6651,"Ġè¨Ī":6652,"ator":6653,"ĠçŁ³å·ĿçľĮ":6654,"ãģĽãĤĵ":6655,"ãģ®ãĤ«":6656,"éĥ¨å±ĭ":6657,"ĠBOX":6658,"åºĥåł´":6659,"Ġ117":6660,"ĳæĪ¦":6661,"åŃ¦åĮº":6662,"Ġé¨":6663,"ĠæĶ¿æ²»":6664,"ä¸ĢèĪ¬":6665,"ãģĪãģ¦":6666,"ero":6667,"åĵ²ä¹Ł":6668,"éłĪè³Ģ":6669,"ural":6670,"ĠVideo":6671,"Ġèª¿":6672,"ãĥľãĥ³":6673,"ĠæłĦ":6674,"ãģįãģ®":6675,"('''":6676,"ĠHD":6677,"åıĪ":6678,"è¡Ĺéģĵ":6679,"Ġè©±æķ°":6680,"ãģĦãģĦ":6681,"åĮĸåŃ¦":6682,"èıħ":6683,"æĹ¬":6684,"Ġæ¦":6685,"ãĥ¬ãĥ¼ãĤ¿ãĥ¼":6686,"ĠSM":6687,"Ġä¼ļåł´":6688,"å·ĿæĿĳ":6689,"ICE":6690,"Ġä¸ģ":6691,"ĠED":6692,"ĠéĿĴå±±":6693,"âĹİ":6694,"ĠãĤģ":6695,"URE":6696,"ĠHE":6697,"ĠãĤ·ãĤ§":6698,"åįĶåĲĮ":6699,"éĥ¨éļĬ":6700,"MHz":6701,"ĠæĸīèĹ¤":6702,"Ġé«ĺæĿ¾":6703,"æĿı":6704,"ãĥ¼ãĤ¸ãĥ¥":6705,"ĠMX":6706,"èľ":6707,"è«¸å³¶":6708,"cle":6709,"ãĤģãĤĭ":6710,"ãĥ³ãĤ¦":6711,"çŁ³å·Ŀ":6712,"å¸ĸ":6713,"çµĮåĸ¶":6714,"æ©Łèĥ½":6715,"Ġé·":6716,"å¹´éłĥ":6717,"gram":6718,"ĠãĥĶãĤ¢":6719,"ãĥĸãĥĥãĤ¯":6720,"ãĤ¢ãĥĹãĥª":6721,"ãĥ´ãĤ¡ãĥ³":6722,"CL":6723,"ĠçŁ³çĶ°":6724,"ty":6725,"Ġåĥ":6726,"ãĥ³ãĥªãĥ¼":6727,"AF":6728,"ãģ±":6729,"ĠBoy":6730,"riend":6731,"ãģ®åĲį":6732,"ãģ«ãģªãĤĭ":6733,"Ġãĥķãĥ©ãĥ³ãĤ¯":6734,"ĠçĶ°æĿĳ":6735,"éª¨":6736,"ĠBL":6737,"ãĥķãĤ£ãĤ¢":6738,"1955":6739,"ĠAf":6740,"æ½ľ":6741,"ĠKing":6742,"çĽ´æ¨¹":6743,"Ġ05":6744,"ĠãĥĲãĥ©":6745,"ola":6746,"ä¹ĭä»ĭ":6747,"ĠTeam":6748,"ãĤ¹ãĥ«":6749,"Ġ1926":6750,"ãģ®çĪ¶":6751,"ãĥ¼ãĥĿ":6752,"çªĵ":6753,"ãĥ¶ä¸ĺ":6754,"Ġãģ®ãģ¡æĸĩåº«":6755,"Ġé¹¿åħĲå³¶çľĮ":6756,"å¸Ĥå½¹æīĢ":6757,"åĪ©çĶ¨":6758,"èĭ±éĽĦ":6759,"Ġå»ĥæŃ¢":6760,"ãĤĬãĤĵ":6761,"çĶŁåĳ½":6762,"åĴĮæŃĮ":6763,"ĠãĥĪãĥł":6764,"ç¯¤":6765,"erson":6766,"ç®±":6767,"Ġ1924":6768,"AKA":6769,"Ġä»®éĿ¢ãĥ©ãĤ¤ãĥĢ":6770,"²è¼ī":6771,"æļģ":6772,"å¥³åĦªè³ŀ":6773,"ĠBo":6774,"ĠMOV":6775,"ĠãĤ¨ãĥī":6776,"Ġå¤§å¡ļ":6777,"125":6778,"ĠãĤ¤ãĤ¿ãĥªãĤ¢":6779,"ĠGood":6780,"KI":6781,"Ġäº¬éĥ½åºľ":6782,"ãĤ¨ãĥ³ãĤ¿":6783,"ãĤ¢ãĥ¡ãĥªãĤ«ãĥ³":6784,"åĩºèº«ãģ®äººçī©ä¸Ģè¦§":6785,"æķµ":6786,"è¥¿æĹ¥æľ¬":6787,"ãģıãĤĭ":6788,"ĠæĹħ":6789,"Ġå¯Įå±±":6790,"Ġç¬ł":6791,"sch":6792,"hes":6793,"Ġå¤ªçĶ°":6794,"Ġæ¬¡":6795,"ĠãĥŃãĥĲãĥ¼ãĥĪ":6796,"ĠãĥĲãĤ¤":6797,"è¡Įæľ¬":6798,"ç§»è»¢":6799,"ĠèĲ½":6800,"æ°·":6801,"è¦ĸåºģ":6802,"ĠJe":6803,"Ġ118":6804,"Ġ--":6805,"æľĪãģ®":6806,"Ġãĥĭãĥ¥ãĥ¼ãĥ¨ãĥ¼ãĤ¯":6807,"æķ´åĤĻ":6808,"ãĥģãĥ£ãĥ¼ãĥī":6809,"CC":6810,"day":6811,"Ġéļ£æİ¥":6812,"MO":6813,"çĶ·åĦªè³ŀ":6814,"Ġå¥³æĢ§":6815,"lag":6816,"ãĥĬãĥ«ãĥī":6817,"çľ¼":6818,"ãĤ³ãĥł":6819,"uring":6820,"amil":6821,"å¥Īèī¯":6822,"ãĥ¼ãĥĳãĥ¼":6823,"ANG":6824,"ãĥªãĤ¢ãĥ«":6825,"Ġam":6826,"ĠStreet":6827,"å¦ĸ":6828,"ĠTrans":6829,"ĠInter":6830,"ĠãĤ¨ãĤ¤":6831,"åĢį":6832,"ãĤ¨ãĥ¼ãĥ«":6833,"ç¬¬ä¸ī":6834,"Ġå®īèĹ¤":6835,"Ġé«ĺçŁ¥":6836,"ĠArch":6837,"Ġæ»ĭ":6838,"å£ģ":6839,"Ġç«ľ":6840,"å¤§åĪĨ":6841,"ãĥĩãĥŁãĥ¼":6842,"éĥ½å®®":6843,"æ¢ģ":6844,"ĠãģĽ":6845,"ĠDev":6846,"ãĥ¼ãĥĪãĥ³":6847,"ãĤŃãĥ³":6848,"çĶ°æŃ£":6849,"Ġè©³ç´°æĥħåł±":6850,"Ġãĥ¡ãĥĩãĤ£ãĤ¢":6851,"ãĤ¤ãĥ«ãĥī":6852,"ãĥ¡ãĥ«":6853,"ITE":6854,"Ðº":6855,"ery":6856,"äºĭæķħ":6857,"ãĤ¹ãĤ¿ãĥ³ãĥĪ":6858,"LUE":6859,"ãĤ¨ãĥķ":6860,"è¨Ńå®ļ":6861,"æ©Łæ§ĭ":6862,"ãģĹãģı":6863,"earch":6864,"oman":6865,"ĠãĥĪãĥª":6866,"ĠèŃ°":6867,"ãģ¨ãĤĬ":6868,"Ġéķ·è°·å·Ŀ":6869,"useum":6870,"æľ¬çĶº":6871,"ãĥ¼ãĥ©ãĥ¼":6872,"ĠãĤŃãĥ³ãĤ°":6873,"ĠçłĶç©¶":6874,"ç¶²":6875,"MER":6876,"éŁĵåĽ½":6877,"ãĤ·ãĥ§ãĥ¼":6878,"çıŃ":6879,"ãĥŀãĤ¸":6880,"ĠClub":6881,"ãĤ¬ãĥ¼ãĥ«ãĤº":6882,"ãĥ¡ãĥĢãĥ«":6883,"äººæķ°":6884,"ĠRECOR":6885,"ãĥ¼ãĥķãĤ§":6886,"SM":6887,"åĽ²":6888,"ãĤŃãĤµ":6889,"ãĢľ(":6890,"éĢ²åĩº":6891,"å¼¦":6892,"çĶ£åħļ":6893,"ĠMin":6894,"Ġ180":6895,"çľĭèŃ·":6896,"ILL":6897,"ko":6898,"ĠISO":6899,"Ġè»į":6900,"ãĤ¤ãĤ¿ãĥªãĤ¢":6901,"reak":6902,"Ġ104":6903,"ta":6904,"ãĥ³ãĤ¬ãĥ¼":6905,"ãĥ´ãĤ£ãĥĥãĥī":6906,"æĹ¥å¹³åĿĩä¹Ĺ":6907,"ä½ķ":6908,"ĠMay":6909,"çŃĳ":6910,"Ġä»£":6911,"è¿Ķ":6912,"ãĥ¬ãĤª":6913,"Ġéĥµä¾¿":6914,"ĠLittle":6915,"å±±å½¢":6916,"Pro":6917,"Ġãģ¦":6918,"gr":6919,"ĠVOL":6920,"ĠWilliam":6921,"æ»ĭ":6922,"Ġãĥŀãĥ¼ãĤ¯":6923,"ĠãĤ½ãĥķãĥĪ":6924,"berg":6925,"ĠåĨĨ":6926,"ãĥ¼ãĥķãĤ¡":6927,"Ġæ¯į":6928,"åĭķæĪ¦å£«ãĤ¬ãĥ³ãĥĢãĥł":6929,"Ġ108":6930,"åĹ£":6931,"Ġç¬¬ä¸ī":6932,"Ġno":6933,"§å·ŀ":6934,"rums":6935,"çĩĥ":6936,"ãĤĵãģ°":6937,"çŁŃæľŁå¤§åŃ¦":6938,"ora":6939,"å¤§ä»ĭ":6940,"ĠãĤ¸ãĤ§ãĤ¤":6941,"ĠãĤ»ãĥ³ãĥĪ":6942,"ãģ®çĶ·":6943,"Ġåĸľ":6944,"ãģĭãģĳ":6945,"ĠæĶ¾":6946,"èª²éķ·":6947,"Ġ106":6948,"ĠçĹ":6949,"Ġæ¡ĳ":6950,"ãĥĸãĥ¬ãĤ¤":6951,"æ¸ĭè°·":6952,"Ġvan":6953,"Ġå®ĪåĤĻ":6954,"åķĨåĵģ":6955,"Ġ109":6956,"éĩİå¸Ĥ":6957,"ç³¸":6958,"ãĤ»ãĥ©":6959,"Ġä¸Ńå·Ŀ":6960,"æĢĸ":6961,"ãĤ¦ãĤ§ãĤ¢":6962,"ĠPres":6963,"æ¶Ļ":6964,"ç¡":6965,"NO":6966,"ãĥ¼ãĤ¢":6967,"åĲįèªī":6968,"ĠSTAR":6969,"ç£Ĳ":6970,"ĠãĤ»ãĥ«":6971,"ãģ®æģĭ":6972,"çłĶç©¶ç§ĳ":6973,"ãĥ¡ãĥ³":6974,"å¹¹ç·ļ":6975,"ãĥ¼ãĥŀãĥ¼":6976,"ç§ĭçĶ°":6977,"Ġåĵģ":6978,"é¹¿åħĲ":6979,"USE":6980,"ãĥĲãĤ¤ãĥĳãĤ¹":6981,"ãĥ¼ãĥľãĥ¼ãĥ«":6982,"VEN":6983,"ĠMac":6984,"AX":6985,"erv":6986,"èŃ²":6987,"ãģ¾ãĤĮ":6988,"Ġ107":6989,"éģĵéĥ¨":6990,"åĩºå¼µ":6991,"ico":6992,"ãĤŃãĥŃ":6993,"åŃĺåľ¨":6994,"DF":6995,"çī¹å¾´":6996,"ä½İ":6997,"Ġä¸ĩ":6998,"åł´åĲĪ":6999,"ãĥĬãĥªãĥĨãĤ£":7000,"ĠGR":7001,"ãĥļãĥ©":7002,"ĠGra":7003,"Ġå²©æīĭçľĮ":7004,"Ġå¼ĺ":7005,"ĠéİĮ":7006,"Ġæ°ĳä¸»åħļ":7007,"ĠæĿ¾çĶ°":7008,"ãĢľ'''":7009,"ãĥ¼ãĤ«ãĤ¹":7010,"æıĲä¾Ľ":7011,"ĠæĸİèĹ¤":7012,"ĠãĥŀãĤ¤ãĤ¯":7013,"èĹĿ":7014,"orge":7015,"ative":7016,"Ã¼r":7017,"ãĤ¨ãĥªãĤ¢":7018,"Ġä¸¹":7019,"ĠBi":7020,"ĠPRO":7021,"ĠAP":7022,"ãĤ¯ãĥ¼ãĥ«":7023,"ç·¯":7024,"ãģ®ä¸ĸçķĮ":7025,"1800":7026,"ĠçĨĬæľ¬çľĮ":7027,"ĠãĥĹãĥ©ãĥģãĥĬ":7028,"ãģŁãģ¾":7029,"Ġç·ĳ":7030,"è¬¡":7031,"ECIAL":7032,"æĻĤä»£ãģ®":7033,"olution":7034,"ĠDavid":7035,"Go":7036,"ãĤªãĥ¼ãĥ«":7037,"Ġå¹ķ":7038,"ĠStory":7039,"ĠãĤ³ãĤ¹":7040,"Ġè¢":7041,"vent":7042,"åģľçķĻ":7043,"ella":7044,"æĸ¹å¼ı":7045,"CR":7046,"Ġãĥ¬ãĥĥãĥī":7047,"ãĥ³ãĥķãĤ£":7048,"æĬĹ":7049,"Ġçī©":7050,"ĠDAY":7051,"«»":7052,"ãĤ·ãĥ§ãĥĬãĥ«":7053,"appy":7054,"Ġãĥªãĥªãĥ¼ãĤ¹":7055,"çĶ±ç´Ģ":7056,"Ġ1923":7057,"ç¦ıå³¶":7058,"è¨º":7059,"Ġå¤§åĴĮ":7060,"ĠHouse":7061,"ãĥªãĥ¼ãĤ¬":7062,"éŁ³å£°":7063,"è§Ĵå·Ŀ":7064,"itter":7065,"ãĥĴãĥ«":7066,"ashi":7067,"sc":7068,"ĠãĤ´ãĥ¼ãĥ«ãĥī":7069,"bl":7070,"Ġå¸Ŀ":7071,"ãĥĪãĥł":7072,"ĠTri":7073,"ASH":7074,"ĠMil":7075,"iety":7076,"Ġæ¯Ķ":7077,"ĠæĢª":7078,"ç«£å·¥":7079,"ĠSound":7080,"éĢ£éĤ¦":7081,"ç¤¾ä¼ļåħļ":7082,"Ġå¤ªéĻ½":7083,"ĠTom":7084,"ĠçĶ¨":7085,"åĨł":7086,"ĠEnd":7087,"ãĤ¢ãĤ·":7088,"é»":7089,"ãĥ³ãĤ¸ãĤ§":7090,"ĠéĢ±":7091,"ĠPo":7092,"ãĤªãĤ¹":7093,"Ġãĥŀãĥª":7094,"ichael":7095,"COM":7096,"æĨ¶":7097,"åĪĳ":7098,"éĻĦå±ŀ":7099,"æ§»":7100,"ied":7101,"æĽ¸éĻ¢":7102,"ãĥĿãĥ¼ãĤ¿ãĥ¼":7103,"ĠVal":7104,"ãĥ«ãĥŀ":7105,"ªçĴ°":7106,"æĤ¦":7107,"ĠãĤµãĥł":7108,"ĠRO":7109,"ĠMr":7110,"Ġro":7111,"Ġä¿®":7112,"Ġé¤":7113,"ãĤĮãĤĵ":7114,"é£¼":7115,"ãĥŃãĥŀ":7116,"åĽł":7117,"ãĤ·ãĤ¢ãĤ¿ãĥ¼":7118,"ä¿¡çĶ¨":7119,"æĭ¡":7120,"Or":7121,"Ġä¸ĭãĤĬ":7122,"ç·ıéģ¸æĮĻ":7123,"è²»":7124,"ĠãģĶ":7125,"Ġcolor":7126,"ãģĳãĤĵ":7127,"ãĥĥãĤ»ãĥ«":7128,"ãĥĪãĥªãĥĥãĤ¯":7129,"JPG":7130,"Ġä¸ĬçĶ°":7131,"ãģ®å¦»":7132,"ãģ®æĪ¦ãģĦ":7133,"Ġä»²":7134,"ãģĨãģŁ":7135,"ãĥ¬ãĤ¹ãĥĪ":7136,"Ġit":7137,"ĠåĲĮå¹´":7138,"Ġä»®éĿ¢ãĥ©ãĤ¤ãĥĢãĥ¼":7139,"ĠGER":7140,"ãĥ¡ãĥĩãĤ£ãĤ¢":7141,"Ġè³ĩ":7142,"Ġåĺ":7143,"333":7144,"ĠéģĬ":7145,"Ġéģĭè¡Į":7146,"Ġçı¾ä»£":7147,"è¾»":7148,"(ãĢİ":7149,"Ġãĥĸãĥ©ãĥĥãĤ¯":7150,"ãĤĮãģĦ":7151,"Ġå·¦":7152,"ãĥľãĥ¼ãĤ¤":7153,"æļĹ":7154,"ĠåįĬ":7155,"ĠãĤªãĥ¼ãĥ«":7156,"æĢªçį£":7157,"éĽĨåĲĪ":7158,"Ġwh":7159,"æ¶²åŀĭ":7160,"ãģ®æĹħ":7161,"ĠåĲĳ":7162,"ĠMO":7163,"ĠçīĿ":7164,"Ġãĥĳãĥª":7165,"éķ·å®ĺ":7166,"æĢ¥è¡Į":7167,"mas":7168,"Ġãģł":7169,"åıĸç·łå½¹":7170,"onts":7171,"ĠåıĮ":7172,"ãģ«ãĤĪãĤĬ":7173,"åĩºãģĹ":7174,"çľł":7175,"ĠéĽĳèªĮ":7176,"olf":7177,"çµ±éłĺ":7178,"ĠHot":7179,"ãģıãģ¾":7180,"Ġæį":7181,"å¸Ĩ":7182,"ãĥ¼ãĥ©ãĤ¹":7183,"Ġë":7184,"å°Ĭ":7185,"åħ±çĶ£åħļ":7186,"ĠSim":7187,"1954":7188,"ãĥĹãĥŃãĥķãĤ£ãĥ¼ãĥ«":7189,"Ġè¡ĮåħĪ":7190,"ãĥ¡ãĥ³ãĤ¿":7191,"åıİéĮ²æĽ²":7192,"ĠèĹ¤äºķ":7193,"ãĤ¯ãĤ¿":7194,"èĦ³":7195,"ĠPhil":7196,"ä¹Ļå¥³":7197,"ãĥ¼ãĥĴ":7198,"ross":7199,"ais":7200,"ãĥĲãĥĥãĤ¯":7201,"ãĤµãĥĥãĤ«ãĥ¼éģ¸æīĭ":7202,"Gu":7203,"Ġ1922":7204,"yl":7205,"ãģ®åĽ½":7206,"ECT":7207,"ãĥ¼ãĥĽ":7208,"ãĥĦãĤ£":7209,"åĢ«":7210,"arm":7211,"Ġè»Ĭä¸¡":7212,"ĠãĥŁãĥ¥ãĥ¼ãĤ¸ãĥĥãĤ¯":7213,"ĠMark":7214,"ĠãĥĪãĥŃ":7215,"æ¬ł":7216,"çĶŁçī©":7217,"Ġçĩ":7218,"Ġåħ¥åĽ£":7219,"ĠãĥĹãĥ¬ãĥŁãĤ¢":7220,"Ġçħ§":7221,"ĠéŃĶæ³ķ":7222,"ĠâĶ":7223,"ãĤ¤ãĥ¤ãĥ¼":7224,"ãĤīãĤĮãģŁ":7225,"ãĤ¨ãĥ³ãĤ¸":7226,"åĽĽæ®µ":7227,"è»Ĭåº«":7228,"å§īå¦¹":7229,"Ġå²¡æľ¬":7230,"Ġå°ĳå¹´":7231,"åįĶåĲĮçµĦåĲĪ":7232,"Ġå¹":7233,"ãĥİãĤ¹":7234,"åħĦå¼Ł":7235,"æ¿Ģ":7236,"ĠçĪĨ":7237,"ãģ«ãģĹ":7238,"Ġæı":7239,"ãĥ¬ãĥ©":7240,"ĠCO":7241,"ãĢįãĢĤ":7242,"Ġå°ıåĢī":7243,"åı³è¡ĽéĸĢ":7244,"ĠéĪ´":7245,"ãĥ¼ãĥľãĥ¼ãĥī":7246,"Ġå°ıå±±":7247,"æļ´":7248,"DA":7249,"ts":7250,"Ġä¸ĬãĤĬ":7251,"Ġãĥľãĥ¼ãĤ«ãĥ«":7252,"ĠSuper":7253,"Ġä¸Ĭéĩİ":7254,":(":7255,"ĠéĽ¨":7256,"æ±Ĥ":7257,"åĪĿä»£":7258,"Ġè§Ĵ":7259,"ä»¥å¤ĸ":7260,"è¬Ģ":7261,"ãĤ·ãĥ£ãĥ¼":7262,"æŁĦ":7263,"ĠåĨ¬":7264,"ĠèĲ©":7265,"åħµåº«":7266,"ãĤªãĥªãĥ³ãĥĶãĥĥãĤ¯":7267,"ç¯ł":7268,"à¤":7269,"æ®ºäººäºĭä»¶":7270,"ãĥ³ãĤ¨":7271,"éĢ£è¼ī":7272,"é§Ĩ":7273,"ãĥĸãĥ©ãĥĥãĤ¯":7274,"ãĥ¬ãĥĩãĤ£":7275,"ãģĪãģį":7276,"\"''":7277,"ARA":7278,"äºĪå®ļ":7279,"ĠæŁ´çĶ°":7280,"ãĥ«ãĥĬ":7281,"ĠåĴĮçĶ°":7282,"ĠMOVIE":7283,"ãĤ³ãĥ¼ãĥ«":7284,"rand":7285,"å¸«åĽ£":7286,"ãĤ¨ãĥª":7287,"çĻºéĽ»":7288,"with":7289,"ãģ©ãĤĤ":7290,"Ġåī¯":7291,"ä¸ĸå¸¯æķ°":7292,"æĸ°ç¤¾":7293,"ĠéĩĳåŃĲ":7294,"ĠEC":7295,"ILE":7296,"ãģĦãģŁãģ¾":7297,"ãģķãģª":7298,"ĠåİŁçĶ°":7299,"ãĤīãģªãģĦ":7300,"ãĥĢãĤ¯ãĤ·ãĥ§ãĥ³":7301,"ITY":7302,"Ńè¼ī":7303,"çĭĤ":7304,"ĠãĤ¹ãĥļãĤ·ãĥ£ãĥ«":7305,"ãĤ´ãĥª":7306,"éĬħ":7307,"ä»ĺãģį":7308,"ĠCON":7309,"å°ĭ":7310,"Ġæ§ĭæĪĲ":7311,"ä¿ĿéĻº":7312,"å¥ĪåŃĲ":7313,"oci":7314,"èĩªçĶ±æ°ĳä¸»åħļ":7315,"ĠéĤ¦é¡Į":7316,"ä»ķæ§ĺ":7317,"ãĥŀãĥĥãĤ¯ãĤ¹":7318,"å°ıéĩİ":7319,"ĠåħĲ":7320,"ĠSouth":7321,"ĠãĤªãĥ¼ãĥĹãĥĭãĥ³ãĤ°":7322,"ĠElect":7323,"1951":7324,"ç´¢":7325,"NN":7326,"åįģåŃĹ":7327,"éĻ½åŃĲ":7328,"ANT":7329,"éŁĵ":7330,"ĠGirls":7331,"æĹħè¡Į":7332,"ĠOVA":7333,"åľ°ä¸ĭéīĦ":7334,"(#":7335,"Ġçļĩ":7336,"ĠåĢĭäººæĪĲç¸¾":7337,"102":7338,"ĠåĨħçĶ°":7339,"åºķ":7340,"ãģĭãģĹ":7341,"éĸĭéĢļ":7342,"å±¤":7343,"103":7344,"æĺİæĹ¥":7345,"ĠEdition":7346,"ç§»ç±į":7347,"ãĥ©ãĥľ":7348,"1950":7349,"åı¤å¢³":7350,"ĠAND":7351,"ãĥŁãĥĥãĤ¯":7352,"Ġå¤§åŃĹ":7353,"ĠçĶ±":7354,"ĠæĹ¥æľ¬ãģ®éīĦéģĵé§ħä¸Ģè¦§":7355,"åİŁçĶº":7356,"eel":7357,"Ġä¸Ńéĥ¨":7358,"ĠãĥĪãĤ¥":7359,"ãĥŁãĥ¥ãĥ¼ãĤ¸ãĤ·ãĥ£ãĥ³":7360,"ä¸Ńéĩİ":7361,"è©ķä¾¡":7362,"ĠèĴ":7363,"ãĥŁãĤ¹ãĥĨãĥªãĥ¼":7364,"ME":7365,"ãĤĵãģ§":7366,"ĠãĤ¢ãĥ©":7367,"ãģķãģĭ":7368,"ars":7369,"ĠVS":7370,"ãģ£ãģ¦ãģĦãĤĭ":7371,"Music":7372,"IFE":7373,"ĠãĤµãĥ©":7374,"ĠWith":7375,"å¤§åŃ¦éĻ¢":7376,"Ġå°ıæĿ¾":7377,"era":7378,"ĠRail":7379,"HO":7380,"ham":7381,"åŁºç¤İ":7382,"å«ģ":7383,"ĠçĴ°":7384,"umb":7385,"130":7386,"ography":7387,"âĻª":7388,"éĩįéĩı":7389,"Ġè¦ĭ":7390,"Ġå»¶":7391,"ĠåĽĽåĽ½":7392,"PE":7393,"VS":7394,"æĦĽãģ®":7395,"ãģįãģª":7396,"Com":7397,"ĠLP":7398,"ĠãĤŃãĥł":7399,"ıè¨ª":7400,"Ġfonts":7401,"æĭł":7402,"ãĥ³ãĤµãĥ¼ãĥĪ":7403,"ĠPR":7404,"Ġare":7405,"ĠFSW":7406,"ĠNorth":7407,"èĪŁ":7408,"ãĤıãĤĮãģŁ":7409,"èĭĹ":7410,"erman":7411,"å·Ŀå´İ":7412,"Pr":7413,"æ²ĸ":7414,"ĠèĳĹåĲįãģª":7415,"RY":7416,"Ġæ°´æĪ¸":7417,"åł¤":7418,"HS":7419,"ĠæĹ©å·Ŀ":7420,"UP":7421,"åĲĳãģĳ":7422,"112":7423,"ĠãĤ«ãĥª":7424,"å£Ĭ":7425,"Ġfontsize":7426,"ones":7427,"Ġåģ¥":7428,"ãģĽãģĦ":7429,"ĠPaul":7430,"ãĥ¼ãĥļ":7431,"Ġè¡Ĩ":7432,"ĠãĤªãĥªãĤ³ãĥ³":7433,"vel":7434,"AME":7435,"ãĥĿãĤ¤ãĥ³ãĥĪ":7436,"Ġlove":7437,"åı¢":7438,"Ġãĥķãĥª":7439,"ãģĮä¸ĺ":7440,"éĿĴæ£®":7441,"éĬĢæ²³":7442,"èªĺ":7443,"ãģ£ãģ±":7444,"çĴ":7445,"ãĢģ''":7446,"ãĥīãĥ³":7447,"rown":7448,"ãĥĭãĤ«":7449,"å¯¾è±¡åľ°åŁŁ":7450,"Ġä¼Ĭåĭ¢":7451,"ĠTE":7452,"ĠGold":7453,"Ġ119":7454,"Ġå§ī":7455,"Ġé«ĺæľ¨":7456,"æł¹çľĮ":7457,"ãģĤãģ£ãģŁ":7458,"ĠãĤ¤ãĥ³ãĥī":7459,"ãĥ³ãĥĩãĤ£ãĥ³ãĤ°ãĥĨãĥ¼ãĥŀ":7460,"ãĥĥãĥĿãĥ³":7461,"ARK":7462,"ournal":7463,"osh":7464,")/":7465,"ĠãĥĬãĥ¬ãĥ¼ãĤ·ãĥ§ãĥ³":7466,"ĠAlbum":7467,"ãĥīãĥ¼ãĥł":7468,"ãĥ¼ãģ®":7469,"Ġãĥĩãĥ¥":7470,"here":7471,"Ġå¹»":7472,"ãĥŀãĤ¬":7473,"Ġç¬¹":7474,"å·ŀéģĵ":7475,"ãģ¹ãģ¦":7476,"Ġç«¹åĨħ":7477,"Ġå±±å½¢çľĮ":7478,"ãĤ¤ãĤ¢ãĥĥãĥĹ":7479,"éĽ»è©±":7480,"Ġéķ·å´İçľĮ":7481,"Ġèĥ½":7482,"ĠPower":7483,"ĠMic":7484,"led":7485,"æĿİ":7486,"!'''":7487,"ãĤªãĥªãĤ¸ãĥĬãĥ«":7488,"ĠONE":7489,"ĠæĬĢè¡ĵ":7490,"éĩĳæ²¢":7491,"åĴĮåŃĲ":7492,"åĪĨé¡ŀ":7493,"è©ķè«ĸ":7494,"èĮ¨":7495,"ãĥ¢ãĥİ":7496,"Ġcm":7497,"ãĤīãĤĮãĤĭ":7498,"ä¿Ĺ":7499,"å¤§ä½¿":7500,"ORE":7501,"Ġçī¹å¾´":7502,"éĻ¸ä¸Ĭç«¶æĬĢ":7503,"IST":7504,"Ġ1921":7505,"ãĤ·ãĥ«":7506,"ãģĹãĤĩãģĨ":7507,"é§¿":7508,"ãĥŁãĥĥãĤ¯ãĤ¹":7509,"ridge":7510,"ãĥĵãĥ¥":7511,"ATT":7512,"ĠçīĽ":7513,"ĠéĸĭçĻº":7514,"ãĤŃãĤ·ãĤ³":7515,"ĠæĶ¾éĢģå¯¾è±¡åľ°åŁŁ":7516,"éĥģ":7517,"ĠWest":7518,"æĶ¯æīĢ":7519,"ãĥģãĥ£ãĥ³ãĥĶ":7520,"è¨Ģèªŀ":7521,"ij":7522,"ãĤ«ãĥ³":7523,"æĪ¯":7524,"OLD":7525,"ĠæºĲ":7526,"ĠãĤ´ãĥ¼ãĥ«":7527,"æŀĲ":7528,"İãģ®":7529,"ãĥ³ãĥĽ":7530,"ãģ¾ãģ¤ãĤĬ":7531,"ĠWay":7532,"ĠèĮ¨åŁİçľĮ":7533,"ior":7534,"é¡į":7535,"ãĤ¶ãĤ¤":7536,"ãģ¾ãģĦ":7537,"æĶ¿åºľ":7538,"è¬Ľåº§":7539,"ãĥ©ãĤ¤ãĥķ":7540,"??":7541,"ãĥ³ãĤª":7542,"åĲįäºº":7543,"éģ¸æĬľ":7544,"Ġtra":7545,"ãģ¾ãĤĵ":7546,"ãģĮå®ĮæĪĲ":7547,"ĠãĤ¹ãĥĶ":7548,"ä½ıå±ħ":7549,"âĪĴ":7550,"ĠãĤ¨ãĥª":7551,"åĦĢ":7552,"ĠRadio":7553,"ãĥ«ãĥ¢":7554,"ãĥ³ãĤ·ãĥ£":7555,"æĺ¥ç§ĭ":7556,"001":7557,"æīĢåľ¨åľ°":7558,"Ġåıį":7559,"Ġdel":7560,"é¨İå£«":7561,"ç¶Ń":7562,"Ġæ¥µ":7563,"å¸Ĥéķ·":7564,"ãĤµãĥ©":7565,"ãĥĹãĤ¹":7566,"ãĥĭãĥ£":7567,"åĩºå¼µæīĢ":7568,"ãģ®å¤ľ":7569,"ĠçĶŁæ¶¯":7570,"1953":7571,"ãģĹãĤį":7572,"ãĥĳãĥ¼":7573,"ãģ«æĶ¹ç§°":7574,"ãĥ³ãĥĶãĥ¥":7575,"ãĤ·ãĤ«":7576,"æ·µ":7577,"Ġãĥĸãĥ¬":7578,"ãĥĢãĥ³":7579,"éĹĩ":7580,"Ġå¸Ĥå·Ŀ":7581,"ĠSummer":7582,"ĠReg":7583,"eck":7584,"Ġ1919":7585,"èĳĹæĽ¸":7586,"åĶĲ":7587,"Ġå½±":7588,"ĠMem":7589,"ãĥĬãĤ¹":7590,"tra":7591,"ãĤ¦ãĤ¤":7592,"105":7593,"èĹ¤åİŁ":7594,"ãĥĪãĥ³ãĥįãĥ«":7595,"ãĥĹãĥĪ":7596,"ãĥĹãĥ¼ãĥ«":7597,"Ġ128":7598,"ĠIT":7599,"ym":7600,"Ġä½µ":7601,"åĲ«ãĤĢ":7602,"ãĥ¡ãĥŃ":7603,"Ġç¦ıçĶ°":7604,"ĠDD":7605,"æ²¡":7606,"ateg":7607,"ãĥ¼ãĥĩãĤ¶ãĤ¤ãĥ³":7608,"azz":7609,"ĠSol":7610,"å²©æīĭ":7611,"ĠGreat":7612,"ãĤ¹ãĤ¿ãĥ³":7613,"ãģ´":7614,"ãĤ¤ãĤ®ãĥªãĤ¹":7615,"çĲĨäºĭ":7616,"ĠLight":7617,"ãģ«åĩºæ¼Ķ":7618,"Ġãĥ©ãĤ¤ãĥĪ":7619,"104":7620,"éĸĵãģ®":7621,"ĠPRE":7622,"ĠåıĹè³ŀæŃ´":7623,"åĲĪä½µ":7624,"å²¡å±±":7625,"èĲĮ":7626,"å¸ĤçĶºæĿĳ":7627,"'''ãĢı":7628,"ãĥ«ãĥ¼ãĥĪ":7629,"IEC":7630,"Te":7631,"Ġbl":7632,"Ø§":7633,"åĩ¡":7634,"ãĥ¬ãĥĥãĤ¸":7635,"çŀ³":7636,"URO":7637,"Ġ:|":7638,"ĠSUZ":7639,"æľ±":7640,"éĩİçĶº":7641,"ãĤ¿ãĤ«":7642,"ãĤ¯ãĤ½ãĥ³":7643,"ĠãĥĩãĤ¤":7644,"ĠParty":7645,"åĽº":7646,"Ġç´ħ":7647,"çĨ":7648,"ãĥĬãĥĵ":7649,"ĠæĿ±å®Ŀ":7650,"ç©ºè»į":7651,"ĠãĤ¹ãĤ¿ãĤ¸ãĤª":7652,"elf":7653,"ogle":7654,"ãģ®å¨ĺ":7655,"ãĤ¯ãĤ·ãĥ¼":7656,"ãĥŁãĥ«":7657,"ude":7658,"Ġå¤§æŃ£":7659,"ĠPort":7660,"ĠéĿĴæ£®çľĮ":7661,"ĠçĽĽ":7662,"å¤ĸç§ĳ":7663,"ĠOpen":7664,"æĸ°äºº":7665,"çĻ¾åĲĪ":7666,"ãģ®åľ°åĲį":7667,"igital":7668,"å¤§åĴĮ":7669,"ĠMet":7670,"ĠæĿ±æĹ¥æľ¬":7671,"äººæ°ĳ":7672,"ĠRoad":7673,"ĠãĤ¢ãĥ³ãĥīãĥ¬":7674,"yth":7675,"åĮ»å¸«":7676,"ĠBra":7677,"ãĥ«ãĤ¤ãĤ¹":7678,"ãĥ³ãĥģãĥ£":7679,"ìĿ":7680,"ĠCr":7681,"ĠMart":7682,"END":7683,"ãĤªãĥ³ãĤº":7684,"è¦³éŁ³":7685,"ines":7686,"Ġç§ĭçĶ°çľĮ":7687,"è©³ç´°":7688,"ĠEp":7689,"ãĥĬãĤ¤ãĥĨãĥĥãĥī":7690,"GT":7691,"ĠMuseum":7692,"\")":7693,"å·£":7694,"ensis":7695,"ĠéĿ¢":7696,"ĠRobert":7697,"ange":7698,"ĠBand":7699,"Ġoff":7700,"kW":7701,"ãĤ¦ãĤ§ãĥĸãĤµãĤ¤ãĥĪ":7702,"éļł":7703,"ĠæĿ¾äºķ":7704,"ĠèªķçĶŁæĹ¥":7705,"è£ķåŃĲ":7706,"çŃĴ":7707,"ĠAv":7708,"JI":7709,"Ġè£ħ":7710,"ĠParis":7711,"ĠLast":7712,"ĠãĤ¢ãĥ¡ãĥªãĤ«ãģ®":7713,"ĠSociety":7714,"ãģ¨ãģ¯":7715,"ĠRECORDS":7716,"ĠéĮ²":7717,"æľĢå¤§":7718,"ãĤħãĤĵ":7719,"ida":7720,"ãĥķãĤ£ãĥ¼ãĥ«ãĥī":7721,"ĠãĤ»ãĥªãĤ¨":7722,"ĠãĤī":7723,"ãĥ³ãĥĩãĤ¹":7724,"ĠçĲĥ":7725,"ãĤ¯ãĤ»ãĥ«":7726,"rumental":7727,"ĠNC":7728,"ĠãĥĲãĥ¬":7729,"ĠDISC":7730,"ĠãĤµãĥĥãĤ«ãĥ¼":7731,"ħåŃĲ":7732,"oust":7733,"ĠæĦĽåªĽçľĮ":7734,"ories":7735,":ãĢİ":7736,"ĠCal":7737,"ãĤ¹ãĤ¯ãĥ¯":7738,"ye":7739,"ãĥŃãĥĬ":7740,"Ġå¾©":7741,"DAY":7742,"æĿ¾ç«¹":7743,"ç¦ıäºķ":7744,"ELL":7745,":ãĢĮ":7746,"ãĥªãĥ«":7747,"ãĤ¿ãĤ¤ãĥĹ":7748,"Ġ@":7749,"æİĽ":7750,"ĠNEAT":7751,"æ¡ĪåĨħ":7752,"Ġç«¶èµ°":7753,"åĬĩåł´çīĪ":7754,"çĻ»åł´äººçī©":7755,"BU":7756,"åĪĿãģ®":7757,"ĠSF":7758,"Ġè¦ĸ":7759,"ĠæĹ¥ç«ĭ":7760,"ĠãĥĶãĥ¼ãĤ¿ãĥ¼":7761,"æĬĺ":7762,"Ġçĭ¬ç«ĭ":7763,"ãģ®ãģĭ":7764,"ãĤ¸ãĥ©":7765,"å½¢å¼ı":7766,"ãĥıãĥ«":7767,"UMMER":7768,"Ġçµ¶æ»ħåį±æĥ§":7769,"ãĥĲãĥª":7770,"John":7771,"ĺåįĹ":7772,"Ġ1914":7773,"108":7774,"ãĥ¡ãĥ¼ãĥĪãĥ«":7775,"ãĤ¬ãĤ¤":7776,"ĠãĥķãĤ¡ãĤ¤":7777,"750":7778,"ãĥĸãĥŃãĥĥãĤ¯":7779,"Ġæ¨Ļ":7780,"za":7781,"éĻ¸è»į":7782,"ä¿£":7783,"æľ¨æĽľ":7784,"ãĤ¢ãĥªãĥ¼ãĥĬ":7785,"ãĥĥãĤ½":7786,"æŀ¶":7787,"æĴ®":7788,"ãģ¨åħ±":7789,"Ġèı¯":7790,"çĻ»éĮ²":7791,"ãĤºãĤŃ":7792,"ĠæŃ¦èĶµ":7793,"ĠæĲ":7794,"ãĥĢãĥĸãĥ«":7795,"å½¢æħĭ":7796,"æ·»":7797,"èĳĽ":7798,"çĤº":7799,"ĠãĤ½ãĤ¦ãĥ«":7800,"å¥ī":7801,"ãĤ¨ãĥŃ":7802,"ãĤŃãĥ£ãĤ¹ãĥĪ":7803,"Ġåıĸ":7804,"ãĤµãĥł":7805,"æĸ¬":7806,"æĶ¿æ²»å®¶":7807,"All":7808,"ä¹ħç¾İåŃĲ":7809,"æłĸ":7810,"EXT":7811,"è£½åĵģ":7812,"ĠShow":7813,"ĠåĪĿä»£":7814,"ĠçłĤ":7815,"ãĥĨãĥĭãĤ¹":7816,"Ġäº¤å·®":7817,"éĮ¦":7818,"å®īåħ¨":7819,"æĮĳæĪ¦":7820,"bert":7821,"éģ¿":7822,"ĠãĤ¢ãĥķãĥªãĤ«":7823,"ĠãĤ¹ãĥļãĥ¼ãĤ¹":7824,"Ġé«ĺçŃī":7825,"ç¬ĳãģĦ":7826,"ĠSal":7827,"uki":7828,"uel":7829,"ãĥªãĥ¼ãĥł":7830,"ãģĭãģ¤":7831,"è²·":7832,"?)":7833,"On":7834,"ĠCap":7835,"Ġãģ«å¯¾":7836,"çĶ°ä¸Ģ":7837,"ãģ§ãģįãĤĭ":7838,"Ġèī²":7839,"à¹":7840,"ãģĥ":7841,"ãĤ±ãĥĥãĥĪãĥľãĥ¼ãĥ«":7842,"Ġä¸īéĩįçľĮ":7843,"è·³":7844,"å¤©åłĤ":7845,"ãĥ¼ãĥŃãĥ¼":7846,"æĻ®éĢļ":7847,"Ġçµ±":7848,"Ġç´Ģåħĥåīį":7849,"ĠInstit":7850,"ĠãĥĢãĤ¤":7851,"SF":7852,"Ġåŀ":7853,"NY":7854,"Ġéģ¸æĮĻ":7855,"ira":7856,"ãĤ¨ãĥ©":7857,"'m":7858,"ĳç´Ħ":7859,"æĶ¿çŃĸ":7860,"ĠåĮºéĸĵ":7861,"ç°¡":7862,"JCT":7863,"Ġãģĭãģ¤":7864,"Ġèĩ¨":7865,"Ġfl":7866,"ĠæĿ±äº¬å¤§åŃ¦":7867,"ãģķãĤı":7868,"ĠåĭĿåĪ©":7869,"æ¸ĵ":7870,"ARY":7871,"ãĥĨãĤ¯":7872,"ãĥŁãĥ¥ãĥ¼ãĤ¸ãĥĥãĤ¯":7873,"ĠéĹ":7874,"æĪ¦éĹĺ":7875,"åĲ¸":7876,"ĠçĬ¬":7877,"ĠTim":7878,"ãģ¨ãģĹ":7879,"ĠMiss":7880,"éģĶä¹Ł":7881,"éİĮ":7882,"ful":7883,"edia":7884,"æģĲ":7885,"æľĪåł´æīĢ":7886,"ãĥ´ãĤ§ãĥ«":7887,"Ġac":7888,"æľŃ":7889,"ĠBSãĥĹãĥ¬ãĥŁãĤ¢ãĥł":7890,"ĠãĤ¹ãĥļãĤ¤ãĥ³":7891,"åī¤":7892,"ãĤ¹ãĥŁãĤ¹":7893,"åĪ¥äººåı£":7894,"Ġåĩºæ¼Ķä½ľåĵģ":7895,"angu":7896,"-(":7897,"ãĥķãĤ©ãĥ³":7898,"Ġå¤±çĤ¹":7899,"ĠãĥĶãĤ¢ãĥİ":7900,"ĠæĿ¾å±±":7901,"éļľå®³":7902,"ãģ¨ãģĹãģ¦ãģ®":7903,"Ġä¸ģçĽ®":7904,"åįĪ":7905,"1945":7906,"ãģĻãģļ":7907,"åĤ·":7908,"éģºçĶ£":7909,"å¥´":7910,"åľ°çĲĥ":7911,"è¾ŀåħ¸":7912,"ĠBM":7913,"ãĥĭãĥĥãĤ¯ãĤ¹":7914,"âĢĲ":7915,"ãĤīãģ®":7916,"Ġåľ°çĲĥ":7917,"Ġä½ĵéĩį":7918,"ĠSeason":7919,"ĠéĮ²éŁ³":7920,"isode":7921,"ĠåĲīå·Ŀ":7922,"Ġæ¾":7923,"çĳł":7924,"ç£¯":7925,"ãĥķãĥ©ãĤ¤":7926,"ãģĻãĤĭéģĵè·¯":7927,"æĭ¬":7928,"Ġè©ķä¾¡":7929,"ä¹Ŀæ®µ":7930,"ĠSan":7931,"Ġå¯Įå±±çľĮ":7932,"æ²¿éĿ©":7933,"tain":7934,"ãĤ±ãĤ¤":7935,"è¥¿åı£":7936,"ãģ¨äººåı£":7937,"å±ķç¤º":7938,")âĢ»":7939,"ãģ®ãĤĬ":7940,"ãĤ«ãĥ¯":7941,"111":7942,"æĤ²":7943,"ãĥ¼ãĤ¸ãĤ§":7944,"æ²³åĨħ":7945,"omas":7946,"é¡ķ":7947,"SL":7948,"æķ°ãģ®":7949,"ãĥĻãĤ¹":7950,"Ġæģµ":7951,"è£ģåĪ¤æīĢ":7952,"ichard":7953,"éī±":7954,"ique":7955,"ĠLand":7956,"Ġå§«":7957,"Ġãĥĵãĥ«":7958,"107":7959,"ĠFR":7960,"Äģ":7961,"oun":7962,"ãĥªãĥ¼ãĥĬ":7963,"ĠéĿĻ":7964,"ĠçĶŁå¹´ä¸įæĺİ":7965,"ĠBus":7966,"éĽĳèªĮ":7967,"PN":7968,"ĠEuro":7969,"çī¹éĽĨ":7970,"ĠDance":7971,"ãĥĹãĥ«":7972,"Ġå¤§å³¶":7973,"éĥ¨åĪĨ":7974,"æ¦Ĥ":7975,"Ġqu":7976,"æĹ¥æĮĩå®ļ":7977,"Ġper":7978,"Ġwebsite":7979,"ĠãĤ¨ãĤ¢":7980,"Don":7981,"ä¹¾":7982,"ãĤĪãģªãĤī":7983,"Am":7984,"CX":7985,"Ġé§Ĵ":7986,"Ġåĥķ":7987,"ĠæĻĤéĸĵ":7988,"formation":7989,"çĶŁå¾Ĵ":7990,"Ġå¼µ":7991,"ĠãĢĴ":7992,"Se":7993,"èĦĪ":7994,"ä¸Ńå³¶":7995,"ĠãĤ¸ãĥ§ãĥ¼":7996,"çĶ°åĴĮ":7997,"ĠéħĴäºķ":7998,"Ġè¿½":7999,"ãĥ¢ãĥ¼ãĥī":8000,"LECTION":8001,"ä¼¼":8002,"ãĥ¼ãĤ½ãĥĬãĥªãĥĨãĤ£":8003,"ĠãĤŃãĥ¥":8004,"Ġæ¯İéĢ±":8005,"Ġæ²¼":8006,"Ġ126":8007,"Ġæİ¥ç¶ļ":8008,"180":8009,"Ġãĥ´ãĤ§":8010,"è¬Ŀ":8011,"ĠMIN":8012,"å¸Ĥåł´":8013,"éĢŁåº¦":8014,"ç´ĭ":8015,"ĠMLB":8016,"åŃ¸":8017,"ĠHall":8018,"ãĤ³ãĥŀ":8019,"ãģĴãĤĭ":8020,"ãģªãģį":8021,"ĠèĳĽ":8022,"Ġãģ²ãĤį":8023,"ĠæĹ©ç¨²çĶ°":8024,"åĭī":8025,"åĬĩåĽ£":8026,"AKE":8027,"ãĥĬãĥŁ":8028,"å¾ªçĴ°":8029,"Ġå²ĲéĺľçľĮ":8030,"109":8031,"ĠçĢ¬æĪ¸":8032,"ãĥ³ãĥĺ":8033,"ãĤ¬ãĤ¤ãĥī":8034,"Ġ123":8035,"å¶º":8036,"æĦĽçŁ¥":8037,"ĠMS":8038,"å±±çĶº":8039,"Ġä¸ĸå¸¯æķ°ãģ¨äººåı£":8040,"ĠãĤ¢ãĤ«":8041,"å¹ķåĥļ":8042,"ãĥŁãĥ³ãĤ°":8043,"ãĥĵãĤ¸ãĥ§ãĥ³":8044,"ãĥļãĥ«":8045,"éģºè·¡":8046,"åĲįãģ®çĶ±æĿ¥":8047,"å¤«äºº":8048,"Ġçª":8049,"ãĤŃãĥ£ãĥ³ãĥĳãĤ¹":8050,"Ġ(:":8051,"ãģ®ä¸Ńå¤®":8052,"ãĥĳãĥª":8053,"-ãĢı":8054,"Ġmusic":8055,"Ġãĥ¤ãĥŀãĥı":8056,"ĠãĤ¢ãĤ¯ãĤ»ãĤ¹":8057,"Ġph":8058,"Vol":8059,"ãĤ¨ãĤ¹":8060,"ãĥ¼ãĥ¯":8061,"Ġåı°æ¹¾":8062,"åĪ¥äººåı£æ§ĭæĪĲ":8063,"ĠAUT":8064,"ãĥ¼ãĤ·ãĥ¥":8065,"ãģ®ãĤ¢":8066,"ãĢľãĢį":8067,"och":8068,"çĶ°å·Ŀ":8069,"1949":8070,"éĺ²è¡Ľ":8071,"æ¸ķ":8072,"ãĥĶãĥ³":8073,"ĠåĮĹéĻ¸":8074,"ãĥŀãĥ©ãĤ½ãĥ³":8075,"Ġå¯¾æĪ¦":8076,"ãĥłãĥĭ":8077,"ãĤµãĤ¦ãĥ³ãĥī":8078,"ĠTechn":8079,"æ¥ŃåĭĻ":8080,"Ġå±±åı£çľĮ":8081,"ĠLi":8082,"ĠãĤ¿ãĤ¤ãĤ¢ãĥĥãĥĹ":8083,"èĩ³":8084,"ãĤ®ãĥª":8085,"éľ§":8086,"Ð»":8087,"ĠãĥķãĤ§ãĥ©ãĥ¼ãĥª":8088,"ãĤĴéĸĭå§ĭ":8089,"Ġå¡ļ":8090,"ĠLeg":8091,"ãĥ¼ãĤ¶ãĥ¼":8092,"Ġ1918":8093,"ages":8094,"ä¿ĿèŃ·":8095,"Ġè¥¿æŃ¦":8096,"åīįãģ®":8097,"ãģĹãĤĩ":8098,"Ġ122":8099,"Ġ:'''":8100,"è½Ħ":8101,"è¿·":8102,"ĠåĶĲ":8103,"Ġå»ºç¯ī":8104,"åĪĬè¡Į":8105,"ĠKn":8106,"ãĥĹãĥ©ãĤ¹":8107,"å¾ĴæŃ©":8108,"ãĥįãĥ³":8109,"æĶ»æĴĥ":8110,"ĠITA":8111,"åĲįç§°":8112,"æİ²è¼ī":8113,"ä»¤åĴĮ":8114,")ãĥ»":8115,"Ġåĸ¶":8116,"éļ¼":8117,"Ġé¨İ":8118,"udio":8119,"Ġæ¡ľäºķ":8120,"ĠBel":8121,"ãĥĹãĥ¬ãĤ¹":8122,"Ġ121":8123,"1952":8124,"äº¤çķª":8125,"ĠèıĬæ±ł":8126,"ãĥŁãĥª":8127,"ãģĮãĤĬ":8128,"Ġ1000":8129,"ä¸īéĩį":8130,"ĠSil":8131,"æ±łçĶ°":8132,"Ġ:ãĢĮ":8133,"ãĥ¼ãĥĭãĥ£":8134,"ãĥ³ãĥĸãĥ«":8135,"ç¢ĳ":8136,"éĢı":8137,"ãĥĩãĤ£ãĥ¬ãĤ¯ãĤ¿ãĥ¼":8138,"ĠçĽ£":8139,"éģħãĤĮ":8140,"Ġ1913":8141,"KS":8142,"Ġæĸ°äºº":8143,"td":8144,"īçĲĥ":8145,"ãĥķãĥªãĥ¼":8146,"ç¿»è¨³":8147,"ĠAct":8148,"box":8149,"ĠNTT":8150,"ives":8151,"ĠãĤ¨ãĥ³ãĤ¸ãĥ³":8152,"å¼ģèŃ·å£«":8153,"ãĤ¯ãĤ¤ãĤº":8154,"ĠSide":8155,"ĠäºĪ":8156,"äº¤æµģ":8157,"ĠSPECIAL":8158,"ãĤ¦ãĤ£ãĥªãĤ¢ãĥł":8159,"ãĤ¸ãĥįãĤ¹":8160,"çµĤäºĨæĻĤ":8161,"ãģ¿ãģļ":8162,"äººç¨®":8163,"Ġãĥīãĥ©ãĤ´":8164,"ç¥Ŀ":8165,"ãĤ¢ãĥĭ":8166,"è¿«":8167,"ãĤ³ãĥ«":8168,"ĠDays":8169,"Co":8170,"irect":8171,"å°±ä»»":8172,"è³Ĭ":8173,"ĠåĢĻ":8174,"ãĥ¡ãĤ¬":8175,"ĠMat":8176,"ĠSHOW":8177,"ĠCAN":8178,"ally":8179,"ãĥĹãĥ©ãĤ¤":8180,"ĠèĶ":8181,"unt":8182,"ãĥĩãĥĵãĥ¥ãĥ¼":8183,"ä¸ŃåŃ¦":8184,"ãĤŃãĤ¹":8185,"Ġç´Ļ":8186,"ĠéĩİæĿĳ":8187,"ope":8188,"Ġæ³¢":8189,"Ġæ¡Ĥ":8190,"çľŁçĲĨ":8191,"åĩºèº«èĢħ":8192,"ãĤīãĤĵ":8193,"ãĢľãĢı":8194,"ãĥķãĤ©ãĥ«":8195,"ãĤ¦ãĤ§ãĥ«":8196,"ĠåĪº":8197,"ĠAC":8198,"ĠNet":8199,"ãĥĶãĤ¢ãĥİ":8200,"ĠEngine":8201,"PR":8202,"DD":8203,"Ġæµ·è»į":8204,"ACT":8205,"onder":8206,"ãĥĹãĥŃãĥĩãĥ¥ãĥ¼ãĤ¹":8207,"ãģĦãĤį":8208,"ãĥ¼ãĤ¬ãĥ³":8209,"ãĤģãģĲãģ¿":8210,"ĠåľĴ":8211,"ĠåĢĻè£ľ":8212,"ç§Ģæ¨¹":8213,"ĠæĿ±æ´ĭ":8214,"çŁŃèª¿":8215,"ãĥıãĥ³":8216,"éĿ©åĳ½":8217,"for":8218,"Ġæĺ¥æĹ¥":8219,"Ġãĥ«ãĤ¤":8220,"Ġab":8221,"å±±å´İ":8222,"ãĥ¯ãĥ¼ãĤ¹":8223,"ĠãĤ¯ãĥ©ãĤ¹":8224,"1948":8225,"Ġå°ıå³¶":8226,"Ġç¾©":8227,"åĶ¯":8228,"ĠScience":8229,"éģķ":8230,"Ġéģĵãģ®é§ħ":8231,"ãģĭãģļ":8232,"ince":8233,"ĠIsland":8234,"éĽ»åŃĲ":8235,"é£Łåĵģ":8236,"ä¸Ńå±±":8237,"Ġãĥģãĥ¥":8238,"ĠGBR":8239,"inter":8240,"å¼ķéĢĢ":8241,"Ġç£¯":8242,"160":8243,"ĠZepp":8244,"Ġ127":8245,"ãĤ¤ãĥ«ãĤº":8246,"ĠãĤ¢ãĤ¤ãĥīãĥ«":8247,"Ġç¬ĳ":8248,"ĠSTAGE":8249,"ãģªãģı":8250,"Ġup":8251,"ĠåĲįåı¤å±ĭå¸Ĥ":8252,"ĠåĲĦè©±":8253,"min":8254,"Ġæķ°":8255,"æī¹":8256,"Ġè¥¿æĹ¥æľ¬":8257,"Sc":8258,"ãĥ³ãĤ¼ãĥ«ãĤ¹":8259,"Ġ160":8260,"ĠãĤ¤ãĥ³ãĥĩãĤ£":8261,"æ¶Īéĺ²ç½²":8262,"çį²å¾Ĺ":8263,"ĠAre":8264,"ĠéĻ¸è»į":8265,"wood":8266,"æĶ¾éĢģå±Ģ":8267,"åķĨåºĹè¡Ĺ":8268,"MV":8269,"ãĤ¶ãĥ¼ãĥī":8270,"Ġè²¡":8271,"ä»®éĿ¢ãĥ©ãĤ¤":8272,"ĠGK":8273,"åĢĻè£ľ":8274,"å»£":8275,"der":8276,"Ġçĳ":8277,"ãĤ«ãĤ¦":8278,"ĠFire":8279,"Ġå·»":8280,"ãģ®ä¸Ńå¤®åĢ¤":8281,"ãĤĮãģ°":8282,"åĽŀè¡ĨèŃ°éĻ¢èŃ°åĵ¡":8283,"ãĥ¡ãĥĩãĤ£":8284,"èĺĩ":8285,"ĠãĥĢãĥĭãĤ¨ãĥ«":8286,"ãĤĮãģªãģĦ":8287,"ãĤ¢ãĥ³ãĥĪ":8288,"ĠèĳĹä½ľ":8289,"çĶ·æĢ§":8290,"ãĥŃãĤ·ãĤ¢":8291,"éģİåİ»":8292,"rie":8293,"ãĥĬãĤ¿":8294,"106":8295,"ç©´":8296,"èĲ©":8297,"ãĥīãĥ©ãĤ´":8298,"çĶºé§ħ":8299,"ĠæľŁ":8300,"çĭ¬ç«ĭ":8301,"NET":8302,"PB":8303,"ĠProgram":8304,"ãģĤãģªãģŁ":8305,"é¦¬èº«":8306,"ĠGame":8307,"Ġ(+":8308,"ĠãĤ«ãĥ©":8309,"ãĥĹãĥŃãĤ¸ãĤ§ãĤ¯ãĥĪ":8310,"æīĵæĴĥ":8311,"press":8312,"Ġ1917":8313,"ĠPlayStation":8314,"ĠJames":8315,"PO":8316,"ĠãģĵãģĨ":8317,"Ġãĥīãĥ©ãĥłãĤ¹":8318,"Ġæľ¬çĶ°":8319,"ãĥ¬ãĥ³ãĤ¸ãĥ£ãĥ¼":8320,"Ġä¸¡":8321,"æ©Łæ¢°":8322,"ãĥ©ãĥ³ãĤŃãĥ³ãĤ°":8323,"sv":8324,"è¹":8325,"ãĥĿãĥª":8326,"Ġãĥ¬ãĤ®ãĥ¥ãĥ©ãĥ¼":8327,"-ãĢį":8328,"Ġæľ¨ä¸ĭ":8329,"æ³Ĭ":8330,"Inst":8331,"ibr":8332,"åĦĦåĨĨ":8333,"ĠKO":8334,"aps":8335,"åĪ¶å®ļ":8336,"æŁĶ":8337,"oice":8338,"åı¥":8339,"Ġç¶¾":8340,"ĠMor":8341,"æĹ¥æľ¬ä»£è¡¨":8342,"MAN":8343,"aven":8344,"æ°ĳé¤¨":8345,"ãĥĹãĥŃãĥĢãĤ¯ãĤ·ãĥ§ãĥ³":8346,"ĠGener":8347,"rew":8348,"åĽŀè¡ĨèŃ°éĻ¢èŃ°åĵ¡ç·ıéģ¸æĮĻ":8349,"ãĤ¤ãĤ¢ãĥ³":8350,"è¡¨ç¤º":8351,"é³¥åıĸ":8352,"ĠClass":8353,"ç§»åĭķ":8354,"For":8355,"omb":8356,"ãĥĨãĥ¬ãĥĵæĶ¾éĢģ":8357,"IB":8358,"éĩĳåº«":8359,"æĢĿæĥ³":8360,"èĴ²":8361,"ãĥ³ãĥķãĤ¡":8362,"ãĥ«ãĤ½ãĥ³":8363,"ĠFest":8364,"Ġé«ĺéĢŁ":8365,"åı¢æĽ¸":8366,"eath":8367,"lish":8368,"ĠãĤ°ãĥ©ãĥ³ãĥī":8369,"çĶ°ç·ļ":8370,"Ġå¾³å³¶çľĮ":8371,"ĠMov":8372,"æ¸ī":8373,"aint":8374,"é«ª":8375,"UST":8376,"å±±ãģ®":8377,"attle":8378,"ĠLONE":8379,"ãĥįãĤ¤":8380,"itz":8381,"å¾Ģ":8382,"å¾®":8383,"ĠStr":8384,"iro":8385,"ney":8386,"ĠãĤªãĥķãĤ£ãĤ·ãĥ£ãĥ«":8387,"ĠUK":8388,"å¬":8389,"ĠLE":8390,"ĠCLUB":8391,"ä¸Ĭéĩİ":8392,"éĮ²éŁ³":8393,"ĠCollection":8394,"èĸ©":8395,"UDIO":8396,"ãģĦãĤı":8397,"Ġé¦Ļå·ĿçľĮ":8398,"ĠCenter":8399,"åĪĿåĽŀ":8400,"ein":8401,"ãĥĭãĤª":8402,"ĠFRA":8403,"ĠæĹ¥æľ¬ãĥĨãĥ¬ãĥĵç³»åĪĹ":8404,"ãĤ³ãĥ¢":8405,"Ġé§Ĳ":8406,"ĠMa":8407,"æľŁãģ®":8408,"ĠLONEOS":8409,"å¤ĸä¼Ŀ":8410,"la":8411,"Ad":8412,"1947":8413,"çģ«æĽľ":8414,"ãĤ¢ãĤ«ãĥĩãĥŁãĥ¼":8415,"ĠRac":8416,"Ġä»Ĭäºķ":8417,"ãģĪãĤĤãĤĵ":8418,"ãĤĦãģĻ":8419,"Ġ1912":8420,"ĠSD":8421,"ĠDR":8422,"ĠåįĴ":8423,"Ġå¤§ä¹ħä¿Ŀ":8424,"ĠéĢļéģİ":8425,"Ġ124":8426,"ĠSu":8427,"éģĵé¤¨":8428,"åįģåµĲ":8429,"ĠMAN":8430,"ä¼Ĭåĭ¢":8431,"Ġå¤§åĪĨçľĮ":8432,"æĴ²":8433,"work":8434,"ĠEr":8435,"ãĥŀãĥªãĤ¢":8436,"ãĤ¹ãĥĳãĤ¤":8437,"ĠALL":8438,"ĠèªŃå£²":8439,"ãĥ¼ãĥ¤":8440,"æĿ±åı£":8441,"por":8442,"Ġåı³":8443,"ãĥ¼ãĥĨãĤ£ãĥ³":8444,"ãĥĽãĥ³ãĥĢ":8445,"ĠãĥŀãĤ¸":8446,"Ġ(-":8447,"äºĶä¸ģçĽ®":8448,"ãĥĵãĥĥãĥĪ":8449,"Ġnot":8450,"Ġåĩ½é¤¨":8451,"Ġversion":8452,"ĠãģķãģıãĤī":8453,"ĠæĺŁéĩİ":8454,"Ġæ©Łéĸ¢":8455,"ãĤ·ãĤ¹":8456,"éłĤ":8457,"ãĤµãĥ«":8458,"ãĤ¢ãĥŀ":8459,"ãģĤãģķ":8460,"ãĤµãĤŃ":8461,"ipp":8462,"Ġç§ĺ":8463,"Ġäºľ":8464,"ãĥŁãĥįãĥ¼ãĥĪ":8465,"Ġäººéĸĵ":8466,"Ħæ¨©":8467,"åĪ¶åº¦":8468,"Ġä¸¸å±±":8469,"ãģģ":8470,"Ġ135":8471,"ãĥĨãĤ£ãĥ³":8472,"Ġå¿ħæ®º":8473,"Ġå´":8474,"Ġå²¡å´İ":8475,"ĠBill":8476,"Ġå¦ĸ":8477,"unk":8478,"ãĤ¤ãĥģ":8479,"ĠåĽ³":8480,"Ġ''\"":8481,"Ġæļ´":8482,"ĠFIFA":8483,"ãģ«çĻ»åł´":8484,"è¿½åĬł":8485,"ãģĵãĤĮ":8486,"Ġå¥½":8487,"ĠFirst":8488,"ç©ºéĸĵ":8489,"Ġåł´":8490,"ĠGrand":8491,"GB":8492,"ĠCharl":8493,"ĠJul":8494,"CP":8495,"çĶ»å®¶":8496,"å¤«å©¦":8497,"ĠæŃ¦çĶ°":8498,"EAR":8499,"CLUB":8500,"view":8501,"Ġãĥ¢ãĥı":8502,"Ġ*****":8503,"ãĥķãĤ¡ãĤ¤ãĥ«":8504,"æĺłçĶ»ç¥Ń":8505,"ĠèĥĮæĻ¯":8506,"ĠState":8507,"Ġå²©å´İ":8508,"ç®¡åĮº":8509,"DO":8510,"æ´ĭåŃĲ":8511,"ç°¿":8512,"ASS":8513,"Ġä½µæ®º":8514,"ãĤıãģĽ":8515,"TO":8516,"æĸ°çĶ°":8517,"åı°æ¹¾":8518,"ãĥ¼ãĤ·ãĥ¼":8519,"Ġç¹Ķ":8520,"å¡ģæīĵ":8521,"ĠãĢĮ'''":8522,"ĠãĤ¢ãĥī":8523,"åħĲç«¥":8524,"åįł":8525,"ĠFINAL":8526,"åĩºåĬĽ":8527,"ãĤ¨ãĥ³":8528,"ãĤ³ãĥŁãĥ¥ãĥĭ":8529,"ãĤ¹ãĥĪãĥ¼ãĥªãĥ¼":8530,"ãĤ¢ãĤ¿":8531,"Tube":8532,"idd":8533,"ãģŁãĤĭ":8534,"duc":8535,"ï¨":8536,"è£½èĸ¬":8537,"bit":8538,"ĠãĤ¸ãĥł":8539,"140":8540,"å³¶çĶº":8541,"ĠãĤ¢ãĥ¡ãĥªãĤ«åĲĪè¡ĨåĽ½":8542,"ãĤ¤ãĥ³ãĥī":8543,"ãĥĽãĥ¯ãĤ¤ãĥĪ":8544,"ãĤ·ãĥĥãĤ¯":8545,"rel":8546,"æĽ¹":8547,"ä½ĲãĢħæľ¨":8548,"åıĸãĤĬ":8549,"çī¹æ®Ĭ":8550,"Ġåıİ":8551,"ãĥ³ãĥĶãĥ¥ãĥ¼ãĤ¿":8552,"ĠãĤ®ãĥ£ãĥ©ãĥªãĥ¼":8553,"ĠSky":8554,"rey":8555,"Ġä¼Ŀ":8556,"ãģĮãģĦ":8557,"APP":8558,"åĭĿè²ł":8559,"Ġå²©æ³¢":8560,"ç¸®":8561,"ãģĿãĤĮ":8562,"1936":8563,"ĠWork":8564,"ani":8565,"äººçĶŁ":8566,"ãĥĹãĥ©ãĤ¶":8567,"ja":8568,"Ġå®®æľ¬":8569,"ãĥ¼ãĥĭãĥ¼":8570,"TM":8571,"We":8572,"å¦ĥ":8573,"ĠèŃ¦å¯Ł":8574,"stra":8575,"Ġç§ĳ":8576,"ç©ºãģ®":8577,"ĠNIGHT":8578,"ãĤ¨ãĥ³ãĤ¸ãĥ³":8579,"Ġæ°·":8580,"Ġ1915":8581,"Ġèĵ":8582,"ĠTer":8583,"ula":8584,"ï¨ĳ":8585,"Ġä½Ĳè³Ģ":8586,"å®ļç¾©":8587,"åĦªåŃĲ":8588,"ĠåĽ½æ°ĳ":8589,"ĠæľĿé®®":8590,"ofile":8591,"gy":8592,"als":8593,"ãģ¯ãģĺ":8594,"å®¶æĹıæķ°":8595,"æ©ĭæľ¬":8596,"åĬ©æīĭ":8597,"Ġæ¢¶":8598,"ĠåĽ½åĨħ":8599,"ĠãĤ¦ãĥ«ãĥĪãĥ©ãĥŀ":8600,"ĠDel":8601,"ãĥĩãĤ¸ãĤ¿ãĥ«":8602,"ĠæĦĽãģ®":8603,"Ġ*\"":8604,"ãĤ»ãĥ³ãĥĪ":8605,"ĠæĦ":8606,"Ġé´":8607,"ãģ¨ãģĦãģĨ":8608,"åľ°éľĩ":8609,"ãĥıãĥ©":8610,"Ġå±ĭ":8611,"FT":8612,"ander":8613,"oz":8614,"è¼¸éĢģ":8615,"Ġ1910":8616,"ãĥīãĥ¼ãĥ«":8617,"ĠHome":8618,"iginal":8619,"ĠWhite":8620,"ĠServ":8621,"ĠæĽ²åĲį":8622,"Ġãĥĸãĥª":8623,"ĠåĮĹäº¬":8624,"350":8625,"ĠãĥĩãĤ£ãĤ¹ãĤ³ãĤ°ãĥ©ãĥķãĤ£ãĥ¼":8626,"ãĥĸãĥ«ãĤ¯":8627,"ãĥ¢ãĤ¢":8628,"åħ¨åŁŁ":8629,"Ġåĺī":8630,"éĩĮåŃĲ":8631,"Ġ:||":8632,"ĠMot":8633,"ĠEast":8634,"ĠãĥĹãĥŃãĥķãĤ£ãĥ¼ãĥ«":8635,"ĠEnter":8636,"èĢģäºº":8637,"ãĤ¢ãĤ¦ãĥĪ":8638,"ãĥıãĥª":8639,"Ġå¹³éĩİ":8640,"ãģ¤ãģı":8641,"ãĥĹãĥŃãĥ¬ãĤ¹":8642,"èĭ±èªŀçīĪ":8643,"ĠãĤ·ãĥ«":8644,"Ġ1889":8645,"Ġå¥³åĦª":8646,"æĪ¦ç¸¾":8647,"ĠéĸĭåĤ¬æĹ¥":8648,"ĠåįĴæ¥Ń":8649,"ãĤ³ãĥŁãĥĥãĤ¯":8650,"And":8651,"ãĥ¼ãĥ¡ãĥ³":8652,"Ġ1900":8653,"osa":8654,"Ġå·Ŀåı£":8655,"ĠãĥĪãĥ¬":8656,"ept":8657,"Ġè¤ĩ":8658,"äººåħ¬":8659,"Ġèĩªæ²»":8660,"ĠãĤ«ãĥ¼ãĥ«":8661,"åİŁé§ħ":8662,"ĠæīĢå±ŀãĤ¯ãĥ©ãĥĸ":8663,"ãĥ³ãĤŃãĥ¼":8664,"åĭĻçľģ":8665,"ãģ®å®¶":8666,"ãĥ¼ãĥĶ":8667,"ãĥ¼ãĥķãĤ£":8668,"ĠãĤ¢ãĤ·":8669,"åĨ·":8670,"duction":8671,"æĬŀ":8672,"Ġåĳī":8673,"ãĥ¢ãĥ³ãĤ¹ãĤ¿ãĥ¼":8674,"éģ¥":8675,"ĠRAD":8676,"Ġåĸ¶æ¥Ń":8677,"SD":8678,"ĠãĤº":8679,"æ³¨éĩĪ":8680,"ãĤĴè¨Ńç½®":8681,"ms":8682,"ãģĭãģ¿":8683,"Ġèĸ¬":8684,"AA":8685,"å¹´çīĪ":8686,"ĠãĤŃãĥ£ãĥ©ãĤ¯ãĤ¿ãĥ¼":8687,"ãĥ¨ãĥ¼ãĥŃãĥĥãĥĳ":8688,"æĪ¦è»Ĭ":8689,"Ġæ£®çĶ°":8690,"ĠNY":8691,"ãĤ½ãĥŃ":8692,"åģ¥å¤ªéĥİ":8693,"ä¿Ŀåģ¥":8694,"ami":8695,"Ġèģ·":8696,"éİĸ":8697,"xx":8698,"å³¡":8699,"æł¡éķ·":8700,"Ġæľ¬ç¤¾":8701,"ãĤ¢ãĥķãĥªãĤ«":8702,"ãĥ«ãĤ»ãĥĩãĤ¹":8703,"åĪĿåĩºåł´":8704,"åľ°åĲį":8705,"li":8706,"åħ¬æ°ĳé¤¨":8707,"æľĿé®®":8708,"Ġåįĺè¡Įæľ¬":8709,"ĠDREAM":8710,"1940":8711,"æŃ´ä»£":8712,"Ġte":8713,"æŃ¦èĶµ":8714,"è¢«":8715,"çĽ£éĥ¨":8716,"Ġåİļ":8717,"ãĥīãĤŃ":8718,"AKI":8719,"ãĥ¦ãĥĬãĤ¤ãĥĨãĥĥãĥī":8720,"ASE":8721,"Ġæľį":8722,"ĠOFF":8723,"ãĥŀãĤ¤ãĥ«":8724,"åįģéĥİ":8725,"Ġå¤§å®®":8726,"ĠHALL":8727,"åĮł":8728,"ĠSL":8729,"ĠBEL":8730,"æ°´æĽľ":8731,"æ¼«":8732,"ĠéĩİçĲĥ":8733,"Ġèĳī":8734,"ãģĬãģĦ":8735,"Ġç´ł":8736,"ĠèĽ":8737,"ington":8738,"Ġæ··":8739,"Ġæ²ĸç¸ĦçľĮ":8740,"ĠéĽĨèĭ±ç¤¾":8741,"ãĤ¸ãĥŃ":8742,"ĠåĮĹæĿĳ":8743,"ĠãĤ¢ãĥĭãĥ¡ãĥ¼ãĤ·ãĥ§ãĥ³":8744,"Ġå¾³å³¶":8745,"yle":8746,"ĠSONG":8747,"ĠãĤ¸ãĤ§ãĥ¼ãĥłãĤº":8748,"Ġall":8749,"Ġãĥªãĥģãĥ£ãĥ¼ãĥī":8750,"ãģĻãģİ":8751,"éģ¸æīĭæ¨©å¤§ä¼ļ":8752,"éĢĶä¸Ń":8753,"æ¤įçī©":8754,"IVERS":8755,"ä¸ĬãģĴ":8756,"çµ¡":8757,"è¿°":8758,"ĠãĥĿãĥ«":8759,"ĠåĭĿçĤ¹":8760,"ĠæĹ¥ä»ĺ":8761,"å·¦è¡ĽéĸĢ":8762,"ãĤ¶ãĥ¼ãĤº":8763,"Ġãĥģãĥ§":8764,"ãģĮãģĦãĤĭ":8765,"ç¸ģ":8766,"åĽ½èªŀ":8767,"ĠåįĶ":8768,"å®¤åĨħ":8769,"fect":8770,"ãĤ¼ãĥŃ":8771,"ãĤ¯ãĥĪãĥ«":8772,"å¤ıãģ®":8773,"Ġä½ľçĶ»çĽ£çĿ£":8774,"Ġå®Įåħ¨":8775,"ĠéĬĢæ²³":8776,"å¤§éļĬ":8777,"å¥¨":8778,"ãĤĪãģĨãģ«":8779,"Ġ1916":8780,"ãĤ«ãĥĬ":8781,"hem":8782,"arden":8783,"ãĥĸãĥ«ãĥ¼":8784,"uman":8785,"oud":8786,"ĠSoul":8787,"ãĥ¼ãĥ´ãĤ¡":8788,"ãĥĭãĥ¥ãĥ¼":8789,"iction":8790,")===":8791,"ĠWal":8792,"ãĤ¸ãĥ£ãĥĥãĤ¯":8793,"Ġæłĥæľ¨çľĮ":8794,"oustic":8795,"ãĥ³ãĥĨãĤ£ãĤ¢":8796,"Ġè¡Ģæ¶²åŀĭ":8797,"ãģªãĤĬ":8798,"å®Łæ¥Ń":8799,"ãĥ©ãĤ°":8800,"ä¸ĭãģ®":8801,"ãĥķãĤ¡ãĥ³ãĤ¿":8802,"çŁ¥åŃĲ":8803,"ĠãĤ«ãĥĬãĥĢ":8804,"Ġæ¦Ĥ":8805,"éº»è¡£":8806,"æŁ´":8807,"ĠãĤªãĥ¼ãĤ¹ãĥĪãĥ©ãĥªãĤ¢":8808,"ãĥķãĤ¸":8809,"ãģĨãģ¡":8810,"ãģ¿ãģ¡":8811,"Ġåľ°æĸ¹":8812,"GR":8813,"iness":8814,"ĠPat":8815,"ĠMer":8816,"åģ¥å¤ª":8817,"è£½ä½ľæīĢ":8818,"ĠMoon":8819,"ĠãĤ¾":8820,"æĿ¥æŃ´":8821,"æµ©äºĮ":8822,"ãĥ¦ãĤŃ":8823,"ãģ®ç¥ŀ":8824,"âĪ":8825,"ĠPal":8826,"WS":8827,"åºĹèĪĹ":8828,"ĠJãĥªãĥ¼ãĤ°":8829,"èªįå®ļ":8830,"è«ĸæĸĩ":8831,"Ġä¸İ":8832,"Ġ1911":8833,"ãĤ·ãĤ§ãĥ«":8834,"zy":8835,"Ġçī¹æ®Ĭ":8836,"ĠDie":8837,"ĠåĨħå®¹":8838,"Ġéĸĵ":8839,"éĢļéģİ":8840,"ĠGroup":8841,"åħ¥éĸĢ":8842,"rich":8843,"å¥ª":8844,"Ġå¤±çŃĸ":8845,"115":8846,"ĠWEB":8847,"ä»£åŃĲ":8848,"ĠãĤ«ãĥĨ":8849,"ĠåĽ½åľŁ":8850,"Ġè«¸":8851,"ĠåŁºæľ¬":8852,"çĢ":8853,"æ©ŁåĻ¨":8854,"ãĥ¼ãĤ½ãĥ³ãĤ°":8855,"ZE":8856,"ĠMichael":8857,"å¤§éĩİ":8858,"ĠEar":8859,"æĶ¹éĢł":8860,"Ġäººåı£å¯Ĩåº¦":8861,"ĠNav":8862,"ãĥİãĥķ":8863,"128":8864,"åĲĪè¨Ī":8865,"èıĵ":8866,"çĽ¸æīĭ":8867,"ãĥĥãĥĳãĥ¼":8868,"Tw":8869,"aff":8870,"ota":8871,"ãĥĲãĥ¼ãĤ°":8872,"é§Ĳåľ¨":8873,"Japan":8874,"ãĤ¦ãĥŃ":8875,"åľ°çįĦ":8876,"éŁ¿æĽ²":8877,"é«ĺæĿ¾":8878,"ãĤ¦ãĥ«ãĥĪ":8879,"ĠãĤ¢ãĥĹãĥª":8880,"éĢ²è¡Į":8881,"ãĥŀãĥŀ":8882,"ĠãĥŃãĥĥãĤ¯":8883,"ĠAngel":8884,"ress":8885,"ĠSIL":8886,"ĠAssoci":8887,"Ġåħ¨ç±³":8888,"Ġãĥ´ãĤ©":8889,"ĠER":8890,"REE":8891,"åĩºæ¼ĶèĢħ":8892,"è¡Įãģį":8893,"ãĤ·ãĥ§ãĤ¦":8894,"Ġ132":8895,"è¿ĳä»£":8896,"è»¢è»Ĭ":8897,"ĠShe":8898,"ãģ¨åĲĮ":8899,"Ed":8900,"hib":8901,"è»Įéģĵ":8902,"ĠBD":8903,"ĠBass":8904,"ãĥĬãĥªãĤª":8905,"äºĭåħ¸":8906,"oul":8907,"ãĥ³ãĤ»ãĤ¹":8908,"Ġé¦Ļæ¸¯":8909,"ãĤĤãģĨ":8910,"ãĥĺãĥ«":8911,"ãĥ¶è°·":8912,"å¤§åŃ¦æķĻæİĪ":8913,"Fl":8914,"ãģµãģĺ":8915,"Ġå¤§è°·":8916,"éĽ»æ©Ł":8917,"éĩľ":8918,"ĠNov":8919,"ĠæĿ¾å°¾":8920,"201":8921,"æĹ¥ãģ«":8922,"ãģ£ãģĵ":8923,"ĠæİĴ":8924,"113":8925,"ãĥ´ãĤ¡ãĥ¼":8926,"ä¸ĩäºº":8927,"çĮĽ":8928,"ĠSur":8929,"ä¸ŃéļĬ":8930,"ĠKey":8931,"å±Ģéķ·":8932,"å¤§ä½ľæĪ¦":8933,"ãĥıãĤ¦":8934,"çĭŃ":8935,"Ġå§īå¦¹":8936,"ison":8937,"åĽĽåĽ½":8938,"Ġé«ĺæł¡":8939,"urt":8940,"ette":8941,"Ġè¡£":8942,"Ġãĥģãĥ£ãĥ¼ãĥĪ":8943,"eek":8944,"åĥ§":8945,"Ġãĥ«ãĤ¤ãĤ¹":8946,"å®Ŀå¡ļ":8947,"èī¦éļĬ":8948,"éĿĴå±±":8949,"ãĥīãĥªãĥ¼ãĥī":8950,"XS":8951,"ãĥ¼ãĥģãĤ§ãĥ³ãĤ¸":8952,"éļ£":8953,"Ġãĥīãĥ©ãĤ¤ãĥĲãĥ¼":8954,"ãĤ½ãĥ«":8955,"ç«¶èµ°":8956,"ãĥ¡ãĤ¤ãĤ¯":8957,"ãģ¯ãģĹ":8958,"Ġé¹¿å³¶":8959,"ãģ®ãģĨãģŁ":8960,"ĠBig":8961,"èĻ¹":8962,"Ġçĩĥ":8963,"ä½ĵãģ®":8964,"åįģä¸ī":8965,"ANA":8966,"è³ĩæł¼":8967,"æłĥæľ¨":8968,"Ġä½Ĳéĩİ":8969,"ĠFall":8970,"éģĵåºľ":8971,"æĿ±æ´ĭ":8972,"Ġåħ«å¹¡":8973,"Ġthat":8974,"ĠIV":8975,"ãĥ¼ãĥĬãĥ¡ãĥ³ãĥĪ":8976,"ĠDown":8977,"å¤§éĺªåºľ":8978,"ĠOver":8979,"Ġãĥľãĥĸ":8980,"ĠãĥĨãĥ¼ãĥŀ":8981,"ĠæľªæĿ¥":8982,"One":8983,"èĪĺ":8984,"éĲĺ":8985,"ãĤ¹ãĤ¤":8986,"amily":8987,"ĠRA":8988,"ĠGIRLS":8989,"ãģ®æµ·":8990,"ĠGal":8991,"ãģıãĤį":8992,"ense":8993,"adem":8994,"ĠYear":8995,"Ġåī£":8996,"èĬ¸èĥ½":8997,"ICK":8998,"ape":8999,"æħĪ":9000,"ãģ¯ãģª":9001,"é¨Ĵ":9002,"éĲµ":9003,"Ġ129":9004,"è¬İ":9005,"ĠSUN":9006,"âĸł":9007,"ĠFight":9008,"ĠãĤ¢ãĥĭ":9009,"ãĤ¸ãĥ§ãĥ¼ãĥ³ãĤº":9010,"167":9011,"ãģĦãģĹ":9012,"TY":9013,"ĠåºĹ":9014,"éįĭ":9015,"AWA":9016,"ãĥ¢ãĥ¼ãĤ¿":9017,"ĠãĤ¢ãĤ¯":9018,"Ġæľ«":9019,"Ġè²´":9020,"Ġé«ĺéĩİ":9021,"HD":9022,"ĠéĩĮ":9023,"irth":9024,"ĠCompany":9025,"Ġè¦³åħī":9026,"ĠçĶ£æ¥Ń":9027,"Ġèĥ":9028,"ãĥĪãĥĬãĥł":9029,"Î±":9030,"Ġç¾¤é¦¬çľĮ":9031,"Wind":9032,"ãĤ¹ãĥ©ãĥł":9033,"ular":9034,"çī¹æĢ¥":9035,"åĿª":9036,"Ġå¤ķ":9037,"rol":9038,"Ġæ®º":9039,"å¥ĳç´Ħ":9040,"ĠJack":9041,"svg":9042,"çĶ°åħī":9043,"ãĥĵãĥª":9044,"ãģ¨ãģĻãĤĭ":9045,"Ġå·¥èĹ¤":9046,"ĠåĲ¹ãģįæĽ¿ãģĪ":9047,"ĠLab":9048,"çĤŃ":9049,"ãĥ¼ãĤ¿ãĤ¹":9050,"çµ±è¨Ī":9051,"Ġè¡¨å½°":9052,"NC":9053,"pf":9054,"Ġ133":9055,"åı·æ©Ł":9056,"PLE":9057,"ãĥŃãĥľ":9058,"Ġä¸ŃçĶ°":9059,"ĠãĥŀãĥªãĤ¢":9060,"ä»¥åīį":9061,"ely":9062,"Ġèµ°":9063,"ĬæĢ¥":9064,"116":9065,"ĠDec":9066,"æĪĴ":9067,"æµĦ":9068,"ĠãĥŃãĥ³ãĥīãĥ³":9069,"Ġåħ¨å¹ħ":9070,"å¥ĪãĢħ":9071,"åĮ»åŃ¦":9072,"ca":9073,"æª":9074,"ĠãĤµãĤ¦ãĥ³ãĥī":9075,"ĠNews":9076,"ãĥ¬ãĥĬ":9077,"Ġãĥķãĥ«":9078,"Ġ800":9079,"ĠAmerica":9080,"Ġä»ı":9081,"uts":9082,"èº":9083,"'''-":9084,"ãĤ»ãĥ³":9085,"åģ¥åº·":9086,"UG":9087,"å¨ģ":9088,"ĠTak":9089,"ãĥĩãĤ£ãĥ¼":9090,"æĩī":9091,"143":9092,"Ġè·¯ç·ļãĥĩãĥ¼ãĤ¿":9093,"ĠTS":9094,"OTO":9095,"ãĤŃãĥ©":9096,"Ġéĥµä¾¿çķªåı·":9097,".\"":9098,"ĭåı£":9099,"ç´ĢåŃĲ":9100,"Ġå¿į":9101,"ĠãĤ¨ãĥķ":9102,"ãĤ¢ãĥ³ãĥĢ":9103,"çłĶç©¶ä¼ļ":9104,"ãĥ©ãĤ¦ãĥ³ãĥī":9105,"ãĥŃãĥĥãĥĪ":9106,"æģ©":9107,"ĠRain":9108,"ãĤ¹ãĥļãĥ³ãĤ¹":9109,"åı¸ä¼ļ":9110,"net":9111,"ĠRecord":9112,"XX":9113,"ĠLIFE":9114,"cert":9115,"æ¥¼":9116,"èĳµ":9117,"ãĥ¤ãĥ¼":9118,"nder":9119,"ĠAD":9120,"å¤§åŃ¦æł¡":9121,"å¯¾çŃĸ":9122,"ãĤ¤ãĥ¤ãĥ¢ãĥ³ãĥī":9123,"ĠSeries":9124,"ĠFilm":9125,"ister":9126,"Ex":9127,"ãĥ³ãĤ¸ãĥ£ãĥ¼":9128,"èĭĳ":9129,"114":9130,"ider":9131,"ãĤ¿ãĥª":9132,"æ©ĭé§ħ":9133,"å±¯":9134,"åŃ¦ç¿Ĵ":9135,"ãĥŁãĥªãĥ¼":9136,"Ġåħ±åĴĮ":9137,"ĠåĪºæ®º":9138,"less":9139,"ĠéĢ£ç¶ļ":9140,"ãĤ¢ãĤ¯":9141,"omen":9142,"ãĤĮãģ®":9143,"è´":9144,"æĻĤæľŁ":9145,"ĠæĶ¯":9146,"po":9147,"ãģ¿ãĤĨãģį":9148,"ãĤ´ãĥ«ãĥķ":9149,"ĠæĿ¾ç«¹":9150,"éĿĴå¹´":9151,"éµ":9152,"117":9153,"åīįçĶ°":9154,"ãĥķãĤ£ãĥ¼":9155,"Ġè£ľæ®º":9156,"Ġ1908":9157,"ĠåĮ»çĻĤ":9158,"1941":9159,"Ġå®ĪåĤĻçİĩ":9160,"åĤĳ":9161,"Ġ131":9162,"æ¼Ķå¥ı":9163,"Ġåł´æīĢ":9164,"Ġ1907":9165,"ĠãģĤãĤĬ":9166,"£åĳ³":9167,"leg":9168,"åĤĺ":9169,"å¯ħ":9170,"ĠFriend":9171,"Ġæµ·å¤ĸ":9172,"åĭ¢èª¿æŁ»":9173,"ãĥĨãĤ£ãĥĥãĤ¯":9174,"key":9175,"ãģĮãģ¿":9176,"ĠæĪĲçĶ°":9177,"hed":9178,"ãģĺãĤĩãģĨ":9179,"ĠçµĦç¹Ķ":9180,"èĥ½åĬĽ":9181,"uf":9182,"ãĤ°ãĥ©ãĤ¹":9183,"ĠBLUE":9184,"è¨ŃåĤĻ":9185,"ãĤ«ãĤ´":9186,"ĠçĴ°å¢ĥ":9187,"è¨Ĥ":9188,"å¹¼å°ĳ":9189,"æĦĽçŁ¥çľĮ":9190,"124":9191,"ãģµãĤĭ":9192,"ĠåĲīéĩİ":9193,"mann":9194,"åĩ¦çĲĨ":9195,"èģ´çİĩ":9196,"BB":9197,"æĤªéŃĶ":9198,"126":9199,"ĠãĤ°ãĥª":9200,"ĠæŃĮæīĭ":9201,"ãģįãģĶãģ¨":9202,"ACH":9203,"Ġç´Ķ":9204,"ĠQU":9205,"ãĥĲãĥ¼ãĤ¸ãĥ§ãĥ³":9206,"çĮ¿":9207,"ãĤ«ãĥŃ":9208,"ĠChamp":9209,"ĠçĻ»éĮ²":9210,"Black":9211,"è£ħåĤĻ":9212,"It":9213,"118":9214,"å±±ç·ļ":9215,"ĠEver":9216,"ãģĹãģ¦ãģĦãģŁ":9217,"1200":9218,"''\"":9219,"Ġç¥Ń":9220,"ĠãĤ¢ãĥ³ãĥĪ":9221,"ä½ľçĶ»çĽ£çĿ£":9222,"åįģäºĮ":9223,"åĳ¼ãģ°":9224,"ãĤ·ãĥįãĥŀ":9225,"»åĭķ":9226,"ä¸įåĭķ":9227,"Ġå¢ĥ":9228,"UC":9229,"ãĥĦãĤ§":9230,"even":9231,"Ġid":9232,"ãĤ¤ãĥ©ãĤ¹ãĥĪ":9233,"ĠãĤ¢ãĥ³":9234,"ĠMIX":9235,"orus":9236,"ĠWil":9237,"Ġ#:(":9238,"æĺ¼":9239,"Ġä¸ŃæĹ¥":9240,"æ¥½åľĴ":9241,"å®Įåħ¨":9242,"ä¸įè©³":9243,"ĠPublish":9244,"æĺŁãģ®":9245,"å¯§":9246,"ãĥĹãĥŃãĤ°ãĥ©ãĥł":9247,"è¨¼åĪ¸":9248,"è¨Ĺ":9249,"ä¼ĳæŃ¢":9250,"ait":9251,"å¾©æ´»":9252,"ä»¥ä¸ĭãģ®":9253,"220":9254,"ĠOs":9255,"ĠSport":9256,"ĠãĢĪ":9257,"ĠæºĢ":9258,"ãģĺãģ¾":9259,"ĠBu":9260,"121":9261,"è¦ıæł¼":9262,"ming":9263,"Ġop":9264,"æľĢå¾Įãģ®":9265,"ãĥīãĥ«ãĥķ":9266,"ĠãģŁãģĭ":9267,"ĠèŃ¦è¦ĸåºģ":9268,"1944":9269,"æīĵæĴĥæĪĲç¸¾":9270,"oom":9271,"å¤§åŃĹ":9272,"ãĤµãĥ³ãĤ¼ãĥ«ãĤ¹":9273,"ĠBas":9274,"320":9275,"PL":9276,"ãĥ¯ãĥ¼ãĤº":9277,"ãĤ²ãĥ«":9278,"ĠQue":9279,"cess":9280,"æľĢåĦªç§Ģ":9281,"ible":9282,"Con":9283,"ĠãĥĨãĥ¬":9284,"ui":9285,"é«ĺçĶ°":9286,"Ġä½Ĳä¼¯":9287,"ãĥķãĤ£ãĤ¹":9288,"Ġåħ¬æ¼Ķ":9289,"æĸĩåĮĸä¼ļé¤¨":9290,"ãĥīãĥŁ":9291,"bs":9292,"æĮ¿åħ¥æŃĮ":9293,"é¼ĵ":9294,"Ġ137":9295,"ĠãĤ¢ãĥ©ãĥ³":9296,"çłĶä¿®":9297,"Ġ'''.":9298,"åºı":9299,"ãģĬãģĨ":9300,"¹æľ¬":9301,"Ġ136":9302,"æģ¯åŃĲ":9303,"ĠSk":9304,"ĠåĮĸ":9305,"å¤§éĺªå¸Ĥ":9306,"ĠNat":9307,"æĹ¥å¹³åĿĩä¹Ĺè»Ĭäººåĵ¡":9308,"ãĥ³ãĥľãĥ¼ãĥ«":9309,"ĠHy":9310,"135":9311,"æĺ¥æĹ¥":9312,"ãĥİãĥĻãĥ«":9313,"ĠåĽ£":9314,"ĠåĪĨé¡ŀ":9315,"èŃ¦éĥ¨":9316,"ãĥ¦ãĥ¼":9317,"ä»ķäºĭ":9318,"Ġ360":9319,"ãĥ¼ãĤ¹ãĤ¿":9320,"ãģĤãĤĦ":9321,"åģ¥äºĮ":9322,"Ġç²¾":9323,"ĠåĤ":9324,"AST":9325,"asy":9326,"ĠMill":9327,"ĠLtd":9328,"ATER":9329,"ĠãĥįãĤ¤":9330,"HER":9331,"åģľè»Ĭ":9332,"URA":9333,"Ġæ¶Īéĺ²":9334,"ĠESP":9335,"æįķçī©":9336,"ãģŁãĤĵ":9337,"è¡Įäºĭ":9338,"æĪ¦èī¦":9339,"Ġç¦ıäºķçľĮ":9340,"åºµ":9341,"å°ıçĶ°":9342,"Ġç´«":9343,"ç¬¦":9344,"'''ãĢį":9345,"ãĤ¨ãĥī":9346,"ãĤ¹ãĤ³ãĥĥãĥĪ":9347,"ãģĦåĩº":9348,"ĠLaw":9349,"ĠåİŁçĶ»":9350,"ESS":9351,"Ġ134":9352,"ĠèĬ¦":9353,"æ·¡":9354,"æ··":9355,"ãĥ¦ãĥĭãĥĥãĥĪ":9356,"Ġmix":9357,"æİ¡":9358,"ĠGreen":9359,"Ġå¼·":9360,"ĠDNF":9361,"Ã§":9362,"ãĤ³ãĤ¢":9363,"Ġnew":9364,"mar":9365,"ĠMad":9366,"å°İåħ¥":9367,"El":9368,"Ġ144":9369,"çµ±åĲĪ":9370,"Car":9371,"ãĥ¬ãĥ¼ãĥī":9372,"è»įåĽ£":9373,"ãĥĢãĤ¤ãĤ¹":9374,"ĠçĶ·æĢ§":9375,"CG":9376,"ĠJournal":9377,"ĠéĿ¢ç©į":9378,"ĠLine":9379,"ãĤ·ãĥŀ":9380,"æĸ½è¡Į":9381,"oro":9382,"åłº":9383,"æĿ±åĮº":9384,"ãĥĢãĥ¤":9385,"é¹¿åħĲå³¶":9386,"ç¾İç©Ĥ":9387,"ãĤ¹ãģ®":9388,"ç¨®é¡ŀ":9389,"NTV":9390,"ĠèĹ":9391,"ç¾©å¡¾":9392,"ãģĦç«ĭãģ¡":9393,"Ġ138":9394,"ADE":9395,"Ġéĺ²å¤§":9396,"ĠTIME":9397,"Ġå¹´æľĪæĹ¥":9398,"119":9399,"Ġ::#":9400,"ãĥ¯ãĥ¼ãĥ«ãĥīãĤ«ãĥĥãĥĹ":9401,"HA":9402,"ãĥŁãĤµ":9403,"Ġcont":9404,"Ġæ°´éĩİ":9405,"æģĭãģ®":9406,"ĠãĥķãĤ©ãĥ¼ãĥī":9407,"ĠTBSç³»åĪĹ":9408,"ĠãĤ¹ãĤ³ãĥĥãĥĪ":9409,"ĠSam":9410,"hr":9411,"Ġå®īçĶ°":9412,"ãĥ©ãĥİ":9413,"ĠãĤ¢ãĥ¬ãĥĥãĤ¯ãĤ¹":9414,"GL":9415,"atic":9416,"é¯":9417,"Ġ\"''":9418,"ãĤ±ãĥ³":9419,"ãĤ¤ãĥ¤ãĥ«":9420,"illa":9421,"åĪĩãĤĬ":9422,"ĠæģĲ":9423,"æĹĭ":9424,"Ġæĸ¹åĲĳ":9425,"Ġçħ§æĺİ":9426,"Ġåı²":9427,"å±±æĿĳ":9428,"èĳĹèī²":9429,"Ġra":9430,"ãĥ¡ãĥ¼ãĥ«":9431,"æľŁçĶŁ":9432,"ãĥĭãĤ¨":9433,"æ¬²":9434,"æŃ£ç¾©":9435,"ĠSN":9436,"ĠåĬĩåĽ£":9437,"ãĢıãĢİ":9438,"é«ĺåİŁ":9439,"ãģĸãģį":9440,"ä¸ĸçķĮãģ®":9441,"ãĥ³ãĤ¹ãĥĪ":9442,"åĮĹåı£":9443,"ĠæĿ¾å²¡":9444,"èĹĿæĺ¥ç§ĭ":9445,"ĠJO":9446,"ĠéĩİçĶ°":9447,"å½±éŁ¿":9448,"ĠRoy":9449,"order":9450,"ĠåĬĩåł´ãĤ¢ãĥĭãĥ¡":9451,"ĠçĻ½çŁ³":9452,"ĠãģĤãģį":9453,"ãĤ¹ãĥĨãĥ«":9454,"Ġå¤§äºķ":9455,"éĤĦ":9456,"æİ¨éĢ²":9457,"æ©Łéĸ¢è»Ĭ":9458,"Ġç³»åĪĹ":9459,"Jr":9460,"ãĥ´ãĤ£ãĥ³":9461,"ĠKe":9462,"ĠåĦªç§Ģ":9463,"ç²¾ç¥ŀ":9464,"ãĥ«ãĥĨ":9465,"ãĤ°ãĥªãĥ¼ãĥ³":9466,"Ġé«ĺçŁ¥çľĮ":9467,"ĠãĤ°ãĥŃ":9468,"Ġãģ¿ãĤĵãģª":9469,"ĠCat":9470,"å§Ķåĵ¡éķ·":9471,"æ¨Ļæºĸ":9472,"ãģĪãĤĵ":9473,"ĠçŁ³åİŁ":9474,"å±±ä¸ĭ":9475,"Ġãģ¾ãģķ":9476,"Ġæ¿Ģ":9477,"åĬłåħ¥":9478,"ĠèĹ¤æľ¬":9479,"ãģĭãģŃ":9480,"ãĥĭãĤ¢å·ŀ":9481,"ĠSHI":9482,"ĠPet":9483,"ãĤ²ãĤ¤":9484,".(":9485,"ãĤıãĤĭ":9486,"ople":9487,"ĠåİŁé¡Į":9488,"æĿĳä¸Ĭ":9489,"Ġ139":9490,"1943":9491,"ĠUnited":9492,"ĠçĪ¶":9493,"cher":9494,"mp":9495,"ãĤıãģŁ":9496,"æł¸":9497,"ãĥŃãĤ¸ãĥ¼":9498,"ãĤ«ãĥ©ãĥ¼":9499,"æ©Łåĭķ":9500,"æµ´":9501,"ãĥıãĥ¼ãĥī":9502,"Ġåı¸ä¼ļ":9503,"«»äºķ":9504,"åħ±ç·¨":9505,"å¹¹éĥ¨":9506,"1939":9507,"ãĥıãĥ³ãĥī":9508,"Ġæ¸¯":9509,"ĠçµµãĤ³ãĥ³ãĥĨ":9510,"Ġ1906":9511,"çīŁ":9512,"ĠãģķãģĦãģŁãģ¾":9513,"ategory":9514,"oshi":9515,"ĠLong":9516,"Ġæ¸©":9517,"ç¾¤é¦¬":9518,"ä½Ļ":9519,"ãĥĥãĤŃãĥ³ãĤ°":9520,"conom":9521,"fin":9522,"ãĤ·ãĥ³ãĥĪãĥ³":9523,"ĠBaby":9524,"ãģ²ãĤī":9525,"ĠéłŃ":9526,"ĠBooks":9527,"ĠéĻ½":9528,"ĠAust":9529,"å¤ľãģ®":9530,"iana":9531,"ãĥŁãĥĬ":9532,"ĠãģĤãģªãģŁ":9533,"ĠAgain":9534,"èķ":9535,"ema":9536,"Ġä¹Ĺåĵ¡":9537,"123":9538,"ĠHO":9539,"Ġser":9540,"Ġéļ£æİ¥ãģĻãĤĭ":9541,"ãĥĸãĥ©ãĤ¦ãĥ³":9542,"Ġåı¤å·Ŀ":9543,"Ġad":9544,"ĠãĤŃãĥ£ãĥ©ãĤ¯ãĤ¿ãĥ¼ãĥĩãĤ¶ãĤ¤ãĥ³":9545,"ball":9546,"Ġ1909":9547,"ãģĪãĤĬ":9548,"uture":9549,"Ġå¿ł":9550,"ĠãĥĪãĥĭãĥ¼":9551,"Ġãĥ¬ãĤª":9552,"æĹ¥çĻºè¡Į":9553,"ãĤ¹ãĥĹãĥª":9554,"ĠæĿ±èĬĿ":9555,"ĠéĢ±åĪĬ":9556,"Ġ145":9557,"å¡ŀ":9558,"ãĤĵãģĵ":9559,"ãĢį)":9560,"Ġä¸ĸçķĮéģ¸æīĭæ¨©":9561,"Ġå®®å´İçľĮ":9562,"æ´Ĺ":9563,"å½¹åł´":9564,"ãģ¼ãģĨ":9565,"ç¬łåİŁ":9566,"Ġæ²ĸ":9567,"Ġå³¶çĶ°":9568,"ãĤ·ãĥ¼ãĤºãĥ³çµĤäºĨæĻĤ":9569,"ĠãĥĹãĥŃåħ¥ãĤĬ":9570,"Ġè¡ĨèŃ°éĻ¢":9571,"æĪ¦è¨ĺ":9572,"æ®ĸ":9573,"ãĥŀãĥ¼ãĤ¯":9574,"ãģĸãĤı":9575,"ãĤ¹ãĥļãĤ¤ãĥ³":9576,"ĠæµľæĿ¾":9577,"Ġè¨Ģ":9578,"Ġå±±æ¢¨çľĮ":9579,"ĠæĿ¾ä¸ĭ":9580,"ãģŀãģĨ":9581,"ÃŁ":9582,"çŁ³äºķ":9583,"ãĥ¼ãĥ´ãĤ£":9584,"ĠéĽ»æ°Ĺ":9585,"Ġç«¶æĬĢ":9586,"Ġå®Ŀå¡ļ":9587,"å¹´éĸĵ":9588,"Ġéĥ·":9589,"ãģ¿ãģªãģ¿":9590,"ĠåįĹæµ·":9591,"ouble":9592,"170":9593,"Ġé³´":9594,"ãĥ«ãĥĩãĤ£":9595,"ä¿¡åı·":9596,"ãĤ¸ãĥ§ãĥ¼ãĤ¸":9597,"Ġæĭħå½ĵ":9598,"Ġæª":9599,"Ġ170":9600,"ago":9601,"ãĤŃãĥ£ãĥ©":9602,"1931":9603,"ãĥ¼ãĤ¸ãĥ£ãĥ¼":9604,"ĠHor":9605,"è³ŀåıĹè³ŀ":9606,"ISE":9607,"ibrary":9608,"ãĤ¢ãĥªãĥ¼":9609,"ãĥ¼ãĥªãĥ³":9610,"éĽĳ":9611,"ĠHill":9612,"Ġãĥ¢ãĥĩãĥ«":9613,"ĠType":9614,"1946":9615,"ĠDis":9616,"ãĤ¦ãĤ©ãĥĥãĥģ":9617,"ãĥ³ãĤ¸ãĥ¥":9618,"Ġç¿»è¨³":9619,"Ġãĥ©ãĥĸ":9620,"ĠéģĭçĶ¨":9621,"Ġç¸":9622,"lege":9623,"ĠéŃļ":9624,"é³³":9625,"ĠInstitute":9626,"å¤§å®®":9627,"cho":9628,"Ġãĥĺãĥ«":9629,"ãģ®çĶº":9630,"èĩ´":9631,"IES":9632,"ĠSA":9633,"atus":9634,"ĠLet":9635,"å±ĭæķ·":9636,"ãģĬãĤĭ":9637,"ĠUl":9638,"406":9639,"è¡ĽæĺŁ":9640,"ness":9641,"rib":9642,"ä¸»è¦ģ":9643,"å°Ĩæ£ĭ":9644,"æ¤ľæŁ»":9645,"ãĤ³ãĤ¦":9646,"ãĥģãĥ£ãĥ¼":9647,"Ġå£°åĦª":9648,"BOX":9649,"Man":9650,"ĠãĥīãĤ¥":9651,"ĠãĤ¢ãĤ¤ãĤ¹":9652,"ä½¿ãģĦ":9653,"Ġç¾İè¡ĵçĽ£çĿ£":9654,"ĠPublic":9655,"ĠCP":9656,"ãĥģãĤ¢":9657,"åĲįèªīæķĻæİĪ":9658,"ãĥŀãĥªãĥ¼":9659,"Ġä»ĸãģ®":9660,"ãģ¿ãģ©ãĤĬ":9661,"çĲĨè«ĸ":9662,"Ġres":9663,"ODY":9664,"ĠãĤ¹ãĥ¼ãĥĳãĥ¼":9665,"ä¿¡çĶ¨éĩĳåº«":9666,"ague":9667,"ãĤ¸ãĤ·ãĥ§ãĥ³":9668,"åłħ":9669,"ĠVir":9670,"éĢ¢":9671,"leas":9672,"ĠãĤ¤ãĥ¡ãĥ¼ãĤ¸":9673,"Ġé«":9674,"ä¸Ńå¿ĥ":9675,"ĠæĶ¾éĢģæĹ¥æĻĤ":9676,"ĠVict":9677,"èĬ¸äºº":9678,"åĲĪåĶ±":9679,"ãģªãĤĵ":9680,"çĶ³":9681,"éļĬéķ·":9682,"ĠFestival":9683,"ambridge":9684,"ĠEurope":9685,"ĠãģŃ":9686,"Ġyour":9687,"ĠFrank":9688,"æĺĩæł¼":9689,"ĠãĥĲãĥ©ãĤ¨ãĥĨãĤ£":9690,"ĠBrit":9691,"ĠãĢĶ":9692,"æ°ĳä¸»":9693,"Dr":9694,"ĠãĤ»ãĥ³ãĤ¿ãĥ¼":9695,"ãĥŃãĥ¼ãĥŀ":9696,"240":9697,"æĲŃè¼ī":9698,"iol":9699,"Ġå±±åĨħ":9700,"ãĤ¹ãĤ«ãĤ¤":9701,"æĬķç¥¨":9702,"ious":9703,"Ġ143":9704,"çµĮç·¯":9705,"Ġ155":9706,"BD":9707,"åĮħ":9708,"ãĤ½ãĥĭãĥĥãĤ¯":9709,"ãĢģ)":9710,"ĠDan":9711,"ãĥ¼ãĤ¹ãĥĿãĥ¼ãĥĦ":9712,"enter":9713,"ãĥ³ãĤ·ãĥ¥":9714,"SO":9715,"ãģĵãģĵ":9716,"ĠStates":9717,"Ġå¿«":9718,"Ġæ²³å·Ŀ":9719,"æ¼ģæ¸¯":9720,"ãĥīãĤ¦":9721,"éĸ¢æķ°":9722,"ĠéĢļå¸¸çĽ¤":9723,"ĠèĮĤ":9724,"ãĥķãĤ£ãĥ³":9725,"Ġä¼ĬæĿ±":9726,"ç¥ŀå®®":9727,"åįĹéĥ¨":9728,"ĠMal":9729,"ãĤ¿ãĥ¯ãĥ¼":9730,"éĩĿ":9731,"æ¸Ľ":9732,"ĠçŁ¢éĩİ":9733,"ãģ¦ãĤĭ":9734,"è²¨çī©":9735,"Ġå¤§éĺªå¸Ĥ":9736,"ãĤ¾ãĥ³":9737,"ĠãĥĵãĥĥãĤ°":9738,"ãĥŀãĤŃ":9739,"ĠFre":9740,"é«ĺçŃīåŃ¦æł¡ä¸Ģè¦§":9741,"ãģ¾ãģŁãģ¯":9742,"ĠçľĭèŃ·":9743,"äººå½¢":9744,"ĠãĥĪãĥĥãĥĹ":9745,"ĠãĥĨãĥ¬ãĥĵçķªçµĦ":9746,"å±±æ¢¨":9747,"ä½ĵèĤ²å¤§åŃ¦":9748,"ãĥ³ãĥĩãĥ¬ãĥ©":9749,"lev":9750,"è¥¿éĥ¨":9751,"feat":9752,"Ġä¿º":9753,"ãĤ«ãĥ¡ãĥ©":9754,"ãĥľãĤ¦":9755,"æ¯Ĵ":9756,"230":9757,"å¹´åº¦ãĤ·ãĥ¼ãĤºãĥ³çµĤäºĨæĻĤ":9758,"ç¥ŀçµĮ":9759,"é·²":9760,"åĮĹåĮº":9761,"çŁ¥äºĭ":9762,"åĴĮä¹Ł":9763,"rick":9764,"dy":9765,"Ġç±³åĽ½":9766,"ãģ«ç·¨åħ¥":9767,"æµ·å²¸":9768,"ãģĳãģĦ":9769,"ĠåıĤçħ§":9770,"åģľè»Ĭåł´":9771,"Ġäº¤å·®ãģĻãĤĭéģĵè·¯":9772,"ĠMak":9773,"ĠãģĤãģĦ":9774,"ãĥ«ãĥ¼ãĥ«":9775,"Ġå¹´åº¦åĪ¥æīĵæĴĥæĪĲç¸¾":9776,"ä¸ĸä»£":9777,"ĠåľŁå±ĭ":9778,"ĠæľĽ":9779,"æĶ¿åħļ":9780,"ãģ®ä¼ļ":9781,"Ġéį":9782,"ional":9783,"æıĲæĲº":9784,"åĴĮå½¦":9785,"è²¬":9786,"ãĥ¼ãĥ³ãĤº":9787,"ĠèĪĪ":9788,"ĠãĢĬ":9789,"æĺİåħļ":9790,"LY":9791,"åĿĤæľ¬":9792,"Ġ142":9793,"è¨ĺèĢħ":9794,"ĠåĽŀæķ°":9795,"åįĹåı£":9796,"Ġæ²¹":9797,"Ġ141":9798,"Ġä¸īæľ¨":9799,"Ġäº¤éĢļãĤ¢ãĤ¯ãĤ»ãĤ¹":9800,"Ġä¸Ĭæµ·":9801,"Ġçı¾åľ¨ãģ®":9802,"ãĥ¤ãĥ³ãĤ°":9803,"1942":9804,"æºĿ":9805,"ãĤ·ãĥ³ãĤ°ãĥ«ãĤ¹":9806,"ĠLim":9807,"ĠãĤ¢ãĥŀ":9808,"ĠåŃ¦çĶŁ":9809,"ĠCOLLECTION":9810,"ãģ£ãģ½":9811,"çĬ¯ç½ª":9812,"Ġãģ¼":9813,"ĠAKB":9814,"ĠãĤ¯ãĥ¬ãĥ¼":9815,"Ġè»½":9816,"ĠæĿĳçĶ°":9817,"ãģ©ãĤĵ":9818,"go":9819,"gan":9820,"Ġæľįéĥ¨":9821,"ãĤ¢ãĥ¼ãĥĨãĤ£ãĤ¹ãĥĪ":9822,"ĠãĤĮ":9823,"icon":9824,"ĠHow":9825,"ĠçĨĬè°·":9826,"ãģĻãģ¹ãģ¦":9827,"Ver":9828,"umi":9829,"çĽ¸æĴ²":9830,"ãĥ¼ãĥķãĤ©":9831,"ror":9832,"ãĥĥãĤ¹ãĥ«":9833,"Ġæĸ°äºķ":9834,"è¦ªçİĭ":9835,"ãĥ©ãĤ¦":9836,"Ġ'''(":9837,"127":9838,"åĳī":9839,"ä¹ħéĸĵ":9840,"ĠéĸĭåĤ¬åľ°":9841,"è¤ĩåĮºéĸĵ":9842,"ĠãĥĢãĥĸãĥ«":9843,"ĠæĿīå±±":9844,"ãģ®åıĭ":9845,"ĠLov":9846,"Ġå°ıåŃ¦é¤¨":9847,"Ġè¥¿å·Ŀ":9848,"ĠãģªãģĬ":9849,"ãģ®å®Ł":9850,"ãĥŃãĥķ":9851,"ITH":9852,"ä¸ŃåŃ¦æł¡ãģ®":9853,"ĠRADIO":9854,"æĸĩèĬ¸":9855,"æ¨½":9856,"çĻºè¦ĭ":9857,"Ġ**'''":9858,"kgç´ļ":9859,"æĶ¯éĥ¨":9860,"ĠJan":9861,"ç«¶é¦¬":9862,"Ġæ¬§å·ŀ":9863,"ãģ¤ãģ¿":9864,"Ġç©ºæ¸¯":9865,"Par":9866,"MM":9867,"eld":9868,"ĠãĤ¹ãĤ«":9869,"urs":9870,"Ġå¤§ä½Ĳ":9871,"Ġcomp":9872,"æĸ°å¹¹ç·ļ":9873,"133":9874,"ĠSW":9875,"ãĤµãĤ¤ãĥī":9876,"ĠãĥĶãĥ³ãĤ¯":9877,"ĠãĥĴãĥŃ":9878,"Ġç§ģç«ĭ":9879,"ĠéĢļéģİãģĻãĤĭ":9880,"æĺ§":9881,"èĢ¶":9882,"è«¸åħĥ":9883,"Ð²":9884,"æ³ķå¾ĭç¬¬":9885,"ãĥĲãĤ¹ãĤ¿":9886,"å¥³åŃ¦æł¡":9887,"è¡Įãģı":9888,"iful":9889,"ĠèĮ¶":9890,"Ġåīµç«ĭ":9891,"ãģ®æīĭ":9892,"Ġç´ĭ":9893,"è¨ĵç·´":9894,"ĠTown":9895,"ç£ģ":9896,"çĶ°ä¿¡":9897,"èĹį":9898,"Ġ1905":9899,"Ġdo":9900,"Ñĥ":9901,"ãĥ©ãĤ¸":9902,"Ġä¸īäºķ":9903,"ãĥ«ãĤ¤":9904,"å°ıæĿ¾":9905,"ĠStudio":9906,"ãĤªãĤ±":9907,"1400":9908,"Ġç¦ıå±±":9909,"Die":9910,"ãĥĶãĥ¼":9911,"GC":9912,"ĠâĢĵ":9913,"ĠãĥĪãĥ¼ãĥŀãĤ¹":9914,"ãĥ¼ãĥĨãĤ£ãĥ¼":9915,"æĹ¥çĽ®":9916,"èĴ¼":9917,"èĬ½":9918,"é§Ĳåľ¨æīĢ":9919,"ĠLike":9920,"åį¿":9921,"Ġå¾³å·Ŀ":9922,"ĠThomas":9923,"MY":9924,"ãĥ¡ãĥª":9925,"yu":9926,"æľĪçĻºå£²":9927,"ĠãĤ°ãĥ©ãĥ³ãĥĹãĥª":9928,"Ġmi":9929,"ĠANN":9930,"ãĤµãĤ¹ãĥļãĥ³ãĤ¹":9931,"Ġãģ¨ãĤĤ":9932,"ãĥ«ãĤŃ":9933,"ĠRichard":9934,"ãĥ¼ãĥĬãĤ¹":9935,"åĴĮå¤«":9936,"Ġ162":9937,"ç¥ŀå¥Īå·ĿçľĮ":9938,"ĠâĺĨ":9939,"Ġart":9940,"205":9941,"UMP":9942,"ĠGeorge":9943,"éĢ¸":9944,"å¤§è°·":9945,"é«ĺçŁ¥":9946,"ĠãģĹãĤĵ":9947,"ĠGoogle":9948,"ãĤ¤ãĤ¢ãĥ³ãĥĦ":9949,"Ġäºĭæ¥Ń":9950,"ãĥĵãĥĥãĤ°":9951,"SUPER":9952,"Ġç¢":9953,"ĠæļĹ":9954,"ĠéĤ¦é¡ĮåİŁé¡Į":9955,"Ġ600":9956,"iter":9957,"æĺłçĶ»è³ŀ":9958,"Ġæµ¦åĴĮ":9959,"åı¸ä»¤éĥ¨":9960,"mon":9961,"ĠRacing":9962,"ĠCamp":9963,"åĵ²åĵī":9964,"Ġç¥ŀå¥Īå·Ŀ":9965,"ãĥĵãĥĥãĥī":9966,"äº«":9967,"ĠæĹ¥çĶ£":9968,"ĠæŃ©":9969,"è¬Ľå¸«":9970,"ãĤ¸ãĥ£ãĥ³":9971,"å·ŀå¸Ĥ":9972,"ĠPiano":9973,"éģĭåĸ¶":9974,"ĠãĥĵãĥĩãĤª":9975,"å¤§çµ±éłĺ":9976,"éĤ¸":9977,"ãĥĪãĥĥãĥĹ":9978,"OO":9979,"ĠBéĿ¢":9980,"ichi":9981,"ãĥ¼ãĤ¿ãĤ¤":9982,"ĠSUMMER":9983,"Ġé«ĺå±±":9984,"ĠèĩªçĦ¶":9985,"éļĪ":9986,"Ġ152":9987,"ĠãģĤãĤĭ":9988,"å¹´æ³ķå¾ĭç¬¬":9989,"122":9990,"icle":9991,"Ġ151":9992,"ãĤ¤ãĥ³ãĤ°":9993,"ĠGall":9994,"ĠæŃ»åİ»":9995,"ãĥ¡ãĥ³ãĤ¿ãĥªãĥ¼":9996,"ãĥ³ãĥĴ":9997,"ĠBen":9998,"ĠãĤ¢ãĥ¬":9999,"éģĵåħ·":10000,"ĠãĤ¸ãĤ§ãĥķ":10001,"ĠResearch":10002,"ãĥĸãĤ¹":10003,"ãģĵãģĿ":10004,"ĠDNQ":10005,"åĨħç§ĳ":10006,"ĠDNS":10007,"ãĤ¦ãĥ³ãĥĪ":10008,"ãģįãĤĬ":10009,"Ġmed":10010,"Ġæ¥ł":10011,"è¨Ģèĳī":10012,"ãĥĲãĤ«":10013,"Ġãĥ¬ãĥ¼ãĤ¹":10014,"ãģ®éĥ¨":10015,"ãĥŀãĥĥãĥģ":10016,"ĠHand":10017,"ĠTRI":10018,"ĠéĽ»åŃĲ":10019,"En":10020,"Ġæķĳ":10021,"Ġèħ":10022,"ãĥĸãĥ«ãĥ¼ãĤ¹":10023,"augh":10024,"ãģ¿ãģª":10025,"Ġãģ¯ãĤĭ":10026,"ĠéĿĴæĺ¥":10027,"Ġç¨®çĽ®":10028,"ãĤīãģ°":10029,"210":10030,"æ¥ł":10031,"ids":10032,"ç¬¹":10033,"AMP":10034,"ãĥ©ãĥ¼ãĤº":10035,"åħ¬ç¤¾":10036,"ä¹ĹãĤĬ":10037,"ãĤŃãĥ¥ãĤ¢":10038,"ãĥĨãĤ¹ãĥĪ":10039,"ĠãĤĪãģĹ":10040,"ĠJGP":10041,"ä¸ŃæŃ¢":10042,"ãĤ¹ãĤ¿ãĤ¤ãĥ«":10043,"ĠãĤ¨ãĥªãĥĥãĤ¯":10044,"ãĤ´ãĥ¼ãĥ«ãĥī":10045,"Ġè¿·":10046,"ala":10047,"ĠOper":10048,"Ġç·¨æĪĲ":10049,"ĠãģĿãģ®å¾Į":10050,"çĻºéĽ»æīĢ":10051,"ãĥĪãĥ¼ãĤ¯":10052,"Ġé»ĴçĶ°":10053,"ãĤ¬ãĥ¼ãĤ¹":10054,"å²¡çĶ°":10055,"ĠãĥŁãĥ¥":10056,"onda":10057,"ãĥ¼ãĥĨãĤ£ãĥ³ãĤ°":10058,"èģ·åĵ¡":10059,"ãĥĳãĤ¤":10060,"ãĥĴãĥ¥":10061,"ĠFrom":10062,"å¤©çİĭ":10063,"ãĤ¹ãĥ¼ãĥĳãĥ¼":10064,"ç¡¬":10065,"Ġå¤ªå¹³æ´ĭ":10066,"ĠæľŁéĸĵ":10067,"è»¸":10068,"ĠJust":10069,"Ġä½ľåĵģåĲį":10070,"ĠãĤ¨ãĥĩãĤ£":10071,"æ¤İ":10072,"åįļä¹ĭ":10073,"autiful":10074,"Ġç©ºä¸Ń":10075,"301":10076,"ãĤĴæĮģ":10077,"ãĥĩãĥ¼":10078,"360":10079,"§è·¯":10080,"ĠAug":10081,"Ġçķ°":10082,"ãģ»ãģĨ":10083,"²å½ĵ":10084,"Ġå¼¥":10085,"ãĥŀãĤ°":10086,"ĠRuss":10087,"Ġå®ĩéĥ½å®®":10088,"ĠMax":10089,"æ°´éĩı":10090,"uke":10091,"è¨ĺæĨ¶":10092,"190":10093,"ĠãĤ¹ãĤ³ãĤ¢":10094,"ĠåĩºçīĪ":10095,"ãĥ³ãĤ¹ãĤŃãĥ¼":10096,"Ġæ©ŁåĭķæĪ¦å£«ãĤ¬ãĥ³ãĥĢãĥł":10097,"éĢĲ":10098,"åĭŁ":10099,"ãĥĢãĤ¦":10100,"ãĥ¼ãĤªãĥķ":10101,"ãĥĬãĥĬ":10102,"ĠHon":10103,"ĠWr":10104,"çĶ°åĮº":10105,"å¿ħ":10106,"éĽĨåĽ£":10107,"Ġèĺ":10108,"ãĥ©ãĥĨãĥ³":10109,"ĠCast":10110,"ãģĳãģ®":10111,"ried":10112,"ãĥĺãĤ¤":10113,"ĠDiv":10114,"çģ¯åı°":10115,"å°ıåŃ¦":10116,"Ġãĥĳãĥ©":10117,"Ġ:(":10118,"ãģ²ãĤįãģĹ":10119,"Ġ156":10120,"æĶ¯ç¤¾":10121,"HY":10122,"ront":10123,"xford":10124,"ĠPeter":10125,"1930":10126,"ä¸Ńå·Ŀ":10127,"ĠæĿ¾æµ¦":10128,"æ¯İæĹ¥æĶ¾éĢģ":10129,"ãĤĴè¦ĭ":10130,"ĠDark":10131,"ĠPop":10132,"å¢¨":10133,"ĠJA":10134,"ãĥ«ãĥ«":10135,"å¬¢":10136,"ript":10137,"èĿ¶":10138,"Ġç§ĭå±±":10139,"æ¼«çĶ»å®¶":10140,"ĠæĪĳ":10141,"ĠæĢĿ":10142,"1937":10143,"OWOW":10144,"ĠPri":10145,"åŁºæºĸ":10146,"åĴ":10147,"è¥¿æĿĳ":10148,"çªª":10149,"UKI":10150,"no":10151,"ãģ®ãģ¡":10152,"æ¹Ĭ":10153,"ATA":10154,"ĠæĹ¥æľ¬åħ±çĶ£åħļ":10155,"ãĤ¹ãĥĨãĥ¼ãĤ·ãĥ§ãĥ³":10156,"144":10157,"ãĥľãĥ«":10158,"å¥Īç¾İ":10159,"ARE":10160,"å£®":10161,"ba":10162,"éģ©":10163,"åĪº":10164,"ĠGIRL":10165,"lement":10166,"çĢ¬æĪ¸":10167,"å¤§å³¶":10168,"Ġå¾Ĺç¥¨æķ°":10169,"Ġ147":10170,"ãģªãģĬ":10171,"Ġ154":10172,"ãģ®ãģŁãĤģãģ®":10173,"136":10174,"222":10175,"éĢļç®Ĺ":10176,"ĠMel":10177,"æĦĽåªĽ":10178,"Ġæ¾¤":10179,"ĠDist":10180,"æĸĩåĮĸæĶ¾éĢģ":10181,"Ġé£¯çĶ°":10182,"ãĥ©ãĤ¤ãĥĢãĥ¼":10183,"ãĤĵãģı":10184,"åĲįåı¤å±ĭå¸Ĥ":10185,"æıļ":10186,"ãĤ°ãĥ¬ãĤ¤":10187,"Ġå®®åŁİ":10188,"ĠElectric":10189,"ĠçĮª":10190,"ãĥ³ãĥŃãĥ¼ãĥī":10191,"ĠéĽ²":10192,"1938":10193,"Ġä¸ŃåİŁ":10194,"ĪãĤĬ":10195,"Ġæ²³éĩİ":10196,"åĵ²éĥİ":10197,"ĠãĤĢ":10198,"iko":10199,"Ġå¿ľ":10200,"ĠçľĮéģĵ":10201,"ãĥĹãĤ¿ãĥ¼":10202,"Ġè©©":10203,"åıĸå¼ķ":10204,"ĠHistor":10205,"è£Ĥ":10206,"ISH":10207,"Ġãģĵãģĵ":10208,".'''":10209,"ĠAut":10210,"æĸĩé¤¨":10211,"ãĥ©ãĤ¤ãĥī":10212,"Ġä¸»ãģªåĩºæ¼Ķ":10213,"ĠéĮ¦":10214,"rs":10215,"åįĶå¥ıæĽ²":10216,"é¢¨ãģ®":10217,"ona":10218,"äº¬åŃĲ":10219,"ORN":10220,"ĠOrd":10221,"ĠTur":10222,"ãĥķãĤ¡ãĤ¤ãĥĬãĥ«":10223,"ç·ļãģ®":10224,"166":10225,"ä½ľæĽ²å®¶":10226,"Ġå¼ģ":10227,"ĠOUT":10228,"ĠAlex":10229,"Ġrec":10230,"ãĤ¤ãĥ«ãĥ©ãĥ³ãĥī":10231,"Ġæ²¿":10232,"ĠçĽĽå²¡":10233,"Les":10234,"PP":10235,"ĠæĹ©ç¨²çĶ°å¤§åŃ¦":10236,"ãĥ¡ãĥ¢":10237,"260":10238,"ump":10239,"ĠéĢĨ":10240,"ãĥŀãĤ¬ãĤ¸ãĥ³":10241,"å¯®":10242,"uter":10243,"ĠGod":10244,"Ġå¤§æ©ĭ":10245,"Ġ146":10246,"ãĤ¹ãĤ¿ãĥ«":10247,"ãĥģãĥ³":10248,"ãĥĥãĥļ":10249,"ĠNED":10250,"ĠBY":10251,"ĠèįĴå·Ŀ":10252,"ãĥ¼ãĤŃãĥĥãĥĪ":10253,"ä»ĺè¿ĳ":10254,"ĠãģĵãĤĮ":10255,"èªŃå£²":10256,"ãĥ¼ãĤ¼ãĥ«":10257,"OUL":10258,"Ġãĥĭãĥ¥ãĥ¼ãĤ¹":10259,"ants":10260,"ãĥ³ãĤ·ãĥ¼":10261,"Ġå¥Īèī¯çľĮ":10262,"SR":10263,"Ġè¥¿çĶ°":10264,"ãĤ¦ãĥª":10265,"éĽĦä¸Ģ":10266,"Ã¼n":10267,"ĠMo":10268,"æİ¨çĲĨ":10269,"Ġãģ¸":10270,"çħ§æĺİ":10271,"ĠGL":10272,"åĽ½åĨħ":10273,"ĠDi":10274,"ĠAUS":10275,"ĠãĤ·ãĤ«ãĤ´":10276,"ĠTD":10277,"ãģĲãģ¡":10278,"ãĤ¦ãĤ£ãĥ³":10279,"gl":10280,"ãĤ¿ãĥ¼ãĤº":10281,"ç¨į":10282,"ĠSo":10283,"ãĥĥãĥĹãĥ«":10284,"Ġå¹³åĿĩ":10285,"å¤ªçĶ°":10286,"å¸Ĥå·Ŀ":10287,"286":10288,"åŁºæľ¬":10289,"ĠBEAT":10290,"ãģªãģİ":10291,"ãĥ¬ãĤ¤ãĤ¯":10292,"ĠçĻ»åł´ä½ľåĵģ":10293,"ãģıãģ®":10294,"!''":10295,"éĤĳ":10296,"ãĥ¼ãĤŃãĥ£":10297,"å°ıå·Ŀ":10298,"ĠåĨ¨":10299,"ĠEconom":10300,"Ġæ´ĭ":10301,"Ġ<":10302,"ãĥĭãĥ¼ãĤº":10303,"Ġone":10304,"ĠTEAM":10305,"ARS":10306,"ĠThis":10307,"ãĥĥãĥĶãĥ³ãĤ°":10308,"Ġå¤§å±±":10309,"Ġå¤§æ£®":10310,"ãĥ³ãĤ¿ãĥ«":10311,"ĠçĶŁãģĦç«ĭãģ¡":10312,"ragon":10313,"ĠHen":10314,"éĽ»æ°ĹéīĦéģĵ":10315,"ãĥ¬ãĥ¼ãĥ«":10316,"åĲĪæĪ¦":10317,"Ġæ»ĭè³ĢçľĮ":10318,"å±ķéĸĭ":10319,"çīĻ":10320,"æ°¸éģł":10321,"Ġè±ĬçĶ°":10322,"Ġå°Ĩ":10323,"raft":10324,"Ġpart":10325,"åĲ¹ãģįæĽ¿ãģĪ":10326,"ãģ®ç§ĺå¯Ĩ":10327,"ABC":10328,"éĢ£çµ¡":10329,"ĠãĤ®ãĥª":10330,"éģ£":10331,"OSHI":10332,"é´¨":10333,"ãĥĵãĤ¨":10334,"ãĤ³ãĥķ":10335,"ĠSUG":10336,"ç´³":10337,"ĠTop":10338,"ots":10339,"Ġé³¥åıĸçľĮ":10340,"åīįé§ħ":10341,"ãĥŀãĤ·":10342,"ãģ¦ãĤĵ":10343,"ãĥŃãĥĲ":10344,"ĠãĤªãĥ©ãĥ³ãĥĢ":10345,"ĠãĤ¤ãĥ©ãĤ¹ãĥĪ":10346,"gen":10347,"ãĤ«ãĤ¿":10348,"ãĤµãĤ¦":10349,"ĠStand":10350,"åįĹå¸Ĥ":10351,"å°ıèª¬å®¶":10352,"Ġç¶ļ":10353,"ĠDem":10354,"éģĵåºľçľĮ":10355,"ĠéĢļéģİãģĻãĤĭèĩªæ²»ä½ĵ":10356,"Ġ1901":10357,"ĠMur":10358,"ĠéĻ³":10359,"Li":10360,"Qu":10361,"Ġ149":10362,"æĿ¾å±±":10363,"uff":10364,"ãĤ¦ãĤ§ãĥ¼":10365,"èĮī":10366,"Ġgu":10367,"ãĥŁãĥĥãĥĪ":10368,"Ġä¼ĳ":10369,"Windows":10370,"Ge":10371,":(-":10372,"ãĤīãĤĮ":10373,"ĠJos":10374,"Ġ153":10375,"Ġav":10376,"Ġè²©å£²":10377,"Ġéĺ²è¡Ľ":10378,"æ¬¡åħĥ":10379,"ĠAéĿ¢":10380,"Ġâĸł":10381,"å¿ĺ":10382,"Ġæĵ":10383,"280":10384,"ĠåĬ´":10385,"burg":10386,"ĠUFC":10387,"ãĥĨãĥ¬ãĥĵãĥīãĥ©ãĥŀ":10388,"ĠèĮ¨åŁİ":10389,"ĠJr":10390,"çĶ¨èªŀ":10391,"ĠãĥķãĤ£ãĥªãĥĥãĥĹ":10392,"Ġæ¹ĸ":10393,"ãĥĢãĥ«ãĥĪ":10394,"OND":10395,"ĠJPN":10396,"åħ¼ä»»":10397,"ãĥĩãĤ£ãĤª":10398,"æĹ¥éģħãĤĮ":10399,"èª°":10400,"æµ©åı¸":10401,"ĠYoung":10402,"ĠæĴ®å½±çĽ£çĿ£":10403,"æ²³åİŁ":10404,"ĠéħĴ":10405,"ĠBRA":10406,"æĹ¥æľ¬æĶ¾éĢģ":10407,"ĠèĴ¼":10408,"ĠçĶŁæ´»":10409,"ãĥłãĥĭãĥĲãĤ¹":10410,"vol":10411,"ĠLin":10412,"Ġ;;":10413,"ĠãĥŀãĥĥãĤ¯ãĤ¹":10414,"ãĥ¼ãĥŀãĥĥãĥĪ":10415,"ĠçĶ°è¾º":10416,"204":10417,"éĿĴæľ¨":10418,"ãģłãģĹ":10419,"Ġå¸ĥ":10420,"ãĥģãĥ§ãĤ¦":10421,"Ġ148":10422,"ãģ¨ãģªãģ£ãģŁ":10423,"ãģĤãĤĨãģ¿":10424,"ãĥ¼ãĥ©ãĥ³":10425,"ĠMAG":10426,"ãģªãģ®":10427,"lease":10428,"__":10429,"ĠGEN":10430,"å¯Įå±±":10431,"ãĥĵãĥ¼ç´ļ":10432,"ĠãĥķãĤ¸ãĥĨãĥ¬ãĥĵç³»åĪĹ":10433,"ãĢģãĢģ":10434,"èĤ¥":10435,"ãĥªãĥ¥ãĥ¼":10436,"ĠCommun":10437,"ãĥ¬ãĤ¤ãĥ³":10438,"ĠåºĦ":10439,"Ġå£°ãģ®åĩºæ¼Ķ":10440,"ĠMk":10441,"ĠBMW":10442,"ĠãĤªãĥªãĥ³ãĥĶãĥĥãĤ¯":10443,"ãĥ³ãĥ¡ãĥ³ãĥĪ":10444,"ä¼İ":10445,"mb":10446,"elop":10447,"Ġhist":10448,"ãĤ½ãĤ¦ãĥ«":10449,"ĠNEWS":10450,"Ġè¢«":10451,"ĠãĥķãĤ¡ãĤ¤ãĥĬãĥ«":10452,"æ»ĳ":10453,"tt":10454,"ãĥĬãĥ¬ãĥ¼ãĤ·ãĥ§ãĥ³":10455,"åĪ·":10456,"ãĥ©ãĥī":10457,"ãĤ·ãĥ§ãĥĥãĥĹ":10458,"anguage":10459,"ãģ«å¯¾":10460,"çĶŁãģį":10461,"202":10462,"ãĥŃãĥ«":10463,"ĠåĭĿçİĩ":10464,"ãĤ¤ãĥ³ãĥģ":10465,"ĠMont":10466,"çĲĨæģµ":10467,"çĴĥ":10468,"ãĥªãĤµ":10469,"éĩĳæĽľæĹ¥":10470,"ãĥªãĤ¦ãĤ¹":10471,"ĠNag":10472,"åįĺä½į":10473,"ãģ®ãģĨãģ¡":10474,"ãĥªãĥ¼ãĥī":10475,"çĽ´äºº":10476,"ĠManag":10477,"ĠéĢ£è¼ī":10478,"ãģĭãģŁ":10479,"134":10480,"ĠãĤ¹ãĥĿ":10481,"ĠSmith":10482,"ãĥ³ãĥĸãĥ«ãĤ¯":10483,"ãĥ¡ãĥĥãĤ»":10484,"ãĥŁãĥ©ãĥ¼":10485,"ĠVERS":10486,"å¯©æŁ»":10487,"CF":10488,"ãĥłãĤ·":10489,"ĠãĥŃãĥ¼ãĥŀ":10490,"ãĥĲãĥ¼ãĤ¹":10491,"Ġå¤§è¥¿":10492,"å§ĵ":10493,"ublic":10494,"ãĤªãĥ¼ãĤ¹ãĥĪ":10495,"ãģ¨ãģ®éĸ¢ä¿Ĥ":10496,"åŁİå¸Ĥ":10497,"ãĥĴãĥĪ":10498,"ãĤĦãģĹ":10499,"é¢¨æĻ¯":10500,"ument":10501,"ãģ¾ãģ¾":10502,"Ref":10503,"ava":10504,"ĠæľĪåĪĬ":10505,"Ġ157":10506,".-":10507,"å¤ļæĳ©":10508,"ãĤ¸ãĥ§ãĥ³ãĤ½ãĥ³":10509,"ices":10510,"æĮģãģ¡":10511,"ãģ®ä¸Ńãģ®":10512,"çĶŁãģ¾ãĤĮ":10513,"ODE":10514,"ä¸ĸä¿Ŀ":10515,"ĠãĤ¦ãĥ«ãĥĪãĥ©":10516,"Ġmod":10517,"Ġsc":10518,"ãĥĶãĤ¯ãĤ»ãĥ«":10519,"ãĤ³ãĥŁãĥĥãĤ¯ãĤ¹":10520,"ĠLibrary":10521,"%'''":10522,"sy":10523,"ĠSay":10524,"åħ±è¨³":10525,"Ġgo":10526,"æ³£":10527,"Ġãĥĸãĥ©ãĤ¤ãĤ¢ãĥ³":10528,"ĠéĺªæĢ¥":10529,"cmCD":10530,"ua":10531,"ĠThat":10532,"æĹ¥ä»ĺ":10533,"range":10534,"åı²è·¡":10535,"æł¼éĹĺ":10536,"æ²¢å¸Ĥ":10537,"ĠãĥĮ":10538,"èŃ°å¸Ń":10539,"Ġèµ·çĤ¹":10540,"ãĤĨãģı":10541,"å¤ļæķ°":10542,"Col":10543,"ãĥĲãĥ¼ãĤµ":10544,"ãĤįãģĹ":10545,"Ġãģ§ãģįãģĶãģ¨":10546,"çľŁå®Ł":10547,"æµľæĿ¾":10548,"èĥŀ":10549,"Ġman":10550,"Ġéĸ¢æĿ±åºĥåŁŁåľı":10551,"ãĤ¢ãĤµ":10552,"åİŁæŃ£":10553,"æĿ¡ä»¶":10554,"ĠSweet":10555,"ãģĨãĤī":10556,"æĶ¾éĢģæĹ¥":10557,"Ġä¸īå®ħ":10558,"ãĥ¡ãĤ«":10559,"é§ħè¥¿åı£":10560,"ĠãĥŃãĤµãĥ³ãĤ¼ãĥ«ãĤ¹":10561,"ĠAirport":10562,"1935":10563,"ãĥľãĤ¹":10564,"iki":10565,"ĠAssociation":10566,"Ġ1903":10567,"raw":10568,"ä¸»åĤ¬":10569,"As":10570,"ARI":10571,"ĠCollege":10572,"ĠåıĤåĬłãĥŁãĥ¥ãĥ¼ãĤ¸ãĤ·ãĥ£ãĥ³":10573,"Ġpol":10574,"ãĥ¡ãĥī":10575,"Ġåľ°ä¸ĭ":10576,"Ġãĥģãĥ¼ãĥłåĲį":10577,"umber":10578,"rang":10579,"ãĥĲãĥ©ãĤ¨ãĥĨãĤ£":10580,"ĠéĢŁ":10581,"ĠèĳĹåĲįãģªåĩºèº«èĢħ":10582,"ãĥ³ãĥŁ":10583,"Ġåħ±èĳĹ":10584,"ãĥ¼ãĤĴ":10585,"æĽ¸é¤¨":10586,"å°¼":10587,"Ġsite":10588,"YLE":10589,"ãĥĲãĥ¼ãĥ³":10590,"ãĤ§ãĥ³":10591,"ãĤŃãĥ«":10592,"ender":10593,"007":10594,"Ġ158":10595,"ĠãģĬãĤĪãģ³":10596,"å¹³åĴĮ":10597,"ĠéĢ£éĤ¦":10598,"ãĥ«ãĤ¿ãĥ¼":10599,"ĠBeat":10600,"ĠGN":10601,"ãĤ®ãĤ¢":10602,"ãģ®åŃĲä¾Ľ":10603,"ĠCry":10604,"ĠRun":10605,"ĠãĤ¢ãĥ¼ãĥĨãĤ£ãĤ¹ãĥĪ":10606,"ĠåıĤèĢĥè³ĩæĸĻ":10607,"Ġè¿ĳéīĦ":10608,"ç´ĺ":10609,"ãģ°ãĤĵ":10610,"ãĥķãĤ©ãĥ¼ãĥł":10611,"Ġ1890":10612,"æ©ĺ":10613,"ĠJapanese":10614,"Ġâĺħ":10615,"ä¸īæµ¦":10616,"ĠãĤ¹ãĥĨãĤ£ãĥ¼ãĥ´":10617,"iny":10618,"æĿ±éĥ¨":10619,"ĠãĤ¤ãĥ³ãĤ¿ãĥ¼ãĥįãĥĥãĥĪ":10620,"è³Ľ":10621,"ning":10622,"ĠæĪ¦éĹĺ":10623,"Ġå¢ĹçĶ°":10624,"RT":10625,"å·Ŀåı£":10626,"ĠæľĢå¾Įãģ®":10627,"Ġè¨³":10628,"Ġçı¾å½¹":10629,"gin":10630,"osition":10631,"203":10632,"176":10633,"ĠæĽ½":10634,"Ġåħīæĸĩç¤¾":10635,"Ġãĥªãĥ¥":10636,"ãĥĲãĥ¬ãĥ¼ãĥľãĥ¼ãĥ«":10637,"å°ıåĢī":10638,"ĠãĥŀãĥªãĤª":10639,"ĠæĨ":10640,"ãĥĳãĥĥãĤ¯":10641,"ãĥ¼ãĤ«ãĤ¤ãĥĸ":10642,"Ġåłº":10643,"Ġæįķ":10644,"ĠãĥĽãĥĨãĥ«":10645,"ç¨¿":10646,"mR":10647,"kt":10648,"ĠSoft":10649,"182":10650,"ãģ¾ãģį":10651,"æ²Ī":10652,"155":10653,"ĠãĥķãĤ¡ãĥ³":10654,"å±ĭãģ®":10655,"åı¤å·Ŀ":10656,"ĠèįĴæľ¨":10657,"ĠPH":10658,"ĠãĥĹãĥ¬ãĤ¤":10659,"iving":10660,"ĠåıİéĮ²ãĤ¢ãĥ«ãĥĲãĥł":10661,"ãĥ²":10662,"ĠåĲįåı¤å±ĭå¸Ĥç«ĭ":10663,"ĠSecret":10664,"Ġãĥ¡ãĤŃãĤ·ãĤ³":10665,"ĠåĨħèĹ¤":10666,"ould":10667,"270":10668,"çĽ¸è«ĩ":10669,"ĠåĨħéĸ£":10670,"ĠEngineer":10671,"ĠãĤ±ãĤ¤":10672,"Ġæĸ°æ½®ç¤¾":10673,"Ġæ°¸äºķ":10674,"ĠAFC":10675,"ĠKiss":10676,"ä»®éĿ¢":10677,"pm":10678,"Ġãĥĩãĥ´ãĤ£ãĥĥãĥī":10679,"MON":10680,"å¤§å¡ļ":10681,"ãģĤãĤĵ":10682,"ĠåĢĻè£ľèĢħ":10683,"å®Łé¨ĵ":10684,"ä¸Ģçķª":10685,"ĠRel":10686,"æĲį":10687,"ãģ¨ãģĿãģ®":10688,"ĠãĥĲãĥĪãĥ«":10689,"Ġlink":10690,"ãģĳãģŁ":10691,"ãĥĪãĤ¦":10692,"æĦıãģ®":10693,"ãĥªãĤ¯":10694,"Ġçµ¹æľ¬":10695,"ãĤ¹ãĥ¯":10696,"ĠHa":10697,"ãĥ³ãĥīãĥ©":10698,"Ġåĭĩ":10699,"Ġéĩľ":10700,"é»Ļ":10701,"ãĥĿãĤ±ãĥĥãĥĪ":10702,"utt":10703,"Ġ1904":10704,"Ġå±±éĻ½":10705,"æĢĿèŃ°":10706,"Ġæµª":10707,"éĬĺ":10708,"ĠéĩĳæĽľæĹ¥":10709,"ouch":10710,"ãĥ¼ãĤ¸ãĥ¼":10711,"ç´Ķä¸Ģ":10712,"idge":10713,"Ġå¹³çĶ°":10714,"Ġæ¹ĺåįĹ":10715,"ãĤ¿ãĥ¼ãĥŁãĥĬãĥ«":10716,"ights":10717,"Ġå½¼":10718,"WOR":10719,"ĠFA":10720,"ãĤĨãģĭãĤĬ":10721,"ĠSant":10722,"ĠAwards":10723,"129":10724,"ĠGar":10725,"ãĥ¯ãĤ¤ãĥīåĬĩåł´":10726,"Ġç½":10727,"ãĤ°ãĥªãĥ¼":10728,"ãģ«å¤īæĽ´":10729,"ãĥĥãĤ·ãĥ£ãĥ¼":10730,"ĠFree":10731,"åĽ½å®¶":10732,"ĠDirect":10733,"ĠLou":10734,"ĠãĤ¹ãĤ¯":10735,"éģĭçĶ¨":10736,"ãĥĺãĥĥãĥī":10737,"å¾ĮèĹ¤":10738,"ĠYouTube":10739,"åģľçķĻæīĢ":10740,"çĨŁ":10741,"ç¾Ĭ":10742,"éłģ":10743,"Ġ***''(":10744,"ĠæĽ¸èªĮ":10745,"yr":10746,"çĹ´":10747,"æŁ±":10748,"ãĥ¼ãĤŃãĥ¼":10749,"ĠãĤ¢ãĤ¦":10750,"ãĥĭãĥĥãĥĿãĥ³":10751,"ĠMen":10752,"Ġèį»":10753,"Ġå·Ŀä¸Ĭ":10754,"ĠJRæĿ±æĹ¥æľ¬":10755,"Let":10756,"field":10757,"å°ģ":10758,"165":10759,"GS":10760,"158":10761,"Ġæ¯İæĹ¥":10762,"ãĤŃãĤ¢":10763,"çĴ°çĬ¶":10764,"ãĥĸãĥĥãĤ¯ãĤ¹":10765,"ĠåĬ©æ¼Ķ":10766,"ãĥ³ãĤ·ãĥ§ãĥ³":10767,"ĠTre":10768,"ãĤŃãĤµãĤ¹":10769,"ĠHUN":10770,"éĽĨèĭ±ç¤¾":10771,"ç¢ģ":10772,"310":10773,"ãĥĵãĤ¹":10774,"å²¬":10775,"ãĥīãĥªãĥ¼ãĥł":10776,"æĸī":10777,"ä½įä¸ĭ":10778,"ç¬Ľ":10779,"ãĢĤ(":10780,"æİ¥ç¶ļ":10781,"Ġè«ĸ":10782,"æ½ľæ°´":10783,"ãĥ³ãĥĵãĤ¢":10784,"ĠBall":10785,"å·¥åŃ¦éĥ¨":10786,"çµµãĤ³ãĥ³ãĥĨ":10787,"ĠWhat":10788,"ãĥĲãĥ¼ãĥī":10789,"çħĻ":10790,"äºĴ":10791,"ç·ıæĮĩæı®":10792,"æĭĽ":10793,"æ²³å·Ŀ":10794,"ras":10795,"ç¸¦":10796,"ĠSWE":10797,"é¼»":10798,"rian":10799,"Ġå®ĺ":10800,"ĠJo":10801,"åĩºåħ¥åı£":10802,"æĬ±":10803,"1921":10804,"ASA":10805,"ãģįãĤĵ":10806,"çıį":10807,"vis":10808,"156":10809,"ĠæĹ¥éĩİ":10810,"olo":10811,"Ġpre":10812,"ĠSOUND":10813,"ĠçĹħ":10814,"ä¸ŃåŃ¦æł¡ãģ®åŃ¦åĮº":10815,"ãĥ³ãĥģãĥ£ãĥ¼":10816,"409":10817,"Ġãĥ¡ãĥ«":10818,"æºĸæ±ºåĭĿ":10819,"ãĥİãĤ¤":10820,"è¡ĽçĶŁ":10821,"èŃ¦åĤĻ":10822,"ãģĲãĤĮ":10823,"Ġé«ĺçŃīåŃ¦æł¡":10824,"ĠãĥĿãĥ«ãĤ·ãĤ§":10825,"ãĥ¼ãĤ¬ãĥ¼":10826,"ule":10827,"ãĤ¸ãĥ£ãĥ³ãĥĹ":10828,"ä¿Ĭä»ĭ":10829,"çĵ¶":10830,"å¯Ĵ":10831,"ãĥıãĥ³ãĤ¿ãĥ¼":10832,"iff":10833,"ĠCAT":10834,"Ġ1897":10835,"ĠKING":10836,"èĬ¦":10837,"åħįè¨±":10838,"Ġå¨":10839,"ä¾¯":10840,"AYA":10841,"ĠBerlin":10842,"450":10843,"åİļçĶŁ":10844,"åĽŀéģ¿":10845,"èħķ":10846,"ĠçŃĳæ³¢":10847,"back":10848,"æĹ¥æĽľæĹ¥":10849,"ANGE":10850,"ĠAcc":10851,"ãĥĲãĤ¹åģľ":10852,"ãĥ¡ãĥ¼ãĤ«ãĥ¼":10853,"ĠTrack":10854,"ĠãĢį(":10855,"ãĤĴå»ĥæŃ¢":10856,"Ġ1896":10857,"ãĥĻãĥĥãĥĪ":10858,"çĲĥåł´":10859,"ĠSO":10860,"145":10861,"åĽŀè»¢":10862,"Ġä¸Ńèı¯":10863,"ãĥĻãĥ¼ãĥ«":10864,"éģĭè¼¸":10865,"ĠæŁ´":10866,"ĠList":10867,"éħĴéĢł":10868,"\".":10869,"åĪĨæŀĲ":10870,"Ġpar":10871,"ãĥįãĥ«ãĤ®ãĥ¼":10872,"BEST":10873,"Ġå³¶æł¹çľĮ":10874,"rosoft":10875,"ĠåĴĮæŃĮå±±çľĮ":10876,"LINE":10877,"ãĥ©ãĥ³ãĥĪ":10878,"ĠfÃ¼r":10879,"ĠAnt":10880,"Ġint":10881,"ĦŃ":10882,"Ġæ¤İ":10883,"ĠGerman":10884,"ãĤ¬ãĥª":10885,"ĠäºĶåįģåµĲ":10886,"åĪĿçīĪ":10887,"ãĥ¼ãĤ²ãĥ³":10888,"è®ĥ":10889,"BER":10890,"æľ¬æľ¨":10891,"ĠSTUDIO":10892,"Ġæ¯Ľ":10893,"æ¶¼åŃĲ":10894,"Ac":10895,"ãĤ¤ãĤ«":10896,"OVA":10897,"ĠåĪĿåĽŀéĻĲå®ļçĽ¤":10898,"åĽ°":10899,"Ġworld":10900,"ãĤ¯ãĥĪãĥªãĥ¼":10901,"Ġofficial":10902,"ä»®éĿ¢ãĥ©ãĤ¤ãĥĢãĥ¼":10903,"ĠãĤ¯ãĤ¤":10904,"154":10905,"æ·ĳ":10906,"ĠReal":10907,"æĶ¾æĺł":10908,"ĠPARTY":10909,"Ġè£½éĢł":10910,"ç¦Ħ":10911,"Ġ1902":10912,"ĠChristmas":10913,"UNK":10914,"ĠçĻºå£²åħĥ":10915,"211":10916,"AMI":10917,"åĤĻèĢĥ":10918,"Ġ165":10919,"Ġå·Ŀå³¶":10920,"IND":10921,"çĥĪ":10922,"Ne":10923,"ĠOl":10924,"ãĥĨãĤ£ãĥ³ãĤ°":10925,"çµĲæĪĲ":10926,"åĽ³éĳĳ":10927,"Ġãģ¾ãģŁãģ¯":10928,"å°ıè·¯":10929,"ih":10930,"reen":10931,"Ġ159":10932,"ä»ĺå±ŀ":10933,"éĩĳèŀį":10934,"å®ĪåĤĻ":10935,"è¾¼ãģ¿":10936,"æĹ¥çĶº":10937,"ãĥĪãĥ¼ãĥĬãĥ¡ãĥ³ãĥĪ":10938,"ĠGI":10939,"ãĥŁãĥĦ":10940,"åıĤèĢĥ":10941,"APPY":10942,"Rob":10943,"ĠèıħåİŁ":10944,"side":10945,"Ġä»ķ":10946,"afe":10947,"ajor":10948,"Ġãģ«å¯¾ãģĹãģ¦":10949,"æĩīç¾©å¡¾":10950,"Ġãģĭãģļ":10951,"ãĥ¬ãĥ³ãĤ¹":10952,"æĸİèĹ¤":10953,"ĠMV":10954,"çµĨ":10955,"å¿ľæı´":10956,"Ġå®Łæ¥Ń":10957,"ãĥŃãĥ¼ãĥ«":10958,"éĻĢ":10959,"mix":10960,"èŃļ":10961,"ĠÃĹ":10962,"ãģ®å£°":10963,"ãĥīãĥĭãĥ¼":10964,"ãĤ«ãĥĬãĥĢ":10965,"ãĥĿãĥ³":10966,"pp":10967,"ĠPan":10968,"ĠLee":10969,"ĠçĲĥåĽ£":10970,"208":10971,"ĠçŁŃç·¨":10972,"æĸīèĹ¤":10973,"ãĥĨãĥł":10974,"ãģķãĤĮãģ¦":10975,"åĪĹä¼Ŀ":10976,"Ã³n":10977,"ãĥĥãĤ·ãĥ§":10978,"Ġtrans":10979,"è¨İ":10980,"ĠStage":10981,"æĺŁäºº":10982,"æ½Ķ":10983,"âĹĭâĹĭ":10984,"oma":10985,"ĠãĥŁãĥ¥ãĥ¼ãĤ¸ãĤ«ãĥ«":10986,"ãĥ³ãĤŃãĥ£":10987,"175":10988,"æ°´æ³³":10989,"ä½ĵé¨ĵ":10990,"èı©":10991,"ãģŁãģı":10992,"é¡ĺãģĦ":10993,"mW":10994,"ãĥŀãĥĦ":10995,"ãĥĵãĤ¸ãĥįãĤ¹":10996,"ellow":10997,"æĹ¥æľ¬èªŀåĲ¹æĽ¿":10998,"ĠGarden":10999,"å¯¾æ±º":11000,"ĠCB":11001,"ç¬¬åĽĽ":11002,"ROCK":11003,"åŃ£ç¯Ģ":11004,"151":11005,"ä¿Ĭå½¦":11006,"èªŃãģ¿":11007,"Ġå¤§åİŁ":11008,"Ġèĩªåĭķè»Ĭ":11009,"Ġåħ¼":11010,"ĠãĤ¹ãĥª":11011,"å¹¸åŃĲ":11012,"ĠæĿ¥":11013,"éģ¸åĩº":11014,"330":11015,"ãģĭãģĬãĤĬ":11016,"ãĥİãĥĥãĥĪ":11017,"Ġvar":11018,"å¤©æ°Ĺ":11019,"ĠVolume":11020,"çĶĺ":11021,"ote":11022,"Ġä»Ļ":11023,"ĠãĤ¢ãĥĹãĥªãĥªãĤ¢":11024,"ãĥģãĤ«":11025,"ĠBy":11026,"ç·ıåĭĻ":11027,"åºŃåľĴ":11028,"ĠGro":11029,"Ġcan":11030,"ĠAcadem":11031,"1934":11032,"Ġ350":11033,"æ´¥å·Ŀ":11034,"Ġãĥĸãĥ©ãĤ¸ãĥ«":11035,"1920":11036,"ãĥ³ãĤ¬ãĥĿãĥ¼ãĥ«":11037,"éĺ¿éĥ¨":11038,"Ġç¬¬åĽĽ":11039,"Ġå¾Ĺç¥¨çİĩ":11040,"åį´":11041,"ova":11042,"MUSIC":11043,"152":11044,"çķĻç±³":11045,"ç¥ŀå¥Īå·Ŀ":11046,"Ġmin":11047,"åħ«éĥİ":11048,"ãģ®æİ¨ç§»":11049,"ĠãģĬãģĬ":11050,"ĠãĤªãĥªãĤ³ãĥ³æľĢé«ĺ":11051,"elle":11052,"Ġ161":11053,"çĻºè¶³":11054,"ĠãĥĽãĤ»":11055,"ãĤ¼ãĥ«":11056,"Blue":11057,"åĭ²ç«ł":11058,"ĠDesign":11059,"åĮĹæ²¢":11060,"ĠHappy":11061,"åħīå¯º":11062,"Ġç¦":11063,"æ°´æĪ¸":11064,"Ġå·ŀ":11065,"ĠçĶ¨èªŀ":11066,"ãĥ¢ãĥĪ":11067,"Ġ-(":11068,"Ġå¯©":11069,"ĠåĲĮæĻĤ":11070,"ä¼ļåĵ¡":11071,"æ¥½åĻ¨":11072,"ãģ²ãģĵ":11073,"Ġçĸ":11074,"Ġè¥¿éĥ¨":11075,"ĠæµľçĶ°":11076,"ĠéĻ¸ä¸Ĭèĩªè¡ĽéļĬ":11077,"ĠéŁ³éŁ¿çĽ£çĿ£":11078,"è¨ºçĻĤ":11079,"Guitar":11080,"åıĸå¾Ĺ":11081,"ãĤ¯ãĥ«ãĥĪ":11082,"èĢ³":11083,"ãĤĤãĤĤ":11084,"ãĤ¸ãĥ£ãĤ¤ãĤ¢ãĥ³ãĥĦ":11085,"ĠOld":11086,"ãĥĿãĥªãĤ¹":11087,"éĩĳãģ®":11088,"ãĥĴãĥ¼ãĥŃãĥ¼":11089,"ĠPOR":11090,"256":11091,"æīĢåľ¨":11092,"Ġdie":11093,"ĠãĤ·ãĤ¹ãĥĨãĥł":11094,"ĠåĲįæİ¢åģµ":11095,"æĻĤè¨Ī":11096,"ãĤ½ãĤ¦":11097,"ĠEnglish":11098,"å¦Ļãģª":11099,"ĠãĤ¨ãĥ³ãĥĩãĤ£ãĥ³ãĤ°ãĥĨãĥ¼ãĥŀ":11100,"ICA":11101,"æºĸåĦªåĭĿ":11102,"ĠéĹĩ":11103,"æ°ĳåĽ½":11104,"Ñı":11105,"éŃĶå¥³":11106,"å³¶ãģ®":11107,"Play":11108,"Red":11109,"ues":11110,"å¤§éĻ¸":11111,"ĠDO":11112,"ãĤŃãĥ¥ãĥ¡ãĥ³ãĤ¿ãĥªãĥ¼":11113,"åı²ä¸Ĭ":11114,"ãģĪãĤį":11115,"Ġç¥ŀçĶ°":11116,"ãĢıãĢģ":11117,"ãĥ³ãĤ·ãĤ¢":11118,"ĠãĤ¢ãĥ¬ãĤ¯ãĤµãĥ³ãĥī":11119,"alt":11120,"ource":11121,"Ġç³¸":11122,"cus":11123,"ãĥīãĥ©ãĥł":11124,"Ġåħ±åĴĮåħļ":11125,"ICS":11126,"ĠRh":11127,"ĠFly":11128,"ĠMASTER":11129,"oria":11130,"ĠDep":11131,"æĹħåĽ£":11132,"ãĤ¹ãĥª":11133,"ãĤ³ãĥ³ãĤµãĥ¼ãĥĪ":11134,"ĠãģĬãĤĤ":11135,"Ġæµ·ä¸Ĭ":11136,"Ġ175":11137,"JO":11138,"ãĥĭãĤªãĥ³":11139,"Ġéļľ":11140,"ĠåºĥçĢ¬":11141,"Ġå»£":11142,"ãĥīãĥ©ãĤ´ãĥ³":11143,"å³¶æĿĳ":11144,"ĠSPOR":11145,"ãĥ¼ãĥĩãĤ£ãĥ³ãĤ°":11146,"DC":11147,"FE":11148,"ĠWA":11149,"eder":11150,"ĠMount":11151,"ãĤ«ãĥ¼ãĥ«":11152,"ãĥĭãĥ¼ãĥ«":11153,"ĠåıĹ":11154,"TB":11155,"è¿ĳèĹ¤":11156,"Ġwas":11157,"ãĥĲãĤ¹ãĤ¿ãĥ¼ãĥŁãĥĬãĥ«":11158,"ĠåĮĹä¹Ŀå·ŀ":11159,"ãĥ¨ãĤ·":11160,"ĠãĤŃãĥ¼ãĥľãĥ¼ãĥī":11161,"ĠçµĤçĤ¹":11162,"ãĤ«ãĥķãĤ§":11163,"ische":11164,"ĠåĽº":11165,"ĠChild":11166,"æĪĲç«ĭ":11167,"æ²»éĥİ":11168,"Ġinter":11169,"åįĥèĳīçľĮ":11170,"éľŀ":11171,"Ġçĳŀ":11172,"ä¼ļè¨Ī":11173,"éĩİé§ħ":11174,"Ġæ©ĺ":11175,"ãĤªãĥ¼ãĥĹãĥĭãĥ³ãĤ°":11176,"ä¸ĸçķĮå¤§æĪ¦":11177,"upport":11178,"ãĤªãĥķãĤ£ãĤ·ãĥ£ãĥ«":11179,"ĠDead":11180,"ĠâĨĴ":11181,"Ġæİ¨":11182,"ãĤıãĤī":11183,"ios":11184,"æļ®ãĤīãģĹ":11185,"éĻįäººåĵ¡":11186,"ĠOnline":11187,"âĢĶ":11188,"ãģµãģı":11189,"667":11190,"ãĤ¨ãĥ³ãĥī":11191,"è«ĭ":11192,"Ġå°ĳä½Ĳ":11193,"ĠãĤ¹ãĥĨãĤ£ãĥ¼ãĥĸ":11194,"ĠåĴĮæŃĮå±±":11195,"FO":11196,"å¸Ĥåĸ¶":11197,"endo":11198,"ĸæĺ§":11199,"Ġ*;":11200,"çŃĶ":11201,"åįģä¸Ģ":11202,"åħµåĻ¨":11203,"Ġè²¨":11204,"ĠæĹ©å·ĿæĽ¸æĪ¿":11205,"ãĤŃãĥĥãĤ¯":11206,"178":11207,"Ġä¼ģæ¥Ń":11208,"ä¸īèı±":11209,"æĬķæīĭæĪĲç¸¾":11210,"ãģ¨æĶ¹ç§°":11211,"GHz":11212,"©çĪ¶":11213,"ãĥłãĥ©":11214,"ãĤ«ãĥŁ":11215,"ĠVERSION":11216,"Ġ1899":11217,"thers":11218,"ĠUs":11219,"VI":11220,"é¦Ļå·ĿçľĮ":11221,"æľīéĻĲ":11222,"ãĥĩãĥ¼ãĤ¿ãĥĻãĥ¼ãĤ¹":11223,"RS":11224,"ãģłãģ£ãģŁ":11225,"Ġè«ıè¨ª":11226,"Ġè¿ĳä»£":11227,"ãĤ¦ãĤ§ãĥ¼ãĥĩãĥ³":11228,"ĠæĽ¸èªĮæĥħåł±":11229,"ãģ¥ãģį":11230,"138":11231,"ãģķãĤĵãģ®":11232,"ĠãĤ¸ãĥ§ãĥĭãĥ¼":11233,"ãĥŃãĥĵ":11234,"åĩĨ":11235,"ãĥ©ãĥķ":11236,"ãĥĨãĤ£ãĥ¼":11237,"Fran":11238,"ä¸Ńéĥ¨":11239,"èĸĩ":11240,"éº¦":11241,"æŃ»åİ»":11242,"æĹ¥æ´»":11243,"'''âĹİ":11244,"Ġ:ãĢİ":11245,"ĠBad":11246,"anna":11247,"ĠAW":11248,"Ġæ¸¡éĤ":11249,"ĠåķĨåĵģ":11250,"Sm":11251,"ãģĦãģĺ":11252,"çĶŁæ¶¯":11253,"ãĥİãĥĸ":11254,"ĠDevelop":11255,"Ġæĳ":11256,"ĠCG":11257,"ĠGRE":11258,"ãģĶãģĨ":11259,"207":11260,"ç«ĭå¤§åŃ¦":11261,"ĠLev":11262,"Ġsur":11263,"163":11264,"ãģ®éĩĮ":11265,"Ġç§Ģ":11266,"ç«¶æĬĢåł´":11267,"fter":11268,"1933":11269,"åķĨå·¥":11270,"ĠãĤ³ãĥ¼ãĥģ":11271,"1932":11272,"Ġå²©çĶ°":11273,"ĠSpac":11274,"Ġåįļå¤ļ":11275,"Ġç´ĭç«ł":11276,"ãĥ©ãĥ©":11277,"å¯Ŀ":11278,"153":11279,"å¿ħæ®º":11280,"ĠåĬī":11281,"Ġåįĥä»£":11282,"ç«¶é¦¬åł´":11283,"ĠãĤ¢ãĤµ":11284,"ãĤ¹ãĥĶãĥ¼ãĥī":11285,"ãĥŃãĤ¤":11286,"ãĤ¹ãĥĪãĥªãĥ¼ãĥĪ":11287,"ZY":11288,"çĶ°è°·":11289,"ãĤ¿ãĥ¼ãĥ³":11290,"ä¿Ĭä¸Ģ":11291,"Ġãĥ©ãĤ¦ãĥ³ãĥī":11292,"wa":11293,"ä¸ŀ":11294,"ĠLuc":11295,"303":11296,"ãĥ©ãĥĥãĤ¯":11297,"ãĥŃãĥ¡":11298,"ĠGi":11299,"ãĥªãĤ¢ãĤ¹":11300,"ãĤ²ãĥ³":11301,"å¤§å°Ĩ":11302,"æ¬¡ä¸ĸçķĮå¤§æĪ¦":11303,"Ġå½¢å¼ı":11304,")\"":11305,"å½¼å¥³":11306,"IRE":11307,"ç±ł":11308,"ãģĩ":11309,"002":11310,"Ġãĥıãĥª":11311,"Ġ:#*":11312,"ĠãģĿãĤĮ":11313,"ãģ®å¤¢":11314,"æıı":11315,"ãĥ³ãĤ¬ãĥªãĥ¼":11316,"KT":11317,"ĠDA":11318,"Ġåł±":11319,"ãĥ©ãĥ´":11320,"åŃ¦è¡ĵ":11321,"257":11322,"æ¿±":11323,"ãĤ¹ãĥ³":11324,"åĬ±":11325,"ĠåĨĻçľŁéĽĨ":11326,"vs":11327,"Ġ::**":11328,"æĭĵä¹Ł":11329,"ãĤ¿ãĤŃ":11330,"309":11331,"æ±ºæĪ¦":11332,"ç«¶æĬĢå¤§ä¼ļ":11333,"Ġà¸":11334,"ãĥłãĥ¼ãĥĵãĥ¼":11335,"åĵ²åŃ¦":11336,"ection":11337,"ãĤģãģį":11338,"ĠMAR":11339,"Ġäººåı£åĭķ":11340,"è®Ĳ":11341,"é§ħæĿ±åı£":11342,"åł±åĳĬ":11343,"LC":11344,"ĠHel":11345,"ãģĮãģĹ":11346,"Ġé·¹":11347,"uth":11348,"èĩªåĭķ":11349,"ãĥĲãĤ¤ãĤª":11350,"outh":11351,"Ġå°ıæ³ī":11352,"ĠChina":11353,"ãĥģãĥ£ãĥ¼ãĥĪ":11354,"Ġå½©":11355,"ãĥ¢ãĥ¼ãĥ«":11356,"çĦ¡ãģĹ":11357,"ities":11358,"Ġãĥİãĥ¼ãĤ¹":11359,"æ°´çĶ£":11360,"æŃĮè¬¡":11361,"ãģ²ãģ¨ãģ¿":11362,"åħļæ´¾":11363,"ãĤ¸ãĤ§ãĥĥãĥĪ":11364,"çĸĳ":11365,"Ġæ§":11366,"ãĥľãĥĥãĤ¯ãĤ¹":11367,"ãĥ«ãĥĪãĤ¬ãĥ«":11368,"ĠBattle":11369,"è©°":11370,"ãĥ³ãĤ¯ãĤ¹":11371,"ç¦ıå¯º":11372,"Ġæģĭãģ®":11373,"ĠChampions":11374,"ĠãĤ¢ãĥ³ãĤ½":11375,"Ġå¹³äºķ":11376,"é»ĦéĸĢ":11377,"åĽŀæĹ¥æľ¬":11378,"Ġåı¤ä»£":11379,"èĳ¬":11380,"ãĤģãģŁ":11381,"Ġç´Ļæľ¬":11382,"åĩ¡ç¤¾":11383,")ãĢĮ":11384,"ãĤµãĥĿãĥ¼ãĥĪ":11385,"Ġæİ¢":11386,"ãĥĪãĥ©ãĤ¤":11387,"ãĤ¢ãĥ¬":11388,"ĠãĤ«ãĥ«ãĥŃãĤ¹":11389,"Ġè°·åı£":11390,"Ġä»£è¡¨æŃ´":11391,"Ġé®":11392,"ĠCir":11393,"ĠãĤ¯ãĥ©ãĤ¤":11394,"è³ĩæĸĻé¤¨":11395,"ãĥ¼ãĤ²ãĥ¼ãĥł":11396,"132":11397,"ĠãĥķãĤ§ãĥ«":11398,"ãĤ»ãĤ¹":11399,"ĠæĶ¾éĢģæľŁéĸĵ":11400,"è³¢ä¸Ģ":11401,"ĠWho":11402,"å¼ķãģį":11403,"Ġæ¤ľ":11404,"ĠGU":11405,"Ġãĥģãĥ£ãĥ¼ãĥ«ãĤº":11406,"Ġçį²å¾Ĺ":11407,"139":11408,"Ġ164":11409,"308":11410,"Ġå°±ä»»":11411,"ä¼ıè¦ĭ":11412,")|":11413,"Ġå¼ķéĢĢ":11414,"Ġåı¯":11415,"å·¥åŃ¦ç§ĳ":11416,"ãģ¨ãĤĵ":11417,"å¥³åŃĲå¤§åŃ¦":11418,"ĠSPA":11419,"ãĥīãĥ©ãĤ¤ãĥĲãĥ¼":11420,"Ġå¹²":11421,"ĠéĽĦ":11422,"ä¸Ńå¤®åĮº":11423,"Ġæ§ĭéĢł":11424,"ales":11425,"æľ¬åĲį":11426,"ãĤµãĥĸ":11427,"ãĤĴéĸĭè¨Ń":11428,"çļ®":11429,"ĠéİĮåĢī":11430,"Instrumental":11431,"åĲİ":11432,"Ġå§īå¦¹éĥ½å¸Ĥ":11433,"ĠMas":11434,"ĠLO":11435,"ĠèĬ³":11436,"äºĭä»¶ç°¿":11437,"Ġæµħéĩİ":11438,"amm":11439,"ãĤŃãĥ£ãĤ¹ãĤ¿ãĥ¼":11440,"CHO":11441,"ãģ®çİĭ":11442,"Ġ190":11443,"ĠTwo":11444,"ãĥ´ãĤ£ãĤ¹":11445,"æ½®æĸĩåº«":11446,"Ġå¸Į":11447,"å¿ĥçĲĨåŃ¦":11448,"ĠDS":11449,"åĨįéĸĭ":11450,"Ġé¦Ļå·Ŀ":11451,"ãĤ«ãĥĲãĥ¼":11452,"ãģ¾ãģĪ":11453,"ists":11454,"èĪŀä¼İ":11455,"ãĢį'''":11456,"è¨ĺå¿µé¤¨":11457,"åĳ½ãģ®":11458,"ĠEND":11459,"å¾ĮæľŁ":11460,"èģĸåŃĲ":11461,"ĠãĤ¢ãĤ·ãĤ¹ãĤ¿ãĥ³ãĥĪ":11462,"Ġæľ¬äºº":11463,"ĠåĽ½åĭ¢èª¿æŁ»":11464,"ao":11465,"ĠèĢģ":11466,"ĠDrums":11467,"ãĤµãĥ³ãĥĢãĥ¼":11468,"253":11469,"Ġå¥ĩ":11470,"åģľè»Ĭåł´ç·ļ":11471,"æĪ¦åĽ½":11472,"ãĤ¢ãĥĭãĥ¡ãĥ¼ãĤ·ãĥ§ãĥ³":11473,"ç¤¾åĵ¡":11474,"ä¸ĭè»Ĭ":11475,"Ġå¾Ĵ":11476,"AKB":11477,"ĠJun":11478,"æŃ£äºº":11479,"ĠWalk":11480,"149":11481,"Ġ1898":11482,"çŁ³çĶ°":11483,"âĢ»)":11484,"å²©æ³¢":11485,"æ´ĭä¸Ģ":11486,"Ġseason":11487,"206":11488,"Ġéĩİåı£":11489,"Ġæ£Ħæ¨©":11490,"ãģ¡ãĤĩ":11491,"ãĥİãĥ¼ãĥ«":11492,"oka":11493,"éĬŃ":11494,"ãĤ¬ãĥ¼ãĥī":11495,"ä¿ĿåŃĺ":11496,"Ġç§¦":11497,"ĠæĤªéŃĶ":11498,"ĠDoc":11499,"åŁ¼çİīçľĮ":11500,"æ¼ĶåĬĩ":11501,"ITS":11502,"ĠCharles":11503,"Ġåº§":11504,"Ġ163":11505,"Ġæ·¡":11506,"231":11507,"èĹ¤äºķ":11508,"Ġå¹³æĹ¥":11509,"ĠãĥŃãĥĻãĥ«ãĥĪ":11510,"éŁ³éŁ¿":11511,"ques":11512,"ration":11513,"Ġå¶":11514,"ãĤĴè¨Ńç«ĭ":11515,"Ġå°ıè¥¿":11516,"INK":11517,"Ġèµ¤ãģĦ":11518,"den":11519,"é¡§":11520,"é£²":11521,"ãģ¨ãģ¿":11522,"ĠFU":11523,"ãģ®éģĵ":11524,"157":11525,"ä¸Ńç¶Ļå±Ģ":11526,"åĩºæĽ¸æĪ¿":11527,"æµ·ä¸Ĭ":11528,"Ġãĥ¬ãĥķãĥĪ":11529,"Ġå¤ĸéĩİæīĭ":11530,"Ġãģĭãģ¤ãģ¦":11531,"159":11532,"arg":11533,"ĠãĥĻãĤ¤":11534,"ĠçŁ³æ©ĭ":11535,"¸æ°Ĺ":11536,"ãĥ³ãĤĴ":11537,"ãĥĦãĤ¡":11538,"æ´¥é§ħ":11539,"ĠæĪ¸çĶ°":11540,"Ã©e":11541,"ãĥ¼ãĥłãĤ¹":11542,"ĠBIG":11543,"ãĤµãĤ¤ãĤº":11544,"ief":11545,"Ġå¸°":11546,"è¼©":11547,"ĠService":11548,"clop":11549,"å°ıçī§":11550,"ä¾ĽçĶ¨":11551,"Ġ240":11552,"åĢĴ":11553,"Ġãĥŀãĥ©":11554,"å¤ªæľĹ":11555,"å³¯":11556,"ãĥķãĤ¡ãĥ³ãĤ¿ãĤ¸ãĥ¼":11557,"ĠSON":11558,"ãĥŀãĥīãĥªãĥ¼ãĥī":11559,"ãĥĵãĥĥãĥģ":11560,"137":11561,"ãĤ¯ãĤ½":11562,"ĠWood":11563,"Ġåľ°ä¸Ĭ":11564,"ãĥĬãĤ¦":11565,"ãĥ¯ãĥ¼ãĤ¯ãĤ¹":11566,"ãĤ¶ãĥ³":11567,"ãĤ²ãĥ¼ãĥĪ":11568,"äº¤éĢļçľģ":11569,"oya":11570,"æĮĻè¡Į":11571,"ĠãĤ«ãĥĨãĤ´ãĥª":11572,"375":11573,"ĠInformation":11574,"å°ıæĥĳæĺŁ":11575,"ĠCarl":11576,"å¼ıåħ¸":11577,"ãĥķãĤ¡ãĤ¤ãĥĪ":11578,"JA":11579,"Tr":11580,"æīī":11581,"ãģĵãĤĵ":11582,"Ġæĸ°çĶ°":11583,"å·¥æ¥Ńå¤§åŃ¦":11584,"Har":11585,"æĤ£":11586,"éĬĢåº§":11587,"148":11588,"Ġco":11589,"ãĤ·ãĤ¨":11590,"1928":11591,"ingle":11592,"åĪĨéĩİ":11593,"Ġä½Ĳè³ĢçľĮ":11594,"ãģ®æľ¨":11595,"ĠãĤ¹ãĥŀ":11596,"ä¿¡è¶Ĭ":11597,"Ġè£ı":11598,"ç´ĦæĿŁ":11599,"ĠèĪ¹æ©ĭ":11600,"èºį":11601,"Ġéĭ":11602,"ĠãĤ»ãĤ¬":11603,"Ġåħ«æľ¨":11604,"Ġãĥĺãĥ³ãĥªãĥ¼":11605,"ãģĤãģŁãĤĬ":11606,"æĶ¹éĿ©":11607,"ĠãĥŃãĥ¼ãĥī":11608,"åħ¥åŃ¦":11609,"ĠåĸĦ":11610,"Ġãĥ¡ãĤ¬":11611,"ident":11612,"ĠãĤ«ãĤ¿":11613,"Good":11614,"ç®ĩ":11615,"ä¹ĥæľ¨":11616,"Ġéģĭåĭķ":11617,"ĠCOUN":11618,"185":11619,"ĠPlan":11620,"ä¿Ŀå®ī":11621,"Ġæ´»åĭķ":11622,"ç´ĶåŃĲ":11623,"Ġag":11624,"çĸ¾":11625,"ĠSpace":11626,"ĠæķĹæĪ¦":11627,"ĠØ":11628,"ĠRiver":11629,"ĠãĥŀãĤ°":11630,"obile":11631,"ĠBrown":11632,"ĭèĹ¤":11633,"ãĥ¬ãĥ³ãĥĢãĥ¼":11634,"ĠMAX":11635,"ĠGen":11636,"æŃ©åħµ":11637,"uy":11638,"1929":11639,"åİŁæ¡Ī":11640,"Ġ1895":11641,"emb":11642,"ĠæŁ¿":11643,"Ġå·¨äºº":11644,"168":11645,"480":11646,"ĠãĤ¹ãĤ«ãĤ¤":11647,"ĠæĸĻ":11648,"ĠBut":11649,"OLL":11650,"ĠåĲĮä¸Ĭ":11651,"ãĥ¼ãĤ¦ãĤ£":11652,"ĠSon":11653,"ãĤ³ãĥ³ãĥĪ":11654,"æľĪãģ«":11655,"ĠAG":11656,"ãĥįãĥĥãĥĪãĥ¯ãĥ¼ãĤ¯":11657,"Ġç®¡çĲĨ":11658,"omo":11659,"åħ¨ç·ļ":11660,"ãĥĳãĥ«":11661,"Ġå¤©ä½¿":11662,"Ġ(ãĢİ":11663,"æľ¬åºĹ":11664,"åįļå¤ļ":11665,"MBS":11666,"æ°ĳåħļ":11667,"OVER":11668,"ä¼¯çĪµ":11669,"Ġå°¾å´İ":11670,"ito":11671,"ãĤ¢ãĤ¤ãĤ¹":11672,"ĠãĤ¤ãĤª":11673,"ãĤĴãĥªãĥªãĥ¼ãĤ¹":11674,"åį±æ©Ł":11675,"ĠSite":11676,"ãĥĩãĤ£ãĥ³ãĤ°":11677,"ãĤ´ãĥ¼":11678,"å¾Įãģ«":11679,"åįģåħŃ":11680,"æ²Ļç¹Ķ":11681,"Ġä½įç½®":11682,"Ġtime":11683,"ãĥĩãĤ£ãĤ¹":11684,"141":11685,"ĠåĲīå²¡":11686,"æī¹è©ķ":11687,"ĠPV":11688,"èĹ¤çĶ°":11689,"ãĥ³ãĥīãĥ¼":11690,"Å¡":11691,"èĸ¬åĵģ":11692,"ãĥ¡ãĤ¹":11693,"æ©Łç¨®":11694,"ãĤµãĥĥãĤ«ãĥ¼éĥ¨":11695,"ĠFar":11696,"ĠNow":11697,"Ġ167":11698,"åįģåħ«":11699,"ten":11700,"Ġèªį":11701,"ãĥįãĤ·ãĤ¢":11702,"Ġãĥĳãĥ¼ãĥĪ":11703,"æĬ¼":11704,"eve":11705,"çĽ¸æ¨¡":11706,"188":11707,"Ġ168":11708,"åľ°çĲĨ":11709,"Ġå¹´éĸĵ":11710,"ãĥ³ãĥĩãĥ¼":11711,"åıĸæī±":11712,"486":11713,"ĠÂ£":11714,"Br":11715,"å®¤åĵ²åĵī":11716,"Ġçĥ":11717,"Rock":11718,"Ġå£²":11719,"ĠäºĪéģ¸æķĹéĢĢ":11720,"äºĭéłħ":11721,"è¨Īç®Ĺ":11722,"Ġé§Ĳè»Ĭåł´":11723,"ãģ®å»ĥæŃ¢":11724,"255":11725,"ĠæŁĶ":11726,"æĺłçĶ»çĽ£çĿ£":11727,"ĠæĿīæľ¬":11728,"Ġè·ĿéĽ¢":11729,"ãĤ®ãĥ¥ãĥ©":11730,"ĠWebsite":11731,"ĸæĺ§ãģķ":11732,"ĠçĽ¸æ¨¡":11733,"åĽ½ä¼ļ":11734,"road":11735,"æ°Ĺè±¡":11736,"304":11737,"ĠPrinc":11738,"ĠMartin":11739,"va":11740,"ĠAB":11741,"ä¸ĢæľĹ":11742,"ĠGet":11743,"çķ¥æŃ´":11744,"ĠãĤŃãĥ£ãĥ©ãĤ¯ãĤ¿ãĥ¼ãĤ½ãĥ³ãĤ°":11745,"uya":11746,"æĿ¥ãģŁ":11747,"ĠçķĻ":11748,"Ġèªŀ":11749,"åħµåº«çľĮ":11750,"Ab":11751,"ãĥĨãĥį":11752,"ãģĹãģİ":11753,"ãĤµãĥĥãĤ«":11754,"ĠãĥıãĥŃ":11755,"da":11756,"åħ¬è«ĸ":11757,"åĲīå·Ŀ":11758,"å¹¸éĽĦ":11759,"ĠEntertain":11760,"æĻ®":11761,"åŀĤ":11762,"ĠçĶŁå¾Ĵ":11763,"ãĤ¹ãĤ¯ãĥ¼ãĥ«":11764,"ĠYOUR":11765,"ĠéĻį":11766,"MG":11767,"ĠæĺİçŁ³":11768,"ĠæľĢçµĤè©±":11769,"åŃ¦éķ·":11770,"Ġvocal":11771,"å¥½ä¼ļ":11772,"Ġ{":11773,"Ġå±±ä¸Ń":11774,"ĸæĺ§ãģķåĽŀéģ¿":11775,"å¤ªå¹³æ´ĭ":11776,"ĠMovie":11777,"éĸ²":11778,"131":11779,"ãĥŃãĥ¯":11780,"Best":11781,"CV":11782,"ĠPolit":11783,"ãĥ³ãĥ¯":11784,"ãģ¾ãģ§ãģ®":11785,"ãĤµãĥŀ":11786,"161":11787,"å²¡æľ¬":11788,"ĠçĽĹ":11789,"æ¯İæĹ¥":11790,"Ġ210":11791,"å®´":11792,"ĠãĥŃãĥĥãĥĨ":11793,"è¡¨å½°":11794,"Ġåħ¬åħ±":11795,"åľ°åĽ³":11796,"Part":11797,"oid":11798,"åĳª":11799,"ĠæľĿåĢī":11800,"ĠMach":11801,"ãĤ¨ãĤ¹ãĥĳ":11802,"ado":11803,"003":11804,"ãĥ¡ãĥĥãĥĪ":11805,"ruct":11806,"ĠæıĲ":11807,"Ġå¯¾æĪ¦çĽ¸æīĭ":11808,"ãĤ¦ãĤ£ãĥªãĤ¢ãĥłãĤº":11809,"410":11810,"290":11811,"Ġãĥīãĥ³":11812,"æŃ¦åĻ¨":11813,"ç¢ºèªį":11814,"ĠBell":11815,"éģ¸æĬŀ":11816,"å¾Įç·¨":11817,"Ġåħ±åĲĮ":11818,"andy":11819,"ĠãĤªãĥ«":11820,"overn":11821,"åħ¬åı¸":11822,"Ġè¶£åĳ³":11823,"Mon":11824,"ç¦ħ":11825,"ground":11826,"aya":11827,"kin":11828,"ĠãĤ°ãĥªãĥ¼":11829,"Per":11830,"ãĥ´ãĤ£ãĥ«":11831,"å®°":11832,"ĠABC":11833,"çĶ±é¦Ļ":11834,"ãĥ¼ãĥªãĥ¼ãĤ°":11835,"ç°¡æĺĵ":11836,"è²¢":11837,"ãĥĸãĥ©ãĥ³ãĥī":11838,"çĲ¢":11839,"æįľæŁ»å®ĺ":11840,"ãģĭãģı":11841,"éĩĮå¥Ī":11842,"ĠEpisode":11843,"ä½ĵéĩį":11844,"å¥³çİĭ":11845,"Ġsy":11846,"ãĤ³ãĥŁãĥ¥ãĥĭãĥĨãĤ£":11847,"æ¢¶":11848,"åģľæŃ¢":11849,"ĠLady":11850,"ĠEURO":11851,"æĢĴ":11852,"ĠãĥĳãĥĬ":11853,"Ġé¦¬åł´":11854,"ãģĦãģ¯":11855,"éĽ¶":11856,"Ġinc":11857,"Ãľ":11858,"å¤§ä½Ĳ":11859,"åĨ¨":11860,"ÙĦ":11861,"æİĴ":11862,"306":11863,"Ġæ¿±":11864,"ĠLu":11865,"æĸ¹è¨Ģ":11866,"æĭĿ":11867,"ĠãĥĽãĥ¯ãĤ¤ãĥĪ":11868,"ãĤ³ãĥĬãĥ³":11869,"åİŁçĶ°":11870,"å¹³æĪĲåħĥå¹´":11871,"ãģĿãģ®ä»ĸãģ®":11872,"ãĥ³ãĤ²ãĥ³":11873,"å¤§åľ°":11874,"éģłèĹ¤":11875,"ãĥŀãĥī":11876,"ãĥ¼ãĥŃãĥ³":11877,"Sil":11878,"ãĥĲãĥĪ":11879,"ãĤªãĥ©":11880,"è¼ĥ":11881,"Ġä¸Ńè¥¿":11882,"åºĥåĳĬ":11883,"Ġå¤§éĺªå¸Ĥç«ĭ":11884,"æŃ¦éģĵé¤¨":11885,"ĠãģĦãĤı":11886,"âĪŀ":11887,"å¹½":11888,"ĠPict":11889,"488":11890,"å¥ĩå¦Ļãģª":11891,"ãĥ¢ãĥı":11892,"ĠãĤµãĥ³ãĤ¿":11893,"Ġ[":11894,"åĲĮçĽŁ":11895,"ĠEãĥĨãĥ¬":11896,"Ġå»ºè¨Ń":11897,"Ġå¹´åº¦åĪ¥æĬķæīĭæĪĲç¸¾":11898,"dition":11899,"ĠãĤ»ãĥªãĤ¨A":11900,"ãĥ³ãĥ´":11901,"ãĥĻãĥ³":11902,"åĮ»çĻĤæ©Łéĸ¢":11903,"ĠãģĳãĤĵ":11904,"Ġèī²å½©":11905,"ä¾ł":11906,"ãĥĥãĥĪãĥľãĥ¼ãĥ«":11907,"ãĤ¤ãĤ§":11908,"225":11909,"ware":11910,"ãĤ¿ãĤ¯ãĤ·ãĥ¼":11911,"å¤§ä½¿é¤¨":11912,"Ġèĵ®":11913,"IVERSARY":11914,"ating":11915,"ĠãĥŀãĥĦ":11916,"ĠOffice":11917,"Int":11918,"ãĤ¢ãĤ¦":11919,"Ġ220":11920,"ATSU":11921,"çīĪãģ®":11922,"å¤©åĽ½":11923,"ãĥ¼ãĤ·ãĥ£ãĥ«":11924,"ãĥ©ãĥŀãĥ³":11925,"ãĤ¤ãĥ³ãĤ¿ãĥ¼ãĥģãĤ§ãĥ³ãĤ¸":11926,"Ġ#\"":11927,"ç·ļéĽ»åĬĽ":11928,"ken":11929,"ä¾µ":11930,"ĠFac":11931,"ĠãĥŀãĥĥãĥĪ":11932,"asc":11933,"å²¡å´İ":11934,"çĪª":11935,"ãĤ¯ãĥ©ãĥ¼ãĥ¬ãĥ³":11936,"ãģ®çľĮéģĵ":11937,"ICIAL":11938,"Ġãĥŀãĥĭ":11939,"å¹¼å°ĳæľŁ":11940,"åįĹçĶº":11941,"235":11942,"äºĪåł±":11943,"Ġè¨Ńè¨Ī":11944,"ãĥ¡ãĥĪãĥŃ":11945,"246":11946,"æ¬¡å®ĺ":11947,"Ġå¯ĮçĶ°":11948,"éĢĲèī¦":11949,"éļ·":11950,"What":11951,"è¾²æ¥ŃåįĶåĲĮçµĦåĲĪ":11952,"çĥı":11953,"ĠãĤ½ãĥŃ":11954,"164":11955,"Ġè©¦":11956,"ROM":11957,"ãĤµãĥ¼":11958,"ãĤ¯ãĥªãĤ¹ãĥŀãĤ¹":11959,"273":11960,"æ´¥åŃĲ":11961,"ference":11962,"Ġä»»å¤©åłĤ":11963,")âĨĴ":11964,"ĠåµĲ":11965,"å¤§æ¨¹":11966,"ãģĻãģĭ":11967,"ãĥ¼ãĤ¯ãĥ«":11968,"ãĥķãĤ£ãĥĥãĤ¯":11969,"Ġå¤§åŀĭ":11970,"169":11971,"226":11972,"Mr":11973,"Ġåºľ":11974,"Ġå·ĿæĿĳ":11975,"ä¸ŃåĩºãģĹ":11976,"ĠHi":11977,"550":11978,"æĿľ":11979,"ãĥ³ãĥĢãĤ¤":11980,"ĠAK":11981,"ãĥĹãĥĨãĥ³":11982,"Ġæ¨ĭåı£":11983,"Ġ1873":11984,"æµ·ãģ®":11985,"ORS":11986,"142":11987,"éĩĳå±ŀ":11988,"ãģ®çľĮéģĵä¸Ģè¦§":11989,"ĠSub":11990,"Ġåģľ":11991,"ä¸Ģãģ®":11992,"147":11993,"ĠãĥķãĤ¸":11994,"ãĤ°ãĤ¼":11995,"ĠæĹ¥é«ĺ":11996,"ãĥĲãĤ¹ãĤ±ãĥĥãĥĪãĥľãĥ¼ãĥ«":11997,"ĠãĤ»ãĥĥãĥĪ":11998,"ãĥ³ãĥİ":11999,"âĻ¥":12000,"Ġ169":12001,"ĠBox":12002,"Ġãģ¨ãģªãĤĭ":12003,"162":12004,"éļħ":12005,"ĠAfric":12006,"305":12007,"Ġãĥ¢ãĥ³":12008,"ĠãĤ¯ãĥªãĤ¹ãĥĨãĤ£":12009,"ĠAugust":12010,"470":12011,"å·¨äºº":12012,"è¨ĺåı·":12013,"Ġèī¦æŃ´":12014,"ä¸īä¸ĸ":12015,"Gl":12016,"Je":12017,"Ġé½":12018,"Ġè¥¿å±±":12019,"ä»Ĭäºķ":12020,"åĳ¼ãģ¶":12021,"ãĥ«ãĥ¼ãĥł":12022,"ãĥŁãĤ«":12023,"åİŁåŃĲ":12024,"ãĤ»ãĥĸãĥ³":12025,"æķĻåĵ¡":12026,"Ġéģº":12027,"Ķèĸĩ":12028,"ãĢĬ":12029,"Ġéļİ":12030,"146":12031,"ä½Ĳè³Ģ":12032,"éģ¸æĮĻåĮº":12033,"Ġæ¦İ":12034,"ĠDANCE":12035,"ãĥ¼ãĥĭãĥ¥":12036,"ãĤµãĤ¦ãĥ³ãĥīãĥĪãĥ©ãĥĥãĤ¯":12037,"ãĥĥãĤ»ãĤ¤":12038,"UFC":12039,"é¦Ļæ¸¯":12040,"Ġãĥľãĥ«":12041,"ĠShi":12042,"ãģĭãģĽ":12043,"Ġæ²³åĨħ":12044,"ç¢§":12045,"Ġ//":12046,"obal":12047,"ãĥĹãĥ¬ãĤ¼":12048,"æ°´éģĵ":12049,"ALK":12050,"Ġçķĳ":12051,"ĠçĲīçĲĥ":12052,"ĠEntertainment":12053,"bar":12054,"ĠãĥĻãĥĪãĥĬãĥł":12055,"ĠãĥĭãĥĥãĤ¯":12056,"RçµĤäºĨ":12057,"ĠAnim":12058,"Ġãģ¶":12059,"Ġç©ºä¸Ńç·ļéĽ»åĬĽ":12060,"çĻ¾ç§ĳ":12061,"ãģ²ãģ¨ãĤĬ":12062,"ĠãĥŁãĥīãĥ«":12063,"REAK":12064,"ante":12065,"èĭ±æ¨¹":12066,"ĠæĮ¿åħ¥æŃĮ":12067,"Ġçł´":12068,"å³¶é§ħ":12069,"ãĥĢãĥĸãĥ«ãĤ¹":12070,"å°ıåŃ¦é¤¨":12071,"Ġãĥ©ãĤ¹ãĥĪ":12072,"ãĥ³ãĥĩãĥ«":12073,"å¿ĥçĲĨ":12074,"ĠANNIVERSARY":12075,"ãĥļãĥĥãĥĪ":12076,"ĠCITY":12077,"ä»£çĲĨ":12078,"æĺİåŃĲ":12079,"ĠãĥĸãĥŃ":12080,"ĠCA":12081,"ç¾İéĩĮ":12082,"çĻºçĶŁ":12083,"ãĥ´ãĤ£ãĥĥãĥģ":12084,"DX":12085,"ks":12086,"Ġicon":12087,"Ġå¤§æĹ¥æľ¬":12088,"ĠæĿ¾åİŁ":12089,"ĠOxford":12090,"ãĥ³ãĥŀãĥ¼ãĤ¯":12091,"ãģĦãģª":12092,"ãĤªãĥķ":12093,"ä¸ĬãĤĬ":12094,"Ġç§ĳåŃ¦":12095,"ĠBay":12096,"340":12097,"å¹³éĩİ":12098,"ãģłãģ¡":12099,"åħŃä¸ģçĽ®":12100,"ãĤ¿ãĤ¤ãĤ¬ãĥ¼ãĤ¹":12101,"ĠBLACK":12102,"çĽ´åŃĲ":12103,"ebook":12104,"Ġéľ§":12105,"ĠIP":12106,"Ġæ¥Ń":12107,"éķ·è°·å·Ŀ":12108,"Ġ172":12109,"Ġå®Łæĸ½":12110,"æ²¿":12111,"åĮĹä¹Ŀå·ŀ":12112,"ãģĺãĤĵ":12113,"ĠãĥĢãĥ¼ãĤ¯":12114,"èĪĪæ¥Ń":12115,"ĠåĲīæĿĳ":12116,"ĠJean":12117,"men":12118,"è¡Ŀ":12119,"ãģĲãĤĭ":12120,"ãĥģãĥ£ãĥ¬ãĥ³ãĤ¸":12121,"å§¦":12122,"ãĥ³ãĥĬãĥ¼":12123,"pect":12124,"UMI":12125,"£ãĤĬ":12126,"Ġãĥĳãĥģ":12127,"ãģ¤ãģ°":12128,"ãĥĸãĥ©ãĤ¶ãĥ¼ãĤº":12129,"ãģ¯ãģĦ":12130,"ĠVan":12131,"çĿ¦":12132,"ĠãĤ´ãĥ¼ãĥ«ãĥĩ":12133,"ĠFamily":12134,"Ġé¨İæīĭ":12135,"ä»²éĸĵ":12136,"elt":12137,"Ġåľ°çįĦ":12138,"ops":12139,"ĠãĥĿãĤ¸ãĤ·ãĥ§ãĥ³":12140,"Ġé£¯å¡ļ":12141,"ĠãĤ¢ãĥĭãĥ¡ãĥ¼ãĤ·ãĥ§ãĥ³åĪ¶ä½ľ":12142,"Ġà":12143,"ãĤ¸ãĥł":12144,"Ġwe":12145,"ãĥ¬ãĤ¢":12146,"ĠCult":12147,"Ġå¤§çŁ³":12148,"æ¥½åĽ£":12149,"Ġ1891":12150,"æ´ĭèī¦":12151,"ãĥ¬ãĤªãĥ³":12152,"åĨįæĶ¾éĢģ":12153,"èı©èĸ©":12154,"ä¸Ńèı¯":12155,"Ġãĥıãĥªãĥ¼":12156,"Ġå¤©çļĩ":12157,"ĠANIM":12158,"ãĥĥãĥĴ":12159,"ĠãĥĴãĥ¥":12160,"Ġè§Ĵå·ĿæĽ¸åºĹ":12161,"ãĥ¼ãĥ©ãĤ¤":12162,"ãĥķãĤ§ãĤ¹":12163,"ç§ĺæĽ¸":12164,"å®£è¨Ģ":12165,"ãĥĻãĥŃ":12166,"ãĥķãĤ£ãĥ«ãĥł":12167,"ãĥīãĥ©ãĤ¤ãĥĸ":12168,"ĠBur":12169,"ãĤªãĥ¼ãĥĪ":12170,"roid":12171,"ãĤ³ãĥ¼":12172,"ĠãĤ¢ãĥĢãĥ«ãĥĪ":12173,"ĠWild":12174,"ivil":12175,"ĠJu":12176,"Ġ166":12177,"ĠDC":12178,"ãĥģãĤ§ãĥ«":12179,"ãĥĻãĥªãĥ¼":12180,"ĠBC":12181,"è¥¿æŃ¦":12182,"ãĤĦãģį":12183,"ĠçĶ°åı£":12184,"Åį":12185,"183":12186,"ĠTor":12187,"Ġåĭ²":12188,"ining":12189,"ãģ¯ãģ¾":12190,"ãĥ³ãĥŀãĥ¼":12191,"ĠçİĦ":12192,"ĠPresents":12193,"1911":12194,"ãĥĲãĤ¤ãĥ«":12195,"æ´¥çĶº":12196,"ãĥ«ãĥİãĥ¼":12197,"ãĤ¤ãĥ¡ãĥ¼ãĤ¸":12198,"inst":12199,"ischen":12200,"ãĥİãĤ¢":12201,"äº¨":12202,"æķ´çĲĨ":12203,"ãĤ¯ãĤ·ãĥ³ãĤ°":12204,"ĠPublishing":12205,"rough":12206,"'''âĢĵ":12207,"esch":12208,"gar":12209,"1926":12210,"ĠVis":12211,"è¿İ":12212,"Ġè¦ģ":12213,"Ġå½¢æħĭ":12214,"pro":12215,"Ġå¾ĴæŃ©":12216,"ãĤºãĥ«":12217,"Ġåľ°åĽ³":12218,"Ġä¹ħä¿ĿçĶ°":12219,"3000":12220,"uo":12221,"éģ¼":12222,"ĠRos":12223,"302":12224,"ĠLeague":12225,"æĭ¡å¤§":12226,"ĠRailway":12227,"ĠåĮĹå·Ŀ":12228,"ĠãĤĪãģĨ":12229,"è³ĥ":12230,"å®®åŁİ":12231,"çĭĹ":12232,"ãĤ¯ãĥªãĤ¨":12233,"æ³¢æķ°":12234,"è²´åŃĲ":12235,"MIX":12236,"çľŁä¸Ģ":12237,"èµ¤ãģĦ":12238,"ãĥ¼ãĥ©ãĥł":12239,"KK":12240,"ĠSR":12241,"åĵĢ":12242,"SEN":12243,"ãĥ³ãĥĹãĥŃ":12244,"Ġæł¡èĪİ":12245,"ĠæĢ§èĥ½":12246,"ĠåĲĦè©±ãĥªãĤ¹ãĥĪ":12247,"ãĥĩãĤ¶ãĤ¤":12248,"Ġç·´":12249,"ĠTem":12250,"ĠZe":12251,"SHOW":12252,"ãģ«ç§»è»¢":12253,"åĲĪæĪĲ":12254,"ĠæĪĲç¸¾":12255,"DU":12256,"1927":12257,"Ġç¯łåİŁ":12258,"ĠRoyal":12259,"DP":12260,"ĠãĤ¹ãĤºãĤŃ":12261,"åħ¬åħ±":12262,"ãĥĹãĥªãĥ³ãĤ¹":12263,"ĠèĬ¸è¡ĵ":12264,"ĸåĥı":12265,"ĠMaster":12266,"äº¤éĢļå±Ģ":12267,"Ġéĸī":12268,"ãĥ©ãĤ¶":12269,"ãĥĦãĤ¤":12270,"ĠChar":12271,"cyclop":12272,"ãĥŃãĤ±":12273,"ãĤĴåĲ«ãĤĢ":12274,"èŃ°éķ·":12275,"åħĥæ°Ĺ":12276,"Bass":12277,"TRA":12278,"Ġ1893":12279,"ıæ³¢":12280,"ãĥ´ãĤ¡ãĥ«":12281,"Ġå¾³éĸĵ":12282,"æ·³ä¸Ģ":12283,"æĻĤçĤ¹":12284,"åįĶå®ļ":12285,"ãĥ³ãĥĲãĤ¹":12286,"ĠConcert":12287,"Ġç®±":12288,"ãģĹãģªãģĦ":12289,"ä½³åŃĲ":12290,"Ġè³ŀ":12291,"æľ¬éĥ¨ãģ¯":12292,"ĠåľŁæĽľãĥ¯ãĤ¤ãĥīåĬĩåł´":12293,"PH":12294,"ãĥ¼ãĤ°ãĥ«":12295,"Ġä½ľåĵģè³ŀ":12296,"Ġæ«»äºķ":12297,"æĹ¥éĸĵ":12298,"ãĤ´ãĥ¼ãĥ«ãĥĩãĥ³":12299,"éĢĥ":12300,"ãģĬãĤĵ":12301,"iy":12302,"ãĥŁãĤ¯":12303,"DN":12304,"ãĥİãĤ³":12305,"åİ³":12306,"ãĤ¹ãĥĨãĤ£ãĥĲãĥ«":12307,"ãĤ¿ãĥŀ":12308,"ĠãĤªãĤª":12309,"Ġç«ĭèĬ±":12310,"FU":12311,"ĠFun":12312,"ĠãĤ¯ãĥı":12313,"ãģ®éķ·":12314,"éŁ¿æĽ²ç¬¬":12315,"ãģ®ä½įç½®":12316,"ãĥ´ãĤ£ãĤ¢":12317,"ãĤ¨ãĥ³ãĤ¸ãĥĭãĤ¢":12318,"ĠãĤ¹ãĤ¿ãĥ¼":12319,"è¦ģæĸĩåĮĸè²¡":12320,"èĤĩ":12321,"Star":12322,"Tra":12323,"åĪĪ":12324,"ãĥİãĥ¼ãĥĪ":12325,"çĶŁæĶ¾éĢģ":12326,"ĠUnder":12327,"''ãĢı":12328,"åľŁæĽľæĹ¥":12329,"ãĥ³ãĥ¢ãĥ¼ãĥ«":12330,"ãĥªãĥ¼ãĥĢãĥ¼":12331,"ãģ¾ãĤıãĤĬ":12332,"ĠDigital":12333,"æĸĩæĽ¸":12334,"Ġ1886":12335,"æŁĶéģĵ":12336,"Ġé«Ļ":12337,"ãĥİãĥŁãĥįãĥ¼ãĥĪ":12338,"ĠUSS":12339,"çĮª":12340,"ĠART":12341,"LL":12342,"çŁ³æ²¹":12343,"éĽħå½¦":12344,"212":12345,"obe":12346,"ĠåĪ¶ä½ľåįĶåĬĽ":12347,"ãĤ¤ãĥ³ãĥĩãĤ£":12348,"ãĤ¨ãĥ¼ãĤ¹":12349,"ãĥ³ãĥĪãĤ¹":12350,"Ġæ´¥çĶ°":12351,"ãĥŁãĤµãĤ¤ãĥ«":12352,"Me":12353,"1925":12354,"çŀ¬":12355,"ĠHEART":12356,"cer":12357,"Ð´":12358,"ãĤ¤ãĥ©":12359,"ãĤ«ãĥ¡":12360,"Ġåľĭ":12361,"ãĤ¦ãĤ©ãĥ¼ãĤº":12362,"ĠåºĹèĪĹ":12363,"ĠãĥĲãĤ¹è·¯ç·ļ":12364,"åĪĿæľŁ":12365,"Ġep":12366,"åĲīéĩİ":12367,"Ġå¸¯":12368,"ãĤ¢ãĥ¼ãĤº":12369,"171":12370,"Ġèĩªæ²»ä½ĵ":12371,"ãģ®è¡Ĺ":12372,"1900":12373,"éĸĭæł¡":12374,"ĠãĤ¢ãĥ«ãĥķãĤ¡":12375,"ãĥŁãĥ¼ãĥ«":12376,"ãĤĴéĸĭåĤ¬":12377,"Ġè¾²æ¥Ń":12378,"ĠéłĨ":12379,"ç¥Ĳä¸Ģ":12380,"JECT":12381,"Ġ1892":12382,"ĠåĪĿçĻ»åł´":12383,"å±¯åľ°":12384,"ĠMagic":12385,"ĠLes":12386,"ĠGames":12387,"å¥ĩè·¡":12388,"æĹ¥åĲĳ":12389,"ãģ®ãģĤ":12390,"ãĥªãĥĢ":12391,"äººæ°Ĺ":12392,"404":12393,"ĠãĤ¹ãĥĨãĥ¼ãĤ¸":12394,"Ġåħ¬éĸĭå¹´":12395,"orial":12396,"ĠDeath":12397,"anger":12398,"ĠãĥĨãĥ¬ãĥĵæľĿæĹ¥ç³»åĪĹ":12399,"ĠãĤ¨ãĥķãĤ¨ãĥł":12400,"Ġ1875":12401,"ãĥĻãĥ©":12402,"Ġfeaturing":12403,"Ġä¹Ļ":12404,"ĠèĴ²":12405,"ERATION":12406,"well":12407,"ĠRd":12408,"ãĥ¼ãĥĢãĥ³":12409,"Ġus":12410,"ãĤ¢ãĥ¼ãĤ«ãĤ¤ãĥĸ":12411,"èĢĲ":12412,"éĺªç¥ŀ":12413,"ãĥ¢ãĥ¼ãĤ·ãĥ§ãĥ³":12414,"Ġæ²³åĲĪ":12415,"IDEO":12416,"åĲįä½ľ":12417,"çĶ»åĥı":12418,"boards":12419,"ĠNOR":12420,"ĠWonder":12421,"ãĤ»ãĥ³ãĤ¹":12422,"åĮ¹":12423,"ãĤªãĥ¬":12424,"254":12425,"Ġå²¡éĥ¨":12426,"ZO":12427,"ãĤ²ãĤ¹":12428,"ãģµãģ¿":12429,"å§¿":12430,"Ġ177":12431,"åĵ²å¤«":12432,"ourt":12433,"Ġé¦ĸéĥ½":12434,"Ġæĵį":12435,"233":12436,"Ġ:#:":12437,"ãĥŃãĥľãĥĥãĥĪ":12438,"ä½įæ±ºå®ļæĪ¦":12439,"ĠWii":12440,"ãĥĳãĥ¯ãĥ¼":12441,"ãĥĨãĥ¬ãĥĵå°ıèª¬":12442,"åĪ¶å¾¡":12443,"Ãł":12444,"181":12445,"PM":12446,"ãģ®ãĤĬãģ°":12447,"ãĥ³ãĥĻãĥ«ãĤ¯":12448,"çķł":12449,"åįĥéĩĮ":12450,"ĠåĴĮæ³ī":12451,"ãĤŃãĥł":12452,"Ġval":12453,"Ġãĥģãĥ£ãĥ³ãĥįãĥ«":12454,"æľĪæĽľæĹ¥":12455,"çī¡":12456,"ĠNEXT":12457,"inger":12458,"å®¶åºŃ":12459,"Ġedition":12460,"ãģ®ä½ı":12461,"ãĤªãĥļãĥ©":12462,"åĭĻå¤§èĩ£":12463,"æīĵãģ¡":12464,"çº":12465,"Ġæľªå®Łæĸ½":12466,"å®ĹæķĻ":12467,"ĠSa":12468,"æĿ¾çĶ°":12469,"æ¥½ç«ł":12470,"ĠWoman":12471,"æľªåħ¬éĸĭ":12472,"ãĥªãĥ¤":12473,"ĠãĥĹãĥŃãĥĩãĥ¥ãĥ¼ãĤ¹":12474,"Ġåı°åĮĹ":12475,"æŃ£æĺİ":12476,"å¾Ĺç¥¨":12477,"Ġ1887":12478,"ĠåĪĿåĩºåł´":12479,"IAN":12480,"ĠJazz":12481,"ãģ°ãĤī":12482,"load":12483,"åĮºåĪĨ":12484,"ãĥķãĤ§ãĥ«":12485,"ĠãģĹãĤĩãģĨ":12486,"Ġå°ĳå¥³":12487,"éķ·éĩİçľĮ":12488,"ĠæºĸãĢħæ±ºåĭĿæķĹéĢĢ":12489,"Ġä¼ĬéģĶ":12490,"uit":12491,"ãĥĥãĥ©":12492,"ãģŁãģĭãģĹ":12493,"209":12494,"ANB":12495,"èĽĩ":12496,"ĠOrder":12497,"ĠMind":12498,"ãģĹãģ¿":12499,"æĶ¿å¤§åŃ¦":12500,"eta":12501,"ĠãĤ¹ãĥĪãĥª":12502,"éĽĨç·¨":12503,"Ġæ¨©":12504,"ãĥ¬ãĤº":12505,"ãĥįãĤ³":12506,"ãĥ¬ãĥł":12507,"éİĮåĢī":12508,"ãĥªãĥĴ":12509,"Ġåħļ":12510,"ãĥĨãĥĥãĤ¯":12511,"307":12512,"ĠæĺİæĹ¥":12513,"276":12514,"ãģ®ä¸Ĭ":12515,"ãĥ³ãĤ»ãĥ³":12516,"ĠãĤ«ãĥªãĥķãĤ©ãĥ«":12517,"ract":12518,"ĠãĥĩãĤ¶ãĤ¤ãĥ³":12519,"ĠãĥķãĤ©ãĥ¼ãĥŀãĥĥãĥĪ":12520,"Ġclass":12521,"ĠFant":12522,"Ġãĥ¯ãĤ·ãĥ³ãĥĪãĥ³":12523,"ãĥªãĥĥãĤ¸":12524,"ãĤ¿ãĥĥãĤ°":12525,"èĩĵ":12526,"Ġéĥ¨æ´»åĭķ":12527,"ĠSpacew":12528,"enz":12529,"åģī":12530,"ãģ¯ä»¥ä¸ĭãģ®":12531,"é«ĺéĩİ":12532,"æĦıåĳ³":12533,"Ġåŀĭ":12534,"lor":12535,"uh":12536,"ãĤ¦ãĥ©":12537,"ĠFound":12538,"çĦ¡ç·ļ":12539,"ĠãĤ³ãĤ¹ãĥ¢ãĤ¹":12540,"ĠCy":12541,"ĠçĶºçĶ°":12542,"ĠãĥŃãĥ¼ãĥ©":12543,"åħ¨æĹ¥æľ¬":12544,"ĠTK":12545,"éļı":12546,"227":12547,"ãģĴãĤĵ":12548,"azine":12549,"tim":12550,"å¹´éĳĳ":12551,"æ³¥":12552,"ç«ĭãģ¤":12553,"Ġç¡":12554,"177":12555,"Ġæ½®":12556,"ĠMus":12557,"å£±":12558,"ĠåĬ©çĽ£çĿ£":12559,"ĠæĿ±æŃ¦":12560,"æĭłçĤ¹":12561,"ature":12562,"ĠLap":12563,"ãĤ¸ãĤ§ãĤ¤":12564,"åģľçķĻåł´":12565,"ãĤĴæĮģãģ¤":12566,"åĭĺ":12567,"ĠOct":12568,"Ã©s":12569,"ãģ®èĢģäºº":12570,"èĥĮæĻ¯":12571,"Will":12572,"195":12573,"179":12574,"Ġå¯¿":12575,"ista":12576,"åĸĦè©¦åĲĪ":12577,"Ġçķªåľ°":12578,"ĠEXILE":12579,"äº¬éĥ½åºľ":12580,"å¡ģæīĭ":12581,"ä½ĵæĵį":12582,"ĠSpacewatch":12583,"ĠFin":12584,"Ġ171":12585,"Ġåĳ¼":12586,"ãĤ«ãĥ³ãĥī":12587,"Ġ1884":12588,"çĽ®çļĦ":12589,"Ġtour":12590,"ãĥ³ãĤ·ãĥ§":12591,"èģ·æ¥Ń":12592,"ĠTimes":12593,"Ġ173":12594,"440":12595,"VOL":12596,"è¨´":12597,"238":12598,"ĠæľĢé«ĺä½į":12599,"To":12600,"ĠVI":12601,"åĪĨæł¡":12602,"ishi":12603,"Ġãĥıãĥ¼ãĥĪ":12604,"ãĤªãĥĪ":12605,"ãĥ³ãĤ¬ãĥł":12606,"Ġãĥŀãĥ«ãĤ³":12607,"ĠæĶ¾éĢģå±ĢåĲį":12608,"å¤ĸåĽ½":12609,"ĠæĹ¥æľ¬èªŀåĲ¹æĽ¿":12610,"æīĢèĶµ":12611,"ãĥ¼ãĤ¹ãĤ¿ãĥ¼":12612,"æĮ¯èĪĪå±Ģ":12613,"å¸ĤçĶºæĿĳä¸Ģè¦§":12614,"Dream":12615,"ãģ®çłĶç©¶":12616,"äºĺ":12617,"ĠãĤ¢ãĥĪãĥ©":12618,"ãģıãģ«":12619,"ĠSea":12620,"æĹ¥çı¾åľ¨":12621,"ãĥĭãĤ¹ãĥĪ":12622,"çİĭèĢħ":12623,"ika":12624,"éĢ±åĪĬ":12625,"ãĥ¥ãĥ©":12626,"èıĮ":12627,"ĠRS":12628,"éĥ½å¸Ĥåľı":12629,"aker":12630,"Ġãĥĳãĥ¼ãĤ½ãĥĬãĥªãĥĨãĤ£":12631,"çĶ°è£ķ":12632,"ãĤĴçĻºå£²":12633,"æľĢå¼·":12634,"ãģ®ä¸»":12635,"ãģĦãģĵ":12636,"ãĥĵãĥ¼ãĥģ":12637,"ãģĿãģ°":12638,"ĠåĽ½åľŁäº¤éĢļçľģ":12639,"FS":12640,"Ġpf":12641,"æŃ¯ç§ĳ":12642,"ãĥ¡ãĤ¿ãĥ«":12643,"370":12644,"ĠPOP":12645,"ãĤ¨ãĤ´":12646,"ãĥĨãĤ£ãĤ¹":12647,"265":12648,"Ġ176":12649,"275":12650,"Ä«":12651,"ĠçĶĺ":12652,"æĸ°çĶº":12653,"åįĹåĮº":12654,"ĠæĬ¼":12655,"ĠSingle":12656,"ĠGHz":12657,"258":12658,"Ġæľ´":12659,"å¢ĹåĪĬ":12660,"ãĥ¼ãĤ¤ãĥ³ãĤ°":12661,"ĠNetwork":12662,"å²¡å±±çľĮ":12663,"LP":12664,"ĠãĤ¢ãĥ¼ãĥĪ":12665,"åħīãģ®":12666,"ĠOFFICIAL":12667,"Ġå±ķ":12668,"ĠãĤ¯ãĥªãĤ¹ãĥĪ":12669,"ĠãĤ¢ãĤ¹":12670,"ĠNak":12671,"ãĥĨãĤ¤ãĥ³ãĥ¡ãĥ³ãĥĪ":12672,"ãĥªãĤºãĥł":12673,"çĲĨåŃĲ":12674,"éĸĭå±Ģ":12675,"æµ©ä¸Ģ":12676,"åºĥåł±":12677,"ãĥ¼ãĤŃãĥ³ãĤ°":12678,"ĠåķĨæ¥Ń":12679,"Ġcategory":12680,"ĠInv":12681,"ĠæĪ¦åĽ½":12682,"çİ²åŃĲ":12683,"åŃĲåľĴ":12684,"Ġne":12685,"å¤©æĸĩ":12686,"«éľ²":12687,"ĠãĤ¹ãĤ¤ãĤ¹":12688,"Ġè©¦åĲĪæķ°":12689,"ĠGAME":12690,"ä¸ĬçĶ°":12691,"Ġä¸Ģéĥ¨":12692,"osoph":12693,"ãĤ¹ãĥĳãĥĭãĥĥãĤ¯":12694,"Ġ'''ãĢĮ":12695,"ĠSK":12696,"ãĥĳãĥĳ":12697,"éłĺåŁŁ":12698,"ãģ¯ãĤĦ":12699,"ãĥ¼ãĥĭãĥ§":12700,"Ġèĭ±åĽ½":12701,"ãĤ¢ãĥĪ":12702,"ãģĦãģı":12703,"æģµç¾İ":12704,"éĢļå¸¸":12705,"åķĨäºĭ":12706,"ãĥķãĤ§ãĥ©ãĥ¼ãĥª":12707,"å®ĩéĥ½å®®":12708,"ãĤ¢ãĤ¤ãĥīãĥ«ãĥŀãĤ¹ãĤ¿ãĥ¼":12709,"!)":12710,"ĠSV":12711,"ãĥľãĥ¬ãĥ¼":12712,"å½ĵæĻĤ":12713,"ĠEarth":12714,"Ġåį°":12715,"Ġä¾ĭ":12716,"ĠPA":12717,"åĮĹéĥ¨":12718,"Ġæľ±":12719,"ãĤµãĥ³ãĥĹ":12720,"Ġday":12721,"291":12722,"ĠæĬĺ":12723,"ãĤ±ãĥ¼ãĥĪ":12724,"ãĥĥãĥĶãĥ¼":12725,"ãĥĬãĤ¬":12726,"ãĤµãĥ³ãĤ¿":12727,"è°·æĿĳ":12728,"Ġæł¡æŃĮ":12729,"ĠåŃ¦åľĴ":12730,"192":12731,"åĨĻçľŁéĽĨ":12732,"åŁºç¤İãĥĩãĥ¼ãĤ¿":12733,"ãĥŁãĥİ":12734,"ãĥ¤ãĥ³":12735,"Ġå¯Ľ":12736,"490":12737,"SPR":12738,"å¹¾":12739,"æīĩ":12740,"267":12741,"cept":12742,"åł±éģĵ":12743,"ãĥĹãĥªãĥ³ãĤ»ãĤ¹":12744,"orning":12745,"Ð¹":12746,"ãĥŀãĥ³ãĥī":12747,"Ġçķªç·ļ":12748,"Ġsub":12749,"Ġê":12750,"æĽĸæĺ§ãģķåĽŀéģ¿":12751,"ãĥīãĤ¢":12752,"380":12753,"Ġãĥĸãĥ©ãĥĥãĥī":12754,"Ġç¿Į":12755,"ãĥĬãĥ¼ãĤº":12756,"IGH":12757,"ĠæĪ¦ç¸¾":12758,"Ġ**#":12759,"ãĥªãĥ¼ãĤ¯":12760,"ĠAustral":12761,"ĠForm":12762,"ãĤ¾ãĥ¼ãĥ³":12763,"ä»ĬæĹ¥":12764,"ãĤµãĥ¼ãĤŃãĥĥãĥĪ":12765,"ĠãĤªãĥ¼ãĤ¹ãĥĪãĥªãĤ¢":12766,"Ġda":12767,"å·¡æ´ĭèī¦":12768,"ĠBon":12769,"ido":12770,"ĠãĥªãĤª":12771,"å®Łç¸¾":12772,"Ġç§ĭèĳī":12773,"åŁ·è¡Į":12774,"ãĤºãĥŀ":12775,"Ġè¶³ç«ĭ":12776,"omi":12777,"è©ķè«ĸå®¶":12778,"ĠHal":12779,"æĢ§åĪ¥":12780,"ãĤ³ãĥ¼ãĥ©ãĤ¹":12781,"ĠVIC":12782,"å´©":12783,"ĠåįĹéĥ¨":12784,"ãĥ¶å´İ":12785,"ãĤ¹ãĥĪãĤ¢":12786,"ãĥ³ãĥģãĥ³":12787,"ç¾İäºº":12788,"è¡¨çı¾":12789,"rict":12790,":\"":12791,"ãĥĤ":12792,"ãĥ¬ãĤ³":12793,"ĠMore":12794,"Ġ185":12795,"ĠéĻ¤":12796,"Ġå²©æ³¢æĽ¸åºĹ":12797,");":12798,"§åĽ°":12799,"ĠNPB":12800,"ZA":12801,"Ġgr":12802,"ãĥ¯ãĥ¼ãĥ«":12803,"çķªåı°":12804,"æ¨ªæµľå¸Ĥ":12805,"Do":12806,"æľīæ¨©":12807,"éłĨåŃĲ":12808,"ĠãĤ¢ãĥ³ãĥĩãĤ£":12809,"Ġè·¯ç·ļçĬ¶æ³ģ":12810,"174":12811,"Ġ178":12812,"ãĤ°ãĥ©ãĥ³ãĥī":12813,"ĠéĻĲ":12814,"è©©äºº":12815,"ĠSongs":12816,"åĩ½é¤¨":12817,"âĶģâĶģâĶģâĶģ":12818,"ãĢįãĢģãĢĮ":12819,"ãĥŁãĥĥãĥī":12820,"æµ¦åĴĮ":12821,"ĠForce":12822,"ãĥĵãĤ¢ãĥ³":12823,"åł´ãģ®":12824,"ĠEy":12825,"èī¯åŃĲ":12826,"Ġå¯¾å¿ľ":12827,"ãģ¯ãĤĵ":12828,"Bar":12829,"Sch":12830,"ãĥ¡ãĥ¼ãĥ©":12831,"ä½Ĳéĩİ":12832,"Ġçīĩå²¡":12833,"ĠIC":12834,"Ġsong":12835,"ĠSTYLE":12836,"yp":12837,"ç¶ļè·ĿéĽ¢":12838,"ãĥķãĤ¡ãĤ¤ãĤ¿ãĥ¼":12839,"å¸ĮæľĽ":12840,"ĠKar":12841,"Ġå¤©éĩİ":12842,"ãĤĮãĤĵåĿĬ":12843,"ãĥ«ãĥ¢ãĤ°ãĥ©ãĥķãĤ£":12844,"005":12845,"ĠãĤ¢ãĥ³ãĥĬ":12846,"åĲĮå±ħ":12847,"èī¦èīĩ":12848,"å¼ıéĩİçĲĥ":12849,"æģĭæĦĽ":12850,"ility":12851,"è©¦åĲĪçµĲæŀľ":12852,"ç¦ıå²¡çľĮ":12853,"Ġåįĵ":12854,"ãĥ¬ãĥ¼ãĥĻãĥ«":12855,"ĠSat":12856,"Ġåį±":12857,"æ¨ªå±±":12858,"ãĤªãĥ¼":12859,"Ġ174":12860,"æĿ¾äºķ":12861,"Ġä¸ĬåİŁ":12862,"Ġ?":12863,"å¹´è¡¨":12864,"çĶŁãģ®":12865,"Ġè·¯ç·ļãĥĲãĤ¹":12866,"ĠæĹ¥åĲĳ":12867,"ĠSPORTS":12868,"åŃĲä¾Ľ":12869,"ASON":12870,"ãģ«ãģªãģ£ãģŁ":12871,"aper":12872,"ãĥªãĥĥãĥģ":12873,"ãģĹãģĬ":12874,"æµģãĤĮ":12875,"ãĤ¨ãĥĥãĥĪ":12876,"ç¤¾åĽ£æ³ķäºº":12877,"Ġ183":12878,"éĩįå·¥":12879,"èªłä¸Ģ":12880,"''(''":12881,"ĠTRA":12882,"ĠPAR":12883,"ãģĪãģªãģĦ":12884,"å·¥æĪ¿":12885,"ãĤ³ãĥ³ãĤ¯":12886,"æ¡ľäºķ":12887,"ĠLAST":12888,"ission":12889,"251":12890,"ãĤ¹ãĤ¿ãĥ¼ãĥĪ":12891,"ĠãĥĬãĤ¤":12892,"Ġå®£":12893,"æµ·å¤ĸ":12894,"ĠãĥĻãĥ³":12895,"Ġå½ĵèĲ½":12896,"ãģŁãĤįãģĨ":12897,"ãĥ¢ãĥ³ãĥĪ":12898,"ĠãĤ¨ãĥ³ãĤ¿":12899,"èĲ½èªŀ":12900,"ias":12901,"æľ¨çĶº":12902,"æ·«":12903,"Ġæ²Ļ":12904,"æĽ´æĸ°":12905,"ĠåĬ´åĥį":12906,"ãĤ°ãĥŀ":12907,"Ġç·Ĵ":12908,"ĠçĮ¿":12909,"ļåŃĲ":12910,"ĠBlues":12911,"Ġdown":12912,"Ġæµ®":12913,"ãĤ·ãĥ¥ãĥ¼":12914,"Ġæ£®ä¸ĭ":12915,"ĠæľĽæľĪ":12916,"FR":12917,"ãģ«æĶ¹":12918,"WW":12919,"ãĥĿãĥŃ":12920,"ãĥĪãĥ¨ãĤ¿":12921,"ãģ¯ãģ¤":12922,"ĠJFL":12923,"åĲįãģ¯":12924,"ĠåĨħéĩİæīĭ":12925,"BI":12926,"Ġå¤§å·Ŀ":12927,"173":12928,"ãĥģãĥ«":12929,"ĠSte":12930,"Ġãĥ¢ãĥ³ãĥĨ":12931,"Ġãĥ¦ãĥĢãĥ¤":12932,"Ġå½¹èģ·":12933,"Ġæ¸¡éĥ¨":12934,"Ġåħ¬æĺİåħļ":12935,"ĠCall":12936,"ĠFoot":12937,"å°ıå±±":12938,"æ°ĳä¿Ĺ":12939,"Ġéĸĭæ¥Ń":12940,"White":12941,"Ġæ¨ªéłĪè³Ģ":12942,"ãģ²ãģķ":12943,"ãģµãģŁ":12944,"ĠãĤ¤ãĥ³ãĤ°":12945,"åĲĮãģĺ":12946,"ĠçĻºè¡Į":12947,"ĠåıİéĮ²ä½ľåĵģ":12948,"ãĥŀãĥįãĥ¼ãĤ¸ãĥ£ãĥ¼":12949,"214":12950,"Ġ260":12951,"ĠæĻº":12952,"èªķ":12953,"ĠSKY":12954,"éĿĴãģĦ":12955,"ãģ®ãĥĨãĥ¼ãĥŀ":12956,"ãĤ¨ãĤ¯ãĤ¹":12957,"åİŁæĿĳ":12958,"ä¾ĳ":12959,"ĠSqu":12960,"Ġseries":12961,"ãģ¡ãģ®":12962,"ĠçĶŁå¹´æľĪæĹ¥":12963,"ãģ»ãĤĵ":12964,"åĴĮæŃĮå±±":12965,"æ°ĹçŃĴ":12966,"ĠéŁ³å£°":12967,"alth":12968,"ãĥĢãĤ¦ãĥ³":12969,"ization":12970,"ä¹ĭåĨħ":12971,"mark":12972,"uj":12973,"Ġèľ":12974,"åĪĨãģ®":12975,"ãĥĺãĥĵãĥ¼ç´ļ":12976,"å®ĮäºĨ":12977,"Ġ-)":12978,"iger":12979,"405":12980,"ãĥŁãĥ©":12981,"ãĤ¶ãĥĻãĤ¹":12982,"ãĤ«ãĥ©ãĤªãĤ±":12983,"éĻ¤ãģı":12984,"å¹´ç¬¬":12985,"ĠæĹ¥æľ¬ç¤¾ä¼ļåħļ":12986,"ĠæĶ¾éĢģåĮºåŁŁ":12987,"ãģķãĤĦãģĭ":12988,"At":12989,"ãĤ·ãĤªãĥ³":12990,"ĠTwitter":12991,"ãĥĥãĤ·ãĥ³ãĤ°":12992,"ĠãĤŃãĥı":12993,"ç²§":12994,"äººçĽ®":12995,"ather":12996,"ASHI":12997,"ĠFinal":12998,"ĠåĨ·":12999,"HF":13000,"ams":13001,"ãĥ¼ãĥŀãĥªãĤª":13002,"402":13003,"172":13004,"urch":13005,"æĬ«éľ²":13006,"Hi":13007,"USH":13008,"ãĥ³ãĤ·ãĤ¹ãĤ³":13009,"ãģ¸ãģ®éģĵ":13010,"æ©ĭæ¢ģ":13011,"éĿĻå²¡çľĮ":13012,"ĠGeneral":13013,"World":13014,"ĠÏ":13015,"è³ĩæľ¬":13016,"åı¸ä»¤å®ĺ":13017,"è¡Įåĭķ":13018,"004":13019,"ĠTW":13020,"Rem":13021,"aly":13022,"ä¼į":13023,"ãĥ¼ãĤ¿ãĤ¦ãĥ³":13024,"ãĤ¸ãĥ£ãĥ¼ãĥĬ":13025,"ITION":13026,"èĲ¬":13027,"png":13028,"ãģ®å³¶":13029,"Ġ192":13030,"ĠSecond":13031,"247":13032,"æ²³ãĥīãĥ©ãĥŀ":13033,"CMãĤ½ãĥ³ãĤ°":13034,"èªĵ":13035,"åĽŀåħ¬æ¼Ķ":13036,"ãģĽãĤĭ":13037,"çĻ½ãģĦ":13038,"åįĵçĲĥ":13039,"ĠåŁºç¤İ":13040,"ĠèĬ¸èĥ½":13041,"ĠCambridge":13042,"ĠDog":13043,"Ġ181":13044,"245":13045,"ĠãĤ·ãĤ¢":13046,"Ġ1600":13047,"èĮľ":13048,"æķ¦åŃĲ":13049,"ãģŁãģ«":13050,"Ġå±±éĻ°":13051,"ç³ĸ":13052,"éĢłèĪ¹":13053,"ĠHard":13054,"Ġæĸ°æĹ§":13055,"Ġéĸ¢éĢ£åķĨåĵģ":13056,"ãĤ¤ãĤ¢ãĥŁ":13057,"åıįå¿ľ":13058,"è¸ı":13059,"Ġover":13060,"Ġãĥīãĥªãĥ¼ãĥł":13061,"ĠãĤ¹ãĥĳãĤ¤":13062,"æģĲæĢĸ":13063,"Ap":13064,"é¨İæīĭ":13065,"ãĤ¤ãĥ³ãĤ¿ãĥĵãĥ¥ãĥ¼":13066,"ĠCup":13067,"ãĤ¨ãĥĩãĤ£":13068,"Ġå®®çĶ°":13069,"sen":13070,"ä¼ĳãģ¿":13071,"ĠãĥĿãĥ¼ãĥ©ãĥ³ãĥī":13072,"ĠãĤ¯ãĥ¬ãĤ¸ãĥĥãĥĪ":13073,"Op":13074,"ãĥĥãĥĹãĤ¹":13075,"ãĤŃãĥĥãĥī":13076,"ãĥŁãĥ«ãĥĪãĥ³":13077,"ãĤīãģİ":13078,"ICHI":13079,"ĠãĤ²ãĤ¹ãĥĪåĩºæ¼Ķ":13080,"ãģ£ãģ·":13081,"Ġ1500":13082,"ãĤ±ãĥ¼ãĥĸãĥ«":13083,"ĠãĥĲãĥĥãĤ¯":13084,"ĠçµĮåĸ¶":13085,"ĠçĲ´":13086,"ĠÂ°":13087,"ĠREM":13088,"èĹ©ä¸»":13089,"ĠéĢ²æ°´":13090,"ĠRoll":13091,"Ġå¦Ļ":13092,"401":13093,"ä¸ĩæŀļ":13094,"Ġmedal":13095,"1924":13096,"184":13097,"abe":13098,"ĠãĥľãĤ¹ãĥĪãĥ³":13099,"çµĤçĤ¹":13100,"Ġäººåı£åĭķæħĭ":13101,"ãĤ³ãĥĪ":13102,"278":13103,"ãģļãĤĮ":13104,"æ©ŁåĭķæĪ¦å£«ãĤ¬ãĥ³ãĥĢãĥł":13105,"å®®æľ¬":13106,"aus":13107,"oi":13108,"å¤§åŃ¦åĲįèªīæķĻæİĪ":13109,"å±ĭçĶº":13110,"ĠãĥĲãĥ«":13111,"ĠæŃ¦è£ħ":13112,"Ġéļł":13113,"é«ĺéĢŁåº¦":13114,"é§Ĳå±¯åľ°":13115,"ĠLegend":13116,"191":13117,"ãģ§ãĤĵ":13118,"229":13119,"åĵ¡æķ°":13120,"åįģä¹Ŀ":13121,"Ġåħ¬å¼ıãĥĸãĥŃãĤ°":13122,"ãĥ³ãĥĺãĥ³":13123,"ĠÅ":13124,"NEW":13125,"INT":13126,"ĠæĿ±æµ·å¤§åŃ¦":13127,"å¤§ç³»":13128,"ãģĬãģ°":13129,"Ġåĳ½":13130,"430":13131,"ĠCra":13132,"âĸ³":13133,"Ġæ»ĭè³Ģ":13134,"ãģĦãģªãģĦ":13135,"ãģĨãģĪ":13136,"ĠExpress":13137,"win":13138,"ĠHOC":13139,"æ¬¡ãģ®":13140,"ĠãĥĢãĤ¤ãĥ¤ãĥ¢ãĥ³ãĥī":13141,"ĠSimon":13142,"aku":13143,"ĠæĿĳå±±":13144,"Ġé¤Ĭ":13145,"å¥īè¡Į":13146,"èĭ±äºĮ":13147,"ĠåıĤåĬłä½ľåĵģ":13148,"650":13149,"ĠåįĪ":13150,"ĠéĢļå¸¸":13151,"ãĥĨãĤ¤ãĥ©ãĥ¼":13152,"ĠBusiness":13153,"ĠNor":13154,"ç´¡":13155,"æŀľãģ¦":13156,"ĠMI":13157,"ĠãĤ¸ãĥ¥ãĥĭãĤ¢":13158,"ĠBank":13159,"ĠWall":13160,"æŃ£æ¨¹":13161,"bow":13162,"åı¤ä»£":13163,"1923":13164,"æĢ§ãģ®":13165,"ĠãĥĬãĥı":13166,"313":13167,"ãĤıãĤĮãĤĭ":13168,"äºľç¾İ":13169,"è©©éĽĨ":13170,"ãĤ«ãĥĦ":13171,"ĠåıĬ":13172,"POP":13173,"van":13174,"ĠåŃ¦åĮº":13175,"ĠPlat":13176,"ĠçĮ«":13177,"æģŃåŃĲ":13178,"ãĥĶãĥ¥":13179,"Ġä¸»ãģªåĩºæ¼Ķä½ľåĵģ":13180,"ois":13181,"ãģĹãĤĤ":13182,"çĻ½çŁ³":13183,"ĠOther":13184,"Ġãĥĵãĥªãĥ¼":13185,"GY":13186,"Ġåı£":13187,"æ©ĭå¸Ĥ":13188,"ĠãĥŃãĥ¼ãĤ¿ãĤ¹":13189,"575":13190,"CER":13191,"ÙĨ":13192,"ãĥ¼ãĥĺ":13193,"Ġå®¿":13194,"ĠæĿ¾æ°¸":13195,"Ġæ¨ªæµľå¸Ĥ":13196,"Ġãĥ¬ãĤ¢ãĥ«":13197,"ĠDa":13198,"ç§¦":13199,"ayer":13200,"ç³»éĽ»è»Ĭ":13201,"ĠTRM":13202,"Ġæİ¥ç¶ļè·¯ç·ļ":13203,"Web":13204,"ãĥ¼ãĤ®":13205,"ĠHOT":13206,"åº¦çĽ®":13207,"Ġè¼¸":13208,"ĠéĽ£":13209,"ĠåŃ«":13210,"ãĥĩãĥ©":13211,"ãģĬãĤĤ":13212,"æľĪæľŁ":13213,"ãĥĪãĥ¼ãĥŀãĤ¹":13214,"æĸĩåłĤ":13215,"çĶŁãģįãĤĭ":13216,"ĠKnow":13217,"æ½ľæ°´èī¦":13218,"006":13219,"ãģķãĤĪãģªãĤī":13220,"Data":13221,"ãĤªãĥŃ":13222,"åĩ½":13223,"Ġéħįçµ¦":13224,"263":13225,"ãĤ¼ãĥ³":13226,"íķ":13227,"äººæļ®ãĤīãģĹ":13228,"Ġéĥ½éģĵåºľçľĮ":13229,"zer":13230,"Ġãĥĩãĥ¼ãĤ¿":13231,"Ġè¡Ľ":13232,"Ġå¼¦":13233,"ä»ĺãģĳ":13234,"ĠColl":13235,"Ġä»®":13236,"ĠçĽĬ":13237,"SHI":13238,"Ġæįķæīĭ":13239,"ãģĽãģļ":13240,"ĠNever":13241,"252":13242,"ĠåĬłè³Ģ":13243,"ĠæĹ¥æľ¬åĽ½":13244,"ãĥŃãĤ±ãĥĥãĥĪ":13245,"Ġåħ±æ¼Ķ":13246,"ĠãĥĳãĥĪãĥªãĥĥãĤ¯":13247,"æĳ©æĽ¸æĪ¿":13248,"ĠçĽ£ä¿®":13249,"å·Į":13250,"orrow":13251,"ĠæĢ¥":13252,"iner":13253,"262":13254,"ä¸»ä»»":13255,"ĠOK":13256,"Ġ186":13257,"ĠkW":13258,"ĠãĤªãĥ¼ãĥĹãĥĭãĥ³ãĤ°ãĥĨãĥ¼ãĥŀ":13259,"TW":13260,"æĻ©":13261,"ĬåİŁ":13262,"221":13263,"Ġå°ıæ±ł":13264,"éĢļå¸¸çĽ¤":13265,"Ġéķ·å²¡":13266,"æİĪæ¥Ń":13267,"Ġåħµè£ħ":13268,"ãĥıãĥ¤":13269,"Ġåº·":13270,"å±±åŁİ":13271,"ĠPeople":13272,"light":13273,"ãĥĩãĥ³ãĥĪ":13274,"å¼±":13275,"åĨħãģ¯":13276,"åħ¥ãĤĮ":13277,"å®ľ":13278,"Ġåħ¨æĪ¦":13279,"Ġç¨²èĳī":13280,"Ġ**(":13281,"ãĥĻãĥª":13282,"Ġéĸ¢éĢ£æĽ¸ç±į":13283,"ours":13284,"ãĤĬãĤħãģĨ":13285,"ĠãĥĩãĥĭãĤ¹":13286,"ãĥĥãĥĪãĥŀãĥ³":13287,"ĠæŃ¦è±Ĭ":13288,"ĠAsia":13289,"ĠãĤ¤ãĥ³ãĥĨ":13290,"é¦Ļç¹Ķ":13291,"night":13292,"ĠãĤªãĥ¬":13293,"éĤ¦å½¦":13294,"Ġåħ¬å¼ıãĤ¦ãĤ§ãĥĸãĤµãĤ¤ãĥĪ":13295,"ĠJoseph":13296,"ç¦ıçĶ°":13297,"ĠéĢĢä»»":13298,"Ġout":13299,"çĻĤæ³ķ":13300,"ãĥŁãĥ¥ãĥ¼ãĤ¸ãĤ«ãĥ«":13301,"ĠCHI":13302,"STAR":13303,"åıĤè¬Ģ":13304,"Ġéĺ¿ä¹ħ":13305,"213":13306,"ãĤ»ãĥ¬":13307,"266":13308,"ç¥ŀè©±":13309,"Ġ::::":13310,"Ġpe":13311,"è£ħçĶ²":13312,"ROSS":13313,"å±±éĻ½":13314,"ãĥ©ãĥĨãĥ³ç³»":13315,"new":13316,"Ġmon":13317,"ĠãĤ½ãĥĭãĥ¼":13318,"å¹´éĩĳ":13319,"Ġ1894":13320,"æĸ°æ½®ç¤¾":13321,"ĠãĤªãĥ³":13322,"Ġè¦ĸèģ´çİĩ":13323,"Ġapp":13324,"ĠBACK":13325,"ĠéĬŃ":13326,"è©ł":13327,"Ġtr":13328,"OX":13329,"ĠJAM":13330,"æ³ķåŃ¦éĥ¨":13331,"ĠCIN":13332,"ãĤ³ãĥª":13333,"éļĶ":13334,"ä¼ĳæĹ¥":13335,"ãĤ±ãĤ¢":13336,"ĠãĤ¨ãĤ¯":13337,"ABY":13338,"Ġãĥªãĥªãĥ¼ãĤ¹æĹ¥":13339,"Ġ1885":13340,"èªŀãģ®":13341,"Ġå®ĹæķĻ":13342,"åŁİéĥ¡":13343,"ĠMB":13344,"ãĤ¿ãĤ¹":13345,"æŁ´çĶ°":13346,"ãĥ¢ãĥ¼ãĤ¿ãĥ¼ãĤ¹ãĥĿãĥ¼ãĥĦ":13347,"ĠCur":13348,"241":13349,"Ġäºĭæ¥ŃæīĢ":13350,"ĠPrem":13351,"ĠåĽ½åĭ¢èª¿æŁ»ãģ«ãĤĪãĤĭ":13352,"186":13353,"269":13354,"å¸«ç¯Ħ":13355,"Ġé´¨":13356,"Ġä¸¦":13357,"259":13358,"ĠãĤ¸ãĥŁãĥ¼":13359,"ĠãģķãĤĪãģªãĤī":13360,"éĩİçľŁ":13361,"ãĥ¼ãĤ±ãĥĥãĥĪ":13362,"Ġåģ¥åº·":13363,"ĠMHz":13364,"Ġé«ĺå³¶":13365,"458":13366,"ĠãĥĬãĤ¤ãĥĪ":13367,"Ġ182":13368,"ĠåĿĤåı£":13369,"Ãº":13370,"ãĥīãĥ¼":13371,"ãģįãĤĩãģĨ":13372,"408":13373,"çĻºå£²ãģķãĤĮãģŁ":13374,"åĩºçīĪä¼ļ":13375,"Ġæ¼¢":13376,"ãĥĳãĥ©ãĥĢãĤ¤ãĤ¹":13377,"Amer":13378,"Ġãĥŀãĥ«ãĤ¯":13379,"è«ıè¨ª":13380,"ãĥĥãĥª":13381,"ĠGOLD":13382,"å¿įèĢħ":13383,"åįģäºĶ":13384,"ahn":13385,"ĠAdvent":13386,"äº¬åĮº":13387,"Ġãĥķãĥ©ãĤ¤":13388,"Ġå¦»":13389,"ĠManagement":13390,"ĠFS":13391,"ãĤ´ãĥ«":13392,"ĠSpring":13393,"éĻ¶":13394,"ĠæĹ¥ç¨ĭ":13395,"ä¸ŃåŃ¦æł¡ä¸Ģè¦§":13396,"æĢªè«ĩ":13397,"ãĤ¬ãĥ©":13398,"ãĥķãĤ§ãĤ¢":13399,"åīµè¨Ń":13400,"ĠæĿ±æĹ¥æľ¬æĹħå®¢éīĦéģĵ":13401,"ĠCSS":13402,"ãģ®è¬İ":13403,"éħĶ":13404,"Ġåħ«çİĭåŃĲ":13405,"Girl":13406,"Ġes":13407,"Ġ1880":13408,"ĠãĤ«ãĥ¼ãĥī":13409,"ĠãĤ¯ãĥ¬ãĤ¤":13410,"å¤©ç¥ŀ":13411,"ĠãĤ°ãĥ©ãĥ³ãĥīãĤ¹ãĥ©ãĥł":13412,"ãĥĦãĤŃ":13413,"ĠæĢ§åĪ¥":13414,"ĠåĢĻè£ľèĢħåĲį":13415,"Ġ1888":13416,"ç´Ģè¡Į":13417,"ĠåĿª":13418,"ĠLB":13419,"ĠYEAR":13420,"Is":13421,"ãĥªãĥ¬ãĥ¼":13422,"èĩ¼":13423,"Ġå¹²æĶ¯":13424,"ãĤ¹ãĤ«ãĥ«":13425,"ãĥ¼ãĥ´ãĤ§":13426,"ãĥķãĥ©ãĥ³ãĤ¯":13427,"ĠReport":13428,"ĠNA":13429,"åīµæ¥Ń":13430,"ĠãĤĨãģį":13431,"ãĥģãĥ¥ãĤ¢":13432,"IECE":13433,"èŁ":13434,"ãĤ¤ãĥŃãĥĥãĥĪ":13435,"ĠFe":13436,"Ġãĥ¢ãĤ¹ãĤ¯ãĥ¯":13437,"ains":13438,"áĥ":13439,"æ§ĭæĪĲäººæķ°":13440,"ĠDON":13441,"Ġãĥ¬ãĤ¹":13442,"ĠåĢīæķ·":13443,"Ġæľ¬å¤ļ":13444,"ĠTX":13445,"atre":13446,"ĠHead":13447,"ãĤ³ãĥĸ":13448,"ĠFer":13449,"274":13450,"Mac":13451,"time":13452,"Ġå¤§æĿĳ":13453,"ãģķãģİ":13454,"å»·":13455,"åįĶèŃ°ä¼ļ":13456,"ĠDevelopment":13457,"ĠJRA":13458,"Ġæħ¶æĩīç¾©å¡¾":13459,"ãĤ¯ãĥ¬ãĤ¤":13460,"ãĥķãĤ©ãĥ¼ãĤ¹":13461,"èº«ä¸ĸå¸¯":13462,"Ġè¨Ńç½®":13463,"ĠMedia":13464,"ãģ§ãģį":13465,"Ġå®¢":13466,"ĠãĥªãĥĪãĥ«":13467,"ĠLost":13468,"189":13469,"ãĥľãĥ¼ãĥ³":13470,"åħ±ç·¨èĳĹ":13471,"ãģªãģĦãģ§":13472,"Ġå·ĿçĶ°":13473,"242":13474,"234":13475,"ãģ®ãģĵãģ¨":13476,"Ġä¸»äººåħ¬":13477,"æ¥ĵ":13478,"249":13479,"ĠæĶ»":13480,"ĠãĤ»ãĤ¤":13481,"ãĥ³ãĥķãĥ©":13482,"ãĥ«ãĥĪãĤ¥":13483,"Ġ202":13484,"Ġä½ľå®¶":13485,"å¹´é½¢åĪ¥äººåı£æ§ĭæĪĲ":13486,"ĠHOUSE":13487,"ĠSING":13488,"çī©çĲĨ":13489,"ĠãĤ»ãĤ°":13490,"ãĤ¯ãĤµãĥ¼":13491,"äººç¨®åĪ¥äººåı£æ§ĭæĪĲ":13492,"å¸Ĥãģ®":13493,"ãĤ¤ãĤªãĥªãĥ³":13494,"ãĥ©ãĤ¤ãĥ´":13495,"æĹ©å·Ŀ":13496,"009":13497,"ãĥıãĥŀ":13498,"ãĤ¯ãĥ©ãĥ¼ãĤ¯":13499,"ological":13500,"ville":13501,"ãĤ¢ãĤ¤ãĥ©ãĥ³ãĥī":13502,"KEY":13503,"ãĥ»ãĥ»ãĥ»":13504,"FX":13505,"228":13506,"ĠFuture":13507,"æ°ĳæĹı":13508,"Ġtw":13509,"264":13510,"åĤĺä¸ĭ":13511,"iles":13512,"ãĤ°ãĥ©ãĥķ":13513,"ãĥ©ãĤ¯ãĥ«":13514,"Ġåĵģå·Ŀ":13515,"Ġ189":13516,"aga":13517,"ä¸įåıĤåĬł":13518,"Ġåĭķçī©":13519,"ãĥĭãĥ§":13520,"ãĤĬãģŁãģĦ":13521,"æ¯İéĢ±":13522,"193":13523,"ĠToy":13524,"ĠãĤ«ãĥ¯":13525,"ãĥ«ãĥİ":13526,"ãĥģãĥĥãĤ¯":13527,"ĠWater":13528,"æĸ°äºķ":13529,"åĨħçĶ°":13530,"ORI":13531,"çĪ¾":13532,"ĠçļĨ":13533,"eda":13534,"æĪ»":13535,"æĺ¯":13536,"ãģ©ãģĭ":13537,"MAX":13538,"'re":13539,"Ġé«ĺå´İ":13540,"ç²ī":13541,"ĠGuide":13542,"ker":13543,"ila":13544,"Ġ179":13545,"å¯ºé§ħ":13546,"ä¹ħåŃĲ":13547,"duced":13548,"Ever":13549,"è§£æķ£":13550,"ĠRED":13551,"åĲĮå¥½ä¼ļ":13552,"itor":13553,"Ġhis":13554,"Ġå°±å½¹":13555,"Tom":13556,"232":13557,"261":13558,"èĭ¥æĿ¾":13559,"ãģ®å»ĥæŃ¢å¸ĤçĶºæĿĳä¸Ģè¦§":13560,"ĠãĥĨãĤŃãĤµãĤ¹":13561,"å®¶æĹıä¸ĸå¸¯":13562,"ĠéľĬ":13563,"ĠSIDE":13564,"ä»°":13565,"Ġ;ãĢİ":13566,"489":13567,"ĠæĸĩèĹĿæĺ¥ç§ĭ":13568,"Ġå¸Ĥç«ĭ":13569,"ĠCam":13570,"èĩªçĶ±åħļ":13571,"çĶ°è¾º":13572,"èĻļ":13573,"æŃ³ä»¥ä¸Ĭãģ®èĢģäºº":13574,"ãĤ»ãĥķ":13575,"ĠãĥĢãĥ³ãĤ¹":13576,"ĠãĤ»ãĥĲãĤ¹":13577,"ĠãĥķãĤ£ãĥª":13578,"1922":13579,"ĠDef":13580,"Ġ#ãĢĮ":13581,"åĮĹéĻ¸":13582,"Ġ230":13583,"ç¶¾åŃĲ":13584,"å¿«éĢŁ":13585,"ĠæĶ¾æĺł":13586,"ication":13587,"ãĤıãĤĮ":13588,"ĠãģĤãĤĦ":13589,"Ġå®®å·Ŀ":13590,"æŃ³æľªæºĢãģ®åŃĲä¾Ľ":13591,"åĩºæĽ¸æĪ¿æĸ°ç¤¾":13592,")ãĢĪ":13593,"èĬ±ãģ®":13594,"Ġãģªãģĭ":13595,"ç¬¦åı·":13596,"ĠéĽĳ":13597,"Ġæ°ĳä¸»":13598,"aro":13599,"237":13600,"288":13601,"365":13602,"é«ĺçŃīå¥³åŃ¦æł¡":13603,"heim":13604,"ĠEY":13605,"ela":13606,"è£³":13607,"Ġsec":13608,"ãģ¸ãģĦ":13609,"è§¦":13610,"æĸ°äººè³ŀ":13611,"çĶ±ç¾İåŃĲ":13612,"ãĤ¯ãĥĪãĥªãĤ¢":13613,"ĠPOWER":13614,"Ġèī¯":13615,"æŃ³æľªæºĢãģ®åŃĲä¾ĽãģĮãģĦãĤĭ":13616,"429":13617,"Ġçı":13618,"å¹³æĹ¥":13619,"ĠBlood":13620,"Can":13621,"è«Ń":13622,"ĠãĥĬãĥ¬ãĥ¼ãĤ¿ãĥ¼":13623,"AKU":13624,"ĠèĲ½åĲĪ":13625,"Ġç´°å·Ŀ":13626,"å¹ķåĥļçĽ£éĥ¨":13627,"åĲĮå±ħãģĹãģ¦ãģĦãĤĭ":13628,"ãĤ¢ãĥŃ":13629,"ĠNa":13630,"ãĥģãĤ³":13631,"åĢīæķ·":13632,"ç¿Ķå¤ª":13633,"çĢ§":13634,"ĠBa":13635,"å¯ºéĻ¢":13636,"ĠTHEATER":13637,"ĠãĤĤãģĨ":13638,"ĠãĤ³ãĥ¼ãĥĬãĥ¼":13639,"ç·ıäººåı£":13640,"Ġåľ°åĮº":13641,"èį»":13642,"ç«¹åĨħ":13643,"ĠéĬħ":13644,"ãĤ¯ãĥ©ãĤ¤ãĥĬ":13645,"çĬ¶æħĭ":13646,"ĠåıĮèĳī":13647,"å°¿":13648,"åĪĨéĽ¢":13649,"ATO":13650,"ĠãĥĢãĤ¦":13651,"Ġç¥ŀè°·":13652,"TDOWN":13653,"187":13654,"Ġéĸ¢éĢ£æĸĩçĮ®":13655,"ãĥ³å·ŀ":13656,"TX":13657,"«åĪ»":13658,"ãĤ«ãĥł":13659,"ä¸Ģå¤«":13660,"Ġç§ĭåħĥ":13661,"EED":13662,"ãĤ½ãĥ¼":13663,"å¤§åŃ¦ãģ®äººçī©ä¸Ģè¦§":13664,"ãĥľãĥ¼ãĥī":13665,"1901":13666,"Ġç§»":13667,"ĠTechnology":13668,"é£Łãģ¹":13669,"285":13670,"Ġãĥªãĥ¼":13671,"èĶŃ":13672,"ĠåĽ£ä½ĵ":13673,"243":13674,"281":13675,"è°·å¸Ĥ":13676,"ĠãĤµãĤ¯ãĥ©":13677,"ãĥŀãĤ¤ãĤ±ãĥ«":13678,"ĠSand":13679,"ç§Ģä¸Ģ":13680,"Ġè²¨çī©":13681,"Ġ184":13682,"ãĥĢãĥ¼ãĤ¯":13683,"æĬĦ":13684,"ãĤ¨ãĥįãĥ«ãĤ®ãĥ¼":13685,"åīįç·¨":13686,"Ġä¸Ńäº¬åºĥåŁŁåľı":13687,"ãģ®æľ¬":13688,"268":13689,"ĠæľĪæĽľæĹ¥":13690,"ĠJones":13691,"ĠKill":13692,"ĠæİĴæ°´éĩı":13693,"ĠãĥĹãĥ¼ãĥ«":13694,"Ġæķ´":13695,"Ġåħ«æĪ¸":13696,"ä»¥å¤ĸãģ®":13697,"ãĤ¢ãĥ¯ãĥ¼":13698,"ãĤĬãģĭ":13699,"244":13700,"å»ºéĢł":13701,"å¸ĮåŃĲ":13702,"ĠReview":13703,"ĠæĦŁ":13704,"ĠStudies":13705,"åĲĪè¡ĨåĽ½ãģ®":13706,"ĠçĶºä¸ģ":13707,"ĠArts":13708,"ãĤªãĤ¦":13709,"éĸ²è¦§":13710,"å¹²":13711,"åŃ¦çłĶç©¶ç§ĳ":13712,"Ġä½Ĳä¹ħéĸĵ":13713,"from":13714,"Ġ320":13715,"ĠAF":13716,"Ġå·¡":13717,"Ġlife":13718,"ãĤĪãģĨãģª":13719,"ãĥľãĥ¼ãĤ¤ãĤº":13720,".:":13721,"223":13722,"236":13723,"ĠãĤ¯ãĤ¤ãĤº":13724,"Ġå¸Ĥæ°ĳ":13725,"è¦³æ¸¬":13726,"Ġèµ¤åĿĤ":13727,"åĲĮå±ħãģĹãģ¦ãģĦãĤĭå¤«å©¦":13728,"åºĥå³¶çľĮ":13729,"ĠåįģäºĮ":13730,"Just":13731,"åľ¨ä½į":13732,"ãĤ¢ãĥªãĤ¹":13733,"ä¸īåĽ½":13734,"ãĥįãĤº":13735,"éĸ¢è¥¿ãĥĨãĥ¬ãĥĵ":13736,"iec":13737,"éģ¸æĽ¸":13738,"æ³¢åł¤":13739,"ĠåĢĭ":13740,"kgä»¥ä¸ĭ":13741,"ĠOh":13742,"ãĥ¢ãĥ³ãĥĨ":13743,"äºĪéģ¸æķĹéĢĢ":13744,"217":13745,"æĺİçŁ³":13746,"ening":13747,"ĠLy":13748,"ĠãĥŀãĤ¯ãĥ©ãĥ¼ãĥ¬ãĥ³":13749,"289":13750,"Ġãĥĸãĥ«ãĥ¼ãĤ¹":13751,"War":13752,"æİĥ":13753,"æ±łè¢ĭ":13754,"ĠèĮħ":13755,"ãģ®ä¸Ńãģ§":13756,"estern":13757,"ĠHERO":13758,"æł¡çĶŁ":13759,"ĠKBS":13760,"åħ«çİĭåŃĲ":13761,"Ġè©²å½ĵ":13762,"Ġè¦ªåĸĦè©¦åĲĪ":13763,"æĹ¥ç«ĭ":13764,"ãĥªãĥĥãĥĦ":13765,"ĠãĤ°ãĥĥãĥī":13766,"Ġåıİåħ¥":13767,"Ġ205":13768,"è²©":13769,"Pol":13770,"RAG":13771,"åĪ¶ä½ľå±Ģ":13772,"bor":13773,"ãģ®æĦĽ":13774,"ãĥªãĥĬ":13775,"ĠãĤ³ãĥ¼ãĥ©ãĤ¹":13776,"åįģåĽĽ":13777,"Ġabout":13778,"KING":13779,"ĠWomen":13780,"ĠãĥŁãĤ«":13781,"çĽ´ç¾İ":13782,"å¸Ĥæ°ĳä¼ļé¤¨":13783,"Ġçī§éĩİ":13784,"ĠFranc":13785,"ĠAcademy":13786,"æĶ¾éĢģæĻĤéĸĵ":13787,"ãĥķãĤ¡ãĤ¯ãĥĪãĥªãĥ¼":13788,"Ġéº»çĶŁ":13789,"é«ĺæľ¨":13790,"ĠãĤ³ãĥŁãĥĥãĤ¯":13791,"ãģ®æĽ²":13792,"åŃ¤":13793,"ãĥĲãĤ¯":13794,"å¤ªå¤«":13795,"Ġãĥ¤ãĥ³":13796,"ynam":13797,"ĠãĤĭ":13798,"Ġ3000":13799,"ĠãĤ¢ãĥªãĤ¹":13800,"Ġprofile":13801,"éļ¼äºº":13802,"Ġè¸":13803,"awn":13804,"ç½ł":13805,"Ã±":13806,"ãģº":13807,"åľ°ãģ®":13808,"ĠBirth":13809,"ãģ£ãģı":13810,"åı¤åħ¸":13811,"Ġãĥ¡ãĤ¤ãĥ³":13812,"ĠFrance":13813,"Ġãģ³":13814,"ĠBreak":13815,"una":13816,"Ġãģ®ãģ¨ãģį":13817,"ãĤ¹ãĤ³ãĤ¢":13818,"Ang":13819,"ĠSom":13820,"è£¸":13821,"rip":13822,"ãĥ³ãĥĳãĥĭãĥ¼":13823,"Ġ1800":13824,"å»Ĭ":13825,"ards":13826,"å¾³å³¶":13827,"ãĥĵãĥ¼ãĥĪ":13828,"248":13829,"intendo":13830,"ĠåıĹè³ŀèĢħ":13831,"Ġè¨Ģèªŀ":13832,"ãĥŀãĥĪ":13833,"ieve":13834,"å°ıåŃ¦æł¡ä¸Ģè¦§":13835,"Ġæ¼Ķå¥ı":13836,"under":13837,"å¤§åŃ¦å¤§åŃ¦éĻ¢":13838,"ãģ¤ãģĵ":13839,"ãĤ¤ãĥ«ãĤ¹":13840,"ĠãĥįãĥĥãĥĪå±Ģ":13841,"ãģįãĤī":13842,"ãĥľãĥŃ":13843,"Ġsch":13844,"BLE":13845,"leep":13846,"ä¸¸å±±":13847,"åµ":13848,"äººäºĭ":13849,"ãģĦãģļãģ¿":13850,"ãĤªãĥ³ãĥ©ãĤ¤ãĥ³":13851,"Ġè¿ĳçķ¿åºĥåŁŁåľı":13852,"åĮ»ç§ĳå¤§åŃ¦":13853,"åĵģå·Ŀ":13854,"acific":13855,"æħ§":13856,"ãģŃãģĵ":13857,"ĠAcoustic":13858,"ĠèĻ¹":13859,"ãģ®åĨħ":13860,"ãĤ¯ãĥģãĥ£":13861,"194":13862,"ãĤ¨ãĥ´ãĤ¡":13863,"OUT":13864,"ĠYears":13865,"Ġä¸ĸçķĮãģ®":13866,"åĩºæĿ¥":13867,"ĠèĹ¤æ²¢":13868,"ĠVerlag":13869,"Ġè¨Ńç«ĭ":13870,"ãĥŃãĤ¤ãĥī":13871,"ãĤŃãĥŁ":13872,"Ġles":13873,"Ġãģ¿ãģļ":13874,"å©¦äºº":13875,"ä¿ĿèĤ²æīĢ":13876,"Ġåĸľå¤ļ":13877,"216":13878,"Off":13879,"501":13880,"ĠãĤ³ãĥ¼ãĥī":13881,"ãĥ³ãĤ¸ãĤ§ãĥ«":13882,"ĠãĤ»ãĥĥãĤ¿ãĥ¼":13883,"çĶ²åºľ":13884,"Ġå§Ķåĵ¡":13885,"ved":13886,"åĽ½åĪĨ":13887,"ç·ıæķ°":13888,"ãĥ¼ãĥīãĥ³":13889,"ĠãĥĲãĥ«ãĤ»":13890,"Ġçīĩå±±":13891,"ĠGOOD":13892,"èĥ¸":13893,"314":13894,"ãģĪãģ°":13895,"Ġæ°´è°·":13896,"Ġè»¢":13897,"ãĥĭãĥ¥ãĥ¼ãĥ¨ãĥ¼ãĤ¯":13898,"Ġå¤ļæĳ©":13899,"ãģĦãģ¾":13900,"æ¬§å·ŀ":13901,"æģĭäºº":13902,"ĠCross":13903,"ĠæĿ¾å¹³":13904,"Ġåĩºèº«åľ°":13905,"ãĤ°ãĥĥãĥī":13906,"ĠæĿ±æĢ¥":13907,"çĳĽ":13908,"ç¶¬":13909,"ĠProt":13910,"å¤§æ´¥":13911,"ãĤ³ãĥ©":13912,"Ġæľ¨æĽľæĹ¥":13913,"ĠçĻºè¦ĭ":13914,"ĠãģĦãģ¡":13915,"Ke":13916,"«å®ļ":13917,"ĠCentury":13918,"ãĤ½ãĥĬãĤ¿":13919,"éĩĳåŃĲ":13920,"ãĥŁãĤº":13921,"æĽ²çĽ®":13922,"éģĵåł´":13923,"Ġèµ·å·¥":13924,"åĮĸéĥ¨":13925,"è©±åĩºæ¼Ķ":13926,"356":13927,"artment":13928,"Ġ406":13929,"296":13930,"ãĥŀãĥ¼ãĥ«":13931,"Ġä¹Ĺè»Ĭäººåĵ¡":13932,"ĠApr":13933,"æ·Ģ":13934,"å¤īåĮĸ":13935,"æĽ½æł¹":13936,"Ki":13937,"æľĪåĪĬ":13938,"ãĥįãĤ¿":13939,"æĻºä¹ĭ":13940,"ãĤ¹ãĥļãĥ¼ãĤ¹":13941,"ãĤ¨ãĥ³ãĥĩãĤ£ãĥ³ãĤ°ãĥĨãĥ¼ãĥŀ":13942,"ĠãĤ¬ãĥ³ãĥĢãĥł":13943,"ĠãĥĲãĥ«ãĤ»ãĥŃãĥĬ":13944,"ãģ®å±±":13945,"ãĥīãĥĬãĥ«ãĥī":13946,"ĠçĻ½äºķ":13947,"æ±½":13948,"è²¸":13949,"ä»ģç¾İ":13950,"ige":13951,"Ġãģ«ãĤĪ":13952,"Ġåĵ²":13953,"ĠSOL":13954,"çĶ°ç¾İ":13955,"ĠçĽ£çĿ£è³ŀ":13956,"Life":13957,"ĠMass":13958,"ĠãĥĨãĤ£ãĥł":13959,"ATTRO":13960,"ä»¤åĴĮåħĥå¹´":13961,"å¤§è¾ŀåħ¸":13962,"353":13963,"é³©":13964,"ĠHuman":13965,"357":13966,"æł¡æŃĮ":13967,"ĠInternet":13968,"Ð¾Ð²":13969,"æİ¡çĶ¨":13970,"ãģ£ãģ¡ãĤĥ":13971,"ãĥĬå·ŀ":13972,"ãĥ¼ãĥĹãĥ«":13973,"Ġ2021":13974,"ĠLo":13975,"ĠFIGHT":13976,"ä½ľåĵģè³ŀ":13977,"chestra":13978,"lywood":13979,"Ġä»¥ä¸ĭ":13980,"Ġæ²¿ç·ļ":13981,"Sun":13982,"æĥ³ãģĦ":13983,"lear":13984,"284":13985,"èĩªè»¢è»Ĭ":13986,"éĺ²æ³¢åł¤":13987,"éħįç½®":13988,"Ġæ¼ĶåĬĩ":13989,"å¸Ĥè¡Ĺ":13990,"ĠLAC":13991,"ĠèĶµ":13992,"ä¿¡å¤«":13993,"éĤª":13994,"å¹³åĿĩæ§ĭæĪĲäººæķ°":13995,"å¹´é½¢ãģ®ä¸Ńå¤®åĢ¤":13996,"ãģ®æģ¯åŃĲ":13997,"ĠTs":13998,"ĠãĤ¢ãĥĢãĥł":13999,"RESS":14000,"Ġnight":14001,"åŃ¦ãģ®":14002,"ç·ĬæĢ¥":14003,"ĠId":14004,"è°·é§ħ":14005,"ãĥ¼ãĥªãĤ¹":14006,"çĢ¬å·Ŀ":14007,"URN":14008,"ĠèĪªç¶ļè·ĿéĽ¢":14009,":''":14010,"ãĥ¢ãĥ¼ãĥĭãĥ³ãĤ°":14011,"ĠKim":14012,"åĨħä¸ĸå¸¯æķ°":14013,"2400":14014,"èĲ½æĪĲ":14015,"ĠæĹ¥æľ¬éĥµä¾¿":14016,"ãģ©ãģĵ":14017,"ves":14018,"ãĥ©ãĤ¤ãĤªãĥ³ãĤº":14019,"Ġcenter":14020,"Ã©t":14021,"æĿ¡ç´Ħ":14022,"ãĥ¼ãĤ±ãĥ¼ãĥī":14023,"ãĢĩ":14024,"ĠåłĤ":14025,"1918":14026,"ĠWITH":14027,"åĲĪåĲĮ":14028,"ä¸īæľ¨":14029,"311":14030,"awai":14031,"åįĺèº«ä¸ĸå¸¯":14032,"Super":14033,"ĠMP":14034,"ãĤªãĤª":14035,"ĠYam":14036,"nam":14037,"ãĥĩãĥ¼ãĥĪ":14038,"æīĭç´Ļ":14039,"æ²¢å·Ŀ":14040,"éĻ½ä¸Ģ":14041,"ĠæĹŃå·Ŀ":14042,"ç¾İå¥³":14043,"çĶ·å¥³":14044,"é¶":14045,"Ġãģ°":14046,"ãĤ·ãĥ¥ãĤ¿":14047,"ĠãĤ«ãĤ¤":14048,"ãĤĮãģĤãģĦ":14049,"ĠåĪĹ":14050,"èĪªè·¯":14051,"Ġå®Łæ³ģ":14052,"ĠçĿĢéłĨ":14053,"ãĥĨãĥĭãĤ¹éĥ¨":14054,"Ġãĥıãĥ«":14055,"ãĥ³ãĥĦãĤ§":14056,"ä¹ĥæľ¨åĿĤ":14057,"ĠNEC":14058,"HR":14059,"282":14060,"çĹħéĻ¢åīį":14061,"ĠãĥĻãĥ«ãĥªãĥ³":14062,"çĽĽå²¡":14063,"ãĥŁãĥ¤":14064,"ãĥĮãĤ¹":14065,"Bill":14066,"283":14067,"èĭ±æĺİ":14068,"ãĥ³ãĤ·ãĥĥãĥĹ":14069,"ides":14070,"ĠæīĢå±ŀåħļæ´¾":14071,"ãĥ¢ãĤ¹ãĤ¯ãĥ¯":14072,"ĠãĤªãĥłãĥĭãĥĲãĤ¹":14073,"Ħæĥ³":14074,"Ġ212":14075,"åĭ¤åĭĻ":14076,"å¤§ä¹ħä¿Ŀ":14077,"ãģĬç¬ĳãģĦ":14078,"ä½ıå±ħæķ°":14079,"Mag":14080,"ĠéĢļä¿¡":14081,"ĠèıĬåľ°":14082,"icus":14083,"Ġ187":14084,"ians":14085,"éº»ç¾İ":14086,"ãĥªãĥĥãĥĪ":14087,"ĠâĢĲ":14088,"ways":14089,"ãģ®æĸ°":14090,"UTO":14091,"ĠBritish":14092,"ÙĪ":14093,"ĠBird":14094,"ĠæĮģ":14095,"æīĢæľī":14096,"ATS":14097,"ãĥ¼ãĥªãĤ¢":14098,"Ġå¿ĹæĿĳ":14099,"ãĤ®ãĥ£ãĥ©ãĥªãĥ¼":14100,"ãģĤãģļ":14101,"293":14102,"éĢ£åĲĪä¼ļ":14103,"çĶŁçĶ£éĻĲå®ļçĽ¤":14104,"åħĨ":14105,"ãģ¾ãĤĮãĤĭ":14106,"å®®å¸Ĥ":14107,"çļĩå¸Ŀ":14108,"ĠMarch":14109,"ĠãĤ«ãĥĥãĥĹ":14110,"ĠãĤ·ãĥ³ãĥĩãĥ¬ãĥ©":14111,"éĽħä¹ĭ":14112,"Ġæ¥Ĭ":14113,"ãĥ«ãĥĺ":14114,"å¯¾æĬĹ":14115,"çĹĽ":14116,"ULL":14117,"Heart":14118,"ĠãĤ¹ãĥļãĥ¼ãĤ¹ãĤ¦ãĤ©ãĥĥãĥģ":14119,"CB":14120,"ĠBob":14121,"ĠRom":14122,"ãĤĴè¡Į":14123,"äººãģĤãģŁãĤĬ":14124,"ãģĭãĤĬãģ®":14125,"äº¬éĥ½å¸Ĥ":14126,"999":14127,"çī¹åĪ¥è³ŀ":14128,"Gold":14129,"ĠKh":14130,"éģĶéĥİ":14131,"å§«è·¯":14132,"Ġå§«è·¯":14133,"ĠãĤ¹ãĤŃ":14134,"279":14135,"çļĨ":14136,"éĿŀå®¶æĹıä¸ĸå¸¯":14137,"iÄ":14138,"008":14139,"alog":14140,"ĠãĤµãĥŀ":14141,"è¦§ä¼ļ":14142,"Ã£":14143,"239":14144,"åĳ¼ãģ°ãĤĮãĤĭ":14145,"ĠæĶ¾éĢģåĮºåŁŁåĨħä¸ĸå¸¯æķ°":14146,"Disc":14147,"ãĥģãĥ¼ãĥķ":14148,"è»Ĭç·ļ":14149,"ĠæĿ¾æĿĳ":14150,"ĠProf":14151,"Sec":14152,"å¤§æĺł":14153,"è¿ĳçķ¿":14154,"åĴ²ãģı":14155,"éħĴäºķ":14156,"ãĥĻãĥ³ãĥģãĥ£ãĥ¼":14157,"æ³ķåīĩ":14158,"åĩĽ":14159,"ĠPass":14160,"ished":14161,"Ġãĥĭãĥ¥ãĥ¼ãĤ¸":14162,"éĽħåŃĲ":14163,"Ġè§Ĵå·Ŀæĸĩåº«":14164,"ä½ıå±ħå¯Ĩåº¦":14165,"390":14166,"ãĥ³ãĥĦãĤ¡":14167,"ĠIND":14168,"ãģĽãĤĪ":14169,"å©Ĩ":14170,"Ġè¾°":14171,"ĠWE":14172,"Ġè©¦åĲĪçµĲæŀľ":14173,"æµ´åł´":14174,"Kiss":14175,"294":14176,"æ¬§":14177,"Ġãĥ¡ãĤ«":14178,"ĠBOY":14179,"Ġæ¶Ļ":14180,"åĮ»çĻĤãĤ»ãĥ³ãĤ¿ãĥ¼":14181,"Ġé£Ľè¡Į":14182,"Ġé¤¨":14183,"Gr":14184,"ãĥīãĥŁãĥ³ãĥĪãĥ³":14185,"Med":14186,"ÑĮ":14187,"ĠCons":14188,"215":14189,"æ¯Ķè¼ĥ":14190,"ĠåłĢåĨħ":14191,"ĠãĥŁãĥ¥ãĥ¼ãĤ¸ãĥĥãĤ¯ãĥĵãĥĩãĤª":14192,"ML":14193,"ç¥ŀãģ®":14194,"å±¥æŃ´":14195,"364":14196,"Ġãģ¨ãģĦãģĨ":14197,"çįħåŃĲ":14198,"å¤¢ãģ®":14199,"è²¡åĽ£":14200,"355":14201,"æĭħ":14202,"ĠMicrosoft":14203,"ãĤ¹ãĥĪãĥ¼ãĥ³":14204,"ãĤĴãģ¤":14205,"ãĥªãĥĪãĥ«":14206,"Ġæŀł":14207,"ãĥ©ãĥ³ãĤ¹":14208,"ĠGun":14209,"adt":14210,"æĿ¾æµ¦":14211,"ĠArm":14212,"æ²¢æĿĳ":14213,"ĠçĻ½äºº":14214,"èıĬæ±ł":14215,"aru":14216,"Ġæµ·èĢģ":14217,"ãģ®ãģ¯":14218,"Ġest":14219,"ãģĹãģĵ":14220,"Blu":14221,"ĠModel":14222,"Ġå¯©æŁ»":14223,"val":14224,"ãģ®ä¸ĭ":14225,"Ġå±±å·Ŀ":14226,"åĬłçĽŁ":14227,"ãĥ¤ãĥŀãĥĪ":14228,"è²¬ä»»":14229,"ãĤ¯ãĥ¯":14230,"ĠDI":14231,"ãģĮãģ¨ãģĨ":14232,"itary":14233,"Ġãĥ©ãĤ°":14234,"Ġãģ¯ãģĺ":14235,"Ġ9784":14236,"ĠCentral":14237,"ĠæĹ¥æľ¬å¤§åŃ¦":14238,"ĠServer":14239,"Ġä½³":14240,"ĠãĤ¹ãĥĹãĥª":14241,"çĤī":14242,"é¡§åķı":14243,"Ġé«ĺå²¡":14244,"apt":14245,"Ġèªł":14246,"JRæĿ±æĹ¥æľ¬":14247,"ĠSocial":14248,"ĠãĤ·ãĥľãĥ¬ãĥ¼":14249,"ĠQueen":14250,"ãĥªãĥĲ":14251,"stein":14252,"ãĥŀãĤ¸ãĥĥãĤ¯":14253,"Ġ5000":14254,"ãģ¿ãĤĵãģª":14255,"ãĥĳãĥ¼ãĥ«":14256,"ãĤĪãģĦ":14257,"Ġä¸Ĭãģ®":14258,"NHKç·ıåĲĪ":14259,"ĠAk":14260,"ĠDer":14261,"è¡¨ãģĻ":14262,"Ġ256":14263,"æ¤¿":14264,"ĠçĻ½ãģĦ":14265,"ĠçĽ®æ¬¡":14266,"ãģ¿ãģĵ":14267,"§åĽ°ç·ļ":14268,"å³¶æł¹çľĮ":14269,"Ġå¤©ç¥ŀ":14270,"ãĥħ":14271,"ãĤ¢ãĥĭãĤ¢":14272,"ĠBud":14273,"äºĮäºº":14274,"287":14275,"Ġå¥¥çĶ°":14276,"çµ±ä¸Ģ":14277,"ÑģÐº":14278,"Ġå¤§çĶ°":14279,"oir":14280,"ãģ®å°ı":14281,"ãĤµãĤ®":14282,"Ġè¿ĳæ±Ł":14283,"ãĤ«ãĤ¹":14284,"ĠIll":14285,"ãģ¤ãģĺ":14286,"403":14287,"åĺĺ":14288,"book":14289,"ĠãĤĬãĤĩãģĨ":14290,"(ãĢĮ":14291,"Ġãĥ´ãĤ§ãĥ«":14292,"BUM":14293,"NZ":14294,"ĠPost":14295,"ober":14296,"ĠãĥĴãĥ¥ãĥ¼":14297,"å®ļæķ°":14298,"385":14299,"å¾©å¸°":14300,"ĠWAVE":14301,"Ġ225":14302,"ader":14303,"åħ«æľ¨":14304,"oke":14305,"Ġãĥ¯ãĤ¤ãĥ«ãĥī":14306,"æ¤ľäºĭ":14307,"Ð¼":14308,"å¡Ĺ":14309,"1919":14310,"ĠãĤ»ãĤ°ãĥ³ãĥĢ":14311,"oli":14312,"ĠSEC":14313,"ĠSOUL":14314,"æ£ļ":14315,"ient":14316,"ãĥ«ãĤ°":14317,"ĠLQ":14318,"ĠåĩºéĽ²":14319,"Ġpage":14320,"äºĪåĤĻ":14321,"ĠPhys":14322,"WAVE":14323,"ĠRevolution":14324,"ĠéĦŃ":14325,"455":14326,"åı«":14327,"ãģ²ãĤįãģ¿":14328,"Ġå¯ºçĶ°":14329,"æ«":14330,"Ġ191":14331,"chi":14332,"ãģłãģ¾":14333,"Ġ280":14334,"Å«":14335,"ĠData":14336,"ãĥłãĥ¼ãĥ³":14337,"ĠåħĦ":14338,"ãĥªãĤ¹ãĥĪæķĻ":14339,"ban":14340,"åīįæľŁ":14341,"Ġå·Ŀè¶Ĭ":14342,"ĠâĢķ":14343,"Ġéĩįéĩı":14344,"Ġ193":14345,"ĠJim":14346,"Ġbook":14347,"ĠQUATTRO":14348,"åŃ¦å°ĤæĶ»":14349,"271":14350,"å®īçĶ°":14351,"§åĽ°ç·ļä»¥ä¸ĭ":14352,"ãĥıãĥĬ":14353,"èŃ¦è¦ĸåºģ":14354,"ĠãĤ±ãĥ³":14355,"Ġ******":14356,"ĠçĶ²æĸĲ":14357,"éĢĨè¥²":14358,"ãĤ¨ãĥ³ãĤ¸ãĤ§ãĥ«":14359,"Ġ203":14360,"åĽ½éīĦ":14361,"Ġ188":14362,"INO":14363,"Ġéķ·è°·":14364,"Ġè²ŀ":14365,"ĠBOYS":14366,"ĠERP":14367,"Ġ1882":14368,"æ¤ľå®ļ":14369,"ĠãĤĦãģ¾":14370,"ĠOnly":14371,"ãĥ«ãĤ¦ãĤ§ãĥ¼":14372,"336":14373,"Ġæµħèįī":14374,"ĠãĤ¼ãĥŃ":14375,"ãĤ¢ãĥĢãĥł":14376,"ãĥ¡ãĤ¤ãĥĪ":14377,"çģĺ":14378,"åĽŀãĤĬ":14379,"ãĤıãģĮ":14380,"ç·´ç¿Ĵ":14381,"ãĤĴçĻºè¡¨":14382,"æĻĤä»£åĬĩ":14383,"UTAYA":14384,"ĠãģŁãģĳ":14385,"ĠJac":14386,"ĠChorus":14387,"Japanese":14388,"ä¸Ńå°Ĩ":14389,"277":14390,"ĠãĤ¨ãĥŀ":14391,"ãĥ³ãĥĢãĥ«":14392,"Ġéĭ¼":14393,"ãģ®é¢¨":14394,"Ġ204":14395,"åģ¥åı¸":14396,"¿æĺĵ":14397,"ãĥ¡ãĤ¤ãĥ³":14398,"æİĺ":14399,"ãĤıãģĭ":14400,"ãĤģãĤĵ":14401,"æ´ĭä»ĭ":14402,"uda":14403,"Ġäº¬éĥ½å¸Ĥ":14404,"Ġéı¡":14405,"ĠMid":14406,"295":14407,"ãĥķãĤ¡ãĤ¤ãĤ¢":14408,"ĠãĥķãĤ§ãĥª":14409,"Ġä½ıåıĭ":14410,"Mic":14411,"ãģ¨å®¶":14412,"head":14413,"ĠåłĢæ±Ł":14414,"ãģ£ãģ±ãģĦ":14415,"Ġå¶ĭ":14416,"ĠRay":14417,"ãĥ¼ãĥ¬ãĥ³ãĤ¹":14418,"åīµéĢł":14419,"Ġçĭ¬åĶ±":14420,"ãĥīãĤ³ãĥ¢":14421,"ãĤ³ãĥĲ":14422,"ĠFort":14423,"vers":14424,"ĠOk":14425,"Ġãģ¤ãĤĵãģı":14426,"Ġãĥīãĥ©ãģĪãĤĤãĤĵ":14427,"ĠAtt":14428,"Ġè¨ĪçĶ»":14429,"åĮ¡":14430,"æĪ¦æķĹéĢĢ":14431,"äººãģĤãģŁãĤĬåıİåħ¥":14432,"çīĿ":14433,"ĠãĥįãĤ¤ãĥĨãĤ£ãĥĸ":14434,"åĬª":14435,"ĠãĤ¹ãĥŃ":14436,"ession":14437,"ãĤµãĤ¹":14438,"ĠWinter":14439,"Ġç«£å·¥":14440,"ãĥ¦ãĤ¦":14441,"åĦŁ":14442,"ĠFact":14443,"459":14444,"315":14445,"ĠãĤĪãĤĬ":14446,"ä¸Ĭæĺł":14447,"apter":14448,"Little":14449,"ãģĦãģį":14450,"ãģ«å°±ä»»":14451,"Ġåħ¬å¼ıãĥĹãĥŃãĥķãĤ£ãĥ¼ãĥ«":14452,"kgä»¥ä¸ĭç´ļ":14453,"ĠRX":14454,"å·Ŀä¸Ĭ":14455,"ĠãĥĲãĤ¤ãĤª":14456,"éĽĦäºĮ":14457,"å¦ĤæĿ¥":14458,"ĠèĲ©åİŁ":14459,"ĠHenry":14460,"ĠåĲĮæĻĤãĥįãĥĥãĥĪ":14461,"ç¾İç´Ģ":14462,"Ġå¨ĺ":14463,"è¨Ģå®Ĺ":14464,"pet":14465,"èĢħãģŁãģ¡":14466,"ãĥ¯ãĥ³ãĥĢ":14467,"åħĥç¤¾":14468,"æ¯Ķå¯¿":14469,"Ġè°·å·Ŀ":14470,"ĠSony":14471,"ãĤ´ãĥªãĥ¼":14472,"ĠéĢļåŃ¦":14473,"Ġåħ«ä»£":14474,"ãĥĳãĥ³ä¸īä¸ĸ":14475,"ãĥªãĥ¥ãĤ¦":14476,"Sweet":14477,"å·Ŀç·ļ":14478,"è¡ĵå¸«":14479,"è¦ıæ¨¡":14480,"Ġæĸ°èģŀ":14481,"ãģµãģŁãĤĬ":14482,"ĠéŁĵ":14483,"ãĤĴæĭħå½ĵ":14484,"850":14485,"Vocal":14486,"ĠTan":14487,"ãĥĲãĤ¿":14488,"ãģ®ãģªãģĦ":14489,"334":14490,"åįģä¸ĥ":14491,"Dav":14492,"JAPAN":14493,"ä¸įå®ļæľŁ":14494,"Ġgl":14495,"æĢªäºº":14496,"ĠçĢ":14497,"æ²»çĻĤ":14498,"è£ħçīĪ":14499,"ĠFriends":14500,"ĠCRA":14501,"æ¸ļ":14502,"Ġä¸»è¦ģäººçī©":14503,"åĬĽå£«":14504,"çī§åł´":14505,"ãģĦãģĳ":14506,"Ġé§ħåĲį":14507,"ĠçµĲå©ļ":14508,"ips":14509,"ĠProgramming":14510,"ãĢĤ)":14511,"ãģĹãĤħ":14512,"åħ¬ä¼ļ":14513,"æİ§":14514,"Ġä¸»æ¼ĶçĶ·åĦªè³ŀ":14515,"312":14516,"321":14517,"ãģªãģ¹":14518,"487":14519,"Ġæ°´ä¸Ĭ":14520,"é£¯çĶ°":14521,"ãĥıãĥŃ":14522,"åīįç·ļ":14523,"ãĥĵãĤª":14524,"Ġ1872":14525,"407":14526,"ĠæľĢå¤ļ":14527,"èī¦éķ·":14528,"ãģŁãģĳãģĹ":14529,"How":14530,"UF":14531,"ãĥ©ãĤ¤ãĤ¹":14532,"299":14533,"ãĥ¡ãĥ«ãĤ»ãĥĩãĤ¹":14534,"Ġæĺĩ":14535,"dom":14536,"ĠãĥĲãĤ¹ãĤ±ãĥĥãĥĪãĥľãĥ¼ãĥ«":14537,"æĿĳç«ĭ":14538,"EAST":14539,"Ġè¬Ľè«ĩç¤¾æĸĩåº«":14540,"ĠãĥĪãĥ©ãĥ³ãĤ¹":14541,"duct":14542,"Ġèī²å½©è¨Ńè¨Ī":14543,"Ġborder":14544,"Ġç³»çµ±":14545,"Ġç§ĺå¯Ĩ":14546,"Ġ211":14547,"ãģ«åıĤåĬł":14548,"ĠèĦĩ":14549,"ĠSystems":14550,"ãģĦãĤĵ":14551,"ĠView":14552,"Ġå°ıæ²¢":14553,"urity":14554,"åįĬå³¶":14555,"å¾Ģå¾©":14556,"ĠãĥŁãĤ¹":14557,"Ġå¼ĵ":14558,"éŃĶçİĭ":14559,"ĠæĽ´":14560,"ĠèįĴäºķ":14561,"åįĺçĻº":14562,"å¹»æĥ³":14563,"318":14564,"ĠçľŁçĶ°":14565,"Ġåı¤è³Ģ":14566,"ãĤ¸ãĥ³ãĤ°":14567,"åı°åĮĹ":14568,"ãĥ¼ãĥ¬ãĤ¹":14569,"Ġæ´¾":14570,"come":14571,"çµµæľ¬":14572,"ãĤĮãĤĵåĿĬå°Ĩè»į":14573,"PK":14574,"ãĥ©ãĤ¤ãĤ¯":14575,"åĭķæ©Ł":14576,"ĠSBS":14577,"ĠTOM":14578,"å»»":14579,"oda":14580,"ãĥĳãĥ³ãĥģ":14581,"ãģ®ä¾ĭ":14582,"âĻ¡":14583,"ĠåħĲç«¥":14584,"ãģĤãģįãĤī":14585,"æĶ¯æı´åŃ¦æł¡":14586,"Ġè¶Ļ":14587,"ĠæģĭæĦĽ":14588,"ĠTOC":14589,"ĠHonda":14590,"ĠãģĤãģķ":14591,"ĠBul":14592,"æĻĤåı°":14593,"ãĥĽãĤ¤":14594,"366":14595,"Ġæľīé¦¬":14596,"äººæ°ĳåħ±åĴĮåĽ½":14597,"ÃľR":14598,"ãģ¨ãĤģ":14599,"Ġå¯Ĩ":14600,"ç¨ĭå¼ı":14601,"ĠåĿĤçĶ°":14602,"ĠEduc":14603,"ĠãĥĹãĥªãĥ¡ãĥ¼ãĥ©":14604,"NR":14605,"sk":14606,"Ġå®®ä¸ĭ":14607,"ãĤ¹ãĥĨãĤ£ãĥ³":14608,"ĠçµĲåŁİ":14609,"èĵĭ":14610,"æĦŁè¬Ŀ":14611,"ãģ¯ãĤĭãģĭ":14612,"ãĤ·ãĥ§ãĥ¼ãĥĪ":14613,"åĲ¦":14614,"Ġden":14615,"ĠæŃ¯":14616,"ãģ®æģĭäºº":14617,"fore":14618,"æĪ¦ãģĦ":14619,"è¶Ĭåīį":14620,"ĠãĥĬãĥ³ãĥĲ":14621,"åĨ¬èĪİ":14622,"åĳ¨å¹´è¨ĺå¿µå¼ıåħ¸":14623,"Ġæ¨Ļé«ĺ":14624,"eh":14625,"ãĥ©ãĥĪ":14626,"ĠåĽ½éīĦ":14627,"ä¹Ŀéĥİ":14628,"ãĤ¸ãĥ¥ãĤ¢ãĥ«":14629,"åĸľå¤ļ":14630,"åĪĥ":14631,"éŁ³ãĥŁãĤ¯":14632,"Ġæ±łè¢ĭ":14633,
[...]
